<unk>	0
<s>	0
</s>	0
▁있	-0
▁이	-1
했다	-2
▁1	-3
으로	-4
▁지	-5
▁기	-6
▁대	-7
▁수	-8
▁‘	-9
▁2	-10
에서	-11
▁전	-12
▁있다	-13
▁등	-14
▁사	-15
이다	-16
▁가	-17
▁시	-18
▁한	-19
하는	-20
▁제	-21
▁“	-22
▁중	-23
▁것	-24
00	-25
▁경	-26
하고	-27
▁정	-28
▁인	-29
▁공	-30
▁위	-31
▁자	-32
▁주	-33
▁부	-34
▁상	-35
▁3	-36
▁소	-37
▁보	-38
▁국	-39
▁최	-40
▁지난	-41
▁신	-42
▁고	-43
▁비	-44
▁아	-45
▁회	-46
▁조	-47
▁20	-48
▁개	-49
▁관	-50
▁연	-51
▁나	-52
▁다	-53
▁내	-54
▁미	-55
▁일	-56
▁유	-57
▁그	-58
한다	-59
▁매	-60
▁5	-61
▁하	-62
▁세	-63
▁선	-64
▁통	-65
▁발	-66
기업	-67
▁모	-68
▁서	-69
억원	-70
▁있는	-71
▁4	-72
▁현	-73
▁금	-74
▁생	-75
▁구	-76
▁올	-77
▁스	-78
▁만	-79
까지	-80
었다	-81
▁말	-82
이라	-83
▁설	-84
▁해	-85
▁성	-86
▁기업	-87
부터	-88
▁때	-89
▁계	-90
▁201	-91
▁분	-92
▁한국	-93
다는	-94
000	-95
투자	-96
▁방	-97
▁제품	-98
▁않	-99
▁오	-100
▁마	-101
랜드	-102
▁확	-103
▁시장	-104
▁반	-105
▁적	-106
▁업	-107
지만	-108
▁강	-109
▁예	-110
▁차	-111
▁동	-112
은행	-113
▁지난해	-114
▁브	-115
하기	-116
▁추	-117
▁노	-118
▁장	-119
니다	-120
▁위해	-121
산업	-122
▁우	-123
▁판	-124
▁없	-125
▁따	-126
▁바	-127
▁실	-128
▁여	-129
▁사업	-130
▁출	-131
들이	-132
▁안	-133
▁도	-134
▁원	-135
▁영	-136
▁6	-137
▁직	-138
▁국내	-139
▁했다	-140
▁달	-141
▁어	-142
▁대표	-143
▁투자	-144
▁브랜드	-145
▁높	-146
면서	-147
▁정부	-148
됐다	-149
▁회장	-150
▁진	-151
▁지원	-152
적으로	-153
▁재	-154
▁10	-155
▁배	-156
▁열	-157
▁불	-158
▁의	-159
▁7	-160
▁더	-161
적인	-162
▁결	-163
▁늘	-164
▁받	-165
▁건	-166
▁거	-167
▁운	-168
▁작	-169
자는	-170
▁및	-171
▁많	-172
▁미국	-173
▁규	-174
▁증	-175
보다	-176
▁금융	-177
았다	-178
▁중국	-179
▁경제	-180
▁말했다	-181
▁8	-182
▁활	-183
▁특	-184
▁것으로	-185
항공	-186
에는	-187
▁통해	-188
▁무	-189
그룹	-190
▁평	-191
이라고	-192
▁소비	-193
된다	-194
▁포	-195
▁대한	-196
▁게	-197
▁문	-198
▁협	-199
▁때문	-200
▁들	-201
▁판매	-202
▁감	-203
▁창	-204
비스	-205
▁과	-206
▁단	-207
▁물	-208
▁명	-209
▁점	-210
▁줄	-211
▁성장	-212
▁등을	-213
▁디	-214
▁관계	-215
▁프	-216
▁L	-217
▁이상	-218
▁요	-219
▁기술	-220
▁회사	-221
▁데	-222
▁맞	-223
▁커	-224
▁파	-225
▁두	-226
에게	-227
롯데	-228
▁교	-229
만원	-230
하다	-231
▁서울	-232
▁입	-233
▁현대	-234
시아	-235
▁생산	-236
20	-237
삼성	-238
하게	-239
▁위한	-240
▁올해	-241
▁화	-242
▁설명	-243
▁9	-244
▁참	-245
▁한다	-246
였다	-247
▁경영	-248
▁19	-249
▁같	-250
▁임	-251
▁중소	-252
장은	-253
들은	-254
%)	-255
금융	-256
▁상품	-257
분기	-258
▁전문	-259
▁필	-260
▁새	-261
▁고객	-262
▁후	-263
▁에	-264
▁소비자	-265
▁김	-266
▁함	-267
하면	-268
▁가능	-269
▁초	-270
졌다	-271
▁개발	-272
▁계획	-273
마트	-274
▁세계	-275
▁청	-276
위원	-277
▁서비스	-278
리는	-279
습니다	-280
▁총	-281
도체	-282
▁역	-283
레이	-284
들의	-285
▁알	-286
▁크	-287
▁발표	-288
▁행	-289
▁각	-290
▁매출	-291
▁시작	-292
▁관계자는	-293
▁본	-294
▁대상	-295
▁롯데	-296
▁할	-297
글로	-298
동차	-299
에도	-300
▁다양	-301
▁이어	-302
▁이후	-303
▁기준	-304
▁사용	-305
장을	-306
0%	-307
▁운영	-308
▁증가	-309
▁간	-310
▁가격	-311
▁산업	-312
글로벌	-313
기를	-314
▁제공	-315
도록	-316
▁규모	-317
▁들어	-318
▁변	-319
▁카	-320
▁같은	-321
▁집	-322
▁수출	-323
업체	-324
스템	-325
▁뒤	-326
▁취	-327
환경	-328
▁S	-329
▁함께	-330
▁확대	-331
사업	-332
▁외	-333
혁신	-334
▁출시	-335
▁최대	-336
라인	-337
▁업체	-338
시장	-339
▁가장	-340
금을	-341
▁처	-342
▁관련	-343
▁목	-344
▁종	-345
▁삼성	-346
력을	-347
▁넘	-348
▁반도체	-349
▁밝	-350
▁저	-351
▁피	-352
벤처	-353
▁합	-354
▁근	-355
달러	-356
▁작년	-357
▁채	-358
▁편	-359
▁12	-360
▁다양한	-361
되는	-362
성을	-363
사를	-364
▁당	-365
▁또	-366
전자	-367
▁C	-368
▁못	-369
▁15	-370
▁해외	-371
▁글로벌	-372
하지	-373
▁경쟁	-374
▁리	-375
▁지역	-376
▁효	-377
라는	-378
▁최근	-379
▁평가	-380
▁약	-381
▁박	-382
리를	-383
▁하는	-384
▁체	-385
▁분석	-386
혔다	-387
시아나	-388
▁아니	-389
르면	-390
▁패	-391
▁필요	-392
▁법	-393
▁앞	-394
▁낮	-395
▁적용	-396
▁양	-397
▁수준	-398
(1	-399
▁담	-400
▁산	-401
▁따라	-402
▁대비	-403
▁스타	-404
업계	-405
▁11	-406
▁온	-407
▁호	-408
▁것이	-409
▁기존	-410
▁설명했다	-411
회사	-412
▁200	-413
▁중소기업	-414
이라는	-415
보험	-416
▁△	-417
자인	-418
시간	-419
성이	-420
정부	-421
해야	-422
스트	-423
▁때문이다	-424
는다	-425
▁급	-426
201	-427
▁손	-428
▁사회	-429
▁선보	-430
▁영업	-431
▁것이다	-432
대로	-433
기술	-434
▁밝혔다	-435
▁농	-436
▁직원	-437
성장	-438
▁보험	-439
▁정책	-440
▁2017	-441
지를	-442
▁식	-443
▁심	-444
▁좋	-445
▁따르면	-446
▁경기	-447
▁전기	-448
▁협력	-449
▁혁신	-450
▁번	-451
▁활용	-452
▁시스템	-453
▁베	-454
왔다	-455
위원회	-456
▁큰	-457
▁전망	-458
▁LG	-459
▁커피	-460
▁연구	-461
다고	-462
▁프로	-463
▁K	-464
이어	-465
▁타	-466
▁메	-467
▁트	-468
년간	-469
▁예정	-470
에선	-471
▁다른	-472
▁새로	-473
▁분야	-474
)’	-475
▁완	-476
▁강화	-477
▁100	-478
▁갖	-479
▁계획이다	-480
▁찾	-481
▁충	-482
▁로	-483
▁측	-484
▁30	-485
하면서	-486
▁이유	-487
▁코	-488
지는	-489
),	-490
▁아이	-491
▁창업	-492
▁나온	-493
▁대해	-494
▁최고	-495
▁있다는	-496
쇼핑	-497
조원	-498
▁A	-499
▁전략	-500
▁돌	-501
▁토	-502
경제	-503
▁25	-504
▁만들	-505
주는	-506
▁주요	-507
▁추진	-508
에서는	-509
▁상황	-510
개월	-511
▁등의	-512
▁인수	-513
▁늘어	-514
너지	-515
▁남	-516
핵심	-517
▁것은	-518
▁방식	-519
▁지적	-520
벤처기업	-521
▁추가	-522
▁디자인	-523
▁하지만	-524
▁개선	-525
▁처음	-526
▁속	-527
▁절	-528
▁향	-529
▁검	-530
이고	-531
▁지난달	-532
시아나항공	-533
사진	-534
치를	-535
그램	-536
라고	-537
제품	-538
이는	-539
지고	-540
한국	-541
▁블	-542
▁준	-543
카드	-544
▁제조	-545
▁핵심	-546
센터	-547
이익	-548
임금	-549
하겠	-550
▁품	-551
렸다	-552
▁회장은	-553
▁발표했다	-554
▁진행	-555
▁하나	-556
▁빠	-557
▁기능	-558
▁도입	-559
인트	-560
▁등이	-561
▁아니라	-562
▁스마트	-563
▁자동차	-564
▁고용	-565
▁기간	-566
기가	-567
▁이번	-568
▁제품을	-569
도를	-570
▁13	-571
▁없다	-572
▁있도록	-573
▁살	-574
▁플	-575
라이	-576
이었다	-577
▁기록	-578
하며	-579
▁업계	-580
▁인상	-581
▁순	-582
점을	-583
하기로	-584
개발	-585
정을	-586
▁14	-587
▁이용	-588
▁독	-589
▁면	-590
기로	-591
이나	-592
화를	-593
되고	-594
▁감소	-595
▁사람	-596
▁은행	-597
▁직접	-598
▁곳	-599
▁광	-600
▁있어	-601
▁참여	-602
▁치	-603
리스	-604
▁문제	-605
▁만에	-606
▁업무	-607
▁논	-608
경영	-609
억원을	-610
▁구매	-611
▁마련	-612
▁선정	-613
▁전국	-614
▁투	-615
기관	-616
▁17	-617
▁그는	-618
리아	-619
지털	-620
▁복	-621
▁16	-622
▁때문에	-623
30	-624
공업	-625
▁국민	-626
사가	-627
자가	-628
▁결과	-629
연구	-630
▁목표	-631
▁일본	-632
▁가입	-633
▁우려	-634
▁진출	-635
스는	-636
▁근로	-637
▁높은	-638
▁안전	-639
▁나온다	-640
▁팔	-641
▁설립	-642
▁잘	-643
▁비중	-644
▁열린	-645
▁오는	-646
▁전체	-647
▁대표는	-648
▁내놓	-649
▁국가	-650
▁정도	-651
자동차	-652
▁새로운	-653
현대	-654
▁최저	-655
▁하고	-656
▁이를	-657
▁지급	-658
▁포함	-659
테크	-660
▁부문	-661
▁이날	-662
▁키	-663
페이	-664
▁수익	-665
▁전년	-666
▁모두	-667
▁예상	-668
▁지속	-669
에서도	-670
▁걸	-671
▁누	-672
▁민	-673
사는	-674
통령	-675
▁강조	-676
회를	-677
년부터	-678
▁우리	-679
▁일자	-680
▁되	-681
기에	-682
부는	-683
▁아시아나항공	-684
5%	-685
▁정보	-686
▁환경	-687
▁매각	-688
떨어	-689
▁많은	-690
자를	-691
장이	-692
▁실적	-693
했다고	-694
▁구성	-695
▁효과	-696
▁전환	-697
▁애	-698
▁계열	-699
안을	-700
▁그룹	-701
▁수입	-702
▁I	-703
원은	-704
▁규제	-705
▁모델	-706
▁생각	-707
▁어려	-708
▁조달	-709
▁대통령	-710
▁홍	-711
이터	-712
▁SK	-713
▁보유	-714
▁형	-715
거나	-716
▁경우	-717
▁예정이다	-718
▁정부가	-719
▁구조	-720
▁수요	-721
▁책	-722
▁첫	-723
▁활동	-724
▁뛰	-725
▁다음	-726
▁청년	-727
▁전문가	-728
▁네	-729
펀드	-730
▁승	-731
▁교육	-732
▁된다	-733
▁자산	-734
▁등에	-735
플레이	-736
▁2016	-737
▁0	-738
▁공기	-739
▁대출	-740
▁크게	-741
▁평균	-742
▁대상으로	-743
리가	-744
▁많이	-745
▁영향	-746
▁최초	-747
(2	-748
처럼	-749
협회	-750
▁알려	-751
중공업	-752
▁사업을	-753
▁쓰	-754
리고	-755
▁국제	-756
▁적극	-757
▁표	-758
▁등으로	-759
▁잡	-760
▁접	-761
이션	-762
정책	-763
▁장관	-764
▁T	-765
직원	-766
▁발생	-767
▁보고	-768
자의	-769
▁떨어	-770
▁현재	-771
▁음	-772
▁18	-773
▁교수	-774
▁친	-775
▁태	-776
났다	-777
▁공급	-778
▁됐다	-779
▁끌	-780
▁콘	-781
관리	-782
량을	-783
▁항공	-784
▁성공	-785
이라며	-786
▁될	-787
▁관리	-788
50	-789
▁G	-790
하이	-791
▁미래	-792
포인트	-793
▁지분	-794
▁벌	-795
인을	-796
▁공정	-797
▁따른	-798
▁소득	-799
▁시간	-800
들에게	-801
가는	-802
거래	-803
▁거래	-804
▁유지	-805
▁힘	-806
케팅	-807
▁구축	-808
▁기반	-809
▁비해	-810
▁요구	-811
▁삼성전자	-812
▁월	-813
▁육	-814
금은	-815
트업	-816
▁노동	-817
▁이런	-818
▁온라인	-819
▁드	-820
들을	-821
▁판단	-822
입니다	-823
운데	-824
지난	-825
▁상승	-826
먼지	-827
회의	-828
▁24	-829
▁부담	-830
▁신규	-831
▁악	-832
기는	-833
식품	-834
▁기대	-835
▁없는	-836
▁중심	-837
소득	-838
으면	-839
▁무역	-840
▁발전	-841
▁디지털	-842
▁느	-843
세계	-844
▁것을	-845
▁결정	-846
화학	-847
▁행사	-848
▁금호	-849
▁와	-850
▁허	-851
위를	-852
▁컨	-853
▁건강	-854
▁노조	-855
▁비용	-856
▁일반	-857
▁권	-858
냈다	-859
▁내용	-860
▁맛	-861
▁용	-862
기도	-863
일부터	-864
계를	-865
력이	-866
년까지	-867
▁집중	-868
▁차지	-869
▁가운데	-870
▁스타트업	-871
▁꼽	-872
▁것도	-873
▁자체	-874
▁199	-875
▁프로그램	-876
▁E	-877
▁쿠	-878
▁매장	-879
2019	-880
린이	-881
섰다	-882
▁방문	-883
8%	-884
▁눈	-885
▁질	-886
▁환	-887
상공	-888
▁조사	-889
억달러	-890
1%	-891
▁P	-892
백화	-893
사회	-894
서는	-895
세대	-896
▁50	-897
▁한진	-898
상을	-899
▁신한	-900
▁서비스를	-901
▁뉴	-902
▁우수	-903
▁확보	-904
▁계열사	-905
▁에너지	-906
율은	-907
으며	-908
▁품질	-909
일까지	-910
▁먹	-911
▁쉽	-912
▁폐	-913
노동	-914
▁사이	-915
▁중요	-916
백화점	-917
3%	-918
공장	-919
식을	-920
▁과정	-921
▁소재	-922
▁할인	-923
▁레	-924
▁얘	-925
별로	-926
▁임직원	-927
▁협력사	-928
동산	-929
안전	-930
▁만큼	-931
▁신청	-932
▁1000	-933
놨다	-934
▁각각	-935
▁역할	-936
▁차량	-937
▁축	-938
▁학	-939
들과	-940
▁각종	-941
▁미세	-942
▁않고	-943
▁마케팅	-944
▁상품을	-945
(3	-946
▁철	-947
화된	-948
▁피해	-949
▁시작했다	-950
’,	-951
▁버	-952
▁캐	-953
반기	-954
회장	-955
▁가맹	-956
▁공간	-957
▁나타	-958
▁유통	-959
▁시장을	-960
억원으로	-961
▁비롯	-962
▁작업	-963
▁라	-964
▁클	-965
도가	-966
▁공장	-967
▁대형	-968
▁시행	-969
서다	-970
▁40	-971
▁이달	-972
▁가능성이	-973
▁모든	-974
▁임금	-975
4%	-976
▁침	-977
가량	-978
세를	-979
연금	-980
원이	-981
트를	-982
▁뛰어	-983
▁일자리	-984
▁꾸	-985
▁막	-986
기다	-987
청정	-988
발전	-989
▁22	-990
은행은	-991
▁있습니다	-992
▁밀	-993
▁29	-994
▁기획	-995
▁나오	-996
▁동안	-997
EO	-998
▁/	-999
▁계약	-1000
▁주문	-1001
▁줄어	-1002
▁늘었다	-1003
▁강조했다	-1004
▁최저임금	-1005
▁가지	-1006
▁제작	-1007
▁참석	-1008
▁특징	-1009
겠다는	-1010
▁영업이익	-1011
▁기자	-1012
▁의미	-1013
▁전시	-1014
▁편의	-1015
▁석	-1016
드는	-1017
르게	-1018
모리	-1019
▁신용	-1020
▁맡	-1021
▁캠	-1022
가스	-1023
료를	-1024
스터	-1025
▁없이	-1026
▁위원	-1027
▁이미	-1028
▁자동	-1029
한다는	-1030
▁202	-1031
▁열었다	-1032
▁정부는	-1033
▁회장이	-1034
▁앱	-1035
▁사례	-1036
▁있다고	-1037
수를	-1038
▁23	-1039
▁결제	-1040
▁공공	-1041
▁다시	-1042
▁좋은	-1043
▁대기업	-1044
UV	-1045
an	-1046
▁휴	-1047
비를	-1048
지원	-1049
트남	-1050
▁공개	-1051
▁받아	-1052
▁사실	-1053
▁사장	-1054
▁일부	-1055
▁2015	-1056
▁날	-1057
▁렌	-1058
▁높아	-1059
▁조직	-1060
▁‘2019	-1061
ED	-1062
▁납	-1063
권을	-1064
상품	-1065
세점	-1066
인이	-1067
쳤다	-1068
▁논의	-1069
▁이뤄	-1070
5000	-1071
▁시장에서	-1072
▁끝	-1073
대를	-1074
조합	-1075
하려	-1076
▁넘어	-1077
▁성과	-1078
▁설명이다	-1079
▁번째	-1080
▁생활	-1081
▁유럽	-1082
▁자리	-1083
적이다	-1084
▁기술을	-1085
2%	-1086
NG	-1087
▁돈	-1088
▁검토	-1089
▁인증	-1090
▁지금	-1091
▁중이다	-1092
6%	-1093
▁갈	-1094
▁넣	-1095
▁테	-1096
▁관심	-1097
▁대신	-1098
▁다음달	-1099
▁않았다	-1100
▁어린이	-1101
10	-1102
▁티	-1103
▁홈	-1104
맥주	-1105
부분	-1106
성도	-1107
조선	-1108
▁매년	-1109
▁현대차	-1110
리미	-1111
바일	-1112
시설	-1113
율이	-1114
했지만	-1115
▁얻	-1116
부가	-1117
스크	-1118
전문	-1119
▁물론	-1120
시스템	-1121
한다고	-1122
▁부동산	-1123
▁2000	-1124
’(	-1125
▁잠	-1126
법인	-1127
제로	-1128
▁않는	-1129
▁중소벤처기업	-1130
▁별	-1131
▁삼	-1132
▁천	-1133
시에	-1134
협약	-1135
▁상생	-1136
▁여성	-1137
▁친환경	-1138
▁알려졌다	-1139
량이	-1140
진다	-1141
▁개인	-1142
▁반영	-1143
▁설계	-1144
▁설치	-1145
억원의	-1146
▁공기청정	-1147
▁것이란	-1148
▁규모의	-1149
▁기업이	-1150
▁내놨다	-1151
▁탈	-1152
▁받았다	-1153
▁전기차	-1154
7%	-1155
▁맺	-1156
생산	-1157
연합	-1158
원을	-1159
▁법인	-1160
▁선택	-1161
▁조성	-1162
▁특히	-1163
그룹은	-1164
월부터	-1165
움을	-1166
케어	-1167
▁채권	-1168
하다는	-1169
▁최초로	-1170
▁놓	-1171
▁엔	-1172
디어	-1173
▁21	-1174
▁많다	-1175
▁인터	-1176
▁전달	-1177
▁호텔	-1178
▁성장률	-1179
▁탄	-1180
도로	-1181
▁연속	-1182
▁이름	-1183
리미엄	-1184
▁기업의	-1185
워크	-1186
율을	-1187
자로	-1188
▁있을	-1189
▁점유	-1190
상공인	-1191
▁베트남	-1192
가지	-1193
는데	-1194
대표	-1195
▁해당	-1196
▁필요한	-1197
▁폭	-1198
단체	-1199
하우	-1200
▁예산	-1201
▁인력	-1202
▁주장	-1203
하지만	-1204
이트	-1205
프로	-1206
했고	-1207
▁부산	-1208
▁부진	-1209
동안	-1210
랫폼	-1211
지역	-1212
호텔	-1213
▁가정	-1214
▁경험	-1215
▁대부분	-1216
라도	-1217
올해	-1218
인다	-1219
▁계속	-1220
▁창출	-1221
겠다	-1222
년대	-1223
렌드	-1224
치는	-1225
▁공동	-1226
▁사회적	-1227
명을	-1228
스타	-1229
시키	-1230
업을	-1231
했던	-1232
▁고려	-1233
▁비교	-1234
▁모바일	-1235
19	-1236
▁돼	-1237
사의	-1238
주의	-1239
▁26	-1240
▁자신	-1241
코리아	-1242
▁정부의	-1243
▁2014	-1244
▁기록했다	-1245
(4	-1246
▁언	-1247
감을	-1248
리어	-1249
준다	-1250
중소	-1251
▁건설	-1252
▁인정	-1253
▁하락	-1254
▁합의	-1255
▁D	-1256
▁골	-1257
대에	-1258
동을	-1259
중앙	-1260
카오	-1261
▁더욱	-1262
▁변화	-1263
▁찾아	-1264
▁확인	-1265
▁역할을	-1266
▁풍	-1267
스를	-1268
조정	-1269
주도	-1270
▁나서	-1271
▁안정	-1272
▁연간	-1273
▁의견	-1274
▁책임	-1275
▁현대중공업	-1276
원에	-1277
재인	-1278
제를	-1279
▁대학	-1280
▁에어	-1281
▁준비	-1282
▁카드	-1283
▁패션	-1284
▁나왔다	-1285
계획	-1286
대출	-1287
중국	-1288
▁렌털	-1289
▁변경	-1290
▁본격	-1291
▁않은	-1292
서비스	-1293
▁플랫폼	-1294
▁한다는	-1295
▁미세먼지	-1296
ng	-1297
▁냉	-1298
이란	-1299
이번	-1300
▁통한	-1301
브랜드	-1302
▁스마트폰	-1303
..	-1304
80	-1305
▁B	-1306
▁R	-1307
▁둔	-1308
▁즐	-1309
소비	-1310
프라	-1311
...	-1312
▁쇼핑	-1313
▁원두	-1314
▁제도	-1315
▁시장에	-1316
▁회장의	-1317
하겠다는	-1318
했습니다	-1319
(5	-1320
▁길	-1321
되면	-1322
사와	-1323
▁가족	-1324
▁만든	-1325
▁열고	-1326
LG	-1327
▁뜻	-1328
니스	-1329
마다	-1330
위는	-1331
커피	-1332
▁부총	-1333
▁위험	-1334
▁이사	-1335
▁화장	-1336
▁잇	-1337
뱅크	-1338
이너	-1339
▁가구	-1340
▁끌어	-1341
▁돌아	-1342
▁악화	-1343
▁지정	-1344
만달러	-1345
합니다	-1346
▁사장은	-1347
▁O	-1348
▁몰	-1349
▁착	-1350
▁혜	-1351
스코	-1352
원의	-1353
▁공유	-1354
▁노력	-1355
▁맞춰	-1356
▁수상	-1357
▁이에	-1358
로부터	-1359
▁투자를	-1360
▁프리미엄	-1361
▁동기	-1362
▁외국	-1363
▁참가	-1364
▁취업	-1365
▁매출은	-1366
▁극	-1367
▁볼	-1368
▁얼	-1369
규모	-1370
지가	-1371
▁TV	-1372
▁개정	-1373
▁기본	-1374
▁농협	-1375
▁장기	-1376
▁출범	-1377
▁활성	-1378
▁있지만	-1379
▁전망이다	-1380
▁중심으로	-1381
60	-1382
국내	-1383
명이	-1384
상화	-1385
왼쪽	-1386
이기	-1387
전히	-1388
정보	-1389
▁단계	-1390
▁자금	-1391
▁제시	-1392
▁차별	-1393
▁해결	-1394
▁현장	-1395
▁혜택	-1396
스플레이	-1397
▁특징이다	-1398
▁낸	-1399
가가	-1400
들도	-1401
미국	-1402
소를	-1403
프트	-1404
▁광고	-1405
▁방침	-1406
▁육성	-1407
▁종합	-1408
지난해	-1409
▁선보였다	-1410
▁소상공인	-1411
▁떠	-1412
과의	-1413
랐다	-1414
르노	-1415
자금	-1416
포츠	-1417
▁CJ	-1418
▁측은	-1419
억원에	-1420
▁대한항공	-1421
▁증가했다	-1422
▁백	-1423
본부	-1424
서를	-1425
스의	-1426
▁고급	-1427
▁비슷	-1428
▁여러	-1429
▁여행	-1430
▁올라	-1431
▁자율	-1432
▁전용	-1433
▁조정	-1434
▁주력	-1435
▁것이라는	-1436
러운	-1437
실을	-1438
▁늘어난	-1439
차를	-1440
평가	-1441
▁당시	-1442
▁않다	-1443
▁전자	-1444
▁중단	-1445
▁현지	-1446
▁경쟁력	-1447
▁만들어	-1448
▁빠르게	-1449
▁신제품	-1450
▁2019	-1451
▁기준으로	-1452
▁연구개발	-1453
계약	-1454
문화	-1455
세청	-1456
▁비판	-1457
▁주도	-1458
▁통상	-1459
▁트렌드	-1460
기구	-1461
년을	-1462
밖에	-1463
액은	-1464
지수	-1465
▁간편	-1466
▁소개	-1467
▁수도	-1468
▁식품	-1469
▁최종	-1470
AI	-1471
▁퇴	-1472
▁항	-1473
▁불과	-1474
▁있게	-1475
▁확산	-1476
▁10%	-1477
▁프로젝	-1478
9%	-1479
갔다	-1480
다이	-1481
물을	-1482
웨어	-1483
창업	-1484
▁28	-1485
▁맞아	-1486
▁신뢰	-1487
▁재무	-1488
▁조선	-1489
점에서	-1490
▁있었다	-1491
~2	-1492
▁색	-1493
▁젊	-1494
금리	-1495
케이	-1496
▁금리	-1497
▁기관	-1498
▁받을	-1499
▁배출	-1500
▁우선	-1501
▁이들	-1502
▁점포	-1503
▁형태	-1504
전자는	-1505
테리어	-1506
▁않는다	-1507
▁행사를	-1508
▁제품이다	-1509
성과	-1510
스가	-1511
웨이	-1512
▁또는	-1513
▁부족	-1514
▁부품	-1515
▁상당	-1516
▁주는	-1517
타이어	-1518
▁교수는	-1519
▁지적했다	-1520
70	-1521
▁풀	-1522
첨단	-1523
▁발굴	-1524
▁부분	-1525
▁유명	-1526
▁중인	-1527
중앙회	-1528
▁30%	-1529
▁500	-1530
om	-1531
▁넓	-1532
▁된	-1533
▁압	-1534
공헌	-1535
만큼	-1536
보고	-1537
자산	-1538
▁달리	-1539
▁달한다	-1540
▁화장품	-1541
▁'	-1542
나는	-1543
르는	-1544
생명	-1545
인의	-1546
전을	-1547
협력	-1548
▁방안	-1549
▁인도	-1550
▁전통	-1551
▁지방	-1552
▁하루	-1553
▁회원	-1554
▁데이터	-1555
▁보유한	-1556
▁인기를	-1557
▁제공한다	-1558
▁출시했다	-1559
▁겪	-1560
▁잔	-1561
봤다	-1562
수록	-1563
용품	-1564
트너	-1565
500	-1566
▁꾸준	-1567
▁내부	-1568
▁보면	-1569
▁사진	-1570
▁신설	-1571
▁인천	-1572
▁채용	-1573
▁패키	-1574
에너지	-1575
지면서	-1576
▁방안을	-1577
▁제품은	-1578
40	-1579
▁덕	-1580
▁붙	-1581
공단	-1582
아차	-1583
전기	-1584
학과	-1585
▁자유	-1586
▁중앙	-1587
▁투입	-1588
▁영향을	-1589
▁줄었다	-1590
▁카카오	-1591
▁활용해	-1592
▁액	-1593
▁핀	-1594
건을	-1595
▁기념	-1596
▁방향	-1597
▁보호	-1598
▁소통	-1599
▁재정	-1600
▁피부	-1601
했다는	-1602
▁20%	-1603
▁벤처기업	-1604
▁처음으로	-1605
▁M	-1606
▁깨	-1607
▁난	-1608
▁황	-1609
스토	-1610
▁내년	-1611
▁요청	-1612
▁있기	-1613
▁제외	-1614
▁쿠팡	-1615
▁확장	-1616
▁가격이	-1617
▁기획재	-1618
▁송	-1619
공사	-1620
률이	-1621
문을	-1622
위기	-1623
이노	-1624
이드	-1625
▁60	-1626
▁가치	-1627
▁거쳐	-1628
▁되는	-1629
▁받은	-1630
▁베이	-1631
▁젊은	-1632
반도체	-1633
▁LNG	-1634
▁운영하고	-1635
~3	-1636
”▷	-1637
▁긴	-1638
▁싶	-1639
럼프	-1640
물질	-1641
점이	-1642
트로	-1643
ank	-1644
▁공략	-1645
▁대응	-1646
▁문화	-1647
▁받고	-1648
▁본사	-1649
▁설비	-1650
하겠다	-1651
르노삼성	-1652
▁사회공헌	-1653
▁아이디어	-1654
▁쌓	-1655
▁희	-1656
량은	-1657
롭게	-1658
스팅	-1659
자원	-1660
조사	-1661
주행	-1662
지에	-1663
캐피	-1664
하던	-1665
▁강원	-1666
▁국회	-1667
경영자	-1668
▁등에서	-1669
▁앞으로	-1670
▁2013	-1671
▁인테리어	-1672
▁돕	-1673
가고	-1674
교육	-1675
라스	-1676
뿐만	-1677
서울	-1678
주주	-1679
▁감안	-1680
▁급증	-1681
▁바탕	-1682
▁사고	-1683
▁시설	-1684
▁중기	-1685
은행의	-1686
하거나	-1687
▁가격은	-1688
▁비롯해	-1689
▁시장의	-1690
▁아니다	-1691
▁운영하는	-1692
가를	-1693
구조	-1694
니아	-1695
지능	-1696
LED	-1697
▁갖고	-1698
▁냈다	-1699
▁어렵	-1700
▁이끌	-1701
▁인하	-1702
▁제기	-1703
▁주목	-1704
원에서	-1705
▁가치를	-1706
▁겨	-1707
▁꽃	-1708
▁엄	-1709
▁컬	-1710
▁페	-1711
▁푸	-1712
비용	-1713
▁동반	-1714
▁맞춤	-1715
▁기능을	-1716
▁얘기다	-1717
▁회사는	-1718
프로그램	-1719
▁5000	-1720
IT	-1721
▁먼	-1722
▁울	-1723
▁터	-1724
결제	-1725
바이	-1726
복지	-1727
설팅	-1728
수가	-1729
▁나선	-1730
▁도시	-1731
▁보여	-1732
▁정기	-1733
▁하이	-1734
▁300	-1735
▁우려가	-1736
▁이마트	-1737
▁채권단	-1738
▁평가를	-1739
▁하반기	-1740
▁100%	-1741
▁나타났다	-1742
▁브랜드를	-1743
▁격	-1744
▁빨	-1745
▁응	-1746
률은	-1747
통상	-1748
%),	-1749
▁민간	-1750
▁사무	-1751
▁외부	-1752
▁이란	-1753
▁제출	-1754
만원을	-1755
즈니스	-1756
트워크	-1757
회장은	-1758
▁그동안	-1759
▁동시에	-1760
▁매출이	-1761
▁경쟁력을	-1762
▁기획재정부	-1763
가격	-1764
개국	-1765
라면	-1766
민국	-1767
와대	-1768
페인	-1769
ung	-1770
▁독일	-1771
▁등도	-1772
▁이해	-1773
▁인기	-1774
▁시작한	-1775
▁지원하는	-1776
(6	-1777
▁야	-1778
스로	-1779
운드	-1780
웠다	-1781
▁31	-1782
▁AI	-1783
▁개편	-1784
▁데다	-1785
▁등록	-1786
▁벤처	-1787
▁상태	-1788
▁성능	-1789
▁이벤	-1790
▁회의	-1791
▁효율	-1792
데이터	-1793
메모리	-1794
자들이	-1795
▁나섰다	-1796
▁아시아	-1797
▁자회사	-1798
▁과정에서	-1799
▁소비자가	-1800
▁F	-1801
▁병	-1802
▁빌	-1803
규직	-1804
기금	-1805
라며	-1806
었던	-1807
영업	-1808
통신	-1809
▁달성	-1810
▁대체	-1811
▁발행	-1812
▁쉽게	-1813
▁완화	-1814
▁이동	-1815
▁점을	-1816
베이션	-1817
▁가능하다	-1818
▁바탕으로	-1819
▁한국경제	-1820
▁(	-1821
▁움	-1822
없이	-1823
▁낮은	-1824
▁달러	-1825
▁대폭	-1826
▁이익	-1827
▁인식	-1828
▁최소	-1829
▁통계	-1830
공지능	-1831
프라인	-1832
해주는	-1833
▁노하우	-1834
▁시장이	-1835
(-	-1836
DP	-1837
▁북	-1838
되지	-1839
리티	-1840
최근	-1841
터리	-1842
판매	-1843
▁나라	-1844
▁늘고	-1845
▁라인	-1846
▁마음	-1847
▁업종	-1848
▁자본	-1849
▁추세	-1850
▁가능한	-1851
▁문재인	-1852
▁한국의	-1853
이노베이션	-1854
25	-1855
CC	-1856
▁범	-1857
▁빈	-1858
▁센	-1859
기의	-1860
명의	-1861
신한	-1862
양광	-1863
에만	-1864
하자	-1865
▁단체	-1866
▁담은	-1867
▁라이	-1868
▁만나	-1869
▁연금	-1870
▁오른	-1871
▁출신	-1872
▁향후	-1873
▁SUV	-1874
▁발표한	-1875
▁사용할	-1876
▁수요가	-1877
▁분석이다	-1878
금이	-1879
라우	-1880
리지	-1881
생활	-1882
트는	-1883
com	-1884
▁고민	-1885
▁동일	-1886
▁와인	-1887
▁유치	-1888
▁절반	-1889
▁제한	-1890
▁체결	-1891
하도록	-1892
▁비중이	-1893
▁활성화	-1894
▁방식으로	-1895
▁대표적이다	-1896
▁-	-1897
▁덧	-1898
관계	-1899
린다	-1900
사로	-1901
증권	-1902
▁27	-1903
▁노선	-1904
▁맥주	-1905
▁배송	-1906
▁보장	-1907
▁블랙	-1908
▁선도	-1909
▁움직	-1910
▁있고	-1911
▁한화	-1912
▁회복	-1913
그룹이	-1914
리스타	-1915
은행이	-1916
하이닉	-1917
▁꾸준히	-1918
▁끌어올	-1919
▁사실상	-1920
▁시스템을	-1921
▁쏟	-1922
기능	-1923
랑스	-1924
수는	-1925
이를	-1926
지주	-1927
▁불가	-1928
▁수소	-1929
▁어떤	-1930
▁집계	-1931
▁취임	-1932
▁해도	-1933
▁50%	-1934
▁근로자	-1935
▁대규모	-1936
▁매장을	-1937
▁핀테크	-1938
11	-1939
km	-1940
▁빅	-1941
▁씨	-1942
▁펼	-1943
떻게	-1944
리에	-1945
위로	-1946
위에	-1947
▁공식	-1948
▁목소	-1949
▁문을	-1950
▁받는	-1951
▁분기	-1952
▁장애	-1953
▁최적	-1954
▁추천	-1955
▁파업	-1956
그룹의	-1957
하기도	-1958
▁신세계	-1959
▁지원을	-1960
▁현대자동차	-1961
▁답	-1962
▁숙	-1963
나라	-1964
무역	-1965
제는	-1966
학교	-1967
CEO	-1968
▁그러	-1969
▁기여	-1970
▁달라	-1971
▁덕분	-1972
▁만족	-1973
▁메뉴	-1974
▁이전	-1975
▁주방	-1976
▁협약	-1977
되면서	-1978
원으로	-1979
▁기업을	-1980
▁로스팅	-1981
▁이상의	-1982
▁제품의	-1983
주도성장	-1984
▁2018	-1985
▁공공기관	-1986
▁구조조정	-1987
▁인공지능	-1988
▁머	-1989
▁암	-1990
대한	-1991
부를	-1992
상이	-1993
엑스	-1994
▁관광	-1995
▁덧붙	-1996
▁동원	-1997
▁둔화	-1998
▁바닥	-1999
▁연결	-2000
▁운용	-2001
▁인사	-2002
▁주로	-2003
▁통합	-2004
▁스타일	-2005
중소기업	-2006
▁기반으로	-2007
▁대한민국	-2008
▁방침이다	-2009
▁둘	-2010
▁봉	-2011
기간	-2012
르고	-2013
사인	-2014
신문	-2015
하나	-2016
▁근무	-2017
▁낮아	-2018
▁내세	-2019
▁대우	-2020
▁상담	-2021
▁세탁	-2022
▁실내	-2023
▁아직	-2024
▁없어	-2025
▁제주	-2026
▁주택	-2027
▁진단	-2028
▁처리	-2029
▁청소	-2030
anky	-2031
▁부회장	-2032
▁정보를	-2033
▁청와대	-2034
▁트럼프	-2035
hanky	-2036
ungcom	-2037
hankyungcom	-2038
NS	-2039
▁깊	-2040
▁솔	-2041
거리	-2042
렇게	-2043
자재	-2044
진흥	-2045
힌다	-2046
▁70	-2047
▁관측	-2048
▁누적	-2049
▁유니	-2050
▁자연	-2051
▁차례	-2052
▁품목	-2053
▁홍보	-2054
더라도	-2055
연구원	-2056
▁198	-2057
▁스포츠	-2058
▁여전히	-2059
▁자율주행	-2060
디스플레이	-2061
24	-2062
SS	-2063
re	-2064
▁루	-2065
▁몇	-2066
▁워	-2067
기와	-2068
내는	-2069
액이	-2070
오는	-2071
이자	-2072
제가	-2073
카페	-2074
▁KB	-2075
▁바꾸	-2076
▁중고	-2077
▁창립	-2078
▁콘셉	-2079
▁크다	-2080
▁특별	-2081
▁고객충	-2082
▁수밖에	-2083
▁2012	-2084
▁탓	-2085
개의	-2086
구를	-2087
동에	-2088
사장	-2089
성에	-2090
자와	-2091
췄다	-2092
▁개최	-2093
▁담당	-2094
▁대책	-2095
▁미만	-2096
▁바뀌	-2097
▁반응	-2098
▁상대	-2099
▁상속	-2100
▁않을	-2101
▁일정	-2102
▁전면	-2103
▁파악	-2104
6000	-2105
▁CEO	-2106
▁개발한	-2107
▁그쳤다	-2108
▁어떻게	-2109
▁인정받	-2110
▁장관은	-2111
▁비즈니스	-2112
▁판매하는	-2113
CD	-2114
SK	-2115
느냐	-2116
료로	-2117
이버	-2118
재단	-2119
조달	-2120
지로	-2121
치고	-2122
치다	-2123
프레	-2124
▁놓고	-2125
▁단순	-2126
▁먼저	-2127
▁명품	-2128
▁바람	-2129
▁전력	-2130
▁지표	-2131
▁토론	-2132
▁필터	-2133
회에서	-2134
▁노조는	-2135
▁등이다	-2136
▁정도로	-2137
▁혜택을	-2138
▁3000	-2139
▁덧붙였다	-2140
▁고객충성도	-2141
▁최고경영자	-2142
12	-2143
▁술	-2144
니까	-2145
리기	-2146
세가	-2147
세로	-2148
아이	-2149
했기	-2150
회가	-2151
▁느낌	-2152
▁영국	-2153
▁전략을	-2154
▁중국의	-2155
▁태양광	-2156
아시아나	-2157
▁제공하는	-2158
DB	-2159
▁싱	-2160
대가	-2161
도는	-2162
리즈	-2163
인증	-2164
텐츠	-2165
해온	-2166
▁물류	-2167
▁부과	-2168
▁산불	-2169
▁쏟아	-2170
▁완성	-2171
▁이하	-2172
▁좋아	-2173
▁침체	-2174
▁하지	-2175
▁화재	-2176
▁희망	-2177
면세점	-2178
▁경제가	-2179
▁면세점	-2180
▁미국의	-2181
▁비중은	-2182
▁산업혁	-2183
▁시장은	-2184
▁어려운	-2185
▁정책을	-2186
▁포스코	-2187
▁브랜드로	-2188
▁수준이다	-2189
▁필요하다	-2190
▁슬	-2191
국민	-2192
무원	-2193
우리	-2194
움이	-2195
응용	-2196
의도	-2197
티브	-2198
평균	-2199
폴리	-2200
해양	-2201
▁가까	-2202
▁기재	-2203
▁돈을	-2204
▁두고	-2205
▁등은	-2206
▁모습	-2207
▁분리	-2208
▁생태	-2209
▁아닌	-2210
▁원유	-2211
▁작은	-2212
연구소	-2213
정부는	-2214
지에서	-2215
▁많았다	-2216
~4	-2217
▁겸	-2218
▁흑	-2219
계가	-2220
노미	-2221
점은	-2222
▁교체	-2223
▁두산	-2224
▁리더	-2225
▁수주	-2226
▁스위	-2227
▁않아	-2228
▁원전	-2229
▁자녀	-2230
▁증권	-2231
▁특허	-2232
▁확정	-2233
하려면	-2234
▁공기업	-2235
▁메모리	-2236
▁선보인	-2237
▁제대로	-2238
▁활동을	-2239
▁효과를	-2240
▁2030	-2241
▁것이라고	-2242
▁르노삼성	-2243
▁바리스타	-2244
▁윤	-2245
당국	-2246
부문	-2247
스와	-2248
원전	-2249
장치	-2250
지도	-2251
▁반면	-2252
▁부채	-2253
▁석유	-2254
▁안에	-2255
▁역시	-2256
▁체험	-2257
▁통신	-2258
▁퇴직	-2259
었지만	-2260
해졌다	-2261
홈쇼핑	-2262
▁규모는	-2263
▁기업은	-2264
▁소프트	-2265
▁증가한	-2266
▁지원한다	-2267
▁혁신성장	-2268
▁공기청정기	-2269
90	-2270
▁능	-2271
▁슈	-2272
▁옷	-2273
▁졸	-2274
▁탑	-2275
▁혼	-2276
가치	-2277
국제	-2278
년에	-2279
받을	-2280
유업	-2281
이며	-2282
점에	-2283
프리	-2284
▁GS	-2285
▁과거	-2286
▁다만	-2287
▁많아	-2288
▁못한	-2289
▁배경	-2290
▁사랑	-2291
▁열어	-2292
▁잇따	-2293
▁화학	-2294
디지털	-2295
자들은	-2296
▁공장을	-2297
▁이유다	-2298
▁줄어들	-2299
▁부회장은	-2300
▁웃	-2301
▁촉	-2302
겼다	-2303
고용	-2304
두고	-2305
로운	-2306
분의	-2307
산화	-2308
상은	-2309
셔츠	-2310
월드	-2311
이날	-2312
이즈	-2313
인터	-2314
지와	-2315
▁사모	-2316
▁선호	-2317
▁준다	-2318
▁줄여	-2319
▁직장	-2320
▁첨단	-2321
▁협업	-2322
라우드	-2323
명으로	-2324
점으로	-2325
조원을	-2326
캐피탈	-2327
2000	-2328
▁가격을	-2329
▁그대로	-2330
▁달했다	-2331
▁받는다	-2332
▁부총리	-2333
▁스타벅	-2334
▁올해는	-2335
▁제조업	-2336
▁제품이	-2337
▁활용한	-2338
▁감소했다	-2339
▁국내에서	-2340
▁대표적인	-2341
▁생산하는	-2342
▁수준으로	-2343
▁시작으로	-2344
▁제품으로	-2345
응용프로그램	-2346
15	-2347
ed	-2348
▁쌀	-2349
▁퍼	-2350
대의	-2351
운용	-2352
정이	-2353
현지	-2354
▁넘는	-2355
▁맞는	-2356
▁명의	-2357
▁바이	-2358
▁방법	-2359
▁천연	-2360
정부가	-2361
▁규모가	-2362
▁성장을	-2363
▁인터넷	-2364
▁전했다	-2365
▁2010	-2366
▁공정거래	-2367
▁대통령은	-2368
65	-2369
▁봄	-2370
▁즉	-2371
▁콜	-2372
같이	-2373
지지	-2374
짜리	-2375
회에	-2376
▁내다	-2377
▁내려	-2378
▁바로	-2379
▁블루	-2380
▁실질	-2381
▁실패	-2382
▁연계	-2383
▁울산	-2384
▁적립	-2385
▁전반	-2386
▁조합	-2387
사업을	-2388
장에서	-2389
주년을	-2390
8000	-2391
▁내용을	-2392
▁비슷한	-2393
▁컨설팅	-2394
▁빅데이터	-2395
▁집계됐다	-2396
▁처음이다	-2397
▁한진그룹	-2398
▁지속적으로	-2399
GM	-2400
▁낙	-2401
▁존	-2402
만의	-2403
산물	-2404
수료	-2405
수익	-2406
이지	-2407
▁33	-2408
▁구입	-2409
▁방송	-2410
▁이는	-2411
▁점검	-2412
▁카페	-2413
▁해석	-2414
▁협의	-2415
현대차	-2416
9000	-2417
▁25%	-2418
▁관심을	-2419
▁꼽힌다	-2420
▁내놓은	-2421
▁맞춤형	-2422
▁사업에	-2423
▁상반기	-2424
▁줄어든	-2425
▁국민연금	-2426
▁위해서다	-2427
▁한국경제신문	-2428
18	-2429
▁H	-2430
▁까	-2431
▁녹	-2432
▁놀	-2433
개로	-2434
그는	-2435
근로	-2436
루션	-2437
률을	-2438
마의	-2439
민주	-2440
품을	-2441
▁가공	-2442
▁가스	-2443
▁갖춘	-2444
▁명이	-2445
▁배달	-2446
▁보니	-2447
▁보조	-2448
▁부드	-2449
▁선물	-2450
▁실제	-2451
▁안팎	-2452
▁엔진	-2453
▁음식	-2454
▁이른	-2455
▁인재	-2456
▁주식	-2457
▁키우	-2458
에서다	-2459
▁기업에	-2460
▁달하는	-2461
▁배터리	-2462
▁있으며	-2463
▁지적이	-2464
▁추가로	-2465
▁출시한	-2466
▁편의점	-2467
▁한다고	-2468
▁회사가	-2469
▁차별화된	-2470
▁싸	-2471
▁팀	-2472
▁흔	-2473
공항	-2474
뉴스	-2475
성은	-2476
타워	-2477
포럼	-2478
푸드	-2479
회는	-2480
▁52	-2481
▁가져	-2482
▁등장	-2483
▁반발	-2484
▁소형	-2485
▁연장	-2486
▁자구	-2487
▁저렴	-2488
▁주주	-2489
▁총재	-2490
▁한은	-2491
▁향상	-2492
위원장	-2493
3000	-2494
▁40%	-2495
▁적용해	-2496
▁콘텐츠	-2497
▁분야에서	-2498
▁차지하는	-2499
▁판매한다	-2500
▁프로젝트	-2501
아시아나항공	-2502
13	-2503
DI	-2504
MF	-2505
in	-2506
▁N	-2507
▁견	-2508
▁찍	-2509
러스	-2510
력과	-2511
서도	-2512
순환	-2513
스티	-2514
저축	-2515
지의	-2516
▁80	-2517
▁가방	-2518
▁강력	-2519
▁거의	-2520
▁금액	-2521
▁매달	-2522
▁사전	-2523
▁차이	-2524
▁통과	-2525
▁패턴	-2526
만원대	-2527
으면서	-2528
▁국내외	-2529
▁기회를	-2530
▁여의도	-2531
▁올랐다	-2532
▁의견을	-2533
▁자금을	-2534
▁효과가	-2535
조선해양	-2536
통상자원	-2537
▁비메모리	-2538
▁제공하고	-2539
▁프로그램을	-2540
76	-2541
▁군	-2542
▁멀	-2543
가의	-2544
가전	-2545
건설	-2546
대학	-2547
리바	-2548
뿌리	-2549
스럽	-2550
어나	-2551
와의	-2552
200	-2553
▁가동	-2554
▁노사	-2555
▁높다	-2556
▁뉴욕	-2557
▁의무	-2558
▁졸업	-2559
▁지나	-2560
▁펀드	-2561
▁후원	-2562
산업의	-2563
스러운	-2564
해왔다	-2565
▁대표가	-2566
▁맺었다	-2567
▁비롯한	-2568
▁사람이	-2569
▁서울대	-2570
▁아니냐	-2571
▁원하는	-2572
▁이름을	-2573
▁이유는	-2574
▁인프라	-2575
▁파트너	-2576
▁프랑스	-2577
▁회사를	-2578
▁조달시장	-2579
▁년	-2580
감독	-2581
긍정	-2582
려면	-2583
로를	-2584
신생	-2585
인은	-2586
종합	-2587
▁갖추	-2588
▁레이	-2589
▁반대	-2590
▁분위	-2591
▁선박	-2592
▁어느	-2593
▁얼마	-2594
▁역대	-2595
▁장비	-2596
▁제거	-2597
▁조건	-2598
▁필수	-2599
상화폐	-2600
▁국세청	-2601
▁나오는	-2602
▁상황이	-2603
▁업무를	-2604
▁파운드	-2605
▁기업들이	-2606
14	-2607
PE	-2608
다운	-2609
릭터	-2610
이사	-2611
전략	-2612
진공	-2613
채권	-2614
화할	-2615
▁35	-2616
▁나눠	-2617
▁내고	-2618
▁돌파	-2619
▁않았	-2620
▁저축	-2621
▁충전	-2622
▁힘들	-2623
개월간	-2624
라스틱	-2625
▁가맹점	-2626
▁방문해	-2627
▁업체가	-2628
▁이유로	-2629
▁제품에	-2630
▁캠페인	-2631
위원회는	-2632
으로부터	-2633
▁산업혁명	-2634
▁소비자의	-2635
▁글	-2636
개를	-2637
사항	-2638
수당	-2639
잡고	-2640
▁KT	-2641
▁겨냥	-2642
▁그래	-2643
▁기부	-2644
▁대만	-2645
▁비전	-2646
▁상장	-2647
▁인건	-2648
▁정치	-2649
▁측정	-2650
▁통화	-2651
▁후보	-2652
기아차	-2653
네이션	-2654
소비자	-2655
스토어	-2656
월까지	-2657
▁과정을	-2658
▁만드는	-2659
▁설립된	-2660
▁타이어	-2661
▁가상화폐	-2662
LO	-2663
al	-2664
▁걱	-2665
▁균	-2666
▁벗	-2667
▁은	-2668
▁컴	-2669
▁택	-2670
감한	-2671
급여	-2672
단계	-2673
모델	-2674
무리	-2675
선을	-2676
시는	-2677
어야	-2678
위가	-2679
인력	-2680
자본	-2681
지면	-2682
처리	-2683
펀딩	-2684
▁개척	-2685
▁도전	-2686
▁소속	-2687
▁왔다	-2688
▁이탈	-2689
▁제안	-2690
▁초기	-2691
발전소	-2692
으로는	-2693
▁LED	-2694
▁매출을	-2695
▁비중을	-2696
▁수준의	-2697
▁캐릭터	-2698
현지시간	-2699
▁부문에서	-2700
▁소비자에게	-2701
▁금호아시아나	-2702
▁너	-2703
▁몸	-2704
▁빼	-2705
▁흡	-2706
과는	-2707
기획	-2708
노조	-2709
렉션	-2710
베이	-2711
보증	-2712
부와	-2713
부의	-2714
분을	-2715
셀러	-2716
어링	-2717
의를	-2718
지다	-2719
▁가전	-2720
▁금지	-2721
▁긍정	-2722
▁깨끗	-2723
▁또한	-2724
▁로봇	-2725
▁불안	-2726
▁사내	-2727
▁수는	-2728
▁여파	-2729
▁오후	-2730
▁이자	-2731
▁일이	-2732
▁장착	-2733
▁적자	-2734
▁체계	-2735
▁측면	-2736
▁편리	-2737
사에서	-2738
스마트	-2739
▁경영진	-2740
▁고객의	-2741
▁말까지	-2742
▁부담이	-2743
▁분석이	-2744
▁지금까지	-2745
BC	-2746
TV	-2747
▁W	-2748
▁컸	-2749
▁팬	-2750
▁팹	-2751
▁훨	-2752
감이	-2753
곳에	-2754
드를	-2755
미세	-2756
비는	-2757
수출	-2758
시킨	-2759
인지	-2760
장과	-2761
차가	-2762
촬영	-2763
퀄컴	-2764
해도	-2765
활동	-2766
▁36	-2767
▁공익	-2768
▁관세	-2769
▁구현	-2770
▁납품	-2771
▁노후	-2772
▁대구	-2773
▁신발	-2774
▁영역	-2775
▁예방	-2776
▁인한	-2777
▁주행	-2778
▁찾는	-2779
▁패널	-2780
▁허용	-2781
▁훨씬	-2782
억원이	-2783
인으로	-2784
▁고객이	-2785
▁보험료	-2786
▁성과를	-2787
▁쇼핑몰	-2788
▁순이익	-2789
▁주제로	-2790
▁커지고	-2791
▁2009	-2792
▁2011	-2793
▁만들었다	-2794
▁어려움을	-2795
(7	-2796
26	-2797
받는	-2798
부에	-2799
뷰티	-2800
시켜	-2801
아야	-2802
양호	-2803
이면	-2804
페셜	-2805
했을	-2806
▁고정	-2807
▁규정	-2808
▁기계	-2809
▁매일	-2810
▁바꿔	-2811
▁산은	-2812
▁서류	-2813
▁신선	-2814
▁연다	-2815
▁유리	-2816
▁이내	-2817
▁제휴	-2818
▁조절	-2819
▁지배	-2820
▁지주	-2821
▁해소	-2822
기업의	-2823
월에는	-2824
▁400	-2825
▁그리고	-2826
▁시간을	-2827
▁않으면	-2828
▁앞두고	-2829
▁없다는	-2830
▁전망이	-2831
▁회사의	-2832
▁OLED	-2833
▁상대적으로	-2834
17	-2835
MO	-2836
▁갑	-2837
▁셈	-2838
▁짜	-2839
건강	-2840
고를	-2841
공간	-2842
공정	-2843
기준	-2844
멤버	-2845
사에	-2846
였던	-2847
운영	-2848
필터	-2849
▁45	-2850
▁건조	-2851
▁결합	-2852
▁명을	-2853
▁모양	-2854
▁복지	-2855
▁사상	-2856
▁쉽지	-2857
▁역량	-2858
▁외환	-2859
▁주고	-2860
▁주최	-2861
▁지키	-2862
▁청정	-2863
▁현실	-2864
▁휴대	-2865
보다는	-2866
업계에	-2867
화하고	-2868
▁기업인	-2869
▁높이는	-2870
▁못했다	-2871
▁문제가	-2872
▁방식을	-2873
▁소재를	-2874
▁솔루션	-2875
▁수출이	-2876
▁점유율	-2877
▁조달청	-2878
▁중요한	-2879
▁지분을	-2880
연합뉴스	-2881
하겠다고	-2882
▁상황에서	-2883
▁선보이고	-2884
▁업무협약	-2885
▁주장했다	-2886
▁직원들이	-2887
▁진행한다	-2888
▁판매량이	-2889
▁협력업체	-2890
▁소비자들이	-2891
▁삶	-2892
▁캔	-2893
▁폴	-2894
공제	-2895
교통	-2896
리트	-2897
메라	-2898
미를	-2899
받은	-2900
스에	-2901
이크	-2902
자치	-2903
파크	-2904
해서	-2905
화가	-2906
▁공격	-2907
▁남성	-2908
▁늘려	-2909
▁무엇	-2910
▁분할	-2911
▁불편	-2912
▁앞서	-2913
▁이재	-2914
▁주민	-2915
▁차단	-2916
▁추구	-2917
▁키워	-2918
겠다고	-2919
금융은	-2920
2018	-2921
7000	-2922
▁도움이	-2923
▁부담을	-2924
▁세금을	-2925
▁실적을	-2926
▁열리는	-2927
▁정부와	-2928
▁피해를	-2929
▁2022	-2930
▁개발했다	-2931
▁네트워크	-2932
▁디자인을	-2933
▁오프라인	-2934
▁정보기술	-2935
▁차지했다	-2936
▁소득주도성장	-2937
16	-2938
er	-2939
▁덜	-2940
▁듣	-2941
▁밑	-2942
▁벽	-2943
▁획	-2944
▁흐	-2945
그니	-2946
기계	-2947
다른	-2948
단지	-2949
대는	-2950
등급	-2951
만을	-2952
불어	-2953
장기	-2954
제도	-2955
줬다	-2956
체계	-2957
함을	-2958
▁간담	-2959
▁강남	-2960
▁끌고	-2961
▁등과	-2962
▁보내	-2963
▁우대	-2964
▁유일	-2965
▁의류	-2966
▁인근	-2967
▁추정	-2968
▁충분	-2969
▁케이	-2970
▁퀄컴	-2971
▁하면	-2972
년에는	-2973
동조합	-2974
테크놀	-2975
해보험	-2976
4000	-2977
▁개발에	-2978
▁계약을	-2979
▁늘어나	-2980
▁못하고	-2981
▁수수료	-2982
▁실적이	-2983
▁없었다	-2984
▁우수한	-2985
▁정규직	-2986
▁평가다	-2987
▁공개했다	-2988
▁방식이다	-2989
▁사모펀드	-2990
▁통상임금	-2991
(8	-2992
▁낼	-2993
▁러	-2994
▁샌	-2995
권이	-2996
나다	-2997
도어	-2998
려는	-2999
마켓	-3000
머니	-3001
배송	-3002
보는	-3003
장의	-3004
차량	-3005
치가	-3006
5%)	-3007
▁관한	-3008
▁권고	-3009
▁논란	-3010
▁매트	-3011
▁선언	-3012
▁시험	-3013
▁음료	-3014
▁입주	-3015
▁적지	-3016
▁종량	-3017
▁추경	-3018
▁현황	-3019
됐다는	-3020
들었다	-3021
디노미	-3022
산업을	-3023
하려는	-3024
▁도움을	-3025
▁베이징	-3026
▁새롭게	-3027
▁역량을	-3028
▁원두를	-3029
▁이상을	-3030
▁테스트	-3031
▁투자자	-3032
▁한국은	-3033
생에너지	-3034
테크놀로	-3035
▁브랜드가	-3036
▁사용하는	-3037
디노미네이션	-3038
SF	-3039
▁꿈	-3040
마루	-3041
미나	-3042
으나	-3043
장에	-3044
재를	-3045
진국	-3046
체인	-3047
통화	-3048
화에	-3049
확실	-3050
▁32	-3051
▁결국	-3052
▁고성	-3053
▁누구	-3054
▁들여	-3055
▁모집	-3056
▁복합	-3057
▁빠른	-3058
▁소송	-3059
▁앞세	-3060
▁여름	-3061
▁오전	-3062
▁집행	-3063
▁초청	-3064
폴리오	-3065
화하는	-3066
회사인	-3067
▁경제의	-3068
▁규제를	-3069
▁문제를	-3070
▁실시간	-3071
▁열린다	-3072
▁패키지	-3073
▁포인트	-3074
▁포함해	-3075
금융그룹	-3076
자치단체	-3077
▁고객에게	-3078
▁선정됐다	-3079
▁지적이다	-3080
▁산업통상자원	-3081
ar	-3082
~6	-3083
▁옮	-3084
디오	-3085
법을	-3086
서에	-3087
석유	-3088
요금	-3089
인당	-3090
일을	-3091
장애	-3092
저가	-3093
청년	-3094
3%)	-3095
~30	-3096
▁개별	-3097
▁그의	-3098
▁너무	-3099
▁넘게	-3100
▁배우	-3101
▁시각	-3102
▁원칙	-3103
▁유가	-3104
▁의료	-3105
▁입점	-3106
▁조리	-3107
▁합리	-3108
공사는	-3109
그니처	-3110
기술을	-3111
업계는	-3112
해준다	-3113
2017	-3114
▁197	-3115
▁600	-3116
▁금리를	-3117
▁나서고	-3118
▁높이고	-3119
▁목표를	-3120
▁미국과	-3121
▁보인다	-3122
▁시리즈	-3123
▁외국인	-3124
▁이벤트	-3125
▁홈페이	-3126
▁2008	-3127
▁내다봤다	-3128
▁동반성장	-3129
▁떨어졌다	-3130
▁업체들이	-3131
▁추진하고	-3132
▁파운드리	-3133
▁판매량은	-3134
▁소프트웨어	-3135
▁뿐	-3136
▁익	-3137
고객	-3138
고속	-3139
기본	-3140
로는	-3141
물이	-3142
번에	-3143
에어	-3144
웅진	-3145
있는	-3146
제일	-3147
케미	-3148
해진	-3149
화재	-3150
▁LS	-3151
▁대거	-3152
▁독립	-3153
▁메시	-3154
▁명예	-3155
▁발주	-3156
▁별도	-3157
▁불꽃	-3158
▁산하	-3159
▁설정	-3160
▁스토	-3161
▁신고	-3162
▁심사	-3163
▁쓰는	-3164
▁이와	-3165
▁재계	-3166
▁진입	-3167
▁탑재	-3168
▁특수	-3169
▁포트	-3170
▁표현	-3171
▁행복	-3172
라이프	-3173
아시아	-3174
하다고	-3175
▁가격에	-3176
▁목표로	-3177
▁백화점	-3178
▁스스로	-3179
▁자리를	-3180
▁제도를	-3181
▁포함한	-3182
▁한진칼	-3183
▁4000	-3184
▁금융감독	-3185
▁대통령이	-3186
▁보유하고	-3187
▁한국타이어	-3188
MC	-3189
on	-3190
▁V	-3191
▁늦	-3192
▁습	-3193
▁헤	-3194
라질	-3195
받고	-3196
었고	-3197
오롱	-3198
인데	-3199
책임	-3200
합병	-3201
협의	-3202
▁가계	-3203
▁당초	-3204
▁바꿨	-3205
▁상환	-3206
▁수행	-3207
▁스테	-3208
▁아래	-3209
▁없을	-3210
▁의사	-3211
▁장점	-3212
▁정비	-3213
▁정확	-3214
▁종류	-3215
▁컸다	-3216
▁현금	-3217
네시아	-3218
으로도	-3219
▁기능성	-3220
▁말한다	-3221
▁모델로	-3222
▁모델을	-3223
▁불리는	-3224
▁자영업	-3225
▁장애인	-3226
▁조양호	-3227
▁중고차	-3228
▁차세대	-3229
▁컬렉션	-3230
▁티셔츠	-3231
기능식품	-3232
▁공익위원	-3233
▁넘어섰다	-3234
▁분석했다	-3235
▁스타벅스	-3236
▁적용했다	-3237
▁적극적으로	-3238
▁지방자치단체	-3239
OC	-3240
at	-3241
▁뒷	-3242
가정	-3243
간다	-3244
고도	-3245
구매	-3246
규제	-3247
대형	-3248
디아	-3249
랜차	-3250
리드	-3251
소가	-3252
오일	-3253
이런	-3254
작용	-3255
전쟁	-3256
제조	-3257
주고	-3258
치지	-3259
▁44	-3260
▁65	-3261
▁건물	-3262
▁계좌	-3263
▁급격	-3264
▁기조	-3265
▁만한	-3266
▁매우	-3267
▁벌어	-3268
▁애플	-3269
▁약속	-3270
▁양산	-3271
▁연령	-3272
▁위축	-3273
▁유해	-3274
▁인해	-3275
▁일시	-3276
▁잠재	-3277
▁적은	-3278
▁적합	-3279
▁접목	-3280
▁주관	-3281
▁직후	-3282
▁페이	-3283
상품을	-3284
엑스포	-3285
이지만	-3286
케미칼	-3287
▁80%	-3288
▁계획을	-3289
▁고객을	-3290
▁관련해	-3291
▁기준을	-3292
▁늘어날	-3293
▁사용해	-3294
▁이같이	-3295
▁이용할	-3296
▁인증을	-3297
▁적용한	-3298
▁지금은	-3299
▁판매가	-3300
랜차이즈	-3301
▁1990	-3302
▁금융회사	-3303
▁노하우를	-3304
▁위원장은	-3305
▁지속적인	-3306
▁스마트공장	-3307
▁인도네시아	-3308
▁포트폴리오	-3309
38	-3310
87	-3311
▁e	-3312
▁곧	-3313
▁귀	-3314
▁닫	-3315
▁묻	-3316
▁뽑	-3317
▁쓸	-3318
▁히	-3319
경기	-3320
노총	-3321
망을	-3322
지방	-3323
포르	-3324
화한	-3325
히려	-3326
GDP	-3327
SUV	-3328
▁EU	-3329
▁검증	-3330
▁극복	-3331
▁나머	-3332
▁넣어	-3333
▁들고	-3334
▁발급	-3335
▁부처	-3336
▁비상	-3337
▁소셜	-3338
▁실업	-3339
▁어디	-3340
▁연료	-3341
▁예측	-3342
▁오염	-3343
▁외에	-3344
▁정상	-3345
▁15%	-3346
▁경영권	-3347
▁교육을	-3348
▁규모다	-3349
▁그러나	-3350
▁그만큼	-3351
▁나오고	-3352
▁내놓고	-3353
▁더불어	-3354
▁때마다	-3355
▁리스크	-3356
▁바닥재	-3357
▁분야의	-3358
▁불확실	-3359
▁이끌어	-3360
▁자신의	-3361
▁카메라	-3362
시장에서	-3363
▁기술력을	-3364
▁기업들의	-3365
▁매장에서	-3366
▁보험계약	-3367
▁제시했다	-3368
▁지원하고	-3369
▁영업이익은	-3370
▁전문가들은	-3371
▁건강기능식품	-3372
OE	-3373
SC	-3374
~5	-3375
▁좌	-3376
관을	-3377
난방	-3378
다가	-3379
대상	-3380
사노	-3381
섬유	-3382
오른	-3383
유통	-3384
일자	-3385
임을	-3386
자력	-3387
종의	-3388
케일	-3389
히는	-3390
100	-3391
▁55	-3392
▁과제	-3393
▁구체	-3394
▁높여	-3395
▁때는	-3396
▁불어	-3397
▁비준	-3398
▁센서	-3399
▁센터	-3400
▁수석	-3401
▁신속	-3402
▁안내	-3403
▁오래	-3404
▁올리	-3405
▁인구	-3406
▁저감	-3407
▁절감	-3408
▁점도	-3409
▁제로	-3410
▁출발	-3411
▁출자	-3412
▁흐름	-3413
가포르	-3414
레이션	-3415
력으로	-3416
틸리티	-3417
▁196	-3418
▁관심이	-3419
▁구성된	-3420
▁규모로	-3421
▁분야에	-3422
▁스페셜	-3423
▁여기에	-3424
▁연평균	-3425
▁오히려	-3426
▁위원장	-3427
▁이들은	-3428
▁이렇게	-3429
▁인력을	-3430
▁제외한	-3431
▁진출을	-3432
▁필요가	-3433
아자동차	-3434
▁가능성을	-3435
▁감안하면	-3436
▁경제정책	-3437
▁금융당국	-3438
▁성장했다	-3439
▁시그니처	-3440
▁프랜차이즈	-3441
29	-3442
EU	-3443
ST	-3444
▁+	-3445
▁J	-3446
▁Q	-3447
▁겁	-3448
▁듯	-3449
▁믿	-3450
▁쓴	-3451
건이	-3452
과학	-3453
도에	-3454
메프	-3455
미래	-3456
수로	-3457
스톤	-3458
시켰	-3459
신을	-3460
액을	-3461
오피	-3462
자체	-3463
전에	-3464
최저	-3465
▁34	-3466
▁경고	-3467
▁맛과	-3468
▁맛을	-3469
▁미니	-3470
▁민주	-3471
▁변동	-3472
▁세무	-3473
▁소주	-3474
▁수가	-3475
▁시계	-3476
▁실시	-3477
▁왼쪽	-3478
▁우버	-3479
▁응답	-3480
▁이곳	-3481
▁지출	-3482
▁철강	-3483
▁폐쇄	-3484
▁폐지	-3485
▁해야	-3486
▁호주	-3487
관에서	-3488
산업은	-3489
카드는	-3490
▁ESS	-3491
▁국내에	-3492
▁규모를	-3493
▁금융권	-3494
▁기아차	-3495
▁덕분에	-3496
▁뛰어난	-3497
▁상품은	-3498
▁셈이다	-3499
▁여파로	-3500
▁이어질	-3501
▁인건비	-3502
▁적자를	-3503
▁커피를	-3504
▁화이트	-3505
미세먼지	-3506
▁기간보다	-3507
▁마련했다	-3508
▁산업은행	-3509
▁소비자를	-3510
▁싱가포르	-3511
▁핵심협약	-3512
▁롯데백화점	-3513
▁본격적으로	-3514
▁중소기업중앙회	-3515
EB	-3516
LS	-3517
▁망	-3518
▁욕	-3519
▁찬	-3520
▁층	-3521
▁헬	-3522
개선	-3523
게티	-3524
과세	-3525
국의	-3526
급을	-3527
니터	-3528
다면	-3529
동화	-3530
산은	-3531
신용	-3532
원과	-3533
위인	-3534
일간	-3535
장터	-3536
지막	-3537
지아	-3538
4%)	-3539
▁가죽	-3540
▁가진	-3541
▁갈등	-3542
▁경유	-3543
▁국무	-3544
▁그런	-3545
▁급등	-3546
▁내는	-3547
▁다섯	-3548
▁담보	-3549
▁방지	-3550
▁뿌리	-3551
▁세금	-3552
▁시중	-3553
▁앞장	-3554
▁얻고	-3555
▁요즘	-3556
▁입장	-3557
▁장례	-3558
▁장수	-3559
▁재킷	-3560
▁전에	-3561
▁즐길	-3562
▁지켜	-3563
▁채널	-3564
▁취득	-3565
▁탄생	-3566
▁힘을	-3567
그레이	-3568
사들이	-3569
인터넷	-3570
회의를	-3571
▁경험을	-3572
▁깨끗한	-3573
▁만들고	-3574
▁상황을	-3575
▁서울시	-3576
▁올렸다	-3577
▁인터뷰	-3578
▁잇따라	-3579
▁투자가	-3580
▁판매를	-3581
진흥공단	-3582
▁브랜드의	-3583
▁이탈리아	-3584
▁있어서다	-3585
▁전문기업	-3586
▁참석했다	-3587
▁투자하는	-3588
▁확대하고	-3589
▁삼성전자가	-3590
▁삼성전자는	-3591
(0	-3592
(9	-3593
PC	-3594
kg	-3595
▁꼬	-3596
▁셰	-3597
년이	-3598
단을	-3599
더스	-3600
도시	-3601
들에	-3602
받아	-3603
상의	-3604
식에	-3605
안에	-3606
전지	-3607
정한	-3608
질을	-3609
품질	-3610
하여	-3611
향을	-3612
화로	-3613
(10	-3614
8%)	-3615
▁54	-3616
▁계산	-3617
▁나설	-3618
▁높이	-3619
▁도약	-3620
▁맞게	-3621
▁보다	-3622
▁부모	-3623
▁분쟁	-3624
▁양성	-3625
▁운항	-3626
▁위협	-3627
▁유기	-3628
▁이야	-3629
▁판결	-3630
건으로	-3631
금리를	-3632
기업이	-3633
너지를	-3634
소에서	-3635
인들이	-3636
자이너	-3637
적이고	-3638
파트너	-3639
▁150	-3640
▁60%	-3641
▁결과를	-3642
▁관련한	-3643
▁관측이	-3644
▁마무리	-3645
▁보이고	-3646
▁불가피	-3647
▁사업은	-3648
▁세미나	-3649
▁이번이	-3650
▁절차를	-3651
▁직원이	-3652
▁팹리스	-3653
▁혁신을	-3654
었습니다	-3655
▁1500	-3656
▁고용노동	-3657
▁신용카드	-3658
▁연금보험	-3659
▁일자리를	-3660
중소벤처기업	-3661
IC	-3662
▁니	-3663
▁든	-3664
▁엘	-3665
남기	-3666
레스	-3667
면을	-3668
봐야	-3669
시티	-3670
이에	-3671
작년	-3672
종을	-3673
중기	-3674
트코	-3675
LNG	-3676
▁37	-3677
▁IT	-3678
▁걱정	-3679
▁걸쳐	-3680
▁다르	-3681
▁대기	-3682
▁멤버	-3683
▁모아	-3684
▁물가	-3685
▁발언	-3686
▁보는	-3687
▁보증	-3688
▁부정	-3689
▁비율	-3690
▁사태	-3691
▁성적	-3692
▁세대	-3693
▁아동	-3694
▁오르	-3695
▁올려	-3696
▁우승	-3697
▁원인	-3698
▁유망	-3699
▁작성	-3700
▁정리	-3701
▁조치	-3702
▁좋다	-3703
▁주류	-3704
▁증정	-3705
▁치열	-3706
▁포장	-3707
▁행정	-3708
시장에	-3709
졌다는	-3710
활동을	-3711
▁1~2	-3712
▁겁니다	-3713
▁경기가	-3714
▁공간을	-3715
▁공기를	-3716
▁기술이	-3717
▁꼽았다	-3718
▁나머지	-3719
▁높이기	-3720
▁느낌을	-3721
▁들어가	-3722
▁사장이	-3723
▁상황에	-3724
▁시행령	-3725
▁완성차	-3726
▁위기를	-3727
▁의미다	-3728
▁이사회	-3729
▁이용해	-3730
▁중국이	-3731
▁추세다	-3732
▁코리아	-3733
▁하나로	-3734
▁항공기	-3735
▁형태로	-3736
▁홈쇼핑	-3737
▁활용할	-3738
센터에서	-3739
최저임금	-3740
▁기업으로	-3741
▁아니냐는	-3742
▁인수합병	-3743
▁참여하는	-3744
틸리티차량	-3745
PU	-3746
▁왜	-3747
기순	-3748
론을	-3749
분이	-3750
상생	-3751
안이	-3752
음을	-3753
퓨터	-3754
해외	-3755
호를	-3756
▁거듭	-3757
▁곳에	-3758
▁까다	-3759
▁느낄	-3760
▁드러	-3761
▁맺고	-3762
▁보복	-3763
▁상업	-3764
▁상위	-3765
▁선임	-3766
▁신경	-3767
▁심각	-3768
▁언급	-3769
▁웅진	-3770
▁위기	-3771
▁일상	-3772
▁입찰	-3773
▁조명	-3774
▁질문	-3775
▁추출	-3776
▁커질	-3777
▁한전	-3778
▁현행	-3779
▁활발	-3780
면서도	-3781
받았다	-3782
오른쪽	-3783
정부의	-3784
했는데	-3785
▁70%	-3786
▁90%	-3787
▁내용의	-3788
▁네이버	-3789
▁떨어진	-3790
▁바꿨다	-3791
▁법인세	-3792
▁사무실	-3793
▁어려워	-3794
▁영업손	-3795
▁인기가	-3796
▁지자체	-3797
▁지적도	-3798
▁콘셉트	-3799
▁하나다	-3800
네트워크	-3801
억원에서	-3802
위원회를	-3803
하이닉스	-3804
▁2021	-3805
▁노동조합	-3806
▁디자이너	-3807
▁매트리스	-3808
▁점유율은	-3809
▁제조업체	-3810
▁차원에서	-3811
▁평가했다	-3812
▁플라스틱	-3813
▁2019’	-3814
▁디스플레이	-3815
▁생각합니다	-3816
유틸리티차량	-3817
DC	-3818
TA	-3819
▁굳	-3820
▁끊	-3821
▁끼	-3822
▁맥	-3823
▁밥	-3824
▁빚	-3825
▁옥	-3826
▁좀	-3827
▁쪼	-3828
계의	-3829
공동	-3830
권의	-3831
기기	-3832
년째	-3833
드시	-3834
람회	-3835
런스	-3836
버스	-3837
설비	-3838
지니	-3839
지자	-3840
표준	-3841
피크	-3842
해달	-3843
MOU	-3844
▁5%	-3845
▁PE	-3846
▁겪고	-3847
▁고위	-3848
▁광주	-3849
▁구상	-3850
▁금속	-3851
▁급락	-3852
▁긴급	-3853
▁눈에	-3854
▁맞추	-3855
▁모듈	-3856
▁배치	-3857
▁분류	-3858
▁샌드	-3859
▁세종	-3860
▁시도	-3861
▁예비	-3862
▁이행	-3863
▁자기	-3864
▁저장	-3865
▁전담	-3866
▁출연	-3867
▁충남	-3868
▁편안	-3869
▁학생	-3870
▁한정	-3871
▁협상	-3872
성장을	-3873
웃도어	-3874
케일업	-3875
▁갈수록	-3876
▁강력한	-3877
▁기업과	-3878
▁목표다	-3879
▁바이어	-3880
▁비용을	-3881
▁비용이	-3882
▁설립한	-3883
▁손잡고	-3884
▁어렵다	-3885
▁있다이	-3886
▁중국에	-3887
▁출시된	-3888
노동조합	-3889
썸플레이	-3890
▁강화하고	-3891
▁들어가는	-3892
▁미국에서	-3893
▁상품이다	-3894
▁선보인다	-3895
▁수상했다	-3896
▁아시아나	-3897
▁이어졌다	-3898
▁자구계획	-3899
▁20~30	-3900
▁리디노미네이션	-3901
▁스포츠유틸리티차량	-3902
TO	-3903
en	-3904
es	-3905
▁U	-3906
▁깔	-3907
▁꺼	-3908
▁웰	-3909
▁휘	-3910
가구	-3911
가능	-3912
경쟁	-3913
기존	-3914
단은	-3915
먼트	-3916
스탄	-3917
시킬	-3918
씨는	-3919
예산	-3920
주택	-3921
퍼브	-3922
1%)	-3923
2%)	-3924
7%)	-3925
900	-3926
▁CU	-3927
▁가업	-3928
▁개의	-3929
▁거주	-3930
▁건축	-3931
▁나가	-3932
▁낮추	-3933
▁늘리	-3934
▁대리	-3935
▁대중	-3936
▁되면	-3937
▁마켓	-3938
▁멀티	-3939
▁무게	-3940
▁보급	-3941
▁생리	-3942
▁생존	-3943
▁시즌	-3944
▁알고	-3945
▁언제	-3946
▁임원	-3947
▁제어	-3948
▁준공	-3949
▁직무	-3950
▁창호	-3951
▁특정	-3952
▁표준	-3953
▁함유	-3954
▁형성	-3955
리바게	-3956
만으로	-3957
시장을	-3958
업계의	-3959
정규직	-3960
▁120	-3961
▁개발해	-3962
▁고려해	-3963
▁높았다	-3964
▁높였다	-3965
▁당기순	-3966
▁대상을	-3967
▁대주주	-3968
▁마이너	-3969
▁매각을	-3970
▁선택할	-3971
▁속도를	-3972
▁시간이	-3973
▁없다고	-3974
▁운전자	-3975
▁정도다	-3976
▁정상화	-3977
▁제도다	-3978
▁참석한	-3979
▁참여한	-3980
▁캐나다	-3981
▁했지만	-3982
코리아는	-3983
▁계열사인	-3984
▁도입했다	-3985
▁무역전쟁	-3986
▁브랜드다	-3987
▁정보통신	-3988
▁퇴직연금	-3989
▁소비자들의	-3990
▁아이디어를	-3991
35	-3992
36	-3993
IB	-3994
▁빛	-3995
▁칼	-3996
금호	-3997
나눔	-3998
내고	-3999
년의	-4000
대문	-4001
되기	-4002
많은	-4003
모터	-4004
박스	-4005
비아	-4006
소에	-4007
시를	-4008
이던	-4009
이스	-4010
일에	-4011
자문	-4012
자유	-4013
재해	-4014
적금	-4015
제철	-4016
지기	-4017
층에	-4018
트리	-4019
특별	-4020
판을	-4021
효율	-4022
(19	-4023
300	-4024
▁갖춰	-4025
▁것과	-4026
▁과학	-4027
▁구직	-4028
▁기초	-4029
▁무료	-4030
▁봉사	-4031
▁비싸	-4032
▁사건	-4033
▁소매	-4034
▁손실	-4035
▁슬로	-4036
▁시절	-4037
▁심의	-4038
▁어울	-4039
▁없애	-4040
▁예고	-4041
▁올초	-4042
▁완료	-4043
▁우유	-4044
▁위반	-4045
▁절차	-4046
▁중간	-4047
▁탄력	-4048
▁포기	-4049
▁풍부	-4050
▁합작	-4051
▁항목	-4052
마의자	-4053
민주당	-4054
시키는	-4055
시했다	-4056
티스트	-4057
항공사	-4058
화했다	-4059
▁가정의	-4060
▁갖추고	-4061
▁경제학	-4062
▁그룹의	-4063
▁나선다	-4064
▁늘면서	-4065
▁만들기	-4066
▁미래를	-4067
▁벗어나	-4068
▁부작용	-4069
▁수요를	-4070
▁수익을	-4071
▁업계에	-4072
▁여부를	-4073
▁인상을	-4074
▁잡았다	-4075
▁투자할	-4076
▁투자해	-4077
▁평가가	-4078
리바게뜨	-4079
만원으로	-4080
▁대우조선	-4081
▁들어갔다	-4082
▁본사에서	-4083
▁부총리는	-4084
▁신한금융	-4085
▁자동으로	-4086
▁중요하다	-4087
▁혁신적인	-4088
테크놀로지	-4089
▁전문가들의	-4090
▁아시아나항공이	-4091
39	-4092
▁멈	-4093
▁잃	-4094
▁좁	-4095
▁큐	-4096
가에	-4097
긴다	-4098
길을	-4099
력은	-4100
리카	-4101
물로	-4102
법은	-4103
상속	-4104
성비	-4105
일이	-4106
텔레	-4107
파트	-4108
퍼니	-4109
형을	-4110
800	-4111
▁1%	-4112
▁90	-4113
▁같다	-4114
▁개설	-4115
▁공통	-4116
▁국산	-4117
▁낮춰	-4118
▁담아	-4119
▁당장	-4120
▁마사	-4121
▁모터	-4122
▁미리	-4123
▁북미	-4124
▁사라	-4125
▁살펴	-4126
▁수립	-4127
▁수정	-4128
▁실행	-4129
▁요리	-4130
▁조기	-4131
▁주변	-4132
▁총괄	-4133
▁회계	-4134
▁흔들	-4135
대에서	-4136
센터를	-4137
스포츠	-4138
총생산	-4139
토교통	-4140
▁가까이	-4141
▁가동을	-4142
▁갖췄다	-4143
▁개발을	-4144
▁관계자	-4145
▁기반의	-4146
▁늘리는	-4147
▁대표적	-4148
▁대해선	-4149
▁러시아	-4150
▁미국이	-4151
▁발생한	-4152
▁불가능	-4153
▁비트코	-4154
▁시대에	-4155
▁얼마나	-4156
▁이른다	-4157
▁전략적	-4158
▁중장기	-4159
▁지원할	-4160
▁컴퓨터	-4161
▁코오롱	-4162
▁행사는	-4163
▁확대할	-4164
▁휴대폰	-4165
중공업은	-4166
호텔에서	-4167
▁대해서는	-4168
▁성공했다	-4169
▁업그레이	-4170
▁업체들은	-4171
▁예상된다	-4172
▁적극적인	-4173
▁확대하는	-4174
▁아시아나항공을	-4175
BI	-4176
FC	-4177
MR	-4178
MW	-4179
oT	-4180
다지	-4181
데이	-4182
들여	-4183
량의	-4184
머스	-4185
분쟁	-4186
사이	-4187
수도	-4188
어붙	-4189
일은	-4190
장관	-4191
제당	-4192
조차	-4193
주년	-4194
지표	-4195
차례	-4196
트롤	-4197
틸렌	-4198
피언	-4199
▁39	-4200
▁48	-4201
▁감사	-4202
▁감지	-4203
▁계절	-4204
▁고령	-4205
▁고양	-4206
▁과세	-4207
▁나빠	-4208
▁나아	-4209
▁내수	-4210
▁냉동	-4211
▁높인	-4212
▁다이	-4213
▁대화	-4214
▁더해	-4215
▁동남	-4216
▁마찬	-4217
▁설문	-4218
▁수용	-4219
▁슈퍼	-4220
▁싶은	-4221
▁압박	-4222
▁여신	-4223
▁영양	-4224
▁의원	-4225
▁이르	-4226
▁자문	-4227
▁전산	-4228
▁조세	-4229
▁중견	-4230
▁초과	-4231
▁축소	-4232
▁출하	-4233
▁파는	-4234
▁한꺼	-4235
▁해체	-4236
▁홍삼	-4237
▁획득	-4238
▁효성	-4239
▁흡수	-4240
록체인	-4241
분기에	-4242
브리드	-4243
빌리티	-4244
전문가	-4245
1000	-4246
▁감소한	-4247
▁경쟁이	-4248
▁경제를	-4249
▁기능이	-4250
▁도시락	-4251
▁들었다	-4252
▁마지막	-4253
▁못하는	-4254
▁반드시	-4255
▁변화를	-4256
▁성능을	-4257
▁우려도	-4258
▁위메프	-4259
▁이사장	-4260
▁저렴한	-4261
▁점이다	-4262
▁중국은	-4263
▁중국인	-4264
▁최초의	-4265
▁취지다	-4266
▁팔렸다	-4267
기업으로	-4268
억원이다	-4269
적으로는	-4270
▁2005	-4271
▁구성했다	-4272
▁노력하고	-4273
▁대표하는	-4274
▁대형마트	-4275
▁마찬가지	-4276
▁세계적인	-4277
▁자회사인	-4278
▁전략이다	-4279
▁지원하기	-4280
▁판단했다	-4281
▁한꺼번에	-4282
▁업그레이드	-4283
22	-4284
▁"	-4285
▁객	-4286
▁갤	-4287
▁멜	-4288
▁셀	-4289
▁썼	-4290
▁징	-4291
▁팝	-4292
개혁	-4293
금의	-4294
년엔	-4295
뉴얼	-4296
달아	-4297
렌지	-4298
렌탈	-4299
매출	-4300
방송	-4301
병원	-4302
분야	-4303
상황	-4304
생을	-4305
수기	-4306
수의	-4307
어드	-4308
오고	-4309
재로	-4310
침대	-4311
특히	-4312
6%)	-4313
SNS	-4314
~20	-4315
▁2%	-4316
▁교류	-4317
▁끝에	-4318
▁농업	-4319
▁느끼	-4320
▁다각	-4321
▁면제	-4322
▁목적	-4323
▁비결	-4324
▁빠져	-4325
▁살아	-4326
▁소유	-4327
▁수제	-4328
▁시상	-4329
▁쌓아	-4330
▁연출	-4331
▁오픈	-4332
▁올린	-4333
▁요인	-4334
▁원화	-4335
▁유동	-4336
▁일단	-4337
▁임시	-4338
▁재고	-4339
▁전쟁	-4340
▁전혀	-4341
▁정체	-4342
▁정해	-4343
▁지하	-4344
▁철저	-4345
▁추산	-4346
▁파워	-4347
▁한층	-4348
▁화폐	-4349
디자인	-4350
만원의	-4351
먼지를	-4352
상으로	-4353
스티벌	-4354
시하는	-4355
이라도	-4356
챔피언	-4357
파게티	-4358
화학은	-4359
▁공무원	-4360
▁국회의	-4361
▁담았다	-4362
▁문화를	-4363
▁바꾸는	-4364
▁사용자	-4365
▁수준을	-4366
▁수준인	-4367
▁엑스포	-4368
▁예산을	-4369
▁이미지	-4370
▁이번에	-4371
▁제품과	-4372
▁제품인	-4373
▁지역에	-4374
▁차이가	-4375
▁커졌다	-4376
▁통계청	-4377
▁트레이	-4378
▁한국을	-4379
▁확인할	-4380
손해보험	-4381
업계에선	-4382
프라이어	-4383
플레이션	-4384
▁늘어났다	-4385
▁데이터를	-4386
▁부드러운	-4387
▁소개했다	-4388
▁스페셜티	-4389
▁이벤트를	-4390
▁전달했다	-4391
▁판매하고	-4392
▁하나금융	-4393
▁국내총생산	-4394
▁중소기업의	-4395
PG	-4396
SI	-4397
ag	-4398
op	-4399
▁싼	-4400
▁쏘	-4401
▁염	-4402
▁짓	-4403
공학	-4404
대회	-4405
도와	-4406
만여	-4407
명은	-4408
발유	-4409
수소	-4410
어는	-4411
여성	-4412
연맹	-4413
오드	-4414
외선	-4415
우고	-4416
우선	-4417
월에	-4418
유럽	-4419
인치	-4420
자연	-4421
장비	-4422
전력	-4423
주로	-4424
진을	-4425
▁강한	-4426
▁곳은	-4427
▁과도	-4428
▁그렇	-4429
▁나올	-4430
▁납부	-4431
▁다니	-4432
▁단독	-4433
▁대로	-4434
▁대전	-4435
▁돈이	-4436
▁둘러	-4437
▁때도	-4438
▁마감	-4439
▁마이	-4440
▁만난	-4441
▁맞은	-4442
▁반려	-4443
▁보수	-4444
▁블렌	-4445
▁상무	-4446
▁세련	-4447
▁승계	-4448
▁시공	-4449
▁시대	-4450
▁시범	-4451
▁식당	-4452
▁실무	-4453
▁연말	-4454
▁연봉	-4455
▁예약	-4456
▁워크	-4457
▁유입	-4458
▁유행	-4459
▁자주	-4460
▁전남	-4461
▁접수	-4462
▁조현	-4463
▁종료	-4464
▁충족	-4465
▁컬러	-4466
▁테마	-4467
▁투명	-4468
▁판로	-4469
▁하기	-4470
▁합성	-4471
▁확충	-4472
스럽게	-4473
시장의	-4474
퍼런스	-4475
협회는	-4476
▁700	-4477
▁경험이	-4478
▁계기로	-4479
▁기술과	-4480
▁노력을	-4481
▁대상은	-4482
▁모니터	-4483
▁비교해	-4484
▁생태계	-4485
▁선정된	-4486
▁신기술	-4487
▁업체인	-4488
▁열렸다	-4489
▁위해선	-4490
▁있는지	-4491
▁있었던	-4492
▁장수돌	-4493
▁투자한	-4494
▁확대를	-4495
▁확대해	-4496
업체들이	-4497
하면서도	-4498
협동조합	-4499
▁2002	-4500
▁7000	-4501
▁근로시간	-4502
▁롯데월드	-4503
▁보여주는	-4504
▁브랜드는	-4505
▁상승했다	-4506
▁선호하는	-4507
▁아웃도어	-4508
▁예상했다	-4509
▁전해졌다	-4510
▁조사됐다	-4511
▁협력사의	-4512
▁중기중앙회	-4513
▁필요하다는	-4514
CG	-4515
GS	-4516
▁끈	-4517
▁던	-4518
▁읽	-4519
격을	-4520
공유	-4521
관에	-4522
국가	-4523
금속	-4524
동물	-4525
돼야	-4526
두산	-4527
렀다	-4528
로에	-4529
마저	-4530
마존	-4531
사고	-4532
스키	-4533
시스	-4534
어를	-4535
영선	-4536
응을	-4537
재료	-4538
점유	-4539
줄이	-4540
책을	-4541
천연	-4542
캠퍼	-4543
탄소	-4544
핑크	-4545
한진	-4546
화해	-4547
9%)	-4548
IMF	-4549
▁57	-4550
▁64	-4551
▁75	-4552
▁기다	-4553
▁나눔	-4554
▁냉장	-4555
▁농심	-4556
▁대를	-4557
▁도매	-4558
▁많았	-4559
▁말을	-4560
▁매월	-4561
▁면허	-4562
▁복잡	-4563
▁봤다	-4564
▁분명	-4565
▁사망	-4566
▁상호	-4567
▁수십	-4568
▁신재	-4569
▁실천	-4570
▁액화	-4571
▁에스	-4572
▁오랜	-4573
▁외식	-4574
▁운수	-4575
▁위탁	-4576
▁유도	-4577
▁일을	-4578
▁자극	-4579
▁자원	-4580
▁작용	-4581
▁전북	-4582
▁취급	-4583
▁치매	-4584
▁캠페	-4585
▁특성	-4586
▁특화	-4587
▁한경	-4588
▁환율	-4589
▁힘입	-4590
광다이	-4591
까지는	-4592
문재인	-4593
사들은	-4594
▁01%	-4595
▁KEB	-4596
▁가치가	-4597
▁경영에	-4598
▁뛰었다	-4599
▁뜻이다	-4600
▁베스트	-4601
▁분석해	-4602
▁사례가	-4603
▁않도록	-4604
▁연세대	-4605
▁우리는	-4606
▁움직임	-4607
▁위해서	-4608
▁이들이	-4609
▁인수한	-4610
▁작업을	-4611
▁줄줄이	-4612
▁중진공	-4613
▁참여할	-4614
▁총재는	-4615
▁펼치고	-4616
▁품질을	-4617
▁회장과	-4618
▁회장을	-4619
연구원은	-4620
▁2006	-4621
▁2020	-4622
▁6000	-4623
▁나라장터	-4624
▁늘어나는	-4625
▁롯데카드	-4626
▁비교하면	-4627
▁생산라인	-4628
▁위해서는	-4629
▁재무구조	-4630
▁제로페이	-4631
▁중앙은행	-4632
▁지원했다	-4633
▁참여했다	-4634
▁해외에서	-4635
광다이오드	-4636
▁투썸플레이	-4637
▁프로젝트를	-4638
21	-4639
et	-4640
▁걷	-4641
▁넥	-4642
▁닛	-4643
▁밤	-4644
▁얇	-4645
개사	-4646
거운	-4647
담당	-4648
동의	-4649
됐던	-4650
들로	-4651
루노	-4652
루는	-4653
마크	-4654
맛을	-4655
면에	-4656
물산	-4657
벚꽃	-4658
보틀	-4659
부처	-4660
소한	-4661
수입	-4662
실업	-4663
우수	-4664
작업	-4665
정비	-4666
제히	-4667
조직	-4668
주기	-4669
차의	-4670
추진	-4671
폭이	-4672
rea	-4673
▁38	-4674
▁거부	-4675
▁결혼	-4676
▁교통	-4677
▁금감	-4678
▁급여	-4679
▁기회	-4680
▁년간	-4681
▁농가	-4682
▁단기	-4683
▁단축	-4684
▁대회	-4685
▁로보	-4686
▁막기	-4687
▁만기	-4688
▁받지	-4689
▁생명	-4690
▁수집	-4691
▁스트	-4692
▁쓰고	-4693
▁영입	-4694
▁원고	-4695
▁입소	-4696
▁장학	-4697
▁제재	-4698
▁조언	-4699
▁조작	-4700
▁직업	-4701
▁착공	-4702
▁착용	-4703
▁책정	-4704
▁침대	-4705
▁통보	-4706
구하고	-4707
금으로	-4708
다지오	-4709
마케팅	-4710
별로는	-4711
스에서	-4712
연합회	-4713
원이다	-4714
제품을	-4715
▁ASF	-4716
▁구매할	-4717
▁구조를	-4718
▁근로제	-4719
▁단위로	-4720
▁답했다	-4721
▁발생할	-4722
▁분석한	-4723
▁사람은	-4724
▁선진국	-4725
▁성장할	-4726
▁속도가	-4727
▁신사업	-4728
▁영향이	-4729
▁이상이	-4730
▁일제히	-4731
▁있는데	-4732
▁자리잡	-4733
▁정책에	-4734
▁중심의	-4735
▁즐기는	-4736
▁청소년	-4737
▁초점을	-4738
▁최고의	-4739
▁최대한	-4740
▁토대로	-4741
▁한국에	-4742
▁회사다	-4743
▁힘입어	-4744
제일제당	-4745
▁경제성장	-4746
▁금융위기	-4747
▁금호고속	-4748
▁농협은행	-4749
▁대통령의	-4750
▁브랜드인	-4751
▁사람들이	-4752
▁서비스도	-4753
▁석유화학	-4754
▁성장률은	-4755
▁아다지오	-4756
▁우리나라	-4757
▁임직원이	-4758
▁전년보다	-4759
▁최적화된	-4760
▁활성화를	-4761
라우드펀딩	-4762
▁지난해부터	-4763
▁더불어민주당	-4764
▁한국조선해양	-4765
28	-4766
57	-4767
it	-4768
▁떼	-4769
▁뚜	-4770
▁뜨	-4771
▁런	-4772
▁맨	-4773
▁멘	-4774
▁쏠	-4775
▁융	-4776
▁컵	-4777
▁틀	-4778
가족	-4779
간담	-4780
금액	-4781
나갈	-4782
년여	-4783
램프	-4784
마이	-4785
물가	-4786
바스	-4787
법상	-4788
부산	-4789
비가	-4790
상태	-4791
설계	-4792
세다	-4793
센서	-4794
야크	-4795
어도	-4796
업종	-4797
엘라	-4798
위의	-4799
일러	-4800
일로	-4801
일리	-4802
자에	-4803
제어	-4804
튜브	-4805
한경	-4806
행정	-4807
(16	-4808
▁47	-4809
▁PC	-4810
▁“‘	-4811
▁간단	-4812
▁거론	-4813
▁거실	-4814
▁경남	-4815
▁고속	-4816
▁길을	-4817
▁김기	-4818
▁높일	-4819
▁늘릴	-4820
▁돌려	-4821
▁뒤를	-4822
▁머물	-4823
▁반복	-4824
▁배당	-4825
▁배분	-4826
▁보상	-4827
▁빌려	-4828
▁세제	-4829
▁손을	-4830
▁연동	-4831
▁예외	-4832
▁이슈	-4833
▁일어	-4834
▁입사	-4835
▁입을	-4836
▁잘못	-4837
▁재배	-4838
▁점점	-4839
▁케어	-4840
▁프레	-4841
▁향을	-4842
▁흑자	-4843
▁히트	-4844
관학교	-4845
국세청	-4846
기업에	-4847
레이터	-4848
마트는	-4849
사노위	-4850
산업이	-4851
상거래	-4852
시키고	-4853
업체인	-4854
유업은	-4855
자에게	-4856
질랜드	-4857
커머스	-4858
프리카	-4859
플러스	-4860
한국당	-4861
해지고	-4862
OECD	-4863
▁250	-4864
▁Fed	-4865
▁GDP	-4866
▁가까운	-4867
▁경우가	-4868
▁관리를	-4869
▁관세를	-4870
▁그래서	-4871
▁기록한	-4872
▁낮췄다	-4873
▁내용이	-4874
▁노동계	-4875
▁노조가	-4876
▁롯데는	-4877
▁만이다	-4878
▁매출의	-4879
▁물량을	-4880
▁미국은	-4881
▁베이커	-4882
▁사랑을	-4883
▁산업용	-4884
▁성장동	-4885
▁세웠다	-4886
▁수많은	-4887
▁완전히	-4888
▁위기에	-4889
▁장관이	-4890
▁저소득	-4891
▁전시회	-4892
▁점에서	-4893
▁정책이	-4894
▁포함된	-4895
▁합니다	-4896
▁화웨이	-4897
업계에서	-4898
위원회가	-4899
▁기업들은	-4900
▁대표이사	-4901
▁떨어지는	-4902
▁목소리를	-4903
▁설비투자	-4904
▁수익성이	-4905
▁신한은행	-4906
▁영향으로	-4907
▁이미지를	-4908
▁이사장은	-4909
▁임금피크	-4910
▁저축은행	-4911
▁트렌드를	-4912
▁기아자동차	-4913
▁당기순이익	-4914
▁현대백화점	-4915
발광다이오드	-4916
▁중소벤처기업부	-4917
31	-4918
CJ	-4919
KT	-4920
mm	-4921
▁꼭	-4922
▁덮	-4923
▁쉬	-4924
▁쪽	-4925
▁캄	-4926
공공	-4927
널드	-4928
농협	-4929
다만	-4930
단이	-4931
뒀다	-4932
라워	-4933
리로	-4934
리콘	-4935
매김	-4936
바람	-4937
법에	-4938
분간	-4939
석을	-4940
소의	-4941
소재	-4942
심을	-4943
안은	-4944
안정	-4945
이비	-4946
즈를	-4947
지금	-4948
코스	-4949
한화	-4950
행복	-4951
(20	-4952
ard	-4953
ing	-4954
▁3%	-4955
▁42	-4956
▁개입	-4957
▁공모	-4958
▁극대	-4959
▁기저	-4960
▁깊은	-4961
▁난방	-4962
▁납세	-4963
▁내구	-4964
▁늘린	-4965
▁동물	-4966
▁라면	-4967
▁맞춘	-4968
▁먹는	-4969
▁명령	-4970
▁바다	-4971
▁불황	-4972
▁생수	-4973
▁소식	-4974
▁속도	-4975
▁승인	-4976
▁시내	-4977
▁실험	-4978
▁알아	-4979
▁야외	-4980
▁연기	-4981
▁운송	-4982
▁일으	-4983
▁있던	-4984
▁자랑	-4985
▁잡아	-4986
▁재료	-4987
▁제고	-4988
▁지연	-4989
▁취약	-4990
▁코스	-4991
▁팝업	-4992
▁포럼	-4993
▁프린	-4994
▁하다	-4995
▁한때	-4996
▁헬스	-4997
부터는	-4998
시장은	-4999
식으로	-5000
으로써	-5001
이어서	-5002
장애인	-5003
장으로	-5004
캐피털	-5005
▁360	-5006
▁ILO	-5007
▁강원도	-5008
▁강화를	-5009
▁경제는	-5010
▁기준이	-5011
▁넘는다	-5012
▁높다는	-5013
▁누구나	-5014
▁늘리고	-5015
▁리더십	-5016
▁리퍼브	-5017
▁미치는	-5018
▁방식의	-5019
▁방안도	-5020
▁방향을	-5021
▁벌이고	-5022
▁보고서	-5023
▁비판이	-5024
▁사례다	-5025
▁사업장	-5026
▁수석부	-5027
▁스위트	-5028
▁시작해	-5029
▁업체를	-5030
▁유니콘	-5031
▁이란산	-5032
▁전체의	-5033
▁제출한	-5034
▁종량세	-5035
▁줄이기	-5036
▁지역의	-5037
▁차량을	-5038
▁호응을	-5039
▁휘발유	-5040
개발기구	-5041
물인터넷	-5042
억원까지	-5043
지니어링	-5044
청사에서	-5045
▁2007	-5046
▁가능성도	-5047
▁간편하게	-5048
▁것입니다	-5049
▁뉴질랜드	-5050
▁마케팅을	-5051
▁무역분쟁	-5052
▁발생하는	-5053
▁블록체인	-5054
▁사용했다	-5055
▁스케일업	-5056
▁안정적인	-5057
▁이어지고	-5058
▁자리매김	-5059
▁페스티벌	-5060
▁현대차는	-5061
▁롯데면세점	-5062
▁판단에서다	-5063
네트워크서비스	-5064
▁산업통상자원부	-5065
▁아시아나항공의	-5066
42	-5067
64	-5068
▁값	-5069
▁겹	-5070
▁낚	-5071
▁냄	-5072
▁닭	-5073
▁띄	-5074
▁억	-5075
▁챙	-5076
▁햇	-5077
강대	-5078
국에	-5079
그린	-5080
난다	-5081
리도	-5082
림을	-5083
명에	-5084
문이	-5085
미널	-5086
사랑	-5087
소는	-5088
시로	-5089
시민	-5090
시피	-5091
신이	-5092
었기	-5093
역량	-5094
연료	-5095
예금	-5096
운동	-5097
음료	-5098
장려	-5099
점과	-5100
지급	-5101
체를	-5102
타민	-5103
필드	-5104
하라	-5105
해질	-5106
향이	-5107
화폐	-5108
▁49	-5109
▁‘3	-5110
▁가로	-5111
▁고유	-5112
▁곳이	-5113
▁공감	-5114
▁공을	-5115
▁공제	-5116
▁근거	-5117
▁기금	-5118
▁나와	-5119
▁납입	-5120
▁넓은	-5121
▁대외	-5122
▁독자	-5123
▁돕는	-5124
▁동결	-5125
▁동화	-5126
▁따로	-5127
▁법률	-5128
▁보안	-5129
▁본다	-5130
▁세단	-5131
▁셰일	-5132
▁소폭	-5133
▁시원	-5134
▁실현	-5135
▁안심	-5136
▁여기	-5137
▁연내	-5138
▁영상	-5139
▁욕실	-5140
▁운행	-5141
▁위로	-5142
▁위에	-5143
▁유엔	-5144
▁이제	-5145
▁적이	-5146
▁조항	-5147
▁줄일	-5148
▁직영	-5149
▁차관	-5150
▁창원	-5151
▁철학	-5152
▁치솟	-5153
▁치킨	-5154
▁탄탄	-5155
▁탓에	-5156
▁티몬	-5157
▁확실	-5158
공사가	-5159
금융권	-5160
들이다	-5161
사업에	-5162
시켰다	-5163
신보험	-5164
억원어	-5165
웨이는	-5166
이어트	-5167
임금을	-5168
테이너	-5169
▁결정을	-5170
▁눈길을	-5171
▁도입한	-5172
▁마사지	-5173
▁마음을	-5174
▁먹거리	-5175
▁문제는	-5176
▁미국에	-5177
▁반영해	-5178
▁반응을	-5179
▁본사를	-5180
▁브라질	-5181
▁사업이	-5182
▁속에서	-5183
▁신청을	-5184
▁아파트	-5185
▁앞세워	-5186
▁원자력	-5187
▁의미를	-5188
▁중국산	-5189
▁증가율	-5190
▁찾았다	-5191
▁책임을	-5192
▁출신인	-5193
▁투자에	-5194
▁홍남기	-5195
▁환경을	-5196
▁1980	-5197
▁2004	-5198
▁간편결제	-5199
▁검토하고	-5200
▁경영권을	-5201
▁경쟁력이	-5202
▁기업이다	-5203
▁다양하게	-5204
▁대체투자	-5205
▁요청했다	-5206
▁우리은행	-5207
▁지급하는	-5208
▁지역사회	-5209
▁콘퍼런스	-5210
▁투자하고	-5211
▁플랫폼을	-5212
▁삼성전자와	-5213
▁인터뷰에서	-5214
▁중소기업이	-5215
디스플레이는	-5216
협력개발기구	-5217
▁롯데월드타워	-5218
63	-5219
AM	-5220
KB	-5221
▁굴	-5222
▁궁	-5223
▁벤	-5224
▁첨	-5225
▁흘	-5226
격이	-5227
결정	-5228
구는	-5229
데도	-5230
동원	-5231
레인	-5232
려고	-5233
론이	-5234
른다	-5235
리다	-5236
리의	-5237
리츠	-5238
매장	-5239
보호	-5240
부품	-5241
상담	-5242
서의	-5243
선은	-5244
세한	-5245
수석	-5246
신탁	-5247
여름	-5248
원장	-5249
이가	-5250
일과	-5251
자기	-5252
자다	-5253
주가	-5254
중견	-5255
채움	-5256
플래	-5257
현실	-5258
협상	-5259
회계	-5260
효과	-5261
(15	-5262
▁-0	-5263
▁감축	-5264
▁검찰	-5265
▁고도	-5266
▁공부	-5267
▁구분	-5268
▁나갈	-5269
▁나는	-5270
▁남양	-5271
▁낸드	-5272
▁담긴	-5273
▁등급	-5274
▁맡고	-5275
▁맡아	-5276
▁면적	-5277
▁모임	-5278
▁바꿀	-5279
▁배럴	-5280
▁배제	-5281
▁부여	-5282
▁소외	-5283
▁실용	-5284
▁오피	-5285
▁요금	-5286
▁유력	-5287
▁음성	-5288
▁의존	-5289
▁이때	-5290
▁인쇄	-5291
▁인텔	-5292
▁재해	-5293
▁정산	-5294
▁줬다	-5295
▁증시	-5296
▁집단	-5297
▁창의	-5298
▁키운	-5299
▁통제	-5300
▁푸본	-5301
▁한솔	-5302
▁한편	-5303
▁호소	-5304
▁홍콩	-5305
가량의	-5306
러스터	-5307
받는다	-5308
본부장	-5309
스토랑	-5310
업체가	-5311
일에는	-5312
카카오	-5313
컨설팅	-5314
하고자	-5315
orea	-5316
▁800	-5317
▁900	-5318
▁건강한	-5319
▁경쟁을	-5320
▁급격히	-5321
▁대상이	-5322
▁동대문	-5323
▁동일인	-5324
▁때까지	-5325
▁라이프	-5326
▁말레이	-5327
▁말부터	-5328
▁모습을	-5329
▁바이오	-5330
▁보였다	-5331
▁부드럽	-5332
▁브루노	-5333
▁사업도	-5334
▁상당한	-5335
▁상품이	-5336
▁상하이	-5337
▁소재로	-5338
▁손실을	-5339
▁수준이	-5340
▁신뢰를	-5341
▁않아도	-5342
▁알려진	-5343
▁업체에	-5344
▁에틸렌	-5345
▁와인을	-5346
▁입장을	-5347
▁자체가	-5348
▁적합한	-5349
▁점수를	-5350
▁제품도	-5351
▁조직을	-5352
▁줄이는	-5353
▁직장인	-5354
▁추진할	-5355
▁충분히	-5356
▁컨트롤	-5357
▁파업을	-5358
▁풍부한	-5359
렌탈케어	-5360
어드바이	-5361
업체들은	-5362
오프라인	-5363
천연가스	-5364
▁1998	-5365
▁2025	-5366
▁8000	-5367
▁기념촬영	-5368
▁기대하고	-5369
▁노동생산	-5370
▁높아지고	-5371
▁배경이다	-5372
▁블루보틀	-5373
▁비정규직	-5374
▁비판했다	-5375
▁사업이다	-5376
▁서비스가	-5377
▁선보이며	-5378
▁성장률이	-5379
▁성장하고	-5380
▁신용평가	-5381
▁신제품을	-5382
▁업체들의	-5383
▁자산관리	-5384
▁중국에서	-5385
▁최대주주	-5386
▁캠페인을	-5387
▁컨테이너	-5388
▁한국은행	-5389
▁해당하는	-5390
▁말레이시아	-5391
▁중소벤처기업진흥공단	-5392
le	-5393
or	-5394
▁냈	-5395
▁딜	-5396
▁똑	-5397
▁럭	-5398
▁묶	-5399
▁써	-5400
같은	-5401
개가	-5402
건에	-5403
계에	-5404
공급	-5405
군을	-5406
당한	-5407
됐고	-5408
듬해	-5409
리너	-5410
리즘	-5411
림픽	-5412
만간	-5413
미아	-5414
보자	-5415
부채	-5416
섭취	-5417
세는	-5418
시트	-5419
신고	-5420
어로	-5421
여금	-5422
역을	-5423
일본	-5424
전환	-5425
주얼	-5426
중에	-5427
지요	-5428
치킨	-5429
쿠팡	-5430
퇴직	-5431
티지	-5432
패션	-5433
활용	-5434
ILO	-5435
▁43	-5436
▁69	-5437
▁같이	-5438
▁개를	-5439
▁개성	-5440
▁거친	-5441
▁건의	-5442
▁경찰	-5443
▁그린	-5444
▁급감	-5445
▁끊임	-5446
▁낙관	-5447
▁노인	-5448
▁눈을	-5449
▁돕기	-5450
▁동영	-5451
▁되고	-5452
▁듣고	-5453
▁매입	-5454
▁물러	-5455
▁발견	-5456
▁버스	-5457
▁보관	-5458
▁복구	-5459
▁부양	-5460
▁불러	-5461
▁사는	-5462
▁산정	-5463
▁선발	-5464
▁섬유	-5465
▁속속	-5466
▁수급	-5467
▁순환	-5468
▁시기	-5469
▁신입	-5470
▁신형	-5471
▁애로	-5472
▁얘기	-5473
▁엄격	-5474
▁에이	-5475
▁여당	-5476
▁옷을	-5477
▁은퇴	-5478
▁의도	-5479
▁이천	-5480
▁이틀	-5481
▁입법	-5482
▁입은	-5483
▁자국	-5484
▁전원	-5485
▁제정	-5486
▁줄이	-5487
▁책을	-5488
▁초반	-5489
▁출근	-5490
▁캠핑	-5491
▁탈취	-5492
▁테이	-5493
▁투쟁	-5494
▁폐기	-5495
▁표창	-5496
▁후속	-5497
기업을	-5498
대학원	-5499
보디아	-5500
식에서	-5501
신세계	-5502
어린이	-5503
업체의	-5504
일리톨	-5505
일자리	-5506
자금을	-5507
전자가	-5508
전자의	-5509
조정을	-5510
책임자	-5511
▁개선을	-5512
▁관광객	-5513
▁기간에	-5514
▁기존의	-5515
▁기회가	-5516
▁내놓을	-5517
▁넘었다	-5518
▁다르다	-5519
▁맞았다	-5520
▁무료로	-5521
▁박람회	-5522
▁벌였다	-5523
▁별도로	-5524
▁부족한	-5525
▁상대로	-5526
▁수준에	-5527
▁수출은	-5528
▁수치다	-5529
▁시작된	-5530
▁심사를	-5531
▁아마존	-5532
▁않다는	-5533
▁얘기가	-5534
▁어려울	-5535
▁업체의	-5536
▁웅진코	-5537
▁위험이	-5538
▁유가가	-5539
▁유명한	-5540
▁이듬해	-5541
▁이상인	-5542
▁이익을	-5543
▁일부를	-5544
▁일하는	-5545
▁있어야	-5546
▁적용할	-5547
▁진출한	-5548
▁참석해	-5549
▁최적의	-5550
▁탓이다	-5551
▁투자는	-5552
▁폭으로	-5553
▁한국이	-5554
▁가능성은	-5555
▁대해서도	-5556
▁롯데그룹	-5557
▁마련됐다	-5558
▁상품으로	-5559
▁서비스는	-5560
▁선보이는	-5561
▁성장하는	-5562
▁종신보험	-5563
▁증가율은	-5564
▁지역에서	-5565
▁진출했다	-5566
▁진행하고	-5567
▁측면에서	-5568
▁디자인으로	-5569
▁삼성전자의	-5570
▁임직원들이	-5571
▁자유한국당	-5572
▁재생에너지	-5573
▁지난해에는	-5574
▁카카오뱅크	-5575
▁팝업스토어	-5576
소득주도성장	-5577
▁에어프라이어	-5578
▁소셜네트워크서비스	-5579
?“	-5580
CS	-5581
PA	-5582
PP	-5583
aT	-5584
”(	-5585
▁깎	-5586
▁봅	-5587
▁캡	-5588
▁쾌	-5589
▁탐	-5590
▁털	-5591
▁펴	-5592
건은	-5593
건의	-5594
규칙	-5595
끄는	-5596
나가	-5597
나노	-5598
되자	-5599
리면	-5600
리세	-5601
뱅킹	-5602
버터	-5603
번째	-5604
보건	-5605
보장	-5606
산이	-5607
세서	-5608
소로	-5609
소연	-5610
심판	-5611
업무	-5612
업은	-5613
연을	-5614
우는	-5615
육성	-5616
장수	-5617
재산	-5618
정은	-5619
중심	-5620
집단	-5621
차원	-5622
총리	-5623
추럴	-5624
충전	-5625
타임	-5626
파이	-5627
한은	-5628
훈련	-5629
▁개방	-5630
▁것에	-5631
▁공항	-5632
▁국정	-5633
▁나섰	-5634
▁내비	-5635
▁넣은	-5636
▁단위	-5637
▁동향	-5638
▁디젤	-5639
▁떠오	-5640
▁말이	-5641
▁매수	-5642
▁명목	-5643
▁명에	-5644
▁모범	-5645
▁몰려	-5646
▁바나	-5647
▁법정	-5648
▁벚꽃	-5649
▁보통	-5650
▁불만	-5651
▁뷰티	-5652
▁빨리	-5653
▁사드	-5654
▁사후	-5655
▁살려	-5656
▁삶의	-5657
▁상관	-5658
▁세트	-5659
▁손해	-5660
▁수백	-5661
▁시민	-5662
▁썼다	-5663
▁연세	-5664
▁올랐	-5665
▁옮겨	-5666
▁완구	-5667
▁요가	-5668
▁용인	-5669
▁운반	-5670
▁웃돌	-5671
▁원료	-5672
▁유아	-5673
▁육아	-5674
▁인지	-5675
▁입증	-5676
▁작동	-5677
▁전주	-5678
▁점이	-5679
▁접근	-5680
▁주말	-5681
▁중동	-5682
▁지식	-5683
▁직전	-5684
▁축적	-5685
▁측이	-5686
▁쿠폰	-5687
▁타결	-5688
▁특가	-5689
▁한번	-5690
▁화물	-5691
리면서	-5692
만원에	-5693
맘스터	-5694
부동산	-5695
산화물	-5696
새로운	-5697
시장이	-5698
앤쇼핑	-5699
에게는	-5700
자들의	-5701
조지아	-5702
지난달	-5703
회사를	-5704
▁2~3	-5705
▁가입할	-5706
▁경기도	-5707
▁경영을	-5708
▁공개한	-5709
▁규제가	-5710
▁기반을	-5711
▁논란이	-5712
▁돼지고	-5713
▁들어선	-5714
▁때보다	-5715
▁마켓컬	-5716
▁말이다	-5717
▁변화에	-5718
▁사업의	-5719
▁사이즈	-5720
▁상당의	-5721
▁상품도	-5722
▁생산성	-5723
▁선정해	-5724
▁수도권	-5725
▁스위스	-5726
▁에어컨	-5727
▁올해로	-5728
▁은행권	-5729
▁점포를	-5730
▁정부에	-5731
▁조만간	-5732
▁체계를	-5733
▁키우는	-5734
▁탈원전	-5735
▁판매량	-5736
▁효율을	-5737
셨습니다	-5738
저축은행	-5739
▁개발하고	-5740
▁경제학과	-5741
▁공동으로	-5742
▁관리하는	-5743
▁구상이다	-5744
▁구체적인	-5745
▁국토교통	-5746
▁기자간담	-5747
▁농협금융	-5748
▁레스토랑	-5749
▁목소리가	-5750
▁민주노총	-5751
▁반도체를	-5752
▁불과하다	-5753
▁불구하고	-5754
▁사이에서	-5755
▁시장에선	-5756
▁예상보다	-5757
▁유럽연합	-5758
▁이상으로	-5759
▁자유롭게	-5760
▁적용됐다	-5761
▁증가하는	-5762
▁캄보디아	-5763
▁클라우드	-5764
▁투자했다	-5765
▁현대차의	-5766
▁금융위원회	-5767
▁동남아시아	-5768
▁뛰어들었다	-5769
▁롯데케미칼	-5770
▁미세먼지를	-5771
▁성공적으로	-5772
▁실시간으로	-5773
▁카카오페이	-5774
▁파리바게뜨	-5775
▁대우조선해양	-5776
▁액화천연가스	-5777
78	-5778
PO	-5779
SO	-5780
oo	-5781
sh	-5782
▁k	-5783
▁s	-5784
▁뮤	-5785
▁왕	-5786
▁짧	-5787
▁탁	-5788
▁헌	-5789
▁휠	-5790
간편	-5791
구가	-5792
그라	-5793
나무	-5794
년은	-5795
디프	-5796
뜻한	-5797
란드	-5798
래스	-5799
로봇	-5800
르트	-5801
모든	-5802
미콘	-5803
백을	-5804
복합	-5805
분배	-5806
블랙	-5807
세법	-5808
세에	-5809
세종	-5810
션을	-5811
손보	-5812
쉽게	-5813
스턴	-5814
실적	-5815
아버	-5816
에스	-5817
에이	-5818
오토	-5819
운송	-5820
원태	-5821
유아	-5822
조건	-5823
차는	-5824
처를	-5825
치게	-5826
코드	-5827
포장	-5828
피해	-5829
학생	-5830
행사	-5831
현재	-5832
199	-5833
Fed	-5834
ICT	-5835
SMC	-5836
▁AP	-5837
▁NH	-5838
▁‘1	-5839
▁“1	-5840
▁개가	-5841
▁겪는	-5842
▁공무	-5843
▁근본	-5844
▁기울	-5845
▁길이	-5846
▁꼬집	-5847
▁내내	-5848
▁내야	-5849
▁당부	-5850
▁도와	-5851
▁도쿄	-5852
▁두드	-5853
▁드는	-5854
▁따져	-5855
▁마늘	-5856
▁많지	-5857
▁먼지	-5858
▁바뀐	-5859
▁범위	-5860
▁법제	-5861
▁보기	-5862
▁상용	-5863
▁상징	-5864
▁생겨	-5865
▁생긴	-5866
▁선수	-5867
▁설득	-5868
▁아메	-5869
▁양해	-5870
▁얻은	-5871
▁영화	-5872
▁운동	-5873
▁위촉	-5874
▁인센	-5875
▁장치	-5876
▁저가	-5877
▁적금	-5878
▁전날	-5879
▁조회	-5880
▁지점	-5881
▁진정	-5882
▁채무	-5883
▁충북	-5884
▁타고	-5885
▁타깃	-5886
▁파격	-5887
▁편입	-5888
▁푸드	-5889
▁하향	-5890
▁해양	-5891
▁힘든	-5892
거래소	-5893
공장을	-5894
기관인	-5895
미디어	-5896
베스트	-5897
산식품	-5898
시부터	-5899
위원은	-5900
은행장	-5901
이기도	-5902
카드를	-5903
케이션	-5904
텔레콤	-5905
팰리세	-5906
푸드빌	-5907
2016	-5908
▁IMF	-5909
▁KDB	-5910
▁LCD	-5911
▁겨냥해	-5912
▁결과다	-5913
▁경제에	-5914
▁고성능	-5915
▁공정위	-5916
▁금리가	-5917
▁기념해	-5918
▁기술로	-5919
▁내에서	-5920
▁넘겼다	-5921
▁달라는	-5922
▁당분간	-5923
▁대출을	-5924
▁들어갈	-5925
▁뛰어들	-5926
▁마스크	-5927
▁방식이	-5928
▁보험사	-5929
▁부진한	-5930
▁불린다	-5931
▁비율이	-5932
▁사이에	-5933
▁상품에	-5934
▁세탁기	-5935
▁앞장서	-5936
▁이유식	-5937
▁잇달아	-5938
▁있다면	-5939
▁자신이	-5940
▁전망도	-5941
▁전부터	-5942
▁조원태	-5943
▁줄이고	-5944
▁지난주	-5945
▁지원이	-5946
▁직원을	-5947
▁쪼그라	-5948
▁특성을	-5949
▁형태의	-5950
▁회의를	-5951
금융기술	-5952
디프랜드	-5953
사관학교	-5954
▁강화하기	-5955
▁구매하는	-5956
▁기술개발	-5957
▁높아졌다	-5958
▁모빌리티	-5959
▁베이커리	-5960
▁분석된다	-5961
▁브랜드와	-5962
▁사회복지	-5963
▁선정했다	-5964
▁소개하고	-5965
▁수익률을	-5966
▁시장점유	-5967
▁안마의자	-5968
▁앞으로도	-5969
▁온라인몰	-5970
▁외환위기	-5971
▁왼쪽부터	-5972
▁유지하고	-5973
▁이어가고	-5974
▁인센티브	-5975
▁자산운용	-5976
▁장점이다	-5977
▁지급한다	-5978
▁지속가능	-5979
▁진행된다	-5980
▁친환경차	-5981
▁편리하게	-5982
▁하락했다	-5983
▁한국에서	-5984
하이닉스는	-5985
▁부동산펀드	-5986
▁소비자들은	-5987
▁스타트업을	-5988
이노베이션은	-5989
▁경제협력개발기구	-5990
▁금호아시아나그룹	-5991
43	-5992
67	-5993
89	-5994
AP	-5995
cm	-5996
ic	-5997
~7	-5998
▁갚	-5999
▁곤	-6000
▁꼼	-6001
▁델	-6002
▁됐	-6003
▁숨	-6004
▁숫	-6005
▁옆	-6006
▁튀	-6007
▁퓨	-6008
▁핸	-6009
▁혐	-6010
▁흥	-6011
가맹	-6012
감동	-6013
값은	-6014
건전	-6015
계층	-6016
고기	-6017
곳이	-6018
국이	-6019
나고	-6020
네수	-6021
놓고	-6022
다오	-6023
닥터	-6024
대와	-6025
돈을	-6026
배움	-6027
삼구	-6028
실장	-6029
았던	-6030
없는	-6031
유로	-6032
의가	-6033
자율	-6034
전거	-6035
주일	-6036
지사	-6037
착한	-6038
청소	-6039
층이	-6040
토니	-6041
통장	-6042
팩트	-6043
피아	-6044
학적	-6045
행위	-6046
IoT	-6047
▁73	-6048
▁SI	-6049
▁가파	-6050
▁감독	-6051
▁게임	-6052
▁과일	-6053
▁국립	-6054
▁기억	-6055
▁내지	-6056
▁대림	-6057
▁데도	-6058
▁도로	-6059
▁드론	-6060
▁들이	-6061
▁런던	-6062
▁레벨	-6063
▁로그	-6064
▁멘토	-6065
▁모여	-6066
▁무산	-6067
▁물을	-6068
▁미친	-6069
▁보완	-6070
▁부사	-6071
▁부스	-6072
▁북한	-6073
▁사항	-6074
▁상권	-6075
▁섭취	-6076
▁수영	-6077
▁수천	-6078
▁순간	-6079
▁스튜	-6080
▁스티	-6081
▁시점	-6082
▁아기	-6083
▁아무	-6084
▁아주	-6085
▁아침	-6086
▁없고	-6087
▁열풍	-6088
▁예금	-6089
▁오더	-6090
▁오리	-6091
▁월드	-6092
▁유진	-6093
▁의결	-6094
▁자발	-6095
▁재개	-6096
▁재산	-6097
▁저녁	-6098
▁전월	-6099
▁제일	-6100
▁존재	-6101
▁종전	-6102
▁좋지	-6103
▁주거	-6104
▁주인	-6105
▁즉시	-6106
▁채택	-6107
▁촬영	-6108
▁최신	-6109
▁충당	-6110
▁치료	-6111
▁클럽	-6112
▁키즈	-6113
▁포상	-6114
▁플래	-6115
▁해지	-6116
▁해킹	-6117
계약을	-6118
곳에서	-6119
그동안	-6120
기까지	-6121
된다는	-6122
쇼핑몰	-6123
스타일	-6124
실에서	-6125
이번에	-6126
컴퍼니	-6127
했으며	-6128
▁Top	-6129
▁가능성	-6130
▁가능해	-6131
▁강조한	-6132
▁겨냥한	-6133
▁경영계	-6134
▁기본급	-6135
▁기재부	-6136
▁내렸다	-6137
▁단순히	-6138
▁대표를	-6139
▁대학생	-6140
▁들어간	-6141
▁레이저	-6142
▁발굴해	-6143
▁발전을	-6144
▁변화가	-6145
▁부사장	-6146
▁분석도	-6147
▁비용은	-6148
▁비타민	-6149
▁사례도	-6150
▁상속세	-6151
▁서강대	-6152
▁성장한	-6153
▁세금이	-6154
▁손쉽게	-6155
▁수익률	-6156
▁시너지	-6157
▁식이다	-6158
▁올리는	-6159
▁운영을	-6160
▁유튜브	-6161
▁의지를	-6162
▁이뤄진	-6163
▁인수를	-6164
▁자동화	-6165
▁전략은	-6166
▁전환을	-6167
▁제공할	-6168
▁지원해	-6169
▁최첨단	-6170
▁카드사	-6171
▁크기의	-6172
▁합의를	-6173
▁활력을	-6174
▁회장에	-6175
들로부터	-6176
사회노동	-6177
상공회의	-6178
중기부는	-6179
▁2500	-6180
▁TSMC	-6181
▁간담회를	-6182
▁경사노위	-6183
▁고용보험	-6184
▁고용부는	-6185
▁구성됐다	-6186
▁근로자의	-6187
▁급증했다	-6188
▁꼬집었다	-6189
▁내년부터	-6190
▁덕분이다	-6191
▁동기보다	-6192
▁본격적인	-6193
▁불과했다	-6194
▁비슷하다	-6195
▁아프리카	-6196
▁전기요금	-6197
▁점유율이	-6198
▁제주항공	-6199
▁주목받고	-6200
▁주문했다	-6201
▁증가하고	-6202
▁지배구조	-6203
▁진단했다	-6204
▁진행하는	-6205
▁채권단이	-6206
▁콘셉트로	-6207
▁통화정책	-6208
▁합리적인	-6209
팰리세이드	-6210
▁사물인터넷	-6211
▁영업손실을	-6212
▁자율주행차	-6213
▁신재생에너지	-6214
▁정보통신기술	-6215
▁크라우드펀딩	-6216
23	-6217
45	-6218
AS	-6219
DT	-6220
PS	-6221
ty	-6222
·2	-6223
▁샤	-6224
▁켜	-6225
가공	-6226
간의	-6227
곳을	-6228
공기	-6229
까요	-6230
내셔	-6231
노우	-6232
다양	-6233
단의	-6234
담보	-6235
대면	-6236
대우	-6237
대책	-6238
도의	-6239
동빈	-6240
들인	-6241
란다	-6242
로우	-6243
론은	-6244
리테	-6245
멘트	-6246
문고	-6247
봉사	-6248
브루	-6249
상에	-6250
상조	-6251
선스	-6252
선이	-6253
설록	-6254
셔리	-6255
소외	-6256
수지	-6257
시험	-6258
씨가	-6259
어진	-6260
언스	-6261
오염	-6262
월엔	-6263
의료	-6264
인가	-6265
저트	-6266
전망	-6267
져야	-6268
졌고	-6269
조트	-6270
주력	-6271
준비	-6272
지인	-6273
질이	-6274
탄을	-6275
트넘	-6276
티카	-6277
팀을	-6278
파업	-6279
표를	-6280
회와	-6281
and	-6282
▁58	-6283
▁63	-6284
▁7%	-6285
▁77	-6286
▁Aw	-6287
▁IR	-6288
▁감면	-6289
▁개념	-6290
▁객실	-6291
▁골라	-6292
▁공시	-6293
▁국채	-6294
▁급속	-6295
▁남아	-6296
▁내에	-6297
▁내일	-6298
▁냄새	-6299
▁넣고	-6300
▁달에	-6301
▁달콤	-6302
▁대량	-6303
▁대용	-6304
▁데크	-6305
▁도금	-6306
▁도달	-6307
▁돕고	-6308
▁되지	-6309
▁면담	-6310
▁명확	-6311
▁무상	-6312
▁물량	-6313
▁미사	-6314
▁밝힌	-6315
▁배정	-6316
▁생두	-6317
▁소음	-6318
▁스프	-6319
▁스피	-6320
▁시급	-6321
▁신차	-6322
▁아예	-6323
▁압도	-6324
▁앱을	-6325
▁언론	-6326
▁얼굴	-6327
▁역사	-6328
▁오를	-6329
▁온도	-6330
▁올릴	-6331
▁이끈	-6332
▁일환	-6333
▁임대	-6334
▁적격	-6335
▁제약	-6336
▁조금	-6337
▁종가	-6338
▁종목	-6339
▁주기	-6340
▁지능	-6341
▁지닌	-6342
▁찾기	-6343
▁총수	-6344
▁커버	-6345
▁클린	-6346
▁토종	-6347
▁팔아	-6348
▁편집	-6349
▁평소	-6350
▁표면	-6351
▁합쳐	-6352
▁회전	-6353
기업은	-6354
스터리	-6355
올해는	-6356
인프라	-6357
총연맹	-6358
터미널	-6359
한다면	-6360
해지는	-6361
2015	-6362
ards	-6363
▁130	-6364
▁3~4	-6365
▁가성비	-6366
▁가족이	-6367
▁거래를	-6368
▁계획도	-6369
▁곳에서	-6370
▁곳이다	-6371
▁관련된	-6372
▁관세청	-6373
▁교육과	-6374
▁구매한	-6375
▁구축을	-6376
▁급성장	-6377
▁기간을	-6378
▁기능도	-6379
▁넣었다	-6380
▁늘렸다	-6381
▁대표의	-6382
▁도널드	-6383
▁도입을	-6384
▁바람이	-6385
▁박영선	-6386
▁상담을	-6387
▁세련된	-6388
▁소비가	-6389
▁소통을	-6390
▁수익성	-6391
▁시대를	-6392
▁실리콘	-6393
▁양해각	-6394
▁얻었다	-6395
▁업계의	-6396
▁영역을	-6397
▁오렌지	-6398
▁오른쪽	-6399
▁올리고	-6400
▁외에도	-6401
▁유니폼	-6402
▁유동성	-6403
▁의지가	-6404
▁자료를	-6405
▁작업이	-6406
▁전략이	-6407
▁직무급	-6408
▁질문에	-6409
▁참여해	-6410
▁출범한	-6411
▁출시를	-6412
▁취임한	-6413
▁크다는	-6414
▁특별한	-6415
▁하나의	-6416
▁하소연	-6417
▁한국수	-6418
▁했다고	-6419
▁현대해	-6420
▁현상이	-6421
▁협력을	-6422
▁협약을	-6423
▁환율은	-6424
▁회사로	-6425
부가가치	-6426
스트리트	-6427
통화기금	-6428
함으로써	-6429
▁2023	-6430
▁강화하는	-6431
▁개발하는	-6432
▁근로자가	-6433
▁금호산업	-6434
▁낮아졌다	-6435
▁내놓는다	-6436
▁다양하다	-6437
▁다이어트	-6438
▁담당하는	-6439
▁돌파했다	-6440
▁돼지고기	-6441
▁디자인이	-6442
▁마이너스	-6443
▁생태계를	-6444
▁설문조사	-6445
▁세계에서	-6446
▁수제맥주	-6447
▁시작됐다	-6448
▁애로사항	-6449
▁어린이날	-6450
▁어울리는	-6451
▁에스프레	-6452
▁이용하는	-6453
▁인정받아	-6454
▁자본주의	-6455
▁좋아하는	-6456
▁증정한다	-6457
▁지난해엔	-6458
▁지원금을	-6459
▁짜파게티	-6460
▁차지한다	-6461
▁출시됐다	-6462
▁편의성을	-6463
소비자포럼	-6464
어드바이저	-6465
▁금호타이어	-6466
▁바디프랜드	-6467
▁베이징현대	-6468
▁업무협약을	-6469
▁Awards	-6470
▁신세계백화점	-6471
노동조합총연맹	-6472
73	-6473
?”	-6474
OO	-6475
▁낳	-6476
▁듀	-6477
▁엠	-6478
▁죽	-6479
▁톡	-6480
▁틈	-6481
▁홀	-6482
가와	-6483
개에	-6484
경정	-6485
곳의	-6486
관은	-6487
금과	-6488
기고	-6489
네사	-6490
노사	-6491
는지	-6492
디즈	-6493
또한	-6494
렉스	-6495
로그	-6496
멕시	-6497
뮤니	-6498
미와	-6499
바른	-6500
반면	-6501
방을	-6502
배달	-6503
보안	-6504
분석	-6505
블리	-6506
비밀	-6507
비와	-6508
샐러	-6509
소시	-6510
소와	-6511
애나	-6512
어가	-6513
연한	-6514
우유	-6515
위안	-6516
유니	-6517
자흐	-6518
전시	-6519
정의	-6520
정치	-6521
제와	-6522
제주	-6523
제한	-6524
졌기	-6525
주식	-6526
주인	-6527
줘야	-6528
지출	-6529
직한	-6530
척을	-6531
키로	-6532
통계	-6533
편의	-6534
평양	-6535
화와	-6536
600	-6537
PEF	-6538
▁41	-6539
▁67	-6540
▁개막	-6541
▁개혁	-6542
▁검출	-6543
▁경북	-6544
▁과감	-6545
▁그가	-6546
▁꼼꼼	-6547
▁능력	-6548
▁달간	-6549
▁대대	-6550
▁대목	-6551
▁도심	-6552
▁독점	-6553
▁떠올	-6554
▁마리	-6555
▁먹거	-6556
▁명동	-6557
▁물질	-6558
▁밑돌	-6559
▁박정	-6560
▁받았	-6561
▁백악	-6562
▁본부	-6563
▁부각	-6564
▁부실	-6565
▁분산	-6566
▁빌딩	-6567
▁서로	-6568
▁선제	-6569
▁선포	-6570
▁성인	-6571
▁세워	-6572
▁송금	-6573
▁수렴	-6574
▁수를	-6575
▁시달	-6576
▁신촌	-6577
▁안경	-6578
▁않기	-6579
▁여는	-6580
▁예다	-6581
▁완공	-6582
▁의한	-6583
▁입력	-6584
▁자격	-6585
▁장려	-6586
▁적발	-6587
▁전무	-6588
▁전방	-6589
▁점차	-6590
▁주물	-6591
▁철수	-6592
▁첨가	-6593
▁체감	-6594
▁체크	-6595
▁택시	-6596
▁펀딩	-6597
▁해고	-6598
▁혼란	-6599
▁회수	-6600
들과의	-6601
명이다	-6602
모니아	-6603
사업의	-6604
시설을	-6605
시키기	-6606
점이다	-6607
조사를	-6608
포스코	-6609
플래시	-6610
하우시	-6611
회장이	-6612
,000	-6613
▁LPG	-6614
▁PEF	-6615
▁“20	-6616
▁가지고	-6617
▁걸렸다	-6618
▁것처럼	-6619
▁결과가	-6620
▁고티카	-6621
▁그렇게	-6622
▁긍정적	-6623
▁꼽히는	-6624
▁냉장고	-6625
▁담보로	-6626
▁리뉴얼	-6627
▁매물로	-6628
▁메뉴를	-6629
▁박삼구	-6630
▁받아야	-6631
▁베네수	-6632
▁보이는	-6633
▁분야를	-6634
▁블렌딩	-6635
▁사용한	-6636
▁상태다	-6637
▁생산을	-6638
▁성공한	-6639
▁수입차	-6640
▁스페인	-6641
▁신라면	-6642
▁위스키	-6643
▁유기농	-6644
▁이끌고	-6645
▁이르는	-6646
▁이용한	-6647
▁이유를	-6648
▁임금을	-6649
▁자전거	-6650
▁정도의	-6651
▁조정호	-6652
▁조합원	-6653
▁주식을	-6654
▁지원금	-6655
▁지원에	-6656
▁참가해	-6657
▁챔피언	-6658
▁최근엔	-6659
▁커지는	-6660
▁쿠팡이	-6661
▁플라워	-6662
▁하면서	-6663
▁항공사	-6664
▁협업해	-6665
▁확대에	-6666
경정예산	-6667
기본계획	-6668
기업들이	-6669
노우라인	-6670
만원이다	-6671
석유화학	-6672
소상공인	-6673
시스템을	-6674
억달러를	-6675
오일뱅크	-6676
▁가입하면	-6677
▁결정했다	-6678
▁공급하는	-6679
▁국회의원	-6680
▁노사관계	-6681
▁늘어난다	-6682
▁단계부터	-6683
▁대기업이	-6684
▁대상에서	-6685
▁모니터링	-6686
▁블랙스톤	-6687
▁비트코인	-6688
▁생활가전	-6689
▁설립했다	-6690
▁스타일의	-6691
▁신용등급	-6692
▁안전관리	-6693
▁없습니다	-6694
▁전망치를	-6695
▁전통시장	-6696
▁점유율을	-6697
▁준비했다	-6698
▁중시하는	-6699
▁지나치게	-6700
▁직원들의	-6701
▁청년창업	-6702
▁체결했다	-6703
▁콘텐츠를	-6704
▁헬스케어	-6705
업계에서는	-6706
▁10~20	-6707
▁계획입니다	-6708
▁고급스러운	-6709
▁전기자동차	-6710
▁지난해보다	-6711
▁트레이더스	-6712
▁하이브리드	-6713
▁현대중공업은	-6714
▁아시아나항공은	-6715
1,	-6716
44	-6717
62	-6718
69	-6719
AT	-6720
ch	-6721
▁《	-6722
▁밟	-6723
▁볶	-6724
▁빙	-6725
▁쌍	-6726
▁앉	-6727
▁엑	-6728
▁칩	-6729
▁훌	-6730
가장	-6731
개인	-6732
검사	-6733
계좌	-6734
구직	-6735
권과	-6736
그래	-6737
널리	-6738
단에	-6739
달라	-6740
닷컴	-6741
대리	-6742
되며	-6743
락앤	-6744
럭시	-6745
루미	-6746
류세	-6747
리핑	-6748
바닥	-6749
박한	-6750
배로	-6751
사용	-6752
세안	-6753
스앤	-6754
액의	-6755
약품	-6756
울렛	-6757
워터	-6758
유기	-6759
의로	-6760
이동	-6761
일방	-6762
일부	-6763
장년	-6764
정에	-6765
주를	-6766
카데	-6767
카이	-6768
플러	-6769
해주	-6770
협정	-6771
홈데	-6772
환급	-6773
히고	-6774
8%,	-6775
ion	-6776
~10	-6777
▁4%	-6778
▁95	-6779
▁가중	-6780
▁개로	-6781
▁골프	-6782
▁공조	-6783
▁균형	-6784
▁그중	-6785
▁김동	-6786
▁끝난	-6787
▁남은	-6788
▁낸다	-6789
▁냉감	-6790
▁넥센	-6791
▁노출	-6792
▁달려	-6793
▁달을	-6794
▁대법	-6795
▁데는	-6796
▁동맹	-6797
▁두께	-6798
▁때가	-6799
▁떠나	-6800
▁로드	-6801
▁마실	-6802
▁매력	-6803
▁매주	-6804
▁미칠	-6805
▁보낸	-6806
▁불법	-6807
▁사우	-6808
▁수분	-6809
▁숙박	-6810
▁양도	-6811
▁영구	-6812
▁워터	-6813
▁이원	-6814
▁자료	-6815
▁잡은	-6816
▁전공	-6817
▁전액	-6818
▁제네	-6819
▁주가	-6820
▁주차	-6821
▁차를	-6822
▁창구	-6823
▁찾을	-6824
▁최악	-6825
▁커진	-6826
▁크림	-6827
▁테크	-6828
▁편성	-6829
▁평창	-6830
▁평택	-6831
▁포항	-6832
▁하위	-6833
▁학교	-6834
▁한도	-6835
▁한우	-6836
▁허리	-6837
각에선	-6838
겠지만	-6839
됐다고	-6840
라다이	-6841
락앤락	-6842
롯데는	-6843
메이션	-6844
멕시코	-6845
명에게	-6846
모비스	-6847
문화를	-6848
물질을	-6849
반기에	-6850
사회적	-6851
셧다운	-6852
습니까	-6853
시간을	-6854
실가스	-6855
어졌다	-6856
용으로	-6857
조원에	-6858
중진공	-6859
지수는	-6860
커피는	-6861
협회가	-6862
형으로	-6863
호점을	-6864
▁05%	-6865
▁SPC	-6866
▁감안해	-6867
▁고객은	-6868
▁고품질	-6869
▁곳으로	-6870
▁과감한	-6871
▁구성해	-6872
▁국내산	-6873
▁국민의	-6874
▁그랜드	-6875
▁금융위	-6876
▁기대가	-6877
▁기저귀	-6878
▁기존에	-6879
▁논의를	-6880
▁능력을	-6881
▁뛰어넘	-6882
▁럭셔리	-6883
▁레시피	-6884
▁마련해	-6885
▁마시는	-6886
▁만났다	-6887
▁모았다	-6888
▁못하면	-6889
▁반응이	-6890
▁봅니다	-6891
▁부모님	-6892
▁부문에	-6893
▁부정적	-6894
▁분위기	-6895
▁살렸다	-6896
▁생각이	-6897
▁선보일	-6898
▁소규모	-6899
▁소득을	-6900
▁신청한	-6901
▁안전한	-6902
▁업체는	-6903
▁요인이	-6904
▁유지할	-6905
▁의견이	-6906
▁이들의	-6907
▁재활용	-6908
▁적용된	-6909
▁전면에	-6910
▁전보다	-6911
▁조건을	-6912
▁조치를	-6913
▁줄였다	-6914
▁직원의	-6915
▁차량의	-6916
▁창출을	-6917
▁출시할	-6918
▁캐주얼	-6919
▁커뮤니	-6920
▁통계를	-6921
▁특화된	-6922
▁피부에	-6923
▁행사다	-6924
▁환경부	-6925
▁회장님	-6926
▁후보로	-6927
겠습니다	-6928
만달러를	-6929
이지애나	-6930
프리미엄	-6931
플라스틱	-6932
회의에서	-6933
▁1300	-6934
▁1992	-6935
▁경고했다	-6936
▁경제학부	-6937
▁달성했다	-6938
▁당부했다	-6939
▁대상이다	-6940
▁방향으로	-6941
▁사용하고	-6942
▁생각하는	-6943
▁생명보험	-6944
▁생산하고	-6945
▁생활용품	-6946
▁설명하고	-6947
▁솔루션을	-6948
▁시너지를	-6949
▁시스템이	-6950
▁신한카드	-6951
▁아메리카	-6952
▁암모니아	-6953
▁어렵다는	-6954
▁업계에선	-6955
▁예상하고	-6956
▁올해부터	-6957
▁이곳에서	-6958
▁자영업자	-6959
▁작년보다	-6960
▁저소득층	-6961
▁정부서울	-6962
▁주방용품	-6963
▁집중하고	-6964
▁차지하고	-6965
▁추구하는	-6966
▁추진하는	-6967
▁커지면서	-6968
▁트렌드에	-6969
▁행사에는	-6970
▁협동조합	-6971
▁확대했다	-6972
▁활용하는	-6973
▁구조조정을	-6974
▁단계적으로	-6975
▁영업이익을	-6976
▁이유에서다	-6977
▁인플레이션	-6978
▁임금피크제	-6979
▁전문가들이	-6980
▁최저임금을	-6981
▁팰리세이드	-6982
▁추가경정예산	-6983
27	-6984
CR	-6985
DS	-6986
EV	-6987
FO	-6988
mL	-6989
ro	-6990
st	-6991
▁b	-6992
▁넉	-6993
▁닿	-6994
▁땅	-6995
▁링	-6996
▁빗	-6997
▁쇼	-6998
▁왔	-6999
▁짐	-7000
▁칭	-7001
▁펜	-7002
▁펫	-7003
▁혹	-7004
각을	-7005
국은	-7006
기인	-7007
능력	-7008
다수	-7009
단협	-7010
당성	-7011
대전	-7012
대체	-7013
더니	-7014
돼지	-7015
랜트	-7016
레븐	-7017
로도	-7018
리핀	-7019
리한	-7020
만한	-7021
무늬	-7022
발을	-7023
븐일	-7024
사무	-7025
상표	-7026
생의	-7027
스북	-7028
시한	-7029
쓰비	-7030
여서	-7031
연은	-7032
요일	-7033
원도	-7034
위험	-7035
이한	-7036
재가	-7037
쟁의	-7038
조세	-7039
주와	-7040
집을	-7041
청은	-7042
치의	-7043
침체	-7044
파는	-7045
판에	-7046
함이	-7047
해지	-7048
향에	-7049
회째	-7050
(18	-7051
LCC	-7052
~40	-7053
▁59	-7054
▁가는	-7055
▁가솔	-7056
▁갈아	-7057
▁강도	-7058
▁강소	-7059
▁개점	-7060
▁거치	-7061
▁경상	-7062
▁곳을	-7063
▁관람	-7064
▁관료	-7065
▁나누	-7066
▁낚시	-7067
▁내몰	-7068
▁노무	-7069
▁노트	-7070
▁높게	-7071
▁누가	-7072
▁다변	-7073
▁듯한	-7074
▁램프	-7075
▁무너	-7076
▁무선	-7077
▁밀려	-7078
▁바뀔	-7079
▁밖에	-7080
▁반등	-7081
▁발휘	-7082
▁배합	-7083
▁보도	-7084
▁분배	-7085
▁브라	-7086
▁산안	-7087
▁새벽	-7088
▁색상	-7089
▁서버	-7090
▁세수	-7091
▁세운	-7092
▁세척	-7093
▁수협	-7094
▁신임	-7095
▁실증	-7096
▁암호	-7097
▁에쓰	-7098
▁연관	-7099
▁연방	-7100
▁연수	-7101
▁예술	-7102
▁운전	-7103
▁원격	-7104
▁유발	-7105
▁유예	-7106
▁이례	-7107
▁이론	-7108
▁이루	-7109
▁이색	-7110
▁일회	-7111
▁재능	-7112
▁적절	-7113
▁정유	-7114
▁조립	-7115
▁조종	-7116
▁주당	-7117
▁주유	-7118
▁줄고	-7119
▁증설	-7120
▁질소	-7121
▁촉구	-7122
▁출고	-7123
▁충격	-7124
▁캐피	-7125
▁코디	-7126
▁콜롬	-7127
▁키울	-7128
▁탑승	-7129
▁토스	-7130
▁팔린	-7131
▁프리	-7132
▁피고	-7133
▁합병	-7134
가량을	-7135
개국에	-7136
개월째	-7137
고고도	-7138
공학과	-7139
금리는	-7140
금액은	-7141
년으로	-7142
됐지만	-7143
루미늄	-7144
명에서	-7145
모터스	-7146
베트남	-7147
센터는	-7148
소득세	-7149
소시엄	-7150
스타벅	-7151
시까지	-7152
어체계	-7153
였지만	-7154
올림픽	-7155
전기차	-7156
체계를	-7157
트럼프	-7158
프라이	-7159
홈데코	-7160
▁03%	-7161
▁04%	-7162
▁195	-7163
▁23%	-7164
▁26%	-7165
▁WTO	-7166
▁가맹본	-7167
▁갑자기	-7168
▁강화할	-7169
▁강화해	-7170
▁건자재	-7171
▁결합한	-7172
▁관계를	-7173
▁국회에	-7174
▁기술력	-7175
▁나들이	-7176
▁나서는	-7177
▁내세운	-7178
▁내세워	-7179
▁뉴트로	-7180
▁도입해	-7181
▁드라이	-7182
▁롯데가	-7183
▁마련한	-7184
▁맘스터	-7185
▁맡았다	-7186
▁모양의	-7187
▁목표는	-7188
▁미지급	-7189
▁미쳤다	-7190
▁민감한	-7191
▁방문객	-7192
▁범위를	-7193
▁부문은	-7194
▁분야는	-7195
▁브리핑	-7196
▁비교적	-7197
▁비율은	-7198
▁빠졌다	-7199
▁사실이	-7200
▁사업과	-7201
▁산업의	-7202
▁상태를	-7203
▁생산량	-7204
▁수시로	-7205
▁수입을	-7206
▁수출을	-7207
▁스토리	-7208
▁식으로	-7209
▁신선한	-7210
▁쓰이는	-7211
▁안팎의	-7212
▁예산이	-7213
▁요구를	-7214
▁우리가	-7215
▁운반선	-7216
▁위주로	-7217
▁육성을	-7218
▁이뤄질	-7219
▁이유가	-7220
▁인식을	-7221
▁자산을	-7222
▁저비용	-7223
▁전망을	-7224
▁전망치	-7225
▁전환에	-7226
▁제공해	-7227
▁제작한	-7228
▁졸업한	-7229
▁주머니	-7230
▁중기부	-7231
▁지표가	-7232
▁직원은	-7233
▁진출해	-7234
▁초대형	-7235
▁초청해	-7236
▁최종구	-7237
▁커피와	-7238
▁테이블	-7239
▁해왔다	-7240
▁현대상	-7241
▁회사에	-7242
▁회사채	-7243
경영자총	-7244
금융지주	-7245
기아차는	-7246
라다이스	-7247
븐일레븐	-7248
억달러로	-7249
인베스트	-7250
인터내셔	-7251
자산운용	-7252
처리장치	-7253
파트너스	-7254
하더라도	-7255
해지면서	-7256
혁신성장	-7257
▁1200	-7258
▁까다로운	-7259
▁끊임없이	-7260
▁단체협약	-7261
▁들어간다	-7262
▁디자인의	-7263
▁메시지를	-7264
▁목적으로	-7265
▁미사일방	-7266
▁바뀌었다	-7267
▁반도체는	-7268
▁분석됐다	-7269
▁삼성물산	-7270
▁삼성화재	-7271
▁상생협력	-7272
▁순이익을	-7273
▁스타필드	-7274
▁시장으로	-7275
▁신설했다	-7276
▁약속했다	-7277
▁온실가스	-7278
▁유일하게	-7279
▁이사회를	-7280
▁자리잡고	-7281
▁자일리톨	-7282
▁전망했다	-7283
▁제기된다	-7284
▁주관하는	-7285
▁주도하는	-7286
▁케이뱅크	-7287
▁콜롬비아	-7288
▁한국전력	-7289
삼성전자는	-7290
셀러레이터	-7291
▁고용노동부	-7292
▁금융위원장	-7293
▁낸드플래시	-7294
▁때문이라는	-7295
▁루이지애나	-7296
▁베네수엘라	-7297
▁불확실성이	-7298
▁업계에서는	-7299
▁정규직으로	-7300
▁중소기업과	-7301
▁직원들에게	-7302
▁초미세먼지	-7303
▁하반기부터	-7304
▁효율적으로	-7305
▁경제사회노동	-7306
▁국제통화기금	-7307
▁기념촬영하고	-7308
▁현대렌탈케어	-7309
▁미사일방어체계	-7310
68	-7311
88	-7312
IN	-7313
PB	-7314
PM	-7315
RC	-7316
VC	-7317
~8	-7318
▁<	-7319
▁땀	-7320
▁뚫	-7321
▁론	-7322
▁뿌	-7323
▁섞	-7324
▁옛	-7325
간접	-7326
값이	-7327
걸음	-7328
곰팡	-7329
과거	-7330
관광	-7331
관법	-7332
그레	-7333
기면	-7334
기반	-7335
기한	-7336
난을	-7337
노인	-7338
다시	-7339
다퉈	-7340
대금	-7341
데히	-7342
독일	-7343
동이	-7344
라떼	-7345
라미	-7346
라의	-7347
라자	-7348
래버	-7349
레니	-7350
렉트	-7351
로드	-7352
마자	-7353
만두	-7354
메이	-7355
목을	-7356
밀리	-7357
방식	-7358
버거	-7359
버리	-7360
번호	-7361
보드	-7362
사람	-7363
설명	-7364
세이	-7365
슈퍼	-7366
스러	-7367
업의	-7368
여행	-7369
연의	-7370
였고	-7371
예술	-7372
온다	-7373
우러	-7374
월은	-7375
이달	-7376
인천	-7377
자녀	-7378
점검	-7379
정기	-7380
제약	-7381
최고	-7382
층을	-7383
캠프	-7384
테이	-7385
텍은	-7386
특한	-7387
함에	-7388
화의	-7389
SOC	-7390
hsh	-7391
▁CS	-7392
▁GM	-7393
▁“(	-7394
▁가속	-7395
▁갑작	-7396
▁게보	-7397
▁그때	-7398
▁깔끔	-7399
▁노란	-7400
▁다소	-7401
▁다운	-7402
▁도서	-7403
▁동양	-7404
▁동의	-7405
▁동참	-7406
▁되기	-7407
▁레드	-7408
▁만날	-7409
▁맛이	-7410
▁맞물	-7411
▁먹을	-7412
▁미팅	-7413
▁반박	-7414
▁번에	-7415
▁부서	-7416
▁불참	-7417
▁비싼	-7418
▁비행	-7419
▁사각	-7420
▁사육	-7421
▁상인	-7422
▁서민	-7423
▁성금	-7424
▁성분	-7425
▁세부	-7426
▁셔츠	-7427
▁승부	-7428
▁시황	-7429
▁식물	-7430
▁신흥	-7431
▁아우	-7432
▁업황	-7433
▁에티	-7434
▁여유	-7435
▁역전	-7436
▁연차	-7437
▁영세	-7438
▁오뚜	-7439
▁오토	-7440
▁용산	-7441
▁웨이	-7442
▁위생	-7443
▁위치	-7444
▁유출	-7445
▁의식	-7446
▁이래	-7447
▁이비	-7448
▁입고	-7449
▁장난	-7450
▁재편	-7451
▁전동	-7452
▁전부	-7453
▁정수	-7454
▁정의	-7455
▁종이	-7456
▁줄곧	-7457
▁질감	-7458
▁차기	-7459
▁촉진	-7460
▁침구	-7461
▁캡슐	-7462
▁타계	-7463
▁타이	-7464
▁트럭	-7465
▁특구	-7466
▁파이	-7467
▁핑크	-7468
▁하강	-7469
▁학습	-7470
▁한샘	-7471
▁허브	-7472
▁현상	-7473
▁혼자	-7474
▁화성	-7475
공항점	-7476
교육을	-7477
그룹에	-7478
기업인	-7479
나라는	-7480
다양한	-7481
단법인	-7482
달러로	-7483
덴마크	-7484
디셀러	-7485
럼에도	-7486
모바일	-7487
번호를	-7488
비율은	-7489
생명은	-7490
시킨다	-7491
안으로	-7492
알데히	-7493
업체는	-7494
여금을	-7495
우리는	-7496
이라면	-7497
조원의	-7498
크리트	-7499
키스탄	-7500
하느냐	-7501
하자는	-7502
학과를	-7503
한국의	-7504
했으나	-7505
▁140	-7506
▁170	-7507
▁32%	-7508
▁KCC	-7509
▁가입자	-7510
▁가정용	-7511
▁개발할	-7512
▁개선에	-7513
▁거뒀다	-7514
▁건강을	-7515
▁계획이	-7516
▁고려한	-7517
▁고양시	-7518
▁과도한	-7519
▁관측도	-7520
▁구매를	-7521
▁구조다	-7522
▁그레이	-7523
▁기록을	-7524
▁기업가	-7525
▁기업도	-7526
▁농산물	-7527
▁높아진	-7528
▁느낌이	-7529
▁대비해	-7530
▁됐다고	-7531
▁렌털한	-7532
▁멕시코	-7533
▁명예교	-7534
▁명으로	-7535
▁밀어붙	-7536
▁바란다	-7537
▁번째로	-7538
▁부장은	-7539
▁블렌드	-7540
▁빈티지	-7541
▁사례를	-7542
▁사실을	-7543
▁산업부	-7544
▁상업용	-7545
▁서류를	-7546
▁설비를	-7547
▁세계적	-7548
▁소재의	-7549
▁수출입	-7550
▁실제로	-7551
▁아이스	-7552
▁앞다퉈	-7553
▁어려움	-7554
▁어우러	-7555
▁업체다	-7556
▁여건이	-7557
▁예산은	-7558
▁예정인	-7559
▁올해도	-7560
▁요구에	-7561
▁위상을	-7562
▁이르면	-7563
▁이었다	-7564
▁이익이	-7565
▁이재민	-7566
▁인수해	-7567
▁일본의	-7568
▁입지를	-7569
▁자금이	-7570
▁적격성	-7571
▁전까지	-7572
▁전반에	-7573
▁정했다	-7574
▁제도는	-7575
▁제시한	-7576
▁제휴를	-7577
▁줄면서	-7578
▁중국과	-7579
▁지역을	-7580
▁차량용	-7581
▁차원의	-7582
▁최우선	-7583
▁커피의	-7584
▁코엑스	-7585
▁통과한	-7586
▁티토니	-7587
▁판단해	-7588
▁팔리는	-7589
▁팔았다	-7590
▁풍미를	-7591
▁하나인	-7592
▁하는데	-7593
▁해외로	-7594
▁화제가	-7595
▁활동에	-7596
▁회장도	-7597
▁힘들다	-7598
그룹으로	-7599
기업들은	-7600
년부터는	-7601
인프라코	-7602
자연마루	-7603
자흐스탄	-7604
현대차는	-7605
hshin	-7606
▁1979	-7607
▁1996	-7608
▁개정안을	-7609
▁고객감동	-7610
▁공공조달	-7611
▁공정위는	-7612
▁관점에서	-7613
▁구축했다	-7614
▁노하우와	-7615
▁늘어나고	-7616
▁동원그룹	-7617
▁롯데마트	-7618
▁맺었다고	-7619
▁무엇보다	-7620
▁미스터리	-7621
▁반려동물	-7622
▁보고서를	-7623
▁보험료를	-7624
▁부사장은	-7625
▁분리과세	-7626
▁분위기를	-7627
▁블랙야크	-7628
▁샌드박스	-7629
▁서비스인	-7630
▁실질적인	-7631
▁알루미늄	-7632
▁양해각서	-7633
▁요구하고	-7634
▁요구했다	-7635
▁우려했다	-7636
▁운영한다	-7637
▁이름으로	-7638
▁일상생활	-7639
▁있었지만	-7640
▁제출했다	-7641
▁주최하고	-7642
▁줄어들고	-7643
▁중기부는	-7644
▁증가율이	-7645
▁채권단에	-7646
▁채권단은	-7647
▁최고치를	-7648
▁최근에는	-7649
▁컨소시엄	-7650
▁투자은행	-7651
▁파격적인	-7652
▁포함됐다	-7653
▁현장에서	-7654
▁현재까지	-7655
▁홈앤쇼핑	-7656
▁효율성을	-7657
▁Korea	-7658
▁‘2018	-7659
▁공정거래법	-7660
▁미세먼지가	-7661
▁베스트셀러	-7662
▁벤처캐피털	-7663
▁아메리카노	-7664
▁영업이익이	-7665
▁중소기업을	-7666
현대중공업은	-7667
▁khshin	-7668
▁공기청정기를	-7669
▁소비자들에게	-7670
▁포트폴리오를	-7671
▁프로그램이다	-7672
▁공정거래위원회	-7673
▁정부서울청사에서	-7674
34	-7675
52	-7676
BK	-7677
NI	-7678
OT	-7679
RA	-7680
VR	-7681
ay	-7682
~1	-7683
▁X	-7684
▁d	-7685
▁딱	-7686
▁딸	-7687
▁땐	-7688
▁묵	-7689
▁봤	-7690
▁웹	-7691
▁칠	-7692
▁칸	-7693
▁혈	-7694
개정	-7695
경훈	-7696
과를	-7697
구호	-7698
근당	-7699
근혜	-7700
기지	-7701
나이	-7702
내기	-7703
느라	-7704
됐기	-7705
디야	-7706
러다	-7707
러브	-7708
로서	-7709
로스	-7710
리며	-7711
리와	-7712
매각	-7713
명과	-7714
물류	-7715
미스	-7716
민족	-7717
바로	-7718
밴드	-7719
복을	-7720
부진	-7721
비율	-7722
비티	-7723
상증	-7724
선에	-7725
세아	-7726
솜이	-7727
수단	-7728
스위	-7729
스톱	-7730
시가	-7731
실이	-7732
심사	-7733
심의	-7734
쓰고	-7735
아웃	-7736
아직	-7737
아트	-7738
어서	-7739
어져	-7740
어질	-7741
업이	-7742
엔진	-7743
연수	-7744
완전	-7745
용기	-7746
웍스	-7747
이미	-7748
인수	-7749
장재	-7750
재무	-7751
제다	-7752
제에	-7753
주에	-7754
중지	-7755
지게	-7756
착순	-7757
철을	-7758
체에	-7759
쿼티	-7760
큐온	-7761
클럽	-7762
터를	-7763
테인	-7764
통합	-7765
포트	-7766
품이	-7767
희망	-7768
(14	-7769
(30	-7770
(50	-7771
PEC	-7772
mag	-7773
▁1,	-7774
▁CC	-7775
▁가볍	-7776
▁걸러	-7777
▁검사	-7778
▁겨울	-7779
▁경주	-7780
▁경품	-7781
▁골드	-7782
▁공사	-7783
▁교환	-7784
▁구간	-7785
▁국방	-7786
▁그림	-7787
▁김광	-7788
▁끝나	-7789
▁나프	-7790
▁날씨	-7791
▁내보	-7792
▁다크	-7793
▁달린	-7794
▁도마	-7795
▁동력	-7796
▁뒤집	-7797
▁마시	-7798
▁멈추	-7799
▁면역	-7800
▁배터	-7801
▁변형	-7802
▁변호	-7803
▁보건	-7804
▁부활	-7805
▁붙여	-7806
▁비자	-7807
▁사료	-7808
▁산학	-7809
▁상향	-7810
▁서점	-7811
▁선점	-7812
▁속옷	-7813
▁속초	-7814
▁수당	-7815
▁수질	-7816
▁순위	-7817
▁승낙	-7818
▁싱글	-7819
▁싶다	-7820
▁쓰레	-7821
▁앞둔	-7822
▁애니	-7823
▁양측	-7824
▁없던	-7825
▁에센	-7826
▁여부	-7827
▁예전	-7828
▁용량	-7829
▁음악	-7830
▁이로	-7831
▁이승	-7832
▁이웃	-7833
▁이주	-7834
▁이중	-7835
▁인생	-7836
▁인허	-7837
▁임차	-7838
▁자사	-7839
▁잠실	-7840
▁잡고	-7841
▁장을	-7842
▁재난	-7843
▁전장	-7844
▁점은	-7845
▁접속	-7846
▁중구	-7847
▁중순	-7848
▁지수	-7849
▁직속	-7850
▁질병	-7851
▁착안	-7852
▁찬성	-7853
▁추첨	-7854
▁축구	-7855
▁취소	-7856
▁콜드	-7857
▁태국	-7858
▁터키	-7859
▁파리	-7860
▁폐업	-7861
▁폴로	-7862
▁합동	-7863
▁합류	-7864
▁호황	-7865
▁화면	-7866
가정신	-7867
간편식	-7868
국으로	-7869
국제강	-7870
근로제	-7871
더스트	-7872
라호텔	-7873
러리아	-7874
문제는	-7875
바이오	-7876
버이날	-7877
베이터	-7878
본부의	-7879
선으로	-7880
소득이	-7881
업체와	-7882
오피아	-7883
요금을	-7884
원자력	-7885
을지로	-7886
이크로	-7887
조원이	-7888
종으로	-7889
중국의	-7890
차세대	-7891
침대는	-7892
투자가	-7893
플라자	-7894
하다가	-7895
하라고	-7896
하라는	-7897
etty	-7898
▁02%	-7899
▁12%	-7900
▁13%	-7901
▁18%	-7902
▁21%	-7903
▁45%	-7904
▁CPU	-7905
▁가솔린	-7906
▁개발과	-7907
▁과제로	-7908
▁과제를	-7909
▁광고를	-7910
▁그렇지	-7911
▁금액을	-7912
▁기간은	-7913
▁김기문	-7914
▁까다롭	-7915
▁꼽는다	-7916
▁꾸준한	-7917
▁끌었다	-7918
▁나가고	-7919
▁낮다는	-7920
▁내놓는	-7921
▁넘어선	-7922
▁노트북	-7923
▁달러당	-7924
▁대책을	-7925
▁대책이	-7926
▁독특한	-7927
▁된다는	-7928
▁둘러싼	-7929
▁뛰어나	-7930
▁로드맵	-7931
▁마련된	-7932
▁매장에	-7933
▁멤버십	-7934
▁물건을	-7935
▁미치지	-7936
▁바나나	-7937
▁반영한	-7938
▁발표할	-7939
▁보험금	-7940
▁복잡한	-7941
▁본사가	-7942
▁본연의	-7943
▁사람의	-7944
▁사업자	-7945
▁삼성동	-7946
▁생산한	-7947
▁생산할	-7948
▁소상공	-7949
▁수입이	-7950
▁순으로	-7951
▁시작할	-7952
▁신성장	-7953
▁신청할	-7954
▁실적은	-7955
▁아이템	-7956
▁연계해	-7957
▁월평균	-7958
▁유상증	-7959
▁은행의	-7960
▁이상은	-7961
▁이어진	-7962
▁이제는	-7963
▁인식이	-7964
▁일정을	-7965
▁작업에	-7966
▁장점을	-7967
▁전반의	-7968
▁창업자	-7969
▁찾는다	-7970
▁철저한	-7971
▁충분한	-7972
▁치열한	-7973
▁캐피털	-7974
▁쿠팡의	-7975
▁토트넘	-7976
▁투자와	-7977
▁특성에	-7978
▁판매할	-7979
▁필리핀	-7980
▁필요할	-7981
▁하이트	-7982
▁한계가	-7983
▁한국산	-7984
▁한국인	-7985
▁한은이	-7986
▁합리적	-7987
▁해외에	-7988
▁현장을	-7989
▁협업을	-7990
만원짜리	-7991
산업단지	-7992
서비스를	-7993
알데히드	-7994
억달러에	-7995
정보통신	-7996
차적으로	-7997
투자증권	-7998
mages	-7999
▁1997	-8000
▁1999	-8001
▁2001	-8002
▁가격으로	-8003
▁가입하는	-8004
▁가파르게	-8005
▁강화했다	-8006
▁개선됐다	-8007
▁경영진은	-8008
▁고속도로	-8009
▁공간에서	-8010
▁구직급여	-8011
▁그러면서	-8012
▁금융상품	-8013
▁금융소외	-8014
▁금융시장	-8015
▁기대했다	-8016
▁노브랜드	-8017
▁논의했다	-8018
▁디자인과	-8019
▁롯데쇼핑	-8020
▁반도체와	-8021
▁받아들여	-8022
▁부작용을	-8023
▁브랜드도	-8024
▁사업보고	-8025
▁삼성카드	-8026
▁상관없이	-8027
▁생각이다	-8028
▁생각한다	-8029
▁설치했다	-8030
▁순이었다	-8031
▁스튜디오	-8032
▁시작한다	-8033
▁시중은행	-8034
▁아이들이	-8035
▁아이스크	-8036
▁않는다는	-8037
▁에너지를	-8038
▁워크웨어	-8039
▁이뤄진다	-8040
▁인프라를	-8041
▁일자리가	-8042
▁자리에서	-8043
▁자회사로	-8044
▁전망된다	-8045
▁전문업체	-8046
▁전문인력	-8047
▁제공하기	-8048
▁제기됐다	-8049
▁제작했다	-8050
▁조세심판	-8051
▁종량세로	-8052
▁주도하고	-8053
▁중요성을	-8054
▁직원들은	-8055
▁창업지원	-8056
▁커피전문	-8057
▁패키지를	-8058
▁했습니다	-8059
▁행사에서	-8060
▁현지에서	-8061
▁확보하고	-8062
▁확산되고	-8063
▁Getty	-8064
▁관계자들은	-8065
▁끌어올리는	-8066
▁다음달부터	-8067
▁마찬가지다	-8068
▁소상공인의	-8069
▁스테디셀러	-8070
▁애니메이션	-8071
▁에스프레소	-8072
▁에티오피아	-8073
▁자동차보험	-8074
▁정기적으로	-8075
▁집중적으로	-8076
이노베이션이	-8077
▁저비용항공사	-8078
▁르노삼성자동차	-8079
▁중소벤처기업의	-8080
▁한국소비자포럼	-8081
2)	-8082
32	-8083
61	-8084
74	-8085
79	-8086
82	-8087
BS	-8088
CI	-8089
CL	-8090
EX	-8091
GB	-8092
IR	-8093
NH	-8094
TS	-8095
kW	-8096
~9	-8097
▁t	-8098
▁랭	-8099
▁몽	-8100
▁샘	-8101
가입	-8102
격차	-8103
경을	-8104
계열	-8105
국인	-8106
균형	-8107
그십	-8108
글러	-8109
금지	-8110
금형	-8111
기판	-8112
깝다	-8113
내년	-8114
넥스	-8115
단기	-8116
대사	-8117
두를	-8118
드림	-8119
렌징	-8120
려한	-8121
로가	-8122
로의	-8123
록을	-8124
료는	-8125
리더	-8126
립을	-8127
막이	-8128
명한	-8129
민간	-8130
배당	-8131
버홈	-8132
벤션	-8133
보기	-8134
보를	-8135
부로	-8136
선수	-8137
선택	-8138
소형	-8139
순위	-8140
식과	-8141
식당	-8142
싱턴	-8143
야구	-8144
여겨	-8145
열에	-8146
위권	-8147
이제	-8148
있다	-8149
적이	-8150
전이	-8151
제표	-8152
주간	-8153
지속	-8154
지않	-8155
직을	-8156
처는	-8157
출산	-8158
치매	-8159
코올	-8160
콜릿	-8161
타르	-8162
통을	-8163
트인	-8164
특가	-8165
특구	-8166
특례	-8167
티드	-8168
프렌	-8169
한도	-8170
한우	-8171
행을	-8172
현장	-8173
홀딩	-8174
화문	-8175
4%,	-8176
CGI	-8177
ESS	-8178
▁+0	-8179
▁0%	-8180
▁00	-8181
▁62	-8182
▁76	-8183
▁79	-8184
▁99	-8185
▁JB	-8186
▁PB	-8187
▁가고	-8188
▁가시	-8189
▁가열	-8190
▁간접	-8191
▁거점	-8192
▁게시	-8193
▁고가	-8194
▁고를	-8195
▁고집	-8196
▁공약	-8197
▁공존	-8198
▁구호	-8199
▁국영	-8200
▁군사	-8201
▁금형	-8202
▁기기	-8203
▁김정	-8204
▁나뉜	-8205
▁나무	-8206
▁내걸	-8207
▁내린	-8208
▁넉넉	-8209
▁넓혀	-8210
▁닛산	-8211
▁다가	-8212
▁대가	-8213
▁대선	-8214
▁동서	-8215
▁돼지	-8216
▁되돌	-8217
▁되찾	-8218
▁뜻을	-8219
▁라떼	-8220
▁맺은	-8221
▁모른	-8222
▁모은	-8223
▁문래	-8224
▁믿고	-8225
▁발간	-8226
▁밝은	-8227
▁밥솥	-8228
▁방출	-8229
▁벤치	-8230
▁병원	-8231
▁보강	-8232
▁보지	-8233
▁부친	-8234
▁블라	-8235
▁비밀	-8236
▁사양	-8237
▁살균	-8238
▁상조	-8239
▁선사	-8240
▁세분	-8241
▁소공	-8242
▁수령	-8243
▁쉽고	-8244
▁스탠	-8245
▁시가	-8246
▁식사	-8247
▁신중	-8248
▁신체	-8249
▁신호	-8250
▁심플	-8251
▁아르	-8252
▁아버	-8253
▁안산	-8254
▁양재	-8255
▁엄청	-8256
▁에코	-8257
▁에탄	-8258
▁완벽	-8259
▁요소	-8260
▁원가	-8261
▁원천	-8262
▁융합	-8263
▁의해	-8264
▁장악	-8265
▁저하	-8266
▁전인	-8267
▁중문	-8268
▁중반	-8269
▁즉각	-8270
▁지도	-8271
▁지향	-8272
▁직격	-8273
▁착수	-8274
▁참치	-8275
▁창고	-8276
▁채워	-8277
▁청호	-8278
▁최상	-8279
▁축산	-8280
▁축하	-8281
▁코인	-8282
▁코팅	-8283
▁쾌적	-8284
▁털어	-8285
▁판교	-8286
▁편익	-8287
▁피싱	-8288
▁하남	-8289
▁합격	-8290
▁항상	-8291
▁해서	-8292
▁핸드	-8293
▁향한	-8294
▁허가	-8295
▁회생	-8296
▁후쿠	-8297
▁휴게	-8298
▁흘러	-8299
▁흡입	-8300
개에서	-8301
겠느냐	-8302
관리를	-8303
기업과	-8304
년간의	-8305
레미콘	-8306
렸다고	-8307
만원이	-8308
미국은	-8309
밀하게	-8310
바스백	-8311
보솜이	-8312
브리지	-8313
사들의	-8314
산업체	-8315
세까지	-8316
수당을	-8317
수하고	-8318
스앤젤	-8319
었는데	-8320
에쿼티	-8321
원들이	-8322
음에도	-8323
인력을	-8324
정책은	-8325
졌지만	-8326
출하는	-8327
친환경	-8328
케어는	-8329
코노미	-8330
판으로	-8331
하우스	-8332
화됐다	-8333
(1~3	-8334
2012	-8335
rand	-8336
▁35%	-8337
▁41%	-8338
▁65%	-8339
▁LCC	-8340
▁개발된	-8341
▁갤럭시	-8342
▁것보다	-8343
▁결정할	-8344
▁결제를	-8345
▁공략에	-8346
▁공장은	-8347
▁공장이	-8348
▁구조로	-8349
▁규정을	-8350
▁급격한	-8351
▁나가는	-8352
▁나아가	-8353
▁눈여겨	-8354
▁대리석	-8355
▁대용량	-8356
▁두드러	-8357
▁디저트	-8358
▁떨어져	-8359
▁뜻한다	-8360
▁라이트	-8361
▁마련할	-8362
▁마스터	-8363
▁마쳤다	-8364
▁바람직	-8365
▁보냈다	-8366
▁보조금	-8367
▁부진이	-8368
▁분명히	-8369
▁비대면	-8370
▁비전을	-8371
▁사례는	-8372
▁사진을	-8373
▁상품의	-8374
▁선순환	-8375
▁설치해	-8376
▁성장에	-8377
▁성장이	-8378
▁소송을	-8379
▁신속한	-8380
▁쌓아온	-8381
▁않지만	-8382
▁앞에서	-8383
▁얘기를	-8384
▁언제든	-8385
▁업계는	-8386
▁없애고	-8387
▁오르고	-8388
▁오르는	-8389
▁오피스	-8390
▁요건을	-8391
▁요구한	-8392
▁우려를	-8393
▁유류세	-8394
▁유일한	-8395
▁음식을	-8396
▁일이다	-8397
▁임금이	-8398
▁장비를	-8399
▁절반을	-8400
▁정확한	-8401
▁제작해	-8402
▁제조사	-8403
▁주문을	-8404
▁지금도	-8405
▁지냈다	-8406
▁지능형	-8407
▁지위를	-8408
▁진행할	-8409
▁집중할	-8410
▁초부터	-8411
▁초저가	-8412
▁축산물	-8413
▁취지로	-8414
▁투입해	-8415
▁패턴을	-8416
▁품목을	-8417
▁품질과	-8418
▁피해가	-8419
▁하겠다	-8420
▁하락한	-8421
▁하이얼	-8422
▁한도를	-8423
▁행사도	-8424
▁행사에	-8425
▁행장은	-8426
▁현실을	-8427
▁현안을	-8428
▁확보를	-8429
▁확산을	-8430
▁활동이	-8431
개국에서	-8432
담보대출	-8433
만원대에	-8434
분기보다	-8435
비즈니스	-8436
산화탄소	-8437
안전보건	-8438
인더스트	-8439
코리아가	-8440
홈쇼핑은	-8441
▁1400	-8442
▁1970	-8443
▁2003	-8444
▁고정금리	-8445
▁구매하면	-8446
▁구축하고	-8447
▁국민은행	-8448
▁기록하고	-8449
▁기술력과	-8450
▁남양유업	-8451
▁내세웠다	-8452
▁내용이다	-8453
▁달라졌다	-8454
▁동국제강	-8455
▁등장했다	-8456
▁라이선스	-8457
▁마련하고	-8458
▁부산공장	-8459
▁분위기다	-8460
▁사용하기	-8461
▁사용하면	-8462
▁사용하지	-8463
▁상승률이	-8464
▁서비스다	-8465
▁성장세를	-8466
▁셰일가스	-8467
▁소매판매	-8468
▁손해보험	-8469
▁수익률은	-8470
▁수출하는	-8471
▁신용대출	-8472
▁암호화폐	-8473
▁여신금융	-8474
▁연료전지	-8475
▁열었다고	-8476
▁올라섰다	-8477
▁원화결제	-8478
▁의사결정	-8479
▁이동통신	-8480
▁이뤄졌다	-8481
▁이마트는	-8482
▁이야기를	-8483
▁이어갔다	-8484
▁이해관계	-8485
▁인수했다	-8486
▁있다롯데	-8487
▁전기안전	-8488
▁전기차를	-8489
▁전문성을	-8490
▁전문적인	-8491
▁정도였다	-8492
▁정책자금	-8493
▁제작하는	-8494
▁제품보다	-8495
▁지식재산	-8496
▁지역난방	-8497
▁추진한다	-8498
▁취지에서	-8499
▁파트너십	-8500
▁판단이다	-8501
▁패션부문	-8502
▁플래그십	-8503
▁한국가스	-8504
▁협력사에	-8505
▁획득했다	-8506
▁효과적인	-8507
신한은행은	-8508
전문가들은	-8509
▁가능하도록	-8510
▁경제성장률	-8511
▁고부가가치	-8512
▁긍정적으로	-8513
▁노동생산성	-8514
▁바리스타가	-8515
▁밝혔다이번	-8516
▁스노우라인	-8517
▁신한은행은	-8518
▁연구위원은	-8519
▁웅진코웨이	-8520
▁월스트리트	-8521
▁이르기까지	-8522
▁전자상거래	-8523
▁지주회사인	-8524
▁체결했다고	-8525
▁카자흐스탄	-8526
▁파라다이스	-8527
▁프로그램인	-8528
▁필요하다고	-8529
▁기자간담회를	-8530
▁보험계약자의	-8531
▁스마트폰으로	-8532
▁투썸플레이스	-8533
▁현대자동차가	-8534
아시아나항공은	-8535
▁삼성디스플레이	-8536
07	-8537
54	-8538
83	-8539
HC	-8540
IP	-8541
TM	-8542
▁>	-8543
▁Y	-8544
▁곡	-8545
▁꾀	-8546
▁덩	-8547
▁둥	-8548
▁롤	-8549
▁멋	-8550
▁봐	-8551
▁삭	-8552
▁셋	-8553
▁앵	-8554
▁잊	-8555
▁팽	-8556
▁훈	-8557
▁힐	-8558
가죽	-8559
값을	-8560
경련	-8561
과도	-8562
국대	-8563
기사	-8564
길이	-8565
나마	-8566
나타	-8567
내가	-8568
내일	-8569
네랄	-8570
년과	-8571
념을	-8572
눈에	-8573
다니	-8574
대중	-8575
도금	-8576
러한	-8577
레드	-8578
료가	-8579
류가	-8580
르기	-8581
림축	-8582
명품	-8583
므로	-8584
방지	-8585
벤져	-8586
보면	-8587
비상	-8588
빔면	-8589
상승	-8590
서부	-8591
세금	-8592
수수	-8593
스틱	-8594
신규	-8595
앞줄	-8596
업과	-8597
었을	-8598
연도	-8599
연산	-8600
오늘	-8601
와는	-8602
와이	-8603
요한	-8604
우버	-8605
울러	-8606
워드	-8607
원인	-8608
이와	-8609
인도	-8610
인실	-8611
일까	-8612
일반	-8613
재계	-8614
절벽	-8615
종이	-8616
째로	-8617
쪽에	-8618
채무	-8619
치기	-8620
치로	-8621
칙을	-8622
컨대	-8623
크를	-8624
크샵	-8625
텔루	-8626
토스	-8627
통제	-8628
퇴근	-8629
트가	-8630
트륨	-8631
포스	-8632
폭을	-8633
플로	-8634
호점	-8635
회로	-8636
(11	-8637
(12	-8638
(17	-8639
ASF	-8640
CGT	-8641
STR	-8642
▁51	-8643
▁EV	-8644
▁OE	-8645
▁가벼	-8646
▁가산	-8647
▁가상	-8648
▁가세	-8649
▁각자	-8650
▁강제	-8651
▁거느	-8652
▁거둔	-8653
▁거세	-8654
▁건전	-8655
▁격려	-8656
▁경력	-8657
▁골목	-8658
▁궁금	-8659
▁권한	-8660
▁그간	-8661
▁그려	-8662
▁김포	-8663
▁꿈을	-8664
▁낮다	-8665
▁널리	-8666
▁녹록	-8667
▁다수	-8668
▁닥터	-8669
▁단행	-8670
▁달할	-8671
▁당일	-8672
▁데이	-8673
▁도급	-8674
▁도착	-8675
▁든다	-8676
▁마라	-8677
▁마친	-8678
▁마트	-8679
▁모색	-8680
▁모호	-8681
▁몰아	-8682
▁무늬	-8683
▁무인	-8684
▁물려	-8685
▁물품	-8686
▁뮤지	-8687
▁미술	-8688
▁바라	-8689
▁발병	-8690
▁발탁	-8691
▁배를	-8692
▁번도	-8693
▁병행	-8694
▁보인	-8695
▁복귀	-8696
▁본죽	-8697
▁불이	-8698
▁브렉	-8699
▁빠진	-8700
▁빨라	-8701
▁사은	-8702
▁삶을	-8703
▁상임	-8704
▁석탄	-8705
▁선을	-8706
▁세라	-8707
▁세로	-8708
▁세우	-8709
▁소방	-8710
▁수리	-8711
▁수송	-8712
▁수탁	-8713
▁순수	-8714
▁시승	-8715
▁시청	-8716
▁신혼	-8717
▁실태	-8718
▁싶어	-8719
▁아름	-8720
▁안성	-8721
▁알파	-8722
▁애착	-8723
▁양국	-8724
▁양돈	-8725
▁어깨	-8726
▁여전	-8727
▁연락	-8728
▁완전	-8729
▁외교	-8730
▁요거	-8731
▁유언	-8732
▁유연	-8733
▁유용	-8734
▁유화	-8735
▁유효	-8736
▁익숙	-8737
▁인적	-8738
▁일방	-8739
▁있지	-8740
▁전격	-8741
▁전후	-8742
▁정년	-8743
▁정착	-8744
▁정통	-8745
▁조짐	-8746
▁좌우	-8747
▁주재	-8748
▁주한	-8749
▁중점	-8750
▁중형	-8751
▁증진	-8752
▁지구	-8753
▁진한	-8754
▁짧은	-8755
▁처분	-8756
▁초등	-8757
▁초래	-8758
▁추락	-8759
▁출입	-8760
▁충돌	-8761
▁친구	-8762
▁큐브	-8763
▁크기	-8764
▁크지	-8765
▁탁월	-8766
▁테라	-8767
▁토끼	-8768
▁토크	-8769
▁파괴	-8770
▁포름	-8771
▁하드	-8772
▁한계	-8773
▁한마	-8774
▁했고	-8775
금리가	-8776
단으로	-8777
들였다	-8778
라이드	-8779
배터리	-8780
사업부	-8781
시리즈	-8782
안에서	-8783
어지고	-8784
업계가	-8785
으로서	-8786
을수록	-8787
의민족	-8788
이마트	-8789
재단은	-8790
정책을	-8791
제리너	-8792
차전지	-8793
카데미	-8794
태평양	-8795
화되고	-8796
화학의	-8797
▁16%	-8798
▁24%	-8799
▁27%	-8800
▁350	-8801
▁64%	-8802
▁가입을	-8803
▁가입한	-8804
▁가지다	-8805
▁간담회	-8806
▁강점을	-8807
▁강화에	-8808
▁거래가	-8809
▁건수는	-8810
▁결정한	-8811
▁경기를	-8812
▁경유차	-8813
▁고효율	-8814
▁공간에	-8815
▁공간의	-8816
▁공기질	-8817
▁공사를	-8818
▁균형을	-8819
▁금액은	-8820
▁기간이	-8821
▁기여한	-8822
▁나트륨	-8823
▁내추럴	-8824
▁노사가	-8825
▁논의가	-8826
▁다르게	-8827
▁달랐다	-8828
▁대표와	-8829
▁동일한	-8830
▁됐다는	-8831
▁들이고	-8832
▁등급을	-8833
▁따뜻한	-8834
▁때부터	-8835
▁또다시	-8836
▁랭글러	-8837
▁만하다	-8838
▁많다는	-8839
▁말하는	-8840
▁모두가	-8841
▁미래차	-8842
▁밀레니	-8843
▁바꿔야	-8844
▁바뀌고	-8845
▁바네사	-8846
▁방법을	-8847
▁별도의	-8848
▁보험을	-8849
▁보호를	-8850
▁부가가	-8851
▁부른다	-8852
▁부채가	-8853
▁불만을	-8854
▁산불로	-8855
▁상당히	-8856
▁상무는	-8857
▁상황은	-8858
▁색상을	-8859
▁생겼다	-8860
▁생리대	-8861
▁생존을	-8862
▁선착순	-8863
▁성장과	-8864
▁성장의	-8865
▁속도로	-8866
▁수출의	-8867
▁스타킹	-8868
▁스프링	-8869
▁시간과	-8870
▁시기가	-8871
▁시기를	-8872
▁시제품	-8873
▁식재료	-8874
▁신동빈	-8875
▁심각한	-8876
▁알로에	-8877
▁애큐온	-8878
▁업무에	-8879
▁업종별	-8880
▁연구를	-8881
▁연봉이	-8882
▁영상을	-8883
▁예정된	-8884
▁올리면	-8885
▁의원은	-8886
▁이름의	-8887
▁이용자	-8888
▁이자를	-8889
▁이재용	-8890
▁이하로	-8891
▁인기다	-8892
▁인력은	-8893
▁인상에	-8894
▁일감을	-8895
▁일어날	-8896
▁일으키	-8897
▁일하고	-8898
▁임단협	-8899
▁있을까	-8900
▁자산이	-8901
▁자외선	-8902
▁적자가	-8903
▁전문점	-8904
▁전체를	-8905
▁절차에	-8906
▁정도를	-8907
▁정수기	-8908
▁조사를	-8909
▁조사한	-8910
▁주문한	-8911
▁주인공	-8912
▁주주총	-8913
▁준비를	-8914
▁중점을	-8915
▁쪽으로	-8916
▁처리할	-8917
▁최악의	-8918
▁추가해	-8919
▁투자도	-8920
▁판매된	-8921
▁페인트	-8922
▁편집숍	-8923
▁포함돼	-8924
▁하나가	-8925
▁하나는	-8926
▁할리스	-8927
▁할아버	-8928
▁협상을	-8929
▁환율이	-8930
▁활동도	-8931
▁흐름을	-8932
근당건강	-8933
대한항공	-8934
만원까지	-8935
상속공제	-8936
스타트업	-8937
연구원이	-8938
위원장은	-8939
자들에게	-8940
전문은행	-8941
정위원회	-8942
퍼레이션	-8943
회관에서	-8944
~2018	-8945
▁CCTV	-8946
▁가맹사업	-8947
▁경영전략	-8948
▁계열사의	-8949
▁공격적인	-8950
▁공유오피	-8951
▁관리하고	-8952
▁국무총리	-8953
▁국세청은	-8954
▁규정하고	-8955
▁금융위는	-8956
▁금융정책	-8957
▁기재부는	-8958
▁대응하기	-8959
▁로스앤젤	-8960
▁맞아떨어	-8961
▁매각하는	-8962
▁먹거리를	-8963
▁모습이다	-8964
▁보험수익	-8965
▁본점에서	-8966
▁부드럽고	-8967
▁분위기가	-8968
▁블라스트	-8969
▁사업에서	-8970
▁사업자가	-8971
▁사용한다	-8972
▁사회주의	-8973
▁상황이다	-8974
▁성장률을	-8975
▁수익성을	-8976
▁시행하고	-8977
▁신기술을	-8978
▁신선식품	-8979
▁신청하면	-8980
▁악화됐다	-8981
▁요인으로	-8982
▁우수제품	-8983
▁유명하다	-8984
▁유지하는	-8985
▁유해물질	-8986
▁이뤄지지	-8987
▁이벤트도	-8988
▁이어지는	-8989
▁인건비를	-8990
▁전문가가	-8991
▁전환하는	-8992
▁주장이다	-8993
▁줄어드는	-8994
▁지원사업	-8995
▁지주회사	-8996
▁체계적인	-8997
▁추정된다	-8998
▁페이스북	-8999
▁하겠다는	-9000
▁한국무역	-9001
▁합의했다	-9002
▁합작법인	-9003
▁확인하고	-9004
▁활용했다	-9005
기아자동차	-9006
림축산식품	-9007
엔지니어링	-9008
▁넥센타이어	-9009
▁대표브랜드	-9010
▁바리스타는	-9011
▁보고서에서	-9012
▁빅데이터를	-9013
▁세계적으로	-9014
▁세븐일레븐	-9015
▁순차적으로	-9016
▁안정적으로	-9017
▁연세유업은	-9018
▁자동차부품	-9019
▁자연스럽게	-9020
▁중소기업인	-9021
▁탄력근로제	-9022
▁한솔홈데코	-9023
▁현대모비스	-9024
▁Images	-9025
▁대한상공회의	-9026
▁현대오일뱅크	-9027
▁로보어드바이저	-9028
▁에너지기본계획	-9029
)·	-9030
,7	-9031
1)	-9032
49	-9033
EP	-9034
HD	-9035
TD	-9036
TF	-9037
gk	-9038
ig	-9039
jk	-9040
lo	-9041
ur	-9042
we	-9043
▁i	-9044
▁겉	-9045
▁괜	-9046
▁류	-9047
▁립	-9048
▁뭐	-9049
▁섬	-9050
▁쉐	-9051
▁척	-9052
▁캘	-9053
▁턱	-9054
▁횡	-9055
관과	-9056
관련	-9057
관세	-9058
광고	-9059
금감	-9060
김밥	-9061
깜짝	-9062
네이	-9063
년도	-9064
놓은	-9065
다란	-9066
뎀칩	-9067
동향	-9068
들고	-9069
란스	-9070
래곤	-9071
레저	-9072
렌디	-9073
례를	-9074
로마	-9075
로만	-9076
로보	-9077
리브	-9078
리적	-9079
리턴	-9080
릭스	-9081
만에	-9082
만이	-9083
만족	-9084
맛이	-9085
맞춤	-9086
맞춰	-9087
메틱	-9088
모금	-9089
모드	-9090
미가	-9091
받침	-9092
배에	-9093
벌이	-9094
범준	-9095
부모	-9096
사원	-9097
삼호	-9098
성적	-9099
수요	-9100
스바	-9101
스텔	-9102
승계	-9103
식이	-9104
야쿠	-9105
어내	-9106
에프	-9107
연히	-9108
요양	-9109
요즘	-9110
우스	-9111
워즈	-9112
위다	-9113
은구	-9114
이하	-9115
일인	-9116
입찰	-9117
있게	-9118
자동	-9119
자리	-9120
제지	-9121
주시	-9122
증을	-9123
지분	-9124
지어	-9125
질의	-9126
책이	-9127
취업	-9128
타이	-9129
타페	-9130
태원	-9131
투어	-9132
트론	-9133
파워	-9134
한편	-9135
함과	-9136
함은	-9137
회원	-9138
흘간	-9139
(34	-9140
07@	-9141
ATA	-9142
FTA	-9143
SDI	-9144
ang	-9145
▁46	-9146
▁85	-9147
▁QR	-9148
▁RC	-9149
▁SB	-9150
▁가득	-9151
▁가수	-9152
▁간판	-9153
▁개장	-9154
▁곰팡	-9155
▁공영	-9156
▁공청	-9157
▁과잉	-9158
▁괜찮	-9159
▁교보	-9160
▁그리	-9161
▁그친	-9162
▁기름	-9163
▁김재	-9164
▁꺼내	-9165
▁꽃을	-9166
▁꾸려	-9167
▁나왔	-9168
▁났다	-9169
▁낮게	-9170
▁낮춘	-9171
▁누릴	-9172
▁단일	-9173
▁담겨	-9174
▁담고	-9175
▁답변	-9176
▁대여	-9177
▁도출	-9178
▁둘째	-9179
▁들을	-9180
▁뚜껑	-9181
▁뚜렷	-9182
▁만의	-9183
▁만인	-9184
▁맡은	-9185
▁매매	-9186
▁먹고	-9187
▁메이	-9188
▁면세	-9189
▁명칭	-9190
▁모드	-9191
▁몸에	-9192
▁못할	-9193
▁못해	-9194
▁받기	-9195
▁발송	-9196
▁배관	-9197
▁법무	-9198
▁보이	-9199
▁복원	-9200
▁부가	-9201
▁부당	-9202
▁부의	-9203
▁불거	-9204
▁빛을	-9205
▁뿐만	-9206
▁사옥	-9207
▁선별	-9208
▁소액	-9209
▁소요	-9210
▁소진	-9211
▁수면	-9212
▁수술	-9213
▁술을	-9214
▁스크	-9215
▁시연	-9216
▁시음	-9217
▁시트	-9218
▁신생	-9219
▁신의	-9220
▁신축	-9221
▁실물	-9222
▁쌓은	-9223
▁씨가	-9224
▁아끼	-9225
▁압축	-9226
▁얇은	-9227
▁억제	-9228
▁엄마	-9229
▁영어	-9230
▁예를	-9231
▁오너	-9232
▁의장	-9233
▁이노	-9234
▁이대	-9235
▁이룬	-9236
▁이뤘	-9237
▁이명	-9238
▁이외	-9239
▁일은	-9240
▁입문	-9241
▁잔액	-9242
▁잠시	-9243
▁잡을	-9244
▁접착	-9245
▁정장	-9246
▁제트	-9247
▁조율	-9248
▁주의	-9249
▁주저	-9250
▁주춤	-9251
▁중증	-9252
▁중지	-9253
▁증대	-9254
▁지지	-9255
▁질환	-9256
▁찾은	-9257
▁청구	-9258
▁출력	-9259
▁치과	-9260
▁코나	-9261
▁코드	-9262
▁크고	-9263
▁퇴근	-9264
▁틈새	-9265
▁파티	-9266
▁펼쳐	-9267
▁평생	-9268
▁포스	-9269
▁폴리	-9270
▁풀이	-9271
▁하며	-9272
▁했던	-9273
▁향해	-9274
▁협조	-9275
▁활력	-9276
▁획기	-9277
▁후반	-9278
▁훌쩍	-9279
가격은	-9280
가격이	-9281
가성비	-9282
경제인	-9283
공사의	-9284
국에서	-9285
급으로	-9286
기관이	-9287
기능성	-9288
도에서	-9289
뚜라미	-9290
레바람	-9291
레인지	-9292
리조트	-9293
마스크	-9294
만원씩	-9295
발전은	-9296
보일러	-9297
산업에	-9298
센터에	-9299
소프트	-9300
수수료	-9301
시장치	-9302
신경훈	-9303
업체를	-9304
업체에	-9305
역으로	-9306
으려면	-9307
자금은	-9308
제품의	-9309
투자자	-9310
펀드를	-9311
페인트	-9312
프렌즈	-9313
핀테크	-9314
하려고	-9315
협의회	-9316
협회에	-9317
협회와	-9318
협회장	-9319
화학이	-9320
2013	-9321
OLED	-9322
OTRA	-9323
▁160	-9324
▁1~3	-9325
▁CNS	-9326
▁KAI	-9327
▁bjk	-9328
▁egk	-9329
▁가격도	-9330
▁가이드	-9331
▁가지로	-9332
▁각국의	-9333
▁게보린	-9334
▁경영정	-9335
▁계기가	-9336
▁계획에	-9337
▁고유의	-9338
▁공장의	-9339
▁관람객	-9340
▁구성돼	-9341
▁구성원	-9342
▁구조가	-9343
▁국민이	-9344
▁금리는	-9345
▁급증한	-9346
▁노력이	-9347
▁노무현	-9348
▁노선을	-9349
▁놓치지	-9350
▁느끼는	-9351
▁달라고	-9352
▁더했다	-9353
▁도입에	-9354
▁뒷받침	-9355
▁따라잡	-9356
▁뛰어든	-9357
▁뜨거운	-9358
▁라인을	-9359
▁락앤락	-9360
▁리프트	-9361
▁마련을	-9362
▁막대한	-9363
▁만기가	-9364
▁만든다	-9365
▁만족을	-9366
▁맞물려	-9367
▁맥주는	-9368
▁멘토링	-9369
▁모델은	-9370
▁모델이	-9371
▁모뎀칩	-9372
▁무게를	-9373
▁문제다	-9374
▁민주당	-9375
▁반대로	-9376
▁발전에	-9377
▁배럴당	-9378
▁배치해	-9379
▁별세한	-9380
▁부분을	-9381
▁부진을	-9382
▁불꽃축	-9383
▁불완전	-9384
▁비과세	-9385
▁비상장	-9386
▁비싸다	-9387
▁빠르고	-9388
▁사각지	-9389
▁사고를	-9390
▁사이렌	-9391
▁사장을	-9392
▁사회에	-9393
▁상당수	-9394
▁설치된	-9395
▁성공할	-9396
▁성과가	-9397
▁성분을	-9398
▁성적을	-9399
▁수산물	-9400
▁수요는	-9401
▁승인을	-9402
▁시장도	-9403
▁식자재	-9404
▁신혼부	-9405
▁아직도	-9406
▁안전성	-9407
▁어디서	-9408
▁없으면	-9409
▁없지만	-9410
▁여력이	-9411
▁연계한	-9412
▁영구채	-9413
▁예상치	-9414
▁오설록	-9415
▁요금을	-9416
▁요청한	-9417
▁운수권	-9418
▁원유를	-9419
▁원자재	-9420
▁의미가	-9421
▁이끄는	-9422
▁이러한	-9423
▁이른바	-9424
▁이상직	-9425
▁이스타	-9426
▁인력과	-9427
▁인수에	-9428
▁일가의	-9429
▁일시불	-9430
▁일일이	-9431
▁장기간	-9432
▁재구매	-9433
▁재미를	-9434
▁재테크	-9435
▁정책의	-9436
▁제도가	-9437
▁조성해	-9438
▁조절할	-9439
▁조치다	-9440
▁주장을	-9441
▁주택용	-9442
▁지분율	-9443
▁지원도	-9444
▁차별화	-9445
▁창업을	-9446
▁출시해	-9447
▁케이블	-9448
▁탄탄한	-9449
▁티몬은	-9450
▁판매에	-9451
▁패널을	-9452
▁편이다	-9453
▁평가해	-9454
▁품질의	-9455
▁필터를	-9456
▁한국과	-9457
▁한은은	-9458
▁항공권	-9459
▁해준다	-9460
▁향상을	-9461
▁현황을	-9462
▁혐의로	-9463
▁호텔을	-9464
▁화재가	-9465
▁확보할	-9466
▁효과도	-9467
공기청정	-9468
공동모금	-9469
국세청은	-9470
금융위는	-9471
노동기구	-9472
만원에서	-9473
비메모리	-9474
생활건강	-9475
였습니다	-9476
위원장을	-9477
적이었다	-9478
조원으로	-9479
채움공제	-9480
코스메틱	-9481
클러스터	-9482
프레미아	-9483
해달라고	-9484
▁1900	-9485
▁Bank	-9486
▁가입자가	-9487
▁강조한다	-9488
▁개선하는	-9489
▁개인정보	-9490
▁개최했다	-9491
▁경영환경	-9492
▁경쟁에서	-9493
▁계열사와	-9494
▁과학기술	-9495
▁구축하는	-9496
▁규제자유	-9497
▁금융지주	-9498
▁긍정적인	-9499
▁기아차는	-9500
▁대기업의	-9501
▁떨어지고	-9502
▁롯데하이	-9503
▁롯데호텔	-9504
▁마케팅에	-9505
▁모른다는	-9506
▁무역협상	-9507
▁반도체의	-9508
▁벤처나라	-9509
▁부회장이	-9510
▁불어났다	-9511
▁사람들의	-9512
▁사용자의	-9513
▁상속세를	-9514
▁서비스로	-9515
▁서비스의	-9516
▁선도하고	-9517
▁선언했다	-9518
▁세무조사	-9519
▁스타일을	-9520
▁시장조사	-9521
▁안심하고	-9522
▁에쓰오일	-9523
▁영업손실	-9524
▁영향이다	-9525
▁육성하기	-9526
▁이마트가	-9527
▁이사장이	-9528
▁인수하는	-9529
▁자동차에	-9530
▁자체상표	-9531
▁적용된다	-9532
▁적용한다	-9533
▁정기예금	-9534
▁제품군을	-9535
▁조달청은	-9536
▁조사에서	-9537
▁주장하고	-9538
▁준비하고	-9539
▁줄어든다	-9540
▁중에서도	-9541
▁지급해야	-9542
▁집단대출	-9543
▁창의적인	-9544
▁출시한다	-9545
▁취업준비	-9546
▁캠페인은	-9547
▁콜드브루	-9548
▁테스트를	-9549
▁하이트진	-9550
▁한국투자	-9551
▁해석된다	-9552
▁협력사가	-9553
▁협력사를	-9554
▁확보하는	-9555
브랜드지수	-9556
안전보건법	-9557
하이브리드	-9558
▁30~40	-9559
▁공격적으로	-9560
▁기록했다고	-9561
▁소비자물가	-9562
▁시장점유율	-9563
▁엔지니어링	-9564
▁우대금리를	-9565
▁우리은행은	-9566
▁있었습니다	-9567
▁자발적으로	-9568
▁자체적으로	-9569
▁중소기업에	-9570
▁체계적으로	-9571
▁컨트롤타워	-9572
▁한진중공업	-9573
▁현대차그룹	-9574
▁효과적으로	-9575
벤션센터에서	-9576
▁egkang	-9577
▁중앙처리장치	-9578
▁포름알데히드	-9579
▁한국경영자총	-9580
▁한국타이어앤	-9581
▁아시아나항공에	-9582
▁한국테크놀로지	-9583
▁중소기업중앙회는	-9584
%,	-9585
51	-9586
53	-9587
55	-9588
84	-9589
AR	-9590
LP	-9591
SB	-9592
ct	-9593
mg	-9594
ne	-9595
▁꺾	-9596
▁돋	-9597
▁멸	-9598
▁뭔	-9599
▁밖	-9600
▁벨	-9601
▁앓	-9602
▁앤	-9603
▁웬	-9604
▁톱	-9605
▁펀	-9606
▁혁	-9607
▁흰	-9608
가업	-9609
감과	-9610
강화	-9611
개편	-9612
공개	-9613
광모	-9614
구에	-9615
국을	-9616
김영	-9617
년생	-9618
노이	-9619
대행	-9620
등을	-9621
디션	-9622
라가	-9623
래식	-9624
리게	-9625
리그	-9626
리오	-9627
리포	-9628
마을	-9629
마킹	-9630
맥심	-9631
모스	-9632
목재	-9633
문제	-9634
바지	-9635
박사	-9636
방향	-9637
보에	-9638
본드	-9639
블루	-9640
빌딩	-9641
사양	-9642
사한	-9643
상인	-9644
선행	-9645
설을	-9646
성능	-9647
세요	-9648
소다	-9649
수급	-9650
수영	-9651
스킨	-9652
스테	-9653
슬러	-9654
승인	-9655
시마	-9656
식은	-9657
애플	-9658
얏트	-9659
엘리	-9660
연간	-9661
열티	-9662
예고	-9663
온더	-9664
용차	-9665
원대	-9666
유의	-9667
융합	-9668
인식	-9669
인용	-9670
재정	-9671
저우	-9672
전국	-9673
전은	-9674
전체	-9675
점포	-9676
정표	-9677
종원	-9678
증이	-9679
지며	-9680
차로	-9681
차별	-9682
창출	-9683
철강	-9684
축협	-9685
충망	-9686
층의	-9687
치면	-9688
코닉	-9689
탕면	-9690
텍스	-9691
템퍼	-9692
토론	-9693
티슈	-9694
팀은	-9695
패널	-9696
패키	-9697
협을	-9698
(26	-9699
(29	-9700
BCI	-9701
CPU	-9702
KDI	-9703
SOL	-9704
WTO	-9705
~19	-9706
▁01	-9707
▁53	-9708
▁89	-9709
▁가게	-9710
▁각광	-9711
▁감성	-9712
▁강의	-9713
▁결성	-9714
▁공연	-9715
▁과자	-9716
▁교역	-9717
▁국적	-9718
▁균일	-9719
▁기구	-9720
▁김밥	-9721
▁김영	-9722
▁김용	-9723
▁깨고	-9724
▁끈다	-9725
▁나노	-9726
▁나은	-9727
▁남긴	-9728
▁남녀	-9729
▁내리	-9730
▁느껴	-9731
▁더한	-9732
▁두려	-9733
▁레고	-9734
▁말고	-9735
▁맞고	-9736
▁매진	-9737
▁멀리	-9738
▁메디	-9739
▁명시	-9740
▁모래	-9741
▁모르	-9742
▁모으	-9743
▁모자	-9744
▁모태	-9745
▁미뤄	-9746
▁바꾼	-9747
▁박스	-9748
▁받게	-9749
▁발달	-9750
▁버려	-9751
▁변속	-9752
▁보일	-9753
▁부착	-9754
▁사재	-9755
▁삼고	-9756
▁상표	-9757
▁새우	-9758
▁생길	-9759
▁선거	-9760
▁수평	-9761
▁쉬운	-9762
▁시뮬	-9763
▁신탁	-9764
▁실손	-9765
▁심판	-9766
▁싸게	-9767
▁앉아	-9768
▁어르	-9769
▁얻을	-9770
▁없기	-9771
▁엘리	-9772
▁여야	-9773
▁연예	-9774
▁영풍	-9775
▁예치	-9776
▁오일	-9777
▁요건	-9778
▁용기	-9779
▁유독	-9780
▁은은	-9781
▁이직	-9782
▁일괄	-9783
▁일등	-9784
▁일명	-9785
▁일한	-9786
▁일할	-9787
▁임명	-9788
▁입교	-9789
▁입기	-9790
▁입체	-9791
▁재미	-9792
▁적다	-9793
▁적정	-9794
▁전량	-9795
▁전성	-9796
▁전세	-9797
▁절대	-9798
▁점에	-9799
▁접어	-9800
▁정례	-9801
▁조속	-9802
▁종교	-9803
▁준수	-9804
▁직급	-9805
▁쪼개	-9806
▁차등	-9807
▁차입	-9808
▁참조	-9809
▁처벌	-9810
▁첫날	-9811
▁첫해	-9812
▁체육	-9813
▁출장	-9814
▁침해	-9815
▁코너	-9816
▁쿠션	-9817
▁팔려	-9818
▁풍력	-9819
▁플러	-9820
▁하늘	-9821
▁한데	-9822
▁한류	-9823
▁한창	-9824
▁한해	-9825
▁호봉	-9826
▁환산	-9827
개월이	-9828
경쟁력	-9829
공사와	-9830
관으로	-9831
김범준	-9832
나갔다	-9833
년이다	-9834
리바바	-9835
미국의	-9836
법으로	-9837
브란스	-9838
사업은	-9839
사업자	-9840
샐러드	-9841
선에서	-9842
성장은	-9843
손실을	-9844
스바겐	-9845
시멘트	-9846
시키며	-9847
아이스	-9848
앞으로	-9849
오스크	-9850
위니아	-9851
이익은	-9852
인리스	-9853
인에게	-9854
일랜드	-9855
자들과	-9856
전자와	-9857
페이스	-9858
편의점	-9859
품으로	-9860
하얏트	-9861
하였다	-9862
한국은	-9863
했다가	-9864
했다이	-9865
화학과	-9866
회사가	-9867
(100	-9868
2014	-9869
▁180	-9870
▁19%	-9871
▁33%	-9872
▁MBK	-9873
▁가구의	-9874
▁가벼운	-9875
▁감성을	-9876
▁강마루	-9877
▁강화한	-9878
▁개선과	-9879
▁개선한	-9880
▁개정안	-9881
▁겪었다	-9882
▁결론을	-9883
▁결정에	-9884
▁결제할	-9885
▁고려대	-9886
▁고민을	-9887
▁고용부	-9888
▁곧바로	-9889
▁과정이	-9890
▁관리가	-9891
▁교수가	-9892
▁구성한	-9893
▁구축해	-9894
▁그래픽	-9895
▁기관은	-9896
▁기여할	-9897
▁나뉜다	-9898
▁나프타	-9899
▁내면서	-9900
▁녹록지	-9901
▁늘어났	-9902
▁단기간	-9903
▁단순한	-9904
▁달성할	-9905
▁대표이	-9906
▁도입할	-9907
▁돕는다	-9908
▁들어서	-9909
▁등에도	-9910
▁마이클	-9911
▁맡는다	-9912
▁매장이	-9913
▁매출과	-9914
▁면허를	-9915
▁못한다	-9916
▁물량이	-9917
▁미친다	-9918
▁박차를	-9919
▁발맞춰	-9920
▁법인을	-9921
▁본사와	-9922
▁부문을	-9923
▁부문의	-9924
▁부분이	-9925
▁불편을	-9926
▁비율로	-9927
▁비판도	-9928
▁비판을	-9929
▁사고가	-9930
▁사례로	-9931
▁산업에	-9932
▁상승한	-9933
▁상여금	-9934
▁생기는	-9935
▁생산능	-9936
▁생산이	-9937
▁설립해	-9938
▁설치한	-9939
▁세계에	-9940
▁소공동	-9941
▁소득이	-9942
▁수출도	-9943
▁슬로건	-9944
▁승부를	-9945
▁시기에	-9946
▁시대가	-9947
▁시설을	-9948
▁시원한	-9949
▁시장과	-9950
▁시행한	-9951
▁식감을	-9952
▁신산업	-9953
▁실적도	-9954
▁싼타페	-9955
▁쏘나타	-9956
▁쏟아부	-9957
▁아끼지	-9958
▁아무리	-9959
▁안마의	-9960
▁안에서	-9961
▁알려져	-9962
▁알리기	-9963
▁앞세운	-9964
▁얘기도	-9965
▁얼어붙	-9966
▁엄청난	-9967
▁여행을	-9968
▁역할도	-9969
▁연구소	-9970
▁연차총	-9971
▁영업을	-9972
▁영업점	-9973
▁올바른	-9974
▁운영해	-9975
▁운용사	-9976
▁워싱턴	-9977
▁원료를	-9978
▁원인을	-9979
▁유력한	-9980
▁이곳에	-9981
▁이뤄져	-9982
▁이주열	-9983
▁인수할	-9984
▁인스타	-9985
▁있으면	-9986
▁장난감	-9987
▁장례식	-9988
▁장학금	-9989
▁전국에	-9990
▁접목한	-9991
▁정치권	-9992
▁정확히	-9993
▁조지아	-9994
▁주세법	-9995
▁주최한	-9996
▁증가로	-9997
▁지급액	-9998
▁지원과	-9999
▁질문을	-10000
▁창출에	-10001
▁채널을	-10002
▁초콜릿	-10003
▁최고급	-10004
▁취향에	-10005
▁커다란	-10006
▁컨센서	-10007
▁쿠팡은	-10008
▁쿠폰을	-10009
▁키우고	-10010
▁타격을	-10011
▁탄생한	-10012
▁테마로	-10013
▁투자로	-10014
▁특허를	-10015
▁편안한	-10016
▁평가와	-10017
▁포스트	-10018
▁품질이	-10019
▁프로모	-10020
▁필요로	-10021
▁한눈에	-10022
▁할인된	-10023
▁해주는	-10024
▁행사가	-10025
▁혁신적	-10026
▁혜택이	-10027
▁확보에	-10028
▁환경에	-10029
▁흑자를	-10030
계올림픽	-10031
과학기술	-10032
구직활동	-10033
국민연금	-10034
무역협정	-10035
분기부터	-10036
안마의자	-10037
억원가량	-10038
전기안전	-10039
중진공은	-10040
캐피탈은	-10041
판매하는	-10042
하나은행	-10043
▁1700	-10044
▁2040	-10045
▁KCGI	-10046
▁OECD	-10047
▁가계대출	-10048
▁강력하게	-10049
▁개성공단	-10050
▁경제단체	-10051
▁경제수석	-10052
▁계열사가	-10053
▁공시했다	-10054
▁그럼에도	-10055
▁근무하는	-10056
▁기대한다	-10057
▁기업들도	-10058
▁나타냈다	-10059
▁내구성이	-10060
▁내다보고	-10061
▁대목이다	-10062
▁도입하는	-10063
▁돌아오는	-10064
▁마음으로	-10065
▁마켓컬리	-10066
▁말했다이	-10067
▁명목으로	-10068
▁모델들이	-10069
▁목소리도	-10070
▁발생했다	-10071
▁벤치마킹	-10072
▁보조금을	-10073
▁브랜드에	-10074
▁사단법인	-10075
▁사람들은	-10076
▁사업으로	-10077
▁상태에서	-10078
▁생산한다	-10079
▁서비스에	-10080
▁선도하는	-10081
▁소비자는	-10082
▁수출하고	-10083
▁시스템은	-10084
▁시작하는	-10085
▁시행규칙	-10086
▁신혼부부	-10087
▁안전성을	-10088
▁알리바바	-10089
▁앞장서고	-10090
▁영업비밀	-10091
▁요구하는	-10092
▁우려하고	-10093
▁움직이는	-10094
▁움직임을	-10095
▁이유식을	-10096
▁인정받고	-10097
▁일본에서	-10098
▁임직원을	-10099
▁입법예고	-10100
▁입점했다	-10101
▁작업중지	-10102
▁적용하는	-10103
▁전국민주	-10104
▁전략으로	-10105
▁전문가를	-10106
▁전환했다	-10107
▁정부세종	-10108
▁제안했다	-10109
▁제외하고	-10110
▁제조하는	-10111
▁주방가전	-10112
▁주최하는	-10113
▁중간지주	-10114
▁증가율을	-10115
▁지역별로	-10116
▁직격탄을	-10117
▁진행됐다	-10118
▁차량공유	-10119
▁참여하고	-10120
▁추가했다	-10121
▁치매보험	-10122
▁캐릭터를	-10123
▁컬렉션은	-10124
▁클러스터	-10125
▁통계청이	-10126
▁투자자를	-10127
▁판매됐다	-10128
▁판매되고	-10129
▁판매량을	-10130
▁핵심이다	-10131
▁화장품을	-10132
▁화학물질	-10133
▁활용하면	-10134
경제연구원	-10135
디지털혁신	-10136
저축은행의	-10137
전자상거래	-10138
정표시장치	-10139
주도성장을	-10140
현대중공업	-10141
▁가정간편식	-10142
▁금융당국의	-10143
▁금융소비자	-10144
▁노동조합이	-10145
▁르노삼성은	-10146
▁불가능하다	-10147
▁소상공인을	-10148
▁스테인리스	-10149
▁시장에서는	-10150
▁시장에서도	-10151
▁이스타항공	-10152
▁일시적으로	-10153
▁자연스러운	-10154
▁전반적으로	-10155
▁전산시스템	-10156
▁지원하기로	-10157
▁질소산화물	-10158
▁취업준비생	-10159
▁통상임금에	-10160
▁투자자에게	-10161
▁편의점에서	-10162
▁프로그램도	-10163
▁한국수자원	-10164
산업통상자원	-10165
▁가업상속공제	-10166
▁공기청정기가	-10167
▁오렌지라이프	-10168
▁프로그램으로	-10169
▁홈페이지에서	-10170
리디노미네이션	-10171
▁한국조선해양은	-10172
▁청년창업사관학교	-10173
▁한국경제신문과의	-10174
▁전국민주노동조합총연맹	-10175
3,	-10176
71	-10177
99	-10178
BA	-10179
LA	-10180
SD	-10181
VA	-10182
il	-10183
no	-10184
ue	-10185
▁낡	-10186
▁밸	-10187
▁앨	-10188
▁얹	-10189
▁엇	-10190
▁웨	-10191
▁킨	-10192
▁텐	-10193
▁햄	-10194
▁했	-10195
가닉	-10196
가동	-10197
가루	-10198
걸레	-10199
것도	-10200
고한	-10201
골드	-10202
과장	-10203
관이	-10204
구나	-10205
권은	-10206
그렇	-10207
기재	-10208
끼리	-10209
남미	-10210
남방	-10211
다음	-10212
당초	-10213
대구	-10214
대만	-10215
되어	-10216
두에	-10217
들어	-10218
들일	-10219
라마	-10220
레일	-10221
류를	-10222
르밀	-10223
르지	-10224
말라	-10225
먹는	-10226
메가	-10227
면의	-10228
면적	-10229
물의	-10230
바꿈	-10231
발주	-10232
방안	-10233
버그	-10234
법이	-10235
변속	-10236
보로	-10237
보상	-10238
보수	-10239
볶음	-10240
본지	-10241
브릿	-10242
사모	-10243
색을	-10244
세트	-10245
소셜	-10246
소통	-10247
수산	-10248
수송	-10249
수탁	-10250
신의	-10251
신청	-10252
신항	-10253
씨를	-10254
아도	-10255
아동	-10256
아스	-10257
업에	-10258
우산	-10259
운수	-10260
울산	-10261
원씩	-10262
웰스	-10263
유를	-10264
을까	-10265
음식	-10266
응답	-10267
이유	-10268
인사	-10269
자료	-10270
장병	-10271
장인	-10272
점인	-10273
정밀	-10274
제련	-10275
조기	-10276
조명	-10277
종과	-10278
종량	-10279
좋은	-10280
주요	-10281
직자	-10282
채널	-10283
처가	-10284
처벌	-10285
처에	-10286
체크	-10287
출금	-10288
치에	-10289
치온	-10290
치와	-10291
키즈	-10292
택시	-10293
통운	-10294
특허	-10295
티넨	-10296
퍼스	-10297
퍼시	-10298
평등	-10299
품종	-10300
프를	-10301
할까	-10302
합의	-10303
해왔	-10304
향후	-10305
형은	-10306
호가	-10307
호기	-10308
호르	-10309
화는	-10310
확인	-10311
(40	-10312
1%,	-10313
7%,	-10314
HMR	-10315
~12	-10316
▁61	-10317
▁68	-10318
▁81	-10319
▁82	-10320
▁CO	-10321
▁DB	-10322
▁IC	-10323
▁NS	-10324
▁“2	-10325
▁“4	-10326
▁가리	-10327
▁가슴	-10328
▁감각	-10329
▁감당	-10330
▁강연	-10331
▁강요	-10332
▁개에	-10333
▁거두	-10334
▁거리	-10335
▁걸고	-10336
▁걸린	-10337
▁걸친	-10338
▁격차	-10339
▁견인	-10340
▁경매	-10341
▁경증	-10342
▁경차	-10343
▁고문	-10344
▁고수	-10345
▁골판	-10346
▁곳의	-10347
▁공과	-10348
▁공업	-10349
▁공직	-10350
▁공포	-10351
▁과징	-10352
▁구글	-10353
▁구제	-10354
▁그럴	-10355
▁그릴	-10356
▁기득	-10357
▁기탁	-10358
▁긴장	-10359
▁깊이	-10360
▁나눈	-10361
▁내외	-10362
▁누진	-10363
▁니즈	-10364
▁다우	-10365
▁담합	-10366
▁당사	-10367
▁대미	-10368
▁독려	-10369
▁돋보	-10370
▁동생	-10371
▁드릴	-10372
▁드림	-10373
▁등기	-10374
▁디스	-10375
▁로켓	-10376
▁론칭	-10377
▁르노	-10378
▁리튬	-10379
▁마치	-10380
▁막걸	-10381
▁막아	-10382
▁말씀	-10383
▁맞지	-10384
▁매칭	-10385
▁메모	-10386
▁면접	-10387
▁명은	-10388
▁모금	-10389
▁무슨	-10390
▁무풍	-10391
▁문서	-10392
▁밀착	-10393
▁박사	-10394
▁발효	-10395
▁방사	-10396
▁번개	-10397
▁벌여	-10398
▁베인	-10399
▁본점	-10400
▁봐야	-10401
▁불필	-10402
▁붙어	-10403
▁블룸	-10404
▁사과	-10405
▁사외	-10406
▁산유	-10407
▁살린	-10408
▁삼아	-10409
▁샘플	-10410
▁서부	-10411
▁선전	-10412
▁선출	-10413
▁성수	-10414
▁센싱	-10415
▁소파	-10416
▁손잡	-10417
▁수강	-10418
▁쉽다	-10419
▁실망	-10420
▁심리	-10421
▁심화	-10422
▁씨는	-10423
▁아모	-10424
▁안주	-10425
▁안착	-10426
▁안타	-10427
▁알게	-10428
▁액상	-10429
▁앵커	-10430
▁양극	-10431
▁어떨	-10432
▁얻는	-10433
▁여겨	-10434
▁여수	-10435
▁연휴	-10436
▁외주	-10437
▁용접	-10438
▁웃돈	-10439
▁워낙	-10440
▁원활	-10441
▁유관	-10442
▁유로	-10443
▁의뢰	-10444
▁이메	-10445
▁이병	-10446
▁인간	-10447
▁일조	-10448
▁잠정	-10449
▁전개	-10450
▁전락	-10451
▁전직	-10452
▁절약	-10453
▁정무	-10454
▁정화	-10455
▁제과	-10456
▁조용	-10457
▁좁은	-10458
▁주름	-10459
▁지낸	-10460
▁지목	-10461
▁지상	-10462
▁지진	-10463
▁직류	-10464
▁직면	-10465
▁차밭	-10466
▁창조	-10467
▁찾고	-10468
▁천안	-10469
▁최다	-10470
▁출생	-10471
▁충실	-10472
▁취항	-10473
▁카누	-10474
▁커핑	-10475
▁쿠쿠	-10476
▁크레	-10477
▁태도	-10478
▁터뜨	-10479
▁텔루	-10480
▁토지	-10481
▁톡톡	-10482
▁트위	-10483
▁파고	-10484
▁팔고	-10485
▁펴고	-10486
▁폭이	-10487
▁풀어	-10488
▁퓨처	-10489
▁학계	-10490
▁합친	-10491
▁합판	-10492
▁해상	-10493
▁현안	-10494
▁호조	-10495
▁화두	-10496
▁확신	-10497
개까지	-10498
개사를	-10499
곳으로	-10500
공기업	-10501
공무원	-10502
구에서	-10503
금융을	-10504
기금은	-10505
대통령	-10506
됩니다	-10507
렉트로	-10508
렸다는	-10509
르면서	-10510
메카드	-10511
문이다	-10512
바이트	-10513
박람회	-10514
방안을	-10515
벤져스	-10516
본부와	-10517
상하이	-10518
생명이	-10519
선택과	-10520
세이버	-10521
식에는	-10522
아울렛	-10523
았다는	-10524
억원대	-10525
었다고	-10526
에서만	-10527
온라인	-10528
은행인	-10529
이사장	-10530
이었던	-10531
일에도	-10532
입니까	-10533
자마자	-10534
장려금	-10535
전시장	-10536
제철소	-10537
종이다	-10538
지표가	-10539
청와대	-10540
코오롱	-10541
탄소년	-10542
태양광	-10543
테크는	-10544
트레이	-10545
플라이	-10546
하기에	-10547
해달라	-10548
했다면	-10549
회사로	-10550
(200	-10551
1400	-10552
PPIB	-10553
▁173	-10554
▁43%	-10555
▁85%	-10556
▁가족의	-10557
▁갈등을	-10558
▁갈등이	-10559
▁감소할	-10560
▁강하게	-10561
▁개발도	-10562
▁개선이	-10563
▁개정을	-10564
▁개편을	-10565
▁걱정이	-10566
▁검찰에	-10567
▁게다가	-10568
▁결합해	-10569
▁경쟁에	-10570
▁경제적	-10571
▁고객과	-10572
▁과정은	-10573
▁구광모	-10574
▁구현해	-10575
▁국가의	-10576
▁규제에	-10577
▁그룹을	-10578
▁글라스	-10579
▁기능과	-10580
▁기자와	-10581
▁나빠진	-10582
▁나오기	-10583
▁나오면	-10584
▁논의는	-10585
▁높다고	-10586
▁다음날	-10587
▁단계별	-10588
▁달콤한	-10589
▁대비한	-10590
▁대상인	-10591
▁던졌다	-10592
▁드레스	-10593
▁들어온	-10594
▁들여다	-10595
▁롯데의	-10596
▁맞벌이	-10597
▁맞추기	-10598
▁매뉴얼	-10599
▁먼지를	-10600
▁메리츠	-10601
▁명에게	-10602
▁문제로	-10603
▁문화가	-10604
▁물가가	-10605
▁물가지	-10606
▁물걸레	-10607
▁미국산	-10608
▁미디어	-10609
▁밀렸다	-10610
▁바꾸고	-10611
▁반영된	-10612
▁백악관	-10613
▁벤처붐	-10614
▁변경할	-10615
▁별다른	-10616
▁불꽃쇼	-10617
▁불어넣	-10618
▁비율을	-10619
▁비은행	-10620
▁비준을	-10621
▁사람도	-10622
▁사업화	-10623
▁사장과	-10624
▁사장의	-10625
▁사전에	-10626
▁산은은	-10627
▁상장을	-10628
▁생각해	-10629
▁생긴다	-10630
▁생산된	-10631
▁설명을	-10632
▁설치할	-10633
▁성공을	-10634
▁수년간	-10635
▁스피커	-10636
▁시가총	-10637
▁시점에	-10638
▁신상품	-10639
▁실시한	-10640
▁심의를	-10641
▁쏟아져	-10642
▁쓰인다	-10643
▁아울러	-10644
▁악화로	-10645
▁안전을	-10646
▁안정을	-10647
▁않고도	-10648
▁알리고	-10649
▁알리는	-10650
▁액세서	-10651
▁어르신	-10652
▁엄격한	-10653
▁없도록	-10654
▁여름철	-10655
▁영유아	-10656
▁예컨대	-10657
▁온도를	-10658
▁올라서	-10659
▁와중에	-10660
▁요소를	-10661
▁우버는	-10662
▁웃도는	-10663
▁원두의	-10664
▁원료로	-10665
▁원스톱	-10666
▁원전을	-10667
▁위치를	-10668
▁은행에	-10669
▁은행이	-10670
▁을지로	-10671
▁인력이	-10672
▁인상과	-10673
▁인재를	-10674
▁일정한	-10675
▁일종의	-10676
▁입맛을	-10677
▁입점을	-10678
▁자녀를	-10679
▁작년에	-10680
▁장점이	-10681
▁재료를	-10682
▁전기를	-10683
▁전략과	-10684
▁전환이	-10685
▁정부도	-10686
▁정의선	-10687
▁정하고	-10688
▁정해진	-10689
▁제거할	-10690
▁조성을	-10691
▁조현민	-10692
▁주기로	-10693
▁주장이	-10694
▁주택을	-10695
▁중장년	-10696
▁증가에	-10697
▁증가할	-10698
▁증가해	-10699
▁직후인	-10700
▁진행한	-10701
▁질감을	-10702
▁차질이	-10703
▁창업에	-10704
▁철학을	-10705
▁체험할	-10706
▁최상의	-10707
▁추진해	-10708
▁취향을	-10709
▁칭다오	-10710
▁카드를	-10711
▁컨버터	-10712
▁퀄컴의	-10713
▁탁월한	-10714
▁탈바꿈	-10715
▁태스크	-10716
▁토론을	-10717
▁통째로	-10718
▁파업에	-10719
▁판결을	-10720
▁판로를	-10721
▁펀드를	-10722
▁프로세	-10723
▁프린터	-10724
▁플러스	-10725
▁하노이	-10726
▁한계를	-10727
▁해결을	-10728
▁핵심은	-10729
▁핸드백	-10730
▁행사로	-10731
▁현장에	-10732
▁협력해	-10733
▁형태를	-10734
▁혜택도	-10735
▁확대와	-10736
▁희망을	-10737
글로비스	-10738
기관으로	-10739
기아차의	-10740
리케이션	-10741
리포니아	-10742
만달러로	-10743
보증기금	-10744
뿌리산업	-10745
수탁생산	-10746
스마트폰	-10747
앤컴퍼니	-10748
왼쪽부터	-10749
적이라는	-10750
지역난방	-10751
캐피탈이	-10752
포스코는	-10753
푸드빌은	-10754
화학물질	-10755
▁1600	-10756
▁1800	-10757
▁1962	-10758
▁1985	-10759
▁1991	-10760
▁1994	-10761
▁가상현실	-10762
▁개편안을	-10763
▁것이었다	-10764
▁경우에는	-10765
▁고려해야	-10766
▁공기업이	-10767
▁과감하게	-10768
▁과도하게	-10769
▁국가채무	-10770
▁국회에서	-10771
▁금융권에	-10772
▁급감했다	-10773
▁기술력이	-10774
▁기업시민	-10775
▁끌어올릴	-10776
▁내세우고	-10777
▁늘리기로	-10778
▁대기오염	-10779
▁대안으로	-10780
▁동물복지	-10781
▁디자인에	-10782
▁라인업을	-10783
▁마이크로	-10784
▁매일유업	-10785
▁면세점을	-10786
▁명예회장	-10787
▁발표한다	-10788
▁변동금리	-10789
▁보장하는	-10790
▁보호하는	-10791
▁부정적인	-10792
▁부총리가	-10793
▁뿌리산업	-10794
▁사이에선	-10795
▁사회안전	-10796
▁산업단지	-10797
▁생산시설	-10798
▁서비스와	-10799
▁수익률이	-10800
▁수입하는	-10801
▁수주했다	-10802
▁순이익은	-10803
▁실용적인	-10804
▁쏟아졌다	-10805
▁아티스트	-10806
▁않았지만	-10807
▁않으면서	-10808
▁업계에서	-10809
▁유통망을	-10810
▁육성하는	-10811
▁은행들이	-10812
▁의미한다	-10813
▁이끌었다	-10814
▁인상으로	-10815
▁임직원과	-10816
▁있다최근	-10817
▁작년부터	-10818
▁재무장관	-10819
▁점포에서	-10820
▁조성하는	-10821
▁주력하고	-10822
▁줄었지만	-10823
▁지적한다	-10824
▁직무급제	-10825
▁직원들과	-10826
▁직원들을	-10827
▁참가했다	-10828
▁채권단의	-10829
▁청와대와	-10830
▁측정하는	-10831
▁카메라를	-10832
▁콘셉트의	-10833
▁투자자가	-10834
▁포인트를	-10835
▁필요성을	-10836
▁해지환급	-10837
▁현대상선	-10838
▁홈페이지	-10839
▁확대되고	-10840
▁확보했다	-10841
▁활성화에	-10842
▁후원하는	-10843
▁후쿠시마	-10844
삼호중공업	-10845
저축은행은	-10846
카카오뱅크	-10847
파리바게뜨	-10848
하겠습니다	-10849
하나은행은	-10850
하우시스는	-10851
▁공공기관의	-10852
▁관계자들이	-10853
▁국내에서도	-10854
▁금융감독원	-10855
▁금융상품을	-10856
▁네트워크를	-10857
▁매각하기로	-10858
▁봉사활동을	-10859
▁불가피하다	-10860
▁시내면세점	-10861
▁시뮬레이션	-10862
▁아이스크림	-10863
▁어린이보험	-10864
▁우리은행이	-10865
▁인스타그램	-10866
▁인정받았다	-10867
▁자구계획을	-10868
▁자리잡았다	-10869
▁자일리톨껌	-10870
▁전문기업인	-10871
▁지난달부터	-10872
▁최저임금의	-10873
▁추진하기로	-10874
▁태양광발전	-10875
공업협동조합	-10876
금호아시아나	-10877
▁국제노동기구	-10878
▁농림축산식품	-10879
▁라이프스타일	-10880
▁로스앤젤레스	-10881
▁시스템반도체	-10882
▁주택담보대출	-10883
디지털혁신캠퍼	-10884
▁한국경제신문사가	-10885
▁경제사회노동위원회	-10886
▁고객감동브랜드지수	-10887
▁금호아시아나그룹이	-10888
3’	-10889
58	-10890
72	-10891
85	-10892
86	-10893
91	-10894
92	-10895
93	-10896
BL	-10897
ES	-10898
HS	-10899
MA	-10900
MM	-10901
SJ	-10902
is	-10903
pp	-10904
ut	-10905
yo	-10906
▁둬	-10907
▁뚝	-10908
▁몫	-10909
▁잦	-10910
▁족	-10911
▁죠	-10912
▁춘	-10913
▁쿼	-10914
▁핫	-10915
▁휩	-10916
감은	-10917
검토	-10918
견을	-10919
경북	-10920
계는	-10921
공원	-10922
과정	-10923
국장	-10924
기념	-10925
기후	-10926
꼴로	-10927
나소	-10928
나요	-10929
넓은	-10930
년만	-10931
녔다	-10932
놀이	-10933
뇨스	-10934
늦게	-10935
단과	-10936
단순	-10937
동서	-10938
됨에	-10939
라운	-10940
렌털	-10941
력도	-10942
마력	-10943
메뉴	-10944
모임	-10945
무인	-10946
물품	-10947
믹스	-10948
반도	-10949
밥솥	-10950
방문	-10951
배를	-10952
버트	-10953
보검	-10954
비의	-10955
비츠	-10956
비타	-10957
상과	-10958
새우	-10959
색이	-10960
성급	-10961
세와	-10962
센트	-10963
소송	-10964
수와	-10965
수주	-10966
실상	-10967
심성	-10968
심한	-10969
씨씨	-10970
양어	-10971
어난	-10972
어스	-10973
어요	-10974
연결	-10975
연계	-10976
영상	-10977
오션	-10978
용적	-10979
우대	-10980
워시	-10981
월과	-10982
월을	-10983
유가	-10984
으론	-10985
이상	-10986
이슬	-10987
이용	-10988
익을	-10989
인재	-10990
적자	-10991
전통	-10992
절차	-10993
조작	-10994
조화	-10995
종규	-10996
주류	-10997
주민	-10998
진은	-10999
진이	-11000
질과	-11001
처분	-11002
체육	-11003
체험	-11004
초밥	-11005
추경	-11006
층은	-11007
카를	-11008
커는	-11009
켰다	-11010
코는	-11011
콜라	-11012
큐셀	-11013
테고	-11014
투명	-11015
편이	-11016
평을	-11017
피치	-11018
할지	-11019
함께	-11020
허브	-11021
형에	-11022
호적	-11023
휴직	-11024
(25	-11025
350	-11026
6%,	-11027
IDT	-11028
TEU	-11029
art	-11030
woo	-11031
▁03	-11032
▁2,	-11033
▁6%	-11034
▁71	-11035
▁8%	-11036
▁84	-11037
▁86	-11038
▁aT	-11039
▁yo	-11040
▁각국	-11041
▁각오	-11042
▁간부	-11043
▁간식	-11044
▁감싸	-11045
▁갔다	-11046
▁강릉	-11047
▁개조	-11048
▁거시	-11049
▁거절	-11050
▁건너	-11051
▁건면	-11052
▁검색	-11053
▁견제	-11054
▁고기	-11055
▁고압	-11056
▁공산	-11057
▁과열	-11058
▁과장	-11059
▁관행	-11060
▁광양	-11061
▁광역	-11062
▁교섭	-11063
▁구동	-11064
▁구미	-11065
▁구비	-11066
▁군산	-11067
▁그쳤	-11068
▁근속	-11069
▁기내	-11070
▁기타	-11071
▁기후	-11072
▁김수	-11073
▁김태	-11074
▁깊고	-11075
▁꾸미	-11076
▁끄는	-11077
▁남북	-11078
▁낮출	-11079
▁내가	-11080
▁내기	-11081
▁내놨	-11082
▁논쟁	-11083
▁놀이	-11084
▁높고	-11085
▁높지	-11086
▁단말	-11087
▁단백	-11088
▁단지	-11089
▁대명	-11090
▁대변	-11091
▁대처	-11092
▁동월	-11093
▁동행	-11094
▁되살	-11095
▁두는	-11096
▁두루	-11097
▁라벨	-11098
▁레저	-11099
▁마곡	-11100
▁마크	-11101
▁만남	-11102
▁많고	-11103
▁말리	-11104
▁맛볼	-11105
▁맡겨	-11106
▁매니	-11107
▁무관	-11108
▁무리	-11109
▁무한	-11110
▁묶어	-11111
▁묻자	-11112
▁물리	-11113
▁물적	-11114
▁미루	-11115
▁민생	-11116
▁바른	-11117
▁반월	-11118
▁반토	-11119
▁방위	-11120
▁버튼	-11121
▁번씩	-11122
▁번의	-11123
▁법적	-11124
▁법학	-11125
▁베뉴	-11126
▁변신	-11127
▁보육	-11128
▁보행	-11129
▁부부	-11130
▁부추	-11131
▁부평	-11132
▁붙는	-11133
▁비비	-11134
▁빠질	-11135
▁빼고	-11136
▁산출	-11137
▁삼양	-11138
▁상암	-11139
▁상을	-11140
▁선진	-11141
▁성사	-11142
▁성향	-11143
▁소믈	-11144
▁속에	-11145
▁손님	-11146
▁손질	-11147
▁수수	-11148
▁수원	-11149
▁수치	-11150
▁숙성	-11151
▁스킨	-11152
▁승차	-11153
▁시세	-11154
▁신념	-11155
▁신문	-11156
▁신종	-11157
▁신주	-11158
▁쌓인	-11159
▁쓰지	-11160
▁아쉬	-11161
▁아트	-11162
▁앞당	-11163
▁애경	-11164
▁애완	-11165
▁어린	-11166
▁엔젤	-11167
▁여건	-11168
▁연비	-11169
▁연합	-11170
▁열을	-11171
▁오이	-11172
▁외면	-11173
▁원청	-11174
▁의심	-11175
▁의혹	-11176
▁이은	-11177
▁익스	-11178
▁인조	-11179
▁일관	-11180
▁입맛	-11181
▁잇단	-11182
▁자재	-11183
▁작품	-11184
▁잡는	-11185
▁쟁의	-11186
▁전파	-11187
▁정교	-11188
▁정밀	-11189
▁정성	-11190
▁정식	-11191
▁정한	-11192
▁종사	-11193
▁종의	-11194
▁주무	-11195
▁주세	-11196
▁주지	-11197
▁중복	-11198
▁중엔	-11199
▁즐겨	-11200
▁증류	-11201
▁증명	-11202
▁지위	-11203
▁지친	-11204
▁진로	-11205
▁진보	-11206
▁집닥	-11207
▁집무	-11208
▁집을	-11209
▁집진	-11210
▁찍어	-11211
▁차체	-11212
▁창사	-11213
▁처한	-11214
▁초고	-11215
▁초대	-11216
▁초코	-11217
▁출전	-11218
▁측에	-11219
▁측의	-11220
▁쿠첸	-11221
▁타인	-11222
▁타입	-11223
▁탈퇴	-11224
▁태림	-11225
▁통장	-11226
▁특강	-11227
▁파견	-11228
▁파크	-11229
▁포토	-11230
▁폭을	-11231
▁표시	-11232
▁품종	-11233
▁프랑	-11234
▁하게	-11235
▁하자	-11236
▁학과	-11237
▁한글	-11238
▁한두	-11239
▁한시	-11240
▁할부	-11241
▁허인	-11242
▁홀로	-11243
▁후퇴	-11244
강현실	-11245
개월여	-11246
게이션	-11247
관계를	-11248
나가고	-11249
나소닉	-11250
는데도	-11251
단계로	-11252
달라고	-11253
대기업	-11254
도시락	-11255
되기도	-11256
되도록	-11257
된다면	-11258
라운드	-11259
레쓰비	-11260
레퍼시	-11261
모델을	-11262
법인의	-11263
베이스	-11264
보험료	-11265
사미아	-11266
사업이	-11267
생활을	-11268
설비를	-11269
세이브	-11270
솔루션	-11271
스터를	-11272
스트는	-11273
스트코	-11274
스페셜	-11275
시간이	-11276
시에서	-11277
실장은	-11278
십니까	-11279
어지는	-11280
에서의	-11281
오렌지	-11282
우리가	-11283
이비통	-11284
정부와	-11285
중심지	-11286
지사첼	-11287
지원금	-11288
티넨탈	-11289
팻다운	-11290
페이는	-11291
포조선	-11292
퓰리즘	-11293
프레시	-11294
프리즘	-11295
하이텍	-11296
해주고	-11297
활동에	-11298
회장님	-11299
CSBI	-11300
~30%	-11301
▁000	-11302
▁110	-11303
▁134	-11304
▁190	-11305
▁1~4	-11306
▁1·2	-11307
▁29%	-11308
▁34%	-11309
▁37%	-11310
▁39%	-11311
▁53%	-11312
▁55%	-11313
▁BMW	-11314
▁ELS	-11315
▁SNS	-11316
▁가치는	-11317
▁각각의	-11318
▁간단한	-11319
▁간편식	-11320
▁강도를	-11321
▁개선될	-11322
▁건축물	-11323
▁걸었다	-11324
▁검토한	-11325
▁검토할	-11326
▁격차가	-11327
▁경우도	-11328
▁경험할	-11329
▁계약이	-11330
▁고령화	-11331
▁곳곳에	-11332
▁공개된	-11333
▁공급을	-11334
▁공급이	-11335
▁과정에	-11336
▁관리할	-11337
▁광화문	-11338
▁규제는	-11339
▁그나마	-11340
▁금감원	-11341
▁금액이	-11342
▁기대를	-11343
▁김재철	-11344
▁나라의	-11345
▁내부에	-11346
▁노선에	-11347
▁놀이터	-11348
▁농식품	-11349
▁높이면	-11350
▁늘리기	-11351
▁다각화	-11352
▁다니는	-11353
▁대다수	-11354
▁대상에	-11355
▁돌아섰	-11356
▁똑같은	-11357
▁로열티	-11358
▁롯데몰	-11359
▁링크샵	-11360
▁매각이	-11361
▁매각할	-11362
▁매장은	-11363
▁매출도	-11364
▁메이크	-11365
▁명의로	-11366
▁모드를	-11367
▁못지않	-11368
▁무조건	-11369
▁미네랄	-11370
▁바뀌면	-11371
▁발간한	-11372
▁발언을	-11373
▁방문한	-11374
▁방법이	-11375
▁방안이	-11376
▁방침을	-11377
▁배경을	-11378
▁번째다	-11379
▁법원이	-11380
▁보이지	-11381
▁부품을	-11382
▁분석을	-11383
▁불공정	-11384
▁불과한	-11385
▁붙었다	-11386
▁브라렛	-11387
▁비중도	-11388
▁빌트인	-11389
▁사명을	-11390
▁사용이	-11391
▁사이버	-11392
▁사정이	-11393
▁산업을	-11394
▁샌드박	-11395
▁생각을	-11396
▁생산에	-11397
▁생산해	-11398
▁선정한	-11399
▁설정을	-11400
▁소고기	-11401
▁소식에	-11402
▁손으로	-11403
▁수상의	-11404
▁수소차	-11405
▁수차례	-11406
▁스토어	-11407
▁스티커	-11408
▁시계를	-11409
▁식품의	-11410
▁신남방	-11411
▁아래로	-11412
▁아세안	-11413
▁아이돌	-11414
▁악화된	-11415
▁않았던	-11416
▁알렸다	-11417
▁알코올	-11418
▁업체로	-11419
▁에버홈	-11420
▁역량과	-11421
▁연기금	-11422
▁연다고	-11423
▁연령대	-11424
▁연출할	-11425
▁열처리	-11426
▁오리진	-11427
▁올리지	-11428
▁와이드	-11429
▁우리의	-11430
▁운영할	-11431
▁울산에	-11432
▁원양어	-11433
▁원인은	-11434
▁원장은	-11435
▁웬만한	-11436
▁위주의	-11437
▁위험에	-11438
▁유럽과	-11439
▁음료를	-11440
▁의견도	-11441
▁의미로	-11442
▁이내에	-11443
▁이랜드	-11444
▁이어가	-11445
▁이전에	-11446
▁인력난	-11447
▁인버터	-11448
▁인상이	-11449
▁일본과	-11450
▁임원은	-11451
▁재정이	-11452
▁저축성	-11453
▁전략도	-11454
▁전력을	-11455
▁전망은	-11456
▁제조한	-11457
▁제주도	-11458
▁조직의	-11459
▁조현아	-11460
▁준비가	-11461
▁중남미	-11462
▁중저가	-11463
▁증권사	-11464
▁지역은	-11465
▁지적에	-11466
▁지주사	-11467
▁지키기	-11468
▁직접적	-11469
▁진행해	-11470
▁질감의	-11471
▁창업한	-11472
▁찾아가	-11473
▁채용을	-11474
▁철저히	-11475
▁체질을	-11476
▁총자산	-11477
▁최태원	-11478
▁출시와	-11479
▁침체로	-11480
▁카타르	-11481
▁카테고	-11482
▁캔커피	-11483
▁커피에	-11484
▁클래스	-11485
▁클래식	-11486
▁타당성	-11487
▁통하는	-11488
▁투명한	-11489
▁트렌디	-11490
▁특성상	-11491
▁특성화	-11492
▁특유의	-11493
▁팀장은	-11494
▁판매한	-11495
▁패키징	-11496
▁편리한	-11497
▁편의를	-11498
▁표현한	-11499
▁프레임	-11500
▁플러그	-11501
▁피보험	-11502
▁피부를	-11503
▁한국형	-11504
▁한도로	-11505
▁한전은	-11506
▁한정판	-11507
▁해마다	-11508
▁했는데	-11509
▁했다는	-11510
▁현상을	-11511
▁협약은	-11512
▁협의해	-11513
▁화관법	-11514
▁확대는	-11515
▁확실히	-11516
▁환경이	-11517
▁활발한	-11518
▁회사인	-11519
▁회원국	-11520
▁후에도	-11521
▁휴식을	-11522
▁힘쓰고	-11523
간접자본	-11524
개발은행	-11525
국토교통	-11526
대한민국	-11527
되더라도	-11528
들에게는	-11529
레퍼시픽	-11530
만큼이나	-11531
모빌리티	-11532
민주노총	-11533
사회복지	-11534
우수제품	-11535
운송사업	-11536
웨이항공	-11537
인테리어	-11538
채권단은	-11539
포인트를	-11540
해달라는	-11541
홈쇼핑이	-11542
(2017	-11543
▁108%	-11544
▁1969	-11545
▁1982	-11546
▁1995	-11547
▁3500	-11548
▁가동률이	-11549
▁강소기업	-11550
▁강점으로	-11551
▁경영계의	-11552
▁경영진이	-11553
▁고객들의	-11554
▁고객들이	-11555
▁공급하고	-11556
▁공급한다	-11557
▁공략하고	-11558
▁공무원의	-11559
▁공유경제	-11560
▁공유하는	-11561
▁공장에서	-11562
▁근본적인	-11563
▁금감원은	-11564
▁금융규제	-11565
▁금융투자	-11566
▁기금운용	-11567
▁기대된다	-11568
▁기준금리	-11569
▁끌어올린	-11570
▁나타나고	-11571
▁내년까지	-11572
▁내놓기로	-11573
▁논의하고	-11574
▁달라진다	-11575
▁달성하기	-11576
▁대대적인	-11577
▁대우건설	-11578
▁돌아왔다	-11579
▁들어서는	-11580
▁때문으로	-11581
▁루이비통	-11582
▁마케팅도	-11583
▁매각했다	-11584
▁멀티순환	-11585
▁반도체가	-11586
▁반영했다	-11587
▁받아들이	-11588
▁발굴하고	-11589
▁부회장의	-11590
▁불과하던	-11591
▁브렉시트	-11592
▁비용으로	-11593
▁사내이사	-11594
▁사람에게	-11595
▁사업부문	-11596
▁사장으로	-11597
▁산불피해	-11598
▁상여금을	-11599
▁생산량은	-11600
▁생산성을	-11601
▁생태계가	-11602
▁서비스업	-11603
▁설계인증	-11604
▁소송에서	-11605
▁수준에서	-11606
▁수협은행	-11607
▁스테이크	-11608
▁시장에도	-11609
▁신설법인	-11610
▁신성장동	-11611
▁신속하게	-11612
▁실리콘밸	-11613
▁아이들의	-11614
▁않는다고	-11615
▁알고리즘	-11616
▁어려움이	-11617
▁어린이집	-11618
▁어버이날	-11619
▁연결하는	-11620
▁예상한다	-11621
▁요구사항	-11622
▁요인이다	-11623
▁우대금리	-11624
▁움직임이	-11625
▁유지해야	-11626
▁은행들은	-11627
▁이달부터	-11628
▁이뤄지고	-11629
▁이후에도	-11630
▁일반적인	-11631
▁입소문을	-11632
▁있다국내	-11633
▁있었다는	-11634
▁자동차용	-11635
▁자리잡은	-11636
▁자신감을	-11637
▁재무건전	-11638
▁전달하고	-11639
▁전반적인	-11640
▁전통적인	-11641
▁정확하게	-11642
▁제공했다	-11643
▁주장하는	-11644
▁중진공은	-11645
▁증가했고	-11646
▁지금보다	-11647
▁진행되는	-11648
▁진행했다	-11649
▁쪼그라든	-11650
▁청년수당	-11651
▁최저치다	-11652
▁출발했다	-11653
▁출시하고	-11654
▁치솟았다	-11655
▁콘셉트를	-11656
▁콘크리트	-11657
▁키오스크	-11658
▁트렌드가	-11659
▁파트너스	-11660
▁편안하게	-11661
▁폭스바겐	-11662
▁풀이된다	-11663
▁하더라도	-11664
▁하반기에	-11665
▁현대차가	-11666
▁호소했다	-11667
▁확대된다	-11668
▁확대하기	-11669
▁확대한다	-11670
▁회장에게	-11671
근당건강의	-11672
동계올림픽	-11673
래버레이션	-11674
브릿지사첼	-11675
엘리베이터	-11676
위원회에서	-11677
채권은행인	-11678
현대자동차	-11679
▁KAIST	-11680
▁간담회에서	-11681
▁경영정상화	-11682
▁국토교통부	-11683
▁금융회사가	-11684
▁기준금리를	-11685
▁내비게이션	-11686
▁농협은행은	-11687
▁대기업집단	-11688
▁데크플레이	-11689
▁마찬가지로	-11690
▁브리핑에서	-11691
▁산업은행은	-11692
▁슬로건으로	-11693
▁아이디어가	-11694
▁연구원들이	-11695
▁연세대학교	-11696
▁지난해까지	-11697
▁지역사회와	-11698
▁최저임금이	-11699
▁코엑스에서	-11700
▁태스크포스	-11701
▁한국은행이	-11702
액셀러레이터	-11703
액정표시장치	-11704
인베스트먼트	-11705
인프라코어는	-11706
▁금융감독원은	-11707
▁금융위원회는	-11708
▁깨끗한나라는	-11709
▁미니클러스터	-11710
▁소상공인연합	-11711
▁에어프레미아	-11712
▁자동차업계에	-11713
▁자리매김하고	-11714
▁커뮤니케이션	-11715
▁현대자동차는	-11716
▁현대중공업이	-11717
▁인터넷전문은행	-11718
▁한국경제신문이	-11719
중소벤처기업부는	-11720
▁사회복지공동모금	-11721
▁한국경영자총협회	-11722
2,	-11723
46	-11724
47	-11725
77	-11726
98	-11727
AE	-11728
EC	-11729
ER	-11730
LC	-11731
NO	-11732
RS	-11733
SA	-11734
ce	-11735
li	-11736
▁갔	-11737
▁굵	-11738
▁긁	-11739
▁꽤	-11740
▁끓	-11741
▁뇌	-11742
▁뜯	-11743
▁맹	-11744
▁빵	-11745
▁엽	-11746
▁옴	-11747
▁찌	-11748
▁튼	-11749
▁횟	-11750
▁훼	-11751
가방	-11752
강도	-11753
강판	-11754
개념	-11755
개다	-11756
계절	-11757
공감	-11758
과제	-11759
과즙	-11760
관료	-11761
광역	-11762
광은	-11763
글라	-11764
금고	-11765
기요	-11766
기자	-11767
내외	-11768
네트	-11769
노돔	-11770
노선	-11771
농업	-11772
놓을	-11773
니언	-11774
니컬	-11775
단열	-11776
담배	-11777
디는	-11778
디의	-11779
라노	-11780
란트	-11781
렇다	-11782
로지	-11783
르다	-11784
리서	-11785
림돌	-11786
매틱	-11787
모닉	-11788
모두	-11789
모사	-11790
목의	-11791
물인	-11792
바나	-11793
반을	-11794
받지	-11795
백은	-11796
버드	-11797
보니	-11798
보복	-11799
부담	-11800
분위	-11801
분할	-11802
붕괴	-11803
비즈	-11804
사탕	-11805
산을	-11806
상환	-11807
서트	-11808
석이	-11809
선의	-11810
세탁	-11811
소매	-11812
소주	-11813
송금	-11814
수에	-11815
스쿨	-11816
스틸	-11817
시즌	-11818
실은	-11819
심은	-11820
씨티	-11821
아메	-11822
아오	-11823
애틀	-11824
앤비	-11825
어의	-11826
에다	-11827
여개	-11828
연봉	-11829
영리	-11830
오후	-11831
와도	-11832
왕산	-11833
외국	-11834
우주	-11835
원화	-11836
월께	-11837
음이	-11838
이들	-11839
이온	-11840
이의	-11841
이체	-11842
인기	-11843
일엔	-11844
일의	-11845
자도	-11846
자이	-11847
자일	-11848
저널	-11849
전반	-11850
정상	-11851
정지	-11852
조금	-11853
즈베	-11854
증명	-11855
지나	-11856
지마	-11857
지양	-11858
직무	-11859
직영	-11860
직접	-11861
질환	-11862
차밭	-11863
청과	-11864
체는	-11865
체형	-11866
최종	-11867
치즈	-11868
카의	-11869
컷다	-11870
크래	-11871
클릭	-11872
탈은	-11873
터보	-11874
토리	-11875
틀어	-11876
티몬	-11877
티오	-11878
평소	-11879
평형	-11880
풀이	-11881
풍을	-11882
프린	-11883
피가	-11884
필수	-11885
해볼	-11886
해운	-11887
헬스	-11888
형의	-11889
홍삼	-11890
화장	-11891
화질	-11892
확장	-11893
확한	-11894
활력	-11895
(23	-11896
(24	-11897
(27	-11898
(44	-11899
(48	-11900
(60	-11901
400	-11902
LPG	-11903
~15	-11904
’(4	-11905
▁66	-11906
▁72	-11907
▁78	-11908
▁83	-11909
▁93	-11910
▁LA	-11911
▁감동	-11912
▁감염	-11913
▁갖게	-11914
▁갖출	-11915
▁건립	-11916
▁결승	-11917
▁경량	-11918
▁고갈	-11919
▁고지	-11920
▁광명	-11921
▁광장	-11922
▁구두	-11923
▁국책	-11924
▁국토	-11925
▁그냥	-11926
▁그에	-11927
▁그해	-11928
▁기증	-11929
▁김종	-11930
▁깎아	-11931
▁꾸며	-11932
▁꾸몄	-11933
▁나면	-11934
▁나이	-11935
▁날짜	-11936
▁남산	-11937
▁내릴	-11938
▁내장	-11939
▁넓히	-11940
▁넘길	-11941
▁넘을	-11942
▁노래	-11943
▁농어	-11944
▁농촌	-11945
▁눈높	-11946
▁느낀	-11947
▁다녀	-11948
▁다들	-11949
▁답답	-11950
▁대에	-11951
▁대타	-11952
▁더마	-11953
▁더블	-11954
▁더샵	-11955
▁덕에	-11956
▁덜어	-11957
▁데님	-11958
▁동작	-11959
▁돼야	-11960
▁두유	-11961
▁두통	-11962
▁뒤에	-11963
▁뒤처	-11964
▁듣는	-11965
▁디테	-11966
▁뜯어	-11967
▁띄게	-11968
▁라돈	-11969
▁라지	-11970
▁루비	-11971
▁리막	-11972
▁리스	-11973
▁리챔	-11974
▁마블	-11975
▁마일	-11976
▁막는	-11977
▁말한	-11978
▁맞이	-11979
▁매물	-11980
▁멸종	-11981
▁명당	-11982
▁명절	-11983
▁모인	-11984
▁목재	-11985
▁목질	-11986
▁문턱	-11987
▁물로	-11988
▁물이	-11989
▁미주	-11990
▁미흡	-11991
▁반경	-11992
▁발을	-11993
▁밝혔	-11994
▁버티	-11995
▁별로	-11996
▁별세	-11997
▁보잉	-11998
▁보전	-11999
▁보존	-12000
▁부위	-12001
▁부인	-12002
▁불복	-12003
▁빼면	-12004
▁뽑아	-12005
▁사명	-12006
▁사안	-12007
▁산양	-12008
▁삼각	-12009
▁생성	-12010
▁생일	-12011
▁성격	-12012
▁세일	-12013
▁세포	-12014
▁손보	-12015
▁수납	-12016
▁수박	-12017
▁수산	-12018
▁순서	-12019
▁술의	-12020
▁스터	-12021
▁슬림	-12022
▁승진	-12023
▁시사	-12024
▁시속	-12025
▁시정	-12026
▁식의	-12027
▁식재	-12028
▁식탁	-12029
▁신년	-12030
▁신사	-12031
▁심어	-12032
▁싱크	-12033
▁싸다	-12034
▁쓰일	-12035
▁아들	-12036
▁악영	-12037
▁않게	-12038
▁않던	-12039
▁않으	-12040
▁알레	-12041
▁알짜	-12042
▁엄선	-12043
▁엇갈	-12044
▁엑스	-12045
▁여객	-12046
▁여론	-12047
▁역동	-12048
▁연초	-12049
▁영예	-12050
▁오버	-12051
▁올봄	-12052
▁운구	-12053
▁원목	-12054
▁원조	-12055
▁월급	-12056
▁유병	-12057
▁유사	-12058
▁육박	-12059
▁응원	-12060
▁의자	-12061
▁이석	-12062
▁이윤	-12063
▁인덕	-12064
▁인턴	-12065
▁일대	-12066
▁잃은	-12067
▁입는	-12068
▁입학	-12069
▁작고	-12070
▁잠수	-12071
▁장남	-12072
▁적게	-12073
▁절실	-12074
▁정신	-12075
▁제격	-12076
▁조형	-12077
▁좋게	-12078
▁즐기	-12079
▁지성	-12080
▁진열	-12081
▁진화	-12082
▁질을	-12083
▁짜장	-12084
▁찍고	-12085
▁차가	-12086
▁차원	-12087
▁찬반	-12088
▁찾지	-12089
▁청약	-12090
▁촉촉	-12091
▁최장	-12092
▁추모	-12093
▁추억	-12094
▁축제	-12095
▁층을	-12096
▁층이	-12097
▁치아	-12098
▁칼로	-12099
▁캔디	-12100
▁택배	-12101
▁텔레	-12102
▁토로	-12103
▁통일	-12104
▁트윗	-12105
▁티몰	-12106
▁편한	-12107
▁포괄	-12108
▁폭발	-12109
▁푸른	-12110
▁프렌	-12111
▁해동	-12112
▁했기	-12113
▁행동	-12114
▁형광	-12115
▁형사	-12116
▁형식	-12117
▁호흡	-12118
▁횡성	-12119
▁훼손	-12120
▁흔히	-12121
가맹점	-12122
간다는	-12123
강은구	-12124
경영을	-12125
경제학	-12126
계획을	-12127
공장은	-12128
공장이	-12129
공학부	-12130
관리법	-12131
그룹과	-12132
그룹도	-12133
금액을	-12134
기금을	-12135
기기로	-12136
김영우	-12137
나가는	-12138
넥티드	-12139
년에서	-12140
노조는	-12141
달러를	-12142
대리석	-12143
되지만	-12144
라이트	-12145
리케어	-12146
마스터	-12147
마이너	-12148
모니터	-12149
미국과	-12150
베이징	-12151
보험에	-12152
부터다	-12153
비용이	-12154
선진국	-12155
성으로	-12156
성장률	-12157
시스코	-12158
심사를	-12159
았지만	-12160
억원씩	-12161
연금은	-12162
오토모	-12163
유동화	-12164
이미지	-12165
이처럼	-12166
자료를	-12167
정책에	-12168
제도를	-12169
주에게	-12170
준다는	-12171
카드가	-12172
콘텐츠	-12173
테이션	-12174
파운드	-12175
평가를	-12176
푸드는	-12177
하기가	-12178
협력을	-12179
호르몬	-12180
홍남기	-12181
회사는	-12182
회사의	-12183
회째를	-12184
~50%	-12185
▁08%	-12186
▁09%	-12187
▁133	-12188
▁17%	-12189
▁22%	-12190
▁48%	-12191
▁68%	-12192
▁99%	-12193
▁CFO	-12194
▁FDI	-12195
▁IoT	-12196
▁KDI	-12197
▁가능할	-12198
▁가져다	-12199
▁가지를	-12200
▁가하고	-12201
▁감사의	-12202
▁감소로	-12203
▁감소폭	-12204
▁강남점	-12205
▁개선해	-12206
▁걸림돌	-12207
▁검사를	-12208
▁결제가	-12209
▁경기에	-12210
▁계절에	-12211
▁고개를	-12212
▁고성군	-12213
▁공간이	-12214
▁공급할	-12215
▁공정을	-12216
▁관계가	-12217
▁관리에	-12218
▁교수의	-12219
▁구하기	-12220
▁구현할	-12221
▁국민적	-12222
▁그래도	-12223
▁그런데	-12224
▁극대화	-12225
▁금리로	-12226
▁급감한	-12227
▁기관이	-12228
▁기반한	-12229
▁기법을	-12230
▁기술에	-12231
▁기준에	-12232
▁기준은	-12233
▁기회도	-12234
▁깔끔한	-12235
▁꼽혔다	-12236
▁나눔을	-12237
▁남성복	-12238
▁낮았다	-12239
▁낮추고	-12240
▁내놓지	-12241
▁냈지만	-12242
▁노조의	-12243
▁논리다	-12244
▁뉴트리	-12245
▁늘려야	-12246
▁늘었고	-12247
▁니즈를	-12248
▁다루는	-12249
▁다문화	-12250
▁다음주	-12251
▁닥터자	-12252
▁대금을	-12253
▁대표로	-12254
▁대화를	-12255
▁덴마크	-12256
▁도로를	-12257
▁도시를	-12258
▁동남아	-12259
▁동영상	-12260
▁되도록	-12261
▁뒤늦게	-12262
▁들어오	-12263
▁등장한	-12264
▁따라서	-12265
▁떨어뜨	-12266
▁떨어질	-12267
▁떼어내	-12268
▁뜻하는	-12269
▁리워즈	-12270
▁마음이	-12271
▁마치고	-12272
▁맛있는	-12273
▁매각에	-12274
▁매기는	-12275
▁모른다	-12276
▁모모스	-12277
▁무역협	-12278
▁문제도	-12279
▁물산업	-12280
▁미국을	-12281
▁미래에	-12282
▁미래형	-12283
▁미만의	-12284
▁바뀌는	-12285
▁바람을	-12286
▁박근혜	-12287
▁반발이	-12288
▁받으면	-12289
▁발목을	-12290
▁발주한	-12291
▁발표를	-12292
▁발행한	-12293
▁방식도	-12294
▁배제할	-12295
▁법제화	-12296
▁변경에	-12297
▁변호사	-12298
▁변화는	-12299
▁별개로	-12300
▁보내는	-12301
▁보낸다	-12302
▁보일러	-12303
▁보장성	-12304
▁본격화	-12305
▁부담은	-12306
▁부르는	-12307
▁부채는	-12308
▁브레이	-12309
▁블라우	-12310
▁블렌더	-12311
▁비디오	-12312
▁빈소를	-12313
▁빙그레	-12314
▁뿐이다	-12315
▁사람들	-12316
▁사람을	-12317
▁사용을	-12318
▁사태가	-12319
▁산안법	-12320
▁산은이	-12321
▁살리기	-12322
▁상대방	-12323
▁상품인	-12324
▁상황과	-12325
▁샌드위	-12326
▁생산과	-12327
▁선물을	-12328
▁선보이	-12329
▁설계와	-12330
▁설명회	-12331
▁성분이	-12332
▁성장해	-12333
▁세상을	-12334
▁센터는	-12335
▁셧다운	-12336
▁소식이	-12337
▁손실이	-12338
▁손해를	-12339
▁수상자	-12340
▁수주를	-12341
▁스크린	-12342
▁시기다	-12343
▁심플한	-12344
▁싶었다	-12345
▁아로마	-12346
▁않기로	-12347
▁않다고	-12348
▁앱에서	-12349
▁양재동	-12350
▁어떨까	-12351
▁없을까	-12352
▁에센스	-12353
▁여성복	-12354
▁여성의	-12355
▁역할이	-12356
▁예고한	-12357
▁오래된	-12358
▁올리브	-12359
▁와디즈	-12360
▁완화적	-12361
▁외환위	-12362
▁운영에	-12363
▁운영한	-12364
▁워크숍	-12365
▁원인이	-12366
▁원재료	-12367
▁웨이퍼	-12368
▁의사결	-12369
▁의사를	-12370
▁이들을	-12371
▁이루는	-12372
▁이야기	-12373
▁이처럼	-12374
▁인근에	-12375
▁인지도	-12376
▁인허가	-12377
▁있다김	-12378
▁있어도	-12379
▁있음을	-12380
▁자녀가	-12381
▁작년엔	-12382
▁장점은	-12383
▁장착해	-12384
▁장치를	-12385
▁재창업	-12386
▁적자로	-12387
▁전경련	-12388
▁전기요	-12389
▁전달할	-12390
▁전통주	-12391
▁전환해	-12392
▁정도가	-12393
▁제안한	-12394
▁제재를	-12395
▁조정할	-12396
▁종류의	-12397
▁주도로	-12398
▁주도한	-12399
▁주도할	-12400
▁주장도	-12401
▁주재로	-12402
▁줄여야	-12403
▁중국을	-12404
▁중에선	-12405
▁지금의	-12406
▁지나친	-12407
▁지속될	-12408
▁지었다	-12409
▁지정된	-12410
▁지지를	-12411
▁지키고	-12412
▁지키는	-12413
▁지표를	-12414
▁지하철	-12415
▁진단을	-12416
▁진정한	-12417
▁진출에	-12418
▁집에서	-12419
▁차량이	-12420
▁차례로	-12421
▁창출과	-12422
▁청소기	-12423
▁체제를	-12424
▁초소형	-12425
▁최소화	-12426
▁코스맥	-12427
▁클렌징	-12428
▁키우기	-12429
▁키웠다	-12430
▁토대를	-12431
▁통신칩	-12432
▁통틀어	-12433
▁특징을	-12434
▁파업이	-12435
▁판단에	-12436
▁팻다운	-12437
▁펼치는	-12438
▁평가는	-12439
▁풀무원	-12440
▁품목은	-12441
▁프라이	-12442
▁합의한	-12443
▁해결에	-12444
▁허가를	-12445
▁혁신이	-12446
▁현금을	-12447
▁확대로	-12448
▁확보한	-12449
▁확인한	-12450
▁확장에	-12451
▁회복될	-12452
경제자문	-12453
금융당국	-12454
나눔재단	-12455
래곤시티	-12456
무역기구	-12457
배움카드	-12458
블랙야크	-12459
삼성전자	-12460
삼성화재	-12461
스케일업	-12462
신라호텔	-12463
신용평가	-12464
안정자금	-12465
억원이던	-12466
업체들의	-12467
연구소가	-12468
연구소를	-12469
우산공제	-12470
월부터는	-12471
유플러스	-12472
일각에선	-12473
자율주행	-12474
지원사업	-12475
청년창업	-12476
테인먼트	-12477
ation	-12478
~2017	-12479
▁1100	-12480
▁1960	-12481
▁1988	-12482
▁1989	-12483
▁9000	-12484
▁QLED	-12485
▁가맹금을	-12486
▁강조하고	-12487
▁같습니다	-12488
▁갤러리아	-12489
▁결정하는	-12490
▁결혼정보	-12491
▁경영자문	-12492
▁경제부처	-12493
▁고객만족	-12494
▁고민하는	-12495
▁공유하고	-12496
▁구성된다	-12497
▁구축하기	-12498
▁국내에선	-12499
▁국제기구	-12500
▁권고했다	-12501
▁귀뚜라미	-12502
▁극복하기	-12503
▁금융결제	-12504
▁급증하는	-12505
▁기업들을	-12506
▁기업은행	-12507
▁기여하고	-12508
▁기자들과	-12509
▁나오면서	-12510
▁나타내고	-12511
▁납품하는	-12512
▁내놓으며	-12513
▁늘었지만	-12514
▁대부분은	-12515
▁대부분이	-12516
▁대응하는	-12517
▁대체근로	-12518
▁돌아가는	-12519
▁동서식품	-12520
▁디자인한	-12521
▁떠오르는	-12522
▁롯데닷컴	-12523
▁마련하기	-12524
▁말했다박	-12525
▁모집한다	-12526
▁목표치를	-12527
▁바이러스	-12528
▁반발하고	-12529
▁발생하면	-12530
▁발생하지	-12531
▁방문했다	-12532
▁방법으로	-12533
▁방송에서	-12534
▁방탄소년	-12535
▁배터리를	-12536
▁변경했다	-12537
▁병원에서	-12538
▁보여준다	-12539
▁부동산을	-12540
▁불필요한	-12541
▁브랜드키	-12542
▁사용되는	-12543
▁사후관리	-12544
▁상승으로	-12545
▁생산량을	-12546
▁생산량의	-12547
▁생산량이	-12548
▁선택하는	-12549
▁설립됐다	-12550
▁설명한다	-12551
▁소득대체	-12552
▁시스템도	-12553
▁시원하게	-12554
▁시장이다	-12555
▁아니지만	-12556
▁아이에게	-12557
▁알려주는	-12558
▁앞으로는	-12559
▁연구원은	-12560
▁연말까지	-12561
▁영풍문고	-12562
▁예고했다	-12563
▁예비창업	-12564
▁웃돌았다	-12565
▁원인으로	-12566
▁유상증자	-12567
▁유일하다	-12568
▁은행들의	-12569
▁이뤄지는	-12570
▁이미지가	-12571
▁인지도가	-12572
▁일각에선	-12573
▁일자리는	-12574
▁일환으로	-12575
▁임금체계	-12576
▁입소문이	-12577
▁잇따르고	-12578
▁자기자본	-12579
▁자랑한다	-12580
▁작년에는	-12581
▁장착됐다	-12582
▁재무제표	-12583
▁적용하고	-12584
▁전달하는	-12585
▁전시관을	-12586
▁점검하고	-12587
▁점검하는	-12588
▁정기배송	-12589
▁정책금융	-12590
▁제네시스	-12591
▁제시하고	-12592
▁조건으로	-12593
▁주도권을	-12594
▁중견기업	-12595
▁증강현실	-12596
▁지급했다	-12597
▁진화하고	-12598
▁참여한다	-12599
▁청년들의	-12600
▁카바스백	-12601
▁컨설팅을	-12602
▁컨센서스	-12603
▁컬렉션을	-12604
▁코스트코	-12605
▁탄생했다	-12606
▁탑재했다	-12607
▁털어놨다	-12608
▁테마파크	-12609
▁토론회를	-12610
▁특수관계	-12611
▁파악됐다	-12612
▁파키스탄	-12613
▁포함된다	-12614
▁품질관리	-12615
▁필요했다	-12616
▁하티스트	-12617
▁한국야쿠	-12618
▁한국으로	-12619
▁할인받을	-12620
▁함께하는	-12621
▁합류했다	-12622
▁해당한다	-12623
▁해외시장	-12624
▁협력사와	-12625
▁확보하기	-12626
▁황산화물	-12627
▁회의에서	-12628
▁회장으로	-12629
금융그룹은	-12630
스타벅스는	-12631
억원이었다	-12632
인더스트리	-12633
인터내셔날	-12634
제일제당은	-12635
코퍼레이션	-12636
하이닉스가	-12637
한국타이어	-12638
ungwoo	-12639
▁000%)	-12640
▁2030’	-12641
▁KOTRA	-12642
▁가맹본부가	-12643
▁공유오피스	-12644
▁금융당국이	-12645
▁금융소외를	-12646
▁기술력으로	-12647
▁기업가정신	-12648
▁끌어올리기	-12649
▁높아지면서	-12650
▁디자이너가	-12651
▁무역전쟁이	-12652
▁분야에서도	-12653
▁생산라인을	-12654
▁세무조사를	-12655
▁소프트뱅크	-12656
▁스타벅스는	-12657
▁스타트업이	-12658
▁시스템으로	-12659
▁신한카드는	-12660
▁실질적으로	-12661
▁애로사항을	-12662
▁앵커에쿼티	-12663
▁예정입니다	-12664
▁온라인에서	-12665
▁유지하면서	-12666
▁일반적으로	-12667
▁장수돌침대	-12668
▁전문적으로	-12669
▁증가했다고	-12670
▁지식재산권	-12671
▁집계됐다고	-12672
▁최대주주로	-12673
▁커피전문점	-12674
▁투자하기로	-12675
▁티웨이항공	-12676
▁해양스포츠	-12677
▁현실적으로	-12678
▁협력업체의	-12679
▁확대하기로	-12680
▁확대한다는	-12681
▁효과적이다	-12682
▁금호석유화학	-12683
▁노란우산공제	-12684
▁롯데면세점은	-12685
▁수석부회장은	-12686
▁애플리케이션	-12687
▁업그레이드한	-12688
▁웅진코웨이는	-12689
▁자유무역협정	-12690
▁현대자동차의	-12691
▁가상화폐거래소	-12692
▁산업안전보건법	-12693
▁평창동계올림픽	-12694
유기발광다이오드	-12695
▁youngwoo	-12696
▁금호아시아나그룹은	-12697
,5	-12698
2(	-12699
33	-12700
37	-12701
41	-12702
96	-12703
?’	-12704
AA	-12705
CA	-12706
CB	-12707
FI	-12708
NK	-12709
SE	-12710
as	-12711
bp	-12712
co	-12713
de	-12714
nC	-12715
ot	-12716
ra	-12717
▁■	-12718
▁곁	-12719
▁닦	-12720
▁댓	-12721
▁떡	-12722
▁벼	-12723
▁붐	-12724
▁뷔	-12725
▁뺀	-12726
▁솜	-12727
▁숲	-12728
▁싣	-12729
▁윈	-12730
▁윌	-12731
▁젤	-12732
▁콤	-12733
▁쿨	-12734
▁탔	-12735
▁텀	-12736
▁팁	-12737
▁팩	-12738
가드	-12739
가칭	-12740
갈등	-12741
감도	-12742
건축	-12743
경력	-12744
고와	-12745
공은	-12746
공조	-12747
관의	-12748
광주	-12749
교섭	-12750
구로	-12751
글리	-12752
기만	-12753
기타	-12754
깨끗	-12755
나지	-12756
납부	-12757
낸다	-12758
네켄	-12759
눴다	-12760
니를	-12761
니어	-12762
니커	-12763
대응	-12764
데스	-12765
도급	-12766
동남	-12767
동반	-12768
드로	-12769
라빈	-12770
란히	-12771
랜딩	-12772
랬다	-12773
로겐	-12774
로잡	-12775
리금	-12776
마끼	-12777
마일	-12778
말을	-12779
매니	-12780
면허	-12781
명인	-12782
목표	-12783
무진	-12784
문찬	-12785
민을	-12786
밀컨	-12787
바다	-12788
바리	-12789
바작	-12790
배상	-12791
보관	-12792
보국	-12793
보유	-12794
부착	-12795
분과	-12796
블러	-12797
비씨	-12798
비트	-12799
빠른	-12800
사도	-12801
사채	-12802
사태	-12803
성실	-12804
세척	-12805
수퍼	-12806
스라	-12807
스파	-12808
승을	-12809
시의	-12810
신은	-12811
심리	-12812
십자	-12813
씨의	-12814
씽크	-12815
아암	-12816
았을	-12817
앞서	-12818
앤드	-12819
어다	-12820
어와	-12821
업원	-12822
없다	-12823
여대	-12824
온이	-12825
온항	-12826
요구	-12827
요리	-12828
요타	-12829
원유	-12830
월의	-12831
윤모	-12832
인건	-12833
임이	-12834
장도	-12835
장표	-12836
재난	-12837
저장	-12838
전의	-12839
정도	-12840
정수	-12841
제의	-12842
조는	-12843
중고	-12844
증의	-12845
지구	-12846
차장	-12847
착륙	-12848
철학	-12849
청에	-12850
청이	-12851
초를	-12852
추가	-12853
치료	-12854
칠성	-12855
카누	-12856
캉스	-12857
켤레	-12858
퀀텀	-12859
크찰	-12860
클린	-12861
터카	-12862
토를	-12863
투스	-12864
투표	-12865
판이	-12866
퍼블	-12867
포동	-12868
퓨어	-12869
피스	-12870
피트	-12871
하긴	-12872
하신	-12873
한샘	-12874
해상	-12875
해체	-12876
현황	-12877
화물	-12878
(-0	-12879
(21	-12880
(22	-12881
(28	-12882
(54	-12883
(56	-12884
(84	-12885
HEV	-12886
KEB	-12887
~50	-12888
▁02	-12889
▁05	-12890
▁92	-12891
▁BB	-12892
▁DS	-12893
▁IB	-12894
▁PO	-12895
▁‘4	-12896
▁“3	-12897
▁“5	-12898
▁“6	-12899
▁가을	-12900
▁갖췄	-12901
▁같아	-12902
▁건보	-12903
▁건을	-12904
▁걸맞	-12905
▁것만	-12906
▁결단	-12907
▁결렬	-12908
▁결의	-12909
▁경직	-12910
▁경총	-12911
▁계란	-12912
▁고등	-12913
▁고삐	-12914
▁고온	-12915
▁고장	-12916
▁고전	-12917
▁공용	-12918
▁공적	-12919
▁과천	-12920
▁구운	-12921
▁국고	-12922
▁국물	-12923
▁굳건	-12924
▁글을	-12925
▁금고	-12926
▁길게	-12927
▁김성	-12928
▁김학	-12929
▁깔려	-12930
▁꾸민	-12931
▁꿈꾸	-12932
▁나쁘	-12933
▁나쁜	-12934
▁난다	-12935
▁낡은	-12936
▁남는	-12937
▁내놔	-12938
▁넘겨	-12939
▁누락	-12940
▁다짐	-12941
▁대금	-12942
▁대박	-12943
▁대사	-12944
▁도모	-12945
▁독보	-12946
▁독서	-12947
▁독창	-12948
▁돈은	-12949
▁되길	-12950
▁든든	-12951
▁때만	-12952
▁때인	-12953
▁뛰고	-12954
▁라운	-12955
▁리빙	-12956
▁리얼	-12957
▁리츠	-12958
▁마포	-12959
▁막고	-12960
▁막을	-12961
▁맞서	-12962
▁머리	-12963
▁멈춰	-12964
▁모닝	-12965
▁몰린	-12966
▁묻는	-12967
▁뮤직	-12968
▁미쳤	-12969
▁민감	-12970
▁밀집	-12971
▁바비	-12972
▁박람	-12973
▁박상	-12974
▁반값	-12975
▁발의	-12976
▁발족	-12977
▁밝히	-12978
▁방진	-12979
▁방한	-12980
▁배로	-12981
▁배상	-12982
▁배포	-12983
▁밴드	-12984
▁버터	-12985
▁법령	-12986
▁보디	-12987
▁보자	-12988
▁볶아	-12989
▁봐도	-12990
▁부딪	-12991
▁부상	-12992
▁부천	-12993
▁부탁	-12994
▁분과	-12995
▁분사	-12996
▁분양	-12997
▁불고	-12998
▁블러	-12999
▁비데	-13000
▁비례	-13001
▁빌린	-13002
▁빗썸	-13003
▁빚이	-13004
▁사기	-13005
▁산단	-13006
▁살짝	-13007
▁생계	-13008
▁섞어	-13009
▁성남	-13010
▁세균	-13011
▁세웠	-13012
▁세이	-13013
▁셋째	-13014
▁손꼽	-13015
▁손익	-13016
▁수여	-13017
▁수혜	-13018
▁스틱	-13019
▁스포	-13020
▁시나	-13021
▁시흥	-13022
▁쌍용	-13023
▁씨티	-13024
▁악재	-13025
▁안다	-13026
▁안마	-13027
▁안을	-13028
▁알리	-13029
▁알림	-13030
▁앞에	-13031
▁애초	-13032
▁앨범	-13033
▁얹어	-13034
▁여섯	-13035
▁연도	-13036
▁연례	-13037
▁연상	-13038
▁연중	-13039
▁영수	-13040
▁예대	-13041
▁오고	-13042
▁오름	-13043
▁오비	-13044
▁요양	-13045
▁우세	-13046
▁원산	-13047
▁원장	-13048
▁월계	-13049
▁유족	-13050
▁윤석	-13051
▁응모	-13052
▁의문	-13053
▁이기	-13054
▁이종	-13055
▁인용	-13056
▁인출	-13057
▁자립	-13058
▁자릿	-13059
▁잡기	-13060
▁장면	-13061
▁재도	-13062
▁재생	-13063
▁재질	-13064
▁적어	-13065
▁전과	-13066
▁전선	-13067
▁전역	-13068
▁전폭	-13069
▁전화	-13070
▁점주	-13071
▁접촉	-13072
▁정말	-13073
▁정맥	-13074
▁정용	-13075
▁제너	-13076
▁조각	-13077
▁조끼	-13078
▁존중	-13079
▁좁혀	-13080
▁좋고	-13081
▁주간	-13082
▁주축	-13083
▁주휴	-13084
▁줄인	-13085
▁중개	-13086
▁중에	-13087
▁즐거	-13088
▁증거	-13089
▁증여	-13090
▁지내	-13091
▁지은	-13092
▁진동	-13093
▁진료	-13094
▁집안	-13095
▁징계	-13096
▁찍은	-13097
▁체인	-13098
▁체코	-13099
▁추후	-13100
▁출산	-13101
▁치고	-13102
▁치사	-13103
▁친화	-13104
▁칩을	-13105
▁코모	-13106
▁코칭	-13107
▁쿠바	-13108
▁터치	-13109
▁토출	-13110
▁통기	-13111
▁투어	-13112
▁트랙	-13113
▁팽창	-13114
▁페트	-13115
▁포르	-13116
▁포화	-13117
▁폭락	-13118
▁폭탄	-13119
▁피로	-13120
▁필름	-13121
▁필립	-13122
▁하방	-13123
▁한강	-13124
▁한발	-13125
▁한수	-13126
▁합산	-13127
▁해저	-13128
▁해피	-13129
▁향과	-13130
▁향이	-13131
▁헬기	-13132
▁현물	-13133
▁환영	-13134
▁황태	-13135
▁훈련	-13136
▁휠체	-13137
▁휴양	-13138
▁희생	-13139
가량이	-13140
가운데	-13141
거리는	-13142
겠다며	-13143
경기가	-13144
경영권	-13145
근로자	-13146
글라스	-13147
금융업	-13148
깨끗한	-13149
날로그	-13150
났지만	-13151
대까지	-13152
되거나	-13153
두산은	-13154
뜩이나	-13155
랫동안	-13156
량으로	-13157
르트는	-13158
리아쥬	-13159
리퍼브	-13160
립니다	-13161
마저도	-13162
모델링	-13163
법인을	-13164
부사장	-13165
비율이	-13166
뿐만이	-13167
뿐이다	-13168
사고를	-13169
사랑의	-13170
사이드	-13171
사이렌	-13172
사진을	-13173
산으로	-13174
상황이	-13175
생산성	-13176
설명회	-13177
수지는	-13178
스럽다	-13179
스카이	-13180
스트라	-13181
스트를	-13182
실업률	-13183
에게도	-13184
였는데	-13185
온항습	-13186
월에도	-13187
위메프	-13188
이어야	-13189
자들을	-13190
자리에	-13191
자영업	-13192
장치를	-13193
전으로	-13194
정부도	-13195
정수기	-13196
정으로	-13197
제조업	-13198
주일에	-13199
주주총	-13200
중국은	-13201
중국이	-13202
증권을	-13203
지역에	-13204
직자의	-13205
초저가	-13206
층까지	-13207
카페라	-13208
캠퍼스	-13209
케이블	-13210
투자는	-13211
투자를	-13212
팹리스	-13213
포럼은	-13214
플랫폼	-13215
플렉스	-13216
하기는	-13217
하반기	-13218
한은은	-13219
합니까	-13220
했거나	-13221
호에서	-13222
화장품	-13223
회사에	-13224
회사와	-13225
회장을	-13226
효과는	-13227
'...	-13228
,500	-13229
17%)	-13230
26%)	-13231
8200	-13232
QLED	-13233
USTR	-13234
alue	-13235
reen	-13236
weat	-13237
▁14%	-13238
▁28%	-13239
▁36%	-13240
▁440	-13241
▁4~5	-13242
▁71%	-13243
▁72%	-13244
▁76%	-13245
▁95%	-13246
▁IHS	-13247
▁MIT	-13248
▁SOC	-13249
▁가격의	-13250
▁가깝다	-13251
▁가방을	-13252
▁감소에	-13253
▁감안할	-13254
▁강점이	-13255
▁개인별	-13256
▁거대한	-13257
▁거래소	-13258
▁거쳤다	-13259
▁건강과	-13260
▁건국대	-13261
▁건설을	-13262
▁겨울철	-13263
▁경력을	-13264
▁경영난	-13265
▁경영의	-13266
▁경제와	-13267
▁경제팀	-13268
▁계기판	-13269
▁고강도	-13270
▁고소한	-13271
▁공간과	-13272
▁공략을	-13273
▁공장에	-13274
▁과감히	-13275
▁과장은	-13276
▁규모인	-13277
▁그리스	-13278
▁금융사	-13279
▁금융업	-13280
▁급속히	-13281
▁기가지	-13282
▁기관인	-13283
▁기금을	-13284
▁기기를	-13285
▁기록할	-13286
▁기술은	-13287
▁기조를	-13288
▁기회로	-13289
▁꼼꼼히	-13290
▁꾸몄다	-13291
▁끝나는	-13292
▁나눴다	-13293
▁나오지	-13294
▁내리는	-13295
▁내세우	-13296
▁넘어서	-13297
▁네이비	-13298
▁노사는	-13299
▁노선은	-13300
▁단계를	-13301
▁단어를	-13302
▁달라진	-13303
▁달러를	-13304
▁대학에	-13305
▁도입된	-13306
▁돌아선	-13307
▁동떨어	-13308
▁되풀이	-13309
▁뒤에는	-13310
▁뒤에도	-13311
▁들어갔	-13312
▁등록을	-13313
▁떠나는	-13314
▁뚜껑을	-13315
▁롯데와	-13316
▁루치온	-13317
▁마니아	-13318
▁맨온더	-13319
▁메뉴는	-13320
▁명령을	-13321
▁명확한	-13322
▁모터쇼	-13323
▁문제에	-13324
▁물질을	-13325
▁바닥을	-13326
▁바이낸	-13327
▁박정수	-13328
▁받으며	-13329
▁방법은	-13330
▁방식에	-13331
▁방식은	-13332
▁방안에	-13333
▁방충망	-13334
▁배송을	-13335
▁번째는	-13336
▁벌금형	-13337
▁벌어질	-13338
▁보내고	-13339
▁보증을	-13340
▁복구를	-13341
▁부분에	-13342
▁부분은	-13343
▁부산항	-13344
▁부족해	-13345
▁분야로	-13346
▁분쟁이	-13347
▁불균형	-13348
▁불렀다	-13349
▁불만이	-13350
▁붙는다	-13351
▁붙였다	-13352
▁비빔면	-13353
▁비싸게	-13354
▁사로잡	-13355
▁사장에	-13356
▁사항을	-13357
▁사회의	-13358
▁삼았다	-13359
▁상장사	-13360
▁생두의	-13361
▁서울과	-13362
▁서울에	-13363
▁선보여	-13364
▁선정돼	-13365
▁선정할	-13366
▁선택해	-13367
▁설계를	-13368
▁섭취할	-13369
▁성능과	-13370
▁성장은	-13371
▁세라믹	-13372
▁센서를	-13373
▁센터를	-13374
▁셀리턴	-13375
▁손바닥	-13376
▁솜사탕	-13377
▁쇼핑을	-13378
▁수영장	-13379
▁수용할	-13380
▁스니커	-13381
▁스카이	-13382
▁스타키	-13383
▁스터디	-13384
▁스트레	-13385
▁시각도	-13386
▁시간에	-13387
▁시설과	-13388
▁시애틀	-13389
▁신개념	-13390
▁신발을	-13391
▁신속히	-13392
▁실내공	-13393
▁실적에	-13394
▁실질적	-13395
▁쓰레기	-13396
▁양산을	-13397
▁양질의	-13398
▁어렵게	-13399
▁어워드	-13400
▁없다면	-13401
▁없었던	-13402
▁에코백	-13403
▁역사가	-13404
▁역사를	-13405
▁연결해	-13406
▁연구용	-13407
▁연금을	-13408
▁연동해	-13409
▁연매출	-13410
▁예방할	-13411
▁오뚜기	-13412
▁오르면	-13413
▁오른다	-13414
▁오리온	-13415
▁오메가	-13416
▁올라가	-13417
▁올레드	-13418
▁외부에	-13419
▁요구다	-13420
▁요구도	-13421
▁요기요	-13422
▁용량이	-13423
▁위협이	-13424
▁유가족	-13425
▁은은한	-13426
▁의사가	-13427
▁이곳은	-13428
▁이들도	-13429
▁이디야	-13430
▁이론을	-13431
▁이뤘다	-13432
▁이름은	-13433
▁이물질	-13434
▁이어져	-13435
▁이유도	-13436
▁이익은	-13437
▁이틀간	-13438
▁인기몰	-13439
▁일가가	-13440
▁일감이	-13441
▁있다신	-13442
▁있지요	-13443
▁자리다	-13444
▁자리에	-13445
▁자산은	-13446
▁자산의	-13447
▁자체를	-13448
▁잔액이	-13449
▁장관과	-13450
▁재산세	-13451
▁재원을	-13452
▁재정을	-13453
▁전략에	-13454
▁전시돼	-13455
▁전원을	-13456
▁전원이	-13457
▁절감할	-13458
▁절차가	-13459
▁점포에	-13460
▁접점을	-13461
▁정부를	-13462
▁제목의	-13463
▁제작할	-13464
▁제품군	-13465
▁조건이	-13466
▁조사에	-13467
▁조짐을	-13468
▁조치로	-13469
▁좋았다	-13470
▁주목을	-13471
▁주문이	-13472
▁주제는	-13473
▁중국형	-13474
▁증가는	-13475
▁지급을	-13476
▁지수는	-13477
▁지원은	-13478
▁지출이	-13479
▁지표는	-13480
▁지표인	-13481
▁진출은	-13482
▁차이를	-13483
▁참이슬	-13484
▁창업주	-13485
▁채권을	-13486
▁청년의	-13487
▁초기에	-13488
▁초특가	-13489
▁최선을	-13490
▁최우수	-13491
▁최저가	-13492
▁추진한	-13493
▁출발한	-13494
▁충성도	-13495
▁측면이	-13496
▁측정해	-13497
▁침체가	-13498
▁캠퍼스	-13499
▁커피빈	-13500
▁쾌적한	-13501
▁쿠팡을	-13502
▁크다고	-13503
▁키성장	-13504
▁턱없이	-13505
▁파악해	-13506
▁패러다	-13507
▁퍼스트	-13508
▁펼쳤다	-13509
▁포모사	-13510
▁표창을	-13511
▁플레이	-13512
▁하거나	-13513
▁하기로	-13514
▁하는지	-13515
▁하우스	-13516
▁한동안	-13517
▁한번에	-13518
▁한전이	-13519
▁할로겐	-13520
▁할인해	-13521
▁함량이	-13522
▁함유돼	-13523
▁합의가	-13524
▁햄버거	-13525
▁향상에	-13526
▁혁신과	-13527
▁현장의	-13528
▁협상이	-13529
▁형태다	-13530
▁화면을	-13531
▁확대될	-13532
▁확산된	-13533
▁회사와	-13534
▁회원은	-13535
▁휴가를	-13536
각에서는	-13537
공공기관	-13538
공장에서	-13539
국제공항	-13540
기아차가	-13541
년대부터	-13542
단체협약	-13543
대로라면	-13544
랑스러운	-13545
력원자력	-13546
마이너스	-13547
미포조선	-13548
바리스타	-13549
백화점은	-13550
비정규직	-13551
사업본부	-13552
산업으로	-13553
산업진흥	-13554
삼성물산	-13555
수산식품	-13556
스타벅스	-13557
스텔바작	-13558
스페셜티	-13559
어벤져스	-13560
재해구호	-13561
중앙회는	-13562
클라우드	-13563
타워에서	-13564
하티스트	-13565
한국인의	-13566
회사들은	-13567
136%)	-13568
Korea	-13569
▁1950	-13570
▁1987	-13571
▁가공식품	-13572
▁가맹점을	-13573
▁가맹점의	-13574
▁가져가는	-13575
▁개선되고	-13576
▁것이어서	-13577
▁계열사를	-13578
▁고객가치	-13579
▁고려하면	-13580
▁공기조화	-13581
▁공정위에	-13582
▁관계없이	-13583
▁관계자의	-13584
▁관세청에	-13585
▁금액이다	-13586
▁급락했다	-13587
▁급증하고	-13588
▁기관이다	-13589
▁기능까지	-13590
▁기술역량	-13591
▁기업들에	-13592
▁꼼꼼하게	-13593
▁끌어올려	-13594
▁나가겠다	-13595
▁납입기간	-13596
▁노하우가	-13597
▁높아지는	-13598
▁눈높이에	-13599
▁담당하고	-13600
▁대부분을	-13601
▁대부분의	-13602
▁대주주인	-13603
▁대통령을	-13604
▁도전하는	-13605
▁동영상을	-13606
▁동원산업	-13607
▁됐습니다	-13608
▁떨어지면	-13609
▁뛰어나다	-13610
▁레이크찰	-13611
▁로스팅한	-13612
▁롯데지주	-13613
▁만족도를	-13614
▁매출에서	-13615
▁물가상승	-13616
▁밑돌았다	-13617
▁반대하는	-13618
▁반발했다	-13619
▁발표하는	-13620
▁배출가스	-13621
▁벗어나지	-13622
▁변경하는	-13623
▁변화하는	-13624
▁보건복지	-13625
▁보고서는	-13626
▁보고서에	-13627
▁본부장은	-13628
▁부동산의	-13629
▁부분이다	-13630
▁부진했다	-13631
▁브루노는	-13632
▁비슷했다	-13633
▁비전펀드	-13634
▁사들였다	-13635
▁사용자가	-13636
▁삼성전기	-13637
▁상반기에	-13638
▁상승세를	-13639
▁생각하지	-13640
▁생산성이	-13641
▁선정한다	-13642
▁설명회를	-13643
▁성장동력	-13644
▁소개한다	-13645
▁소비자와	-13646
▁소통하고	-13647
▁소통하는	-13648
▁속에서도	-13649
▁수소연료	-13650
▁수수료를	-13651
▁수출상담	-13652
▁수출액은	-13653
▁수행하는	-13654
▁시스템에	-13655
▁신입사원	-13656
▁신제품은	-13657
▁신한생명	-13658
▁실업급여	-13659
▁실적이다	-13660
▁실천하고	-13661
▁아니라는	-13662
▁아름다운	-13663
▁아이스티	-13664
▁아일랜드	-13665
▁안전하게	-13666
▁않습니다	-13667
▁않았다는	-13668
▁액세서리	-13669
▁에어서울	-13670
▁엔제리너	-13671
▁여신전문	-13672
▁영향력을	-13673
▁예상되는	-13674
▁오르면서	-13675
▁올라간다	-13676
▁올리브영	-13677
▁올초부터	-13678
▁우려된다	-13679
▁운용하는	-13680
▁유가증권	-13681
▁유치했다	-13682
▁유통기한	-13683
▁유효기간	-13684
▁의미하는	-13685
▁이뤄지면	-13686
▁이코노미	-13687
▁이후에는	-13688
▁인수전에	-13689
▁인터파크	-13690
▁일렉트로	-13691
▁일환이다	-13692
▁입장에서	-13693
▁있다한국	-13694
▁자동차와	-13695
▁자랑하는	-13696
▁작용했다	-13697
▁장기요양	-13698
▁장수돌소	-13699
▁장애인을	-13700
▁저장하는	-13701
▁적용되는	-13702
▁적합하다	-13703
▁전국에서	-13704
▁전달한다	-13705
▁전자담배	-13706
▁전자제품	-13707
▁정부에서	-13708
▁정상화를	-13709
▁정책실장	-13710
▁제기했다	-13711
▁조성했다	-13712
▁조언했다	-13713
▁조합원이	-13714
▁주목된다	-13715
▁주문하면	-13716
▁중단했다	-13717
▁증정하는	-13718
▁지자체가	-13719
▁직업훈련	-13720
▁직장인이	-13721
▁진출하는	-13722
▁창업했다	-13723
▁처리하는	-13724
▁체크카드	-13725
▁촉구했다	-13726
▁총괄하는	-13727
▁추산했다	-13728
▁추진해온	-13729
▁출시하며	-13730
▁취약계층	-13731
▁취업규칙	-13732
▁카드사의	-13733
▁카카오톡	-13734
▁캠핑용품	-13735
▁커뮤니티	-13736
▁커버팩트	-13737
▁터뜨렸다	-13738
▁투자자의	-13739
▁투자정책	-13740
▁트레이더	-13741
▁티토니는	-13742
▁파나소닉	-13743
▁판매되는	-13744
▁판매된다	-13745
▁판매했다	-13746
▁편의점과	-13747
▁포기했다	-13748
▁한국개발	-13749
▁한화큐셀	-13750
▁항목에서	-13751
▁항온항습	-13752
▁해결하기	-13753
▁해소하기	-13754
▁해외투자	-13755
▁행정안전	-13756
▁형사처벌	-13757
▁호텔에서	-13758
▁확정했다	-13759
▁환경에서	-13760
▁활동이다	-13761
▁활용하고	-13762
▁회계법인	-13763
▁회장님의	-13764
▁횡성축협	-13765
▁후문이다	-13766
발전소에서	-13767
신한금융은	-13768
억원가량의	-13769
억원어치를	-13770
오토모티브	-13771
우리은행은	-13772
인터내셔널	-13773
자동차산업	-13774
카카오페이	-13775
하이닉스의	-13776
▁sweat	-13777
▁개발했다고	-13778
▁고객들에게	-13779
▁공공기관이	-13780
▁구조조정에	-13781
▁구조조정이	-13782
▁국내에서는	-13783
▁국민은행의	-13784
▁기업인들의	-13785
▁내놓으면서	-13786
▁대대적으로	-13787
▁대한항공은	-13788
▁때문이라고	-13789
▁마이너스를	-13790
▁모집한다고	-13791
▁무역분쟁이	-13792
▁배달의민족	-13793
▁벤처기업을	-13794
▁불완전판매	-13795
▁비정규직의	-13796
▁산업은행과	-13797
▁상생스토어	-13798
▁선정했다고	-13799
▁수석부회장	-13800
▁신한은행의	-13801
▁이산화탄소	-13802
▁인센티브를	-13803
▁인조대리석	-13804
▁임직원들은	-13805
▁있다지난해	-13806
▁자구계획에	-13807
▁자산유동화	-13808
▁전국경제인	-13809
▁제조업체인	-13810
▁지원하겠다	-13811
▁출시한다고	-13812
▁컨테이너선	-13813
▁탄력적으로	-13814
▁파트너십을	-13815
▁패션부문은	-13816
▁프로그램은	-13817
▁프로젝트는	-13818
▁한앤컴퍼니	-13819
▁혁신성장을	-13820
▁현대해상은	-13821
▁홈페이지에	-13822
▁환경호르몬	-13823
금융위원회는	-13824
동화자연마루	-13825
이노베이션을	-13826
이노베이션의	-13827
▁20~30%	-13828
▁고용보험기금	-13829
▁규제자유특구	-13830
▁그랜드하얏트	-13831
▁기획재정부가	-13832
▁동화자연마루	-13833
▁롯데하이마트	-13834
▁루이지애나주	-13835
▁성장동력으로	-13836
▁종근당건강의	-13837
▁주채권은행인	-13838
▁쪼그라들었다	-13839
▁하나금융그룹	-13840
▁항공운송사업	-13841
컨벤션센터에서	-13842
▁기자간담회에서	-13843
▁월스트리트저널	-13844
▁지방자치단체가	-13845
▁투썸플레이스는	-13846
▁플래그십스토어	-13847
▁한국개발연구원	-13848
▁한국수자원공사	-13849
▁현대엘리베이터	-13850
▁리디노미네이션을	-13851
▁중소벤처기업부가	-13852
▁한국타이어앤테크놀로	-13853
)“	-13854
5)	-13855
56	-13856
97	-13857
FA	-13858
FD	-13859
GF	-13860
KL	-13861
LE	-13862
MS	-13863
NA	-13864
NY	-13865
PD	-13866
TI	-13867
am	-13868
cc	-13869
em	-13870
fe	-13871
io	-13872
of	-13873
te	-13874
us	-13875
ve	-13876
▁c	-13877
▁곱	-13878
▁굽	-13879
▁깃	-13880
▁꽂	-13881
▁낫	-13882
▁눌	-13883
▁딴	-13884
▁뛸	-13885
▁린	-13886
▁며	-13887
▁므	-13888
▁뼈	-13889
▁섹	-13890
▁숭	-13891
▁싫	-13892
▁싹	-13893
▁씹	-13894
▁옌	-13895
▁젖	-13896
▁짤	-13897
▁찢	-13898
▁케	-13899
報國	-13900
가르	-13901
가요	-13902
간이	-13903
겁다	-13904
게임	-13905
겨진	-13906
결국	-13907
결합	-13908
겹살	-13909
경질	-13910
고령	-13911
고정	-13912
공구	-13913
공식	-13914
교환	-13915
구청	-13916
권도	-13917
귀포	-13918
규준	-13919
그런	-13920
금에	-13921
기부	-13922
기야	-13923
길에	-13924
꼈다	-13925
꼬동	-13926
낙연	-13927
년차	-13928
년형	-13929
누신	-13930
달을	-13931
당시	-13932
대박	-13933
대인	-13934
더멘	-13935
더블	-13936
동양	-13937
됐을	-13938
두지	-13939
드에	-13940
등록	-13941
디트	-13942
란데	-13943
량과	-13944
렌토	-13945
렬한	-13946
로나	-13947
로선	-13948
률도	-13949
리라	-13950
마킷	-13951
만금	-13952
말로	-13953
매를	-13954
매수	-13955
매일	-13956
멀티	-13957
메시	-13958
메탈	-13959
문에	-13960
물론	-13961
물적	-13962
박물	-13963
버른	-13964
법적	-13965
베드	-13966
벤츠	-13967
벽을	-13968
변경	-13969
변동	-13970
변화	-13971
보가	-13972
보스	-13973
보육	-13974
부장	-13975
블릿	-13976
비닐	-13977
비도	-13978
비로	-13979
비전	-13980
빨간	-13981
사다	-13982
사스	-13983
산단	-13984
산불	-13985
산안	-13986
새로	-13987
생애	-13988
선박	-13989
성분	-13990
세수	-13991
소방	-13992
쇼크	-13993
수다	-13994
수박	-13995
수용	-13996
숙박	-13997
스탠	-13998
스피	-13999
시내	-14000
신도	-14001
실에	-14002
실질	-14003
실태	-14004
심히	-14005
아주	-14006
양대	-14007
에너	-14008
연대	-14009
열병	-14010
영전	-14011
오기	-14012
와인	-14013
외로	-14014
용은	-14015
용을	-14016
우드	-14017
우쯔	-14018
원주	-14019
웨덴	-14020
유연	-14021
윤설	-14022
으니	-14023
음악	-14024
이죠	-14025
익스	-14026
인간	-14027
인하	-14028
일께	-14029
임스	-14030
자격	-14031
잠재	-14032
저는	-14033
저브	-14034
전북	-14035
젊은	-14036
정통	-14037
정화	-14038
제리	-14039
제휴	-14040
졌던	-14041
조절	-14042
지점	-14043
지진	-14044
징어	-14045
짜파	-14046
창호	-14047
책은	-14048
챌린	-14049
청사	-14050
체가	-14051
첼백	-14052
초기	-14053
총수	-14054
출력	-14055
출자	-14056
치인	-14057
카는	-14058
코르	-14059
크림	-14060
키트	-14061
테라	-14062
텍의	-14063
토피	-14064
통이	-14065
투쟁	-14066
트러	-14067
티나	-14068
티노	-14069
티스	-14070
파고	-14071
패스	-14072
페어	-14073
폐기	-14074
표창	-14075
풍기	-14076
풍이	-14077
프란	-14078
필렌	-14079
하되	-14080
해줄	-14081
행동	-14082
허벌	-14083
형태	-14084
호섭	-14085
효성	-14086
후군	-14087
히면	-14088
(32	-14089
2%,	-14090
9%,	-14091
ADB	-14092
ATL	-14093
ECC	-14094
FCA	-14095
FnC	-14096
KAI	-14097
ess	-14098
~26	-14099
▁98	-14100
▁AW	-14101
▁CB	-14102
▁CI	-14103
▁ST	-14104
▁St	-14105
▁VN	-14106
▁kg	-14107
▁‘2	-14108
▁가늠	-14109
▁가르	-14110
▁가야	-14111
▁간병	-14112
▁개관	-14113
▁개당	-14114
▁개봉	-14115
▁개시	-14116
▁객관	-14117
▁경계	-14118
▁고발	-14119
▁고안	-14120
▁고충	-14121
▁공고	-14122
▁공론	-14123
▁공언	-14124
▁공인	-14125
▁공지	-14126
▁구단	-14127
▁구할	-14128
▁굳이	-14129
▁그것	-14130
▁그만	-14131
▁금을	-14132
▁김지	-14133
▁김치	-14134
▁깜짝	-14135
▁꼽은	-14136
▁끝날	-14137
▁낙찰	-14138
▁날을	-14139
▁남겨	-14140
▁낮을	-14141
▁내주	-14142
▁넓고	-14143
▁넘긴	-14144
▁넘쳐	-14145
▁네일	-14146
▁놨다	-14147
▁누군	-14148
▁늘면	-14149
▁늦춰	-14150
▁단맛	-14151
▁단열	-14152
▁달걀	-14153
▁당연	-14154
▁대의	-14155
▁대조	-14156
▁댓글	-14157
▁델타	-14158
▁돌입	-14159
▁동해	-14160
▁두뇌	-14161
▁두지	-14162
▁둬야	-14163
▁뒀다	-14164
▁뒤로	-14165
▁뒤인	-14166
▁드립	-14167
▁들러	-14168
▁딜러	-14169
▁때와	-14170
▁띄는	-14171
▁리딩	-14172
▁마루	-14173
▁만만	-14174
▁만약	-14175
▁말도	-14176
▁맛집	-14177
▁메가	-14178
▁메인	-14179
▁며칠	-14180
▁명문	-14181
▁미끄	-14182
▁미미	-14183
▁민원	-14184
▁밀접	-14185
▁밀폐	-14186
▁바쁜	-14187
▁반품	-14188
▁밝혀	-14189
▁백채	-14190
▁번거	-14191
▁벌써	-14192
▁벌인	-14193
▁범죄	-14194
▁벤츠	-14195
▁보따	-14196
▁보습	-14197
▁복고	-14198
▁복리	-14199
▁본인	-14200
▁봄철	-14201
▁봉지	-14202
▁부지	-14203
▁불량	-14204
▁불리	-14205
▁불을	-14206
▁불합	-14207
▁붕괴	-14208
▁비씨	-14209
▁빈패	-14210
▁빚을	-14211
▁빨간	-14212
▁빨대	-14213
▁빨아	-14214
▁사측	-14215
▁사퇴	-14216
▁삭제	-14217
▁상시	-14218
▁상하	-14219
▁색깔	-14220
▁서초	-14221
▁서현	-14222
▁선행	-14223
▁셀프	-14224
▁소급	-14225
▁소모	-14226
▁송파	-14227
▁수성	-14228
▁숙련	-14229
▁술이	-14230
▁슈즈	-14231
▁스커	-14232
▁스쿨	-14233
▁스톤	-14234
▁스파	-14235
▁습관	-14236
▁승리	-14237
▁시일	-14238
▁식기	-14239
▁신분	-14240
▁신조	-14241
▁신항	-14242
▁심해	-14243
▁쏘울	-14244
▁아닐	-14245
▁아랍	-14246
▁안건	-14247
▁야당	-14248
▁야생	-14249
▁얇게	-14250
▁양식	-14251
▁양호	-14252
▁언어	-14253
▁얼음	-14254
▁여덟	-14255
▁여의	-14256
▁연산	-14257
▁연쇄	-14258
▁연유	-14259
▁연필	-14260
▁열정	-14261
▁열지	-14262
▁온돌	-14263
▁왜곡	-14264
▁외화	-14265
▁용품	-14266
▁우정	-14267
▁우한	-14268
▁운임	-14269
▁워너	-14270
▁원단	-14271
▁원래	-14272
▁원할	-14273
▁월간	-14274
▁웰뱅	-14275
▁웰컴	-14276
▁위안	-14277
▁위챗	-14278
▁유선	-14279
▁유학	-14280
▁융자	-14281
▁응급	-14282
▁이건	-14283
▁이겨	-14284
▁이관	-14285
▁이호	-14286
▁인문	-14287
▁인체	-14288
▁일감	-14289
▁일군	-14290
▁읽고	-14291
▁자매	-14292
▁자진	-14293
▁작다	-14294
▁잔뜩	-14295
▁잡화	-14296
▁잡힌	-14297
▁재단	-14298
▁재현	-14299
▁적기	-14300
▁적재	-14301
▁전속	-14302
▁전송	-14303
▁전업	-14304
▁전지	-14305
▁점심	-14306
▁정권	-14307
▁정작	-14308
▁정제	-14309
▁정지	-14310
▁제동	-14311
▁제소	-14312
▁조심	-14313
▁종로	-14314
▁주부	-14315
▁주얼	-14316
▁줄을	-14317
▁중시	-14318
▁지갑	-14319
▁지문	-14320
▁지을	-14321
▁직결	-14322
▁진해	-14323
▁집권	-14324
▁짓는	-14325
▁차남	-14326
▁차종	-14327
▁책상	-14328
▁체류	-14329
▁체제	-14330
▁체질	-14331
▁총선	-14332
▁최병	-14333
▁추격	-14334
▁출금	-14335
▁출품	-14336
▁출혈	-14337
▁충성	-14338
▁취미	-14339
▁켤레	-14340
▁태광	-14341
▁터보	-14342
▁터져	-14343
▁텐데	-14344
▁통증	-14345
▁트렁	-14346
▁트윈	-14347
▁특급	-14348
▁특약	-14349
▁파손	-14350
▁파우	-14351
▁판다	-14352
▁판을	-14353
▁패드	-14354
▁팬츠	-14355
▁플랜	-14356
▁한남	-14357
▁한쪽	-14358
▁해온	-14359
▁해운	-14360
▁혹은	-14361
▁화요	-14362
▁화훼	-14363
▁환급	-14364
▁환자	-14365
▁효도	-14366
▁힘이	-14367
가격을	-14368
가정의	-14369
건에서	-14370
경사노	-14371
경영상	-14372
경영에	-14373
계층에	-14374
공단은	-14375
공항에	-14376
권으로	-14377
그룹을	-14378
금융지	-14379
기구인	-14380
기술과	-14381
기에서	-14382
까지만	-14383
내리는	-14384
내추럴	-14385
년여간	-14386
니꼬동	-14387
달러에	-14388
대금을	-14389
되는데	-14390
된다고	-14391
들까지	-14392
들이는	-14393
디스크	-14394
디아라	-14395
디오는	-14396
라웨어	-14397
레이저	-14398
리더십	-14399
리즈번	-14400
마지막	-14401
맞춤형	-14402
맥주는	-14403
메이징	-14404
문화에	-14405
물었다	-14406
물이다	-14407
미래당	-14408
받으면	-14409
발전의	-14410
배가량	-14411
보험은	-14412
보험을	-14413
본부를	-14414
부회장	-14415
비용을	-14416
비율을	-14417
사업과	-14418
사업도	-14419
사이클	-14420
사회의	-14421
산업용	-14422
상에서	-14423
석으로	-14424
센터와	-14425
소득을	-14426
수출입	-14427
스턴트	-14428
스토리	-14429
스트림	-14430
스트에	-14431
스티지	-14432
시스의	-14433
시키지	-14434
아세안	-14435
알로에	-14436
어나고	-14437
억원과	-14438
업계와	-14439
업체다	-14440
업체로	-14441
에이징	-14442
영국의	-14443
오설록	-14444
올해로	-14445
위기간	-14446
위임금	-14447
이거나	-14448
이달의	-14449
이들이	-14450
일하는	-14451
입출금	-14452
자니아	-14453
자리를	-14454
장비를	-14455
장수돌	-14456
전략을	-14457
제품은	-14458
조직을	-14459
종량세	-14460
종합상	-14461
지도록	-14462
지펀드	-14463
진다는	-14464
진제약	-14465
청소년	-14466
촨현대	-14467
카드의	-14468
카메라	-14469
타당성	-14470
팀장은	-14471
페이퍼	-14472
폐업을	-14473
프로젝	-14474
플랜트	-14475
하느라	-14476
할리스	-14477
항공기	-14478
해서다	-14479
해하는	-14480
했는지	-14481
했으면	-14482
허문찬	-14483
혁신을	-14484
협력사	-14485
협회의	-14486
화수소	-14487
화하면	-14488
"...	-14489
(-11	-14490
,550	-14491
2020	-14492
30%)	-14493
9800	-14494
GBCI	-14495
IATA	-14496
OPEC	-14497
TMMR	-14498
~100	-14499
~200	-14500
~500	-14501
▁103	-14502
▁11%	-14503
▁162	-14504
▁211	-14505
▁310	-14506
▁365	-14507
▁38%	-14508
▁3~5	-14509
▁44%	-14510
▁450	-14511
▁74%	-14512
▁750	-14513
▁CSP	-14514
▁DTD	-14515
▁FTA	-14516
▁ICT	-14517
▁PLP	-14518
▁TCR	-14519
▁가구는	-14520
▁가입이	-14521
▁가정을	-14522
▁가져갈	-14523
▁각자의	-14524
▁간단히	-14525
▁간판을	-14526
▁감동을	-14527
▁강남구	-14528
▁강의를	-14529
▁강하다	-14530
▁강화와	-14531
▁개성을	-14532
▁개정이	-14533
▁건강에	-14534
▁건수가	-14535
▁격차를	-14536
▁결과로	-14537
▁경영상	-14538
▁경영이	-14539
▁경향이	-14540
▁경험과	-14541
▁경험한	-14542
▁계열의	-14543
▁고기를	-14544
▁고비용	-14545
▁고용을	-14546
▁골자다	-14547
▁공기가	-14548
▁공략할	-14549
▁공로를	-14550
▁공연을	-14551
▁공정한	-14552
▁공통된	-14553
▁과정의	-14554
▁관련이	-14555
▁관리해	-14556
▁관심은	-14557
▁광고제	-14558
▁구입해	-14559
▁구조적	-14560
▁국가는	-14561
▁국내선	-14562
▁국채를	-14563
▁규모도	-14564
▁규모에	-14565
▁그들의	-14566
▁그랬다	-14567
▁근거로	-14568
▁기관에	-14569
▁기능은	-14570
▁기다려	-14571
▁기대에	-14572
▁기록해	-14573
▁기술의	-14574
▁김수현	-14575
▁나서기	-14576
▁나중에	-14577
▁납세자	-14578
▁낮추는	-14579
▁내리고	-14580
▁내주는	-14581
▁냄새를	-14582
▁넓히고	-14583
▁넘기는	-14584
▁논의할	-14585
▁농심은	-14586
▁농심의	-14587
▁높으면	-14588
▁눈으로	-14589
▁능력이	-14590
▁니즈에	-14591
▁단시간	-14592
▁단점을	-14593
▁달성을	-14594
▁달성한	-14595
▁달았다	-14596
▁담겼다	-14597
▁대신해	-14598
▁덩달아	-14599
▁도매상	-14600
▁도약할	-14601
▁도전을	-14602
▁되느냐	-14603
▁됩니다	-14604
▁두려워	-14605
▁드라마	-14606
▁들였다	-14607
▁등록된	-14608
▁뚜렷한	-14609
▁레미콘	-14610
▁레이스	-14611
▁렌터카	-14612
▁로고를	-14613
▁로이즈	-14614
▁루비콘	-14615
▁막걸리	-14616
▁많았고	-14617
▁말리부	-14618
▁망인이	-14619
▁매물이	-14620
▁멜버른	-14621
▁모듈을	-14622
▁모르는	-14623
▁모양을	-14624
▁몰리고	-14625
▁무거운	-14626
▁무게가	-14627
▁무리한	-14628
▁무이자	-14629
▁문래동	-14630
▁뮤지컬	-14631
▁므누신	-14632
▁미지수	-14633
▁박보검	-14634
▁반토막	-14635
▁반하다	-14636
▁받도록	-14637
▁발전소	-14638
▁방송을	-14639
▁방향에	-14640
▁벌이는	-14641
▁법인차	-14642
▁베이지	-14643
▁변경을	-14644
▁변수가	-14645
▁변화와	-14646
▁보장을	-14647
▁보호에	-14648
▁복구와	-14649
▁부과를	-14650
▁부대표	-14651
▁부품사	-14652
▁분기별	-14653
▁분석과	-14654
▁분야다	-14655
▁분야별	-14656
▁불평등	-14657
▁비결은	-14658
▁비영리	-14659
▁빨라질	-14660
▁사들여	-14661
▁사이의	-14662
▁산업은	-14663
▁살리는	-14664
▁살아남	-14665
▁생활에	-14666
▁생활을	-14667
▁선물로	-14668
▁선심성	-14669
▁선택이	-14670
▁선택한	-14671
▁섬세한	-14672
▁성과도	-14673
▁성과에	-14674
▁성금을	-14675
▁성윤모	-14676
▁성적표	-14677
▁세대의	-14678
▁세상에	-14679
▁세우고	-14680
▁소공인	-14681
▁소득은	-14682
▁소비를	-14683
▁소식을	-14684
▁소통의	-14685
▁수요도	-14686
▁수요에	-14687
▁수입은	-14688
▁수출에	-14689
▁스포티	-14690
▁승낙을	-14691
▁시각이	-14692
▁시멘트	-14693
▁시점은	-14694
▁신광은	-14695
▁실험을	-14696
▁심사가	-14697
▁아울렛	-14698
▁아이가	-14699
▁아이를	-14700
▁아이오	-14701
▁악화될	-14702
▁안전에	-14703
▁안전자	-14704
▁안정적	-14705
▁알파인	-14706
▁애자일	-14707
▁앱으로	-14708
▁양산에	-14709
▁양측은	-14710
▁어디에	-14711
▁언급한	-14712
▁업무용	-14713
▁업종을	-14714
▁업종의	-14715
▁업체와	-14716
▁없애는	-14717
▁엔진을	-14718
▁여론이	-14719
▁여행객	-14720
▁영국의	-14721
▁영예를	-14722
▁영향도	-14723
▁오디오	-14724
▁오세아	-14725
▁외국계	-14726
▁요구안	-14727
▁요소가	-14728
▁요청할	-14729
▁우즈베	-14730
▁웃돈다	-14731
▁원칙을	-14732
▁위기가	-14733
▁위니아	-14734
▁위원회	-14735
▁유니온	-14736
▁유럽의	-14737
▁유리한	-14738
▁유아용	-14739
▁유지해	-14740
▁유치원	-14741
▁은행은	-14742
▁음료가	-14743
▁음료로	-14744
▁음식점	-14745
▁의료비	-14746
▁의약품	-14747
▁이낙연	-14748
▁이동걸	-14749
▁이렇다	-14750
▁이번엔	-14751
▁이하의	-14752
▁인기는	-14753
▁인기에	-14754
▁인덕션	-14755
▁인사를	-14756
▁인상률	-14757
▁인원을	-14758
▁인증한	-14759
▁인텔의	-14760
▁일본에	-14761
▁일본은	-14762
▁일으킨	-14763
▁일회성	-14764
▁임금은	-14765
▁임기는	-14766
▁입사해	-14767
▁자금은	-14768
▁자본을	-14769
▁잔액은	-14770
▁잠정치	-14771
▁장관을	-14772
▁장착된	-14773
▁재검토	-14774
▁재킷은	-14775
▁재해석	-14776
▁적당한	-14777
▁적립금	-14778
▁적절한	-14779
▁전년도	-14780
▁전분기	-14781
▁전시관	-14782
▁전제로	-14783
▁전환한	-14784
▁접목해	-14785
▁정년이	-14786
▁정도에	-14787
▁정보가	-14788
▁제기한	-14789
▁제동을	-14790
▁제치고	-14791
▁조리할	-14792
▁조명용	-14793
▁조사는	-14794
▁조성한	-14795
▁조속한	-14796
▁조언을	-14797
▁조작이	-14798
▁조항이	-14799
▁좀처럼	-14800
▁좋겠다	-14801
▁주문자	-14802
▁주요국	-14803
▁중금리	-14804
▁중단을	-14805
▁중대한	-14806
▁중소형	-14807
▁중에는	-14808
▁증가를	-14809
▁지급한	-14810
▁지성규	-14811
▁지적을	-14812
▁지정을	-14813
▁지표다	-14814
▁직원들	-14815
▁진행된	-14816
▁짓는다	-14817
▁차이는	-14818
▁참석할	-14819
▁참치를	-14820
▁창립한	-14821
▁천지양	-14822
▁체험형	-14823
▁초미세	-14824
▁총력을	-14825
▁총수가	-14826
▁최대를	-14827
▁최대의	-14828
▁추경을	-14829
▁추천해	-14830
▁추첨을	-14831
▁출발해	-14832
▁출퇴근	-14833
▁취업자	-14834
▁침체에	-14835
▁커진다	-14836
▁커피다	-14837
▁크기가	-14838
▁크로스	-14839
▁크리스	-14840
▁태블릿	-14841
▁텀블러	-14842
▁테크핀	-14843
▁토론회	-14844
▁통합해	-14845
▁투입된	-14846
▁판결이	-14847
▁판단을	-14848
▁편의성	-14849
▁평가도	-14850
▁표면에	-14851
▁푸르밀	-14852
▁품목이	-14853
▁피해복	-14854
▁하루에	-14855
▁한국농	-14856
▁한도는	-14857
▁한마음	-14858
▁함께한	-14859
▁합의에	-14860
▁항목에	-14861
▁항산화	-14862
▁해석이	-14863
▁핵심인	-14864
▁행정부	-14865
▁향미를	-14866
▁헤비츠	-14867
▁현황과	-14868
▁협상은	-14869
▁홍장표	-14870
▁화려한	-14871
▁화장지	-14872
▁확보해	-14873
▁확산될	-14874
▁확실한	-14875
▁확장을	-14876
▁확장해	-14877
▁활동의	-14878
▁회사측	-14879
▁회원사	-14880
▁후발주	-14881
▁후에는	-14882
▁후진국	-14883
▁휴대용	-14884
▁흐름에	-14885
▁힘들어	-14886
개월간의	-14887
공간으로	-14888
구조조정	-14889
국민은행	-14890
금감원은	-14891
넥티드카	-14892
대우조선	-14893
대표이사	-14894
둘레바람	-14895
렸습니다	-14896
리테일은	-14897
만달러에	-14898
만달러의	-14899
만원대다	-14900
바리퍼블	-14901
소득분배	-14902
소비자가	-14903
소비자의	-14904
아카데미	-14905
았습니다	-14906
억달러의	-14907
억원대로	-14908
업체들도	-14909
에서부터	-14910
오플레이	-14911
우리나라	-14912
위원회와	-14913
유통공사	-14914
점에서는	-14915
조달청은	-14916
중견기업	-14917
지금까지	-14918
챔피언십	-14919
칠성음료	-14920
커피협회	-14921
코리아의	-14922
큘레이터	-14923
테크니컬	-14924
통상임금	-14925
투자자가	-14926
프라이즈	-14927
플러스는	-14928
(2018	-14929
Brand	-14930
▁1450	-14931
▁1974	-14932
▁2600	-14933
▁291%	-14934
▁CATL	-14935
▁가뜩이나	-14936
▁가맹점에	-14937
▁가스안전	-14938
▁가전제품	-14939
▁감소폭이	-14940
▁강점이다	-14941
▁강화한다	-14942
▁개발하기	-14943
▁개편했다	-14944
▁거래됐다	-14945
▁거론된다	-14946
▁거점으로	-14947
▁걱정하는	-14948
▁건설기계	-14949
▁검토하는	-14950
▁검토하지	-14951
▁게보린은	-14952
▁경기침체	-14953
▁경영진의	-14954
▁경증치매	-14955
▁계산이다	-14956
▁계속되고	-14957
▁계약학과	-14958
▁고객과의	-14959
▁곳곳에서	-14960
▁공정경제	-14961
▁관광객이	-14962
▁관련해선	-14963
▁교보생명	-14964
▁국세청의	-14965
▁국정운영	-14966
▁국제무역	-14967
▁국제항공	-14968
▁그런데도	-14969
▁그렇다면	-14970
▁근로자를	-14971
▁금융기관	-14972
▁금융통화	-14973
▁기록하는	-14974
▁기부했다	-14975
▁기아차의	-14976
▁기업에는	-14977
▁기업에서	-14978
▁기저효과	-14979
▁기점으로	-14980
▁기존보다	-14981
▁기탁했다	-14982
▁까사미아	-14983
▁나서기로	-14984
▁나타나는	-14985
▁내용으로	-14986
▁논의하는	-14987
▁단위기간	-14988
▁대출금리	-14989
▁대회에서	-14990
▁데이터가	-14991
▁돌파구를	-14992
▁동일인을	-14993
▁동일하게	-14994
▁들어오는	-14995
▁떠오르고	-14996
▁떨어진다	-14997
▁런던에서	-14998
▁레시피를	-14999
▁렌털료는	-15000
▁마사지볼	-15001
▁만들어야	-15002
▁만들어진	-15003
▁만족도가	-15004
▁많아졌다	-15005
▁말했다김	-15006
▁면세점은	-15007
▁명예교수	-15008
▁모델보다	-15009
▁모범규준	-15010
▁무리하게	-15011
▁무상으로	-15012
▁문제점을	-15013
▁미국으로	-15014
▁미세공정	-15015
▁밀레니얼	-15016
▁반박했다	-15017
▁발굴하는	-15018
▁방산업체	-15019
▁법무법인	-15020
▁보도했다	-15021
▁보호하기	-15022
▁복지단체	-15023
▁부담이다	-15024
▁부드럽게	-15025
▁부작용이	-15026
▁불편함을	-15027
▁브리즈번	-15028
▁블라우스	-15029
▁블룸버그	-15030
▁비상장사	-15031
▁사무공간	-15032
▁사업에도	-15033
▁사업주가	-15034
▁산업으로	-15035
▁삼각김밥	-15036
▁상징하는	-15037
▁새벽배송	-15038
▁샌드위치	-15039
▁생각하고	-15040
▁생산하기	-15041
▁서울지방	-15042
▁선임했다	-15043
▁선정하는	-15044
▁설치하는	-15045
▁성장으로	-15046
▁소믈리에	-15047
▁소외계층	-15048
▁수입맥주	-15049
▁수준까지	-15050
▁수출계약	-15051
▁수출기업	-15052
▁순이익이	-15053
▁스타일러	-15054
▁스트레스	-15055
▁슬로건을	-15056
▁시스템과	-15057
▁시행령에	-15058
▁실업률은	-15059
▁아날로그	-15060
▁아우르는	-15061
▁악영향을	-15062
▁안성탕면	-15063
▁안전사고	-15064
▁안전하고	-15065
▁안정자금	-15066
▁야외수영	-15067
▁어우러진	-15068
▁엄격하게	-15069
▁에어버스	-15070
▁엑스레이	-15071
▁연구기관	-15072
▁영업점을	-15073
▁예방하기	-15074
▁오염도를	-15075
▁오염물질	-15076
▁완화하고	-15077
▁왔습니다	-15078
▁외부에서	-15079
▁유관기관	-15080
▁유럽에서	-15081
▁의존도가	-15082
▁이들에게	-15083
▁이란으로	-15084
▁이벤트는	-15085
▁이상이다	-15086
▁이어오고	-15087
▁이해하고	-15088
▁인정받은	-15089
▁있습니까	-15090
▁자금조달	-15091
▁자본시장	-15092
▁자신만의	-15093
▁자율성을	-15094
▁장점으로	-15095
▁재정건전	-15096
▁저렴하게	-15097
▁전기전자	-15098
▁전망치는	-15099
▁전문가는	-15100
▁전문가인	-15101
▁전세자금	-15102
▁전시했다	-15103
▁전환하고	-15104
▁정년퇴직	-15105
▁정상화에	-15106
▁제기되고	-15107
▁제외된다	-15108
▁제품들을	-15109
▁조성하기	-15110
▁조정하는	-15111
▁주머니가	-15112
▁주목받는	-15113
▁주문하는	-15114
▁주장한다	-15115
▁준공식에	-15116
▁지급하고	-15117
▁지분율은	-15118
▁지분율이	-15119
▁지주사인	-15120
▁직원에게	-15121
▁진단이다	-15122
▁진행되고	-15123
▁집중해야	-15124
▁집진필터	-15125
▁집행위원	-15126
▁참석하는	-15127
▁창업자를	-15128
▁창출에도	-15129
▁창출하는	-15130
▁찾아다니	-15131
▁책정했다	-15132
▁청소년을	-15133
▁추가됐다	-15134
▁추구한다	-15135
▁출신으로	-15136
▁충전으로	-15137
▁취업자는	-15138
▁토로했다	-15139
▁투입하고	-15140
▁투자한다	-15141
▁트렌드로	-15142
▁특급호텔	-15143
▁파악하고	-15144
▁편의점이	-15145
▁평가하는	-15146
▁포스코가	-15147
▁포스트잇	-15148
▁포인트로	-15149
▁포퓰리즘	-15150
▁포함하면	-15151
▁프로야구	-15152
▁플랫폼인	-15153
▁플러그인	-15154
▁하이네켄	-15155
▁한경연은	-15156
▁한국보다	-15157
▁합성목재	-15158
▁현대리바	-15159
▁홀로그램	-15160
▁홍보하는	-15161
▁확대됐다	-15162
▁환경노동	-15163
▁환경부는	-15164
▁활용하기	-15165
▁힘들다는	-15166
게티이미지	-15167
니꼬동제련	-15168
디아라비아	-15169
뱅크샐러드	-15170
브랜드경영	-15171
인플레이션	-15172
전문대학원	-15173
프란시스코	-15174
했다하지만	-15175
▁Value	-15176
▁가능하다는	-15177
▁가스공사는	-15178
▁갑작스러운	-15179
▁강화하기로	-15180
▁관계자들의	-15181
▁국민은행은	-15182
▁근로자에게	-15183
▁금융시장에	-15184
▁금호산업이	-15185
▁급성장하고	-15186
▁기관투자가	-15187
▁기념촬영을	-15188
▁기본적으로	-15189
▁까스텔바작	-15190
▁끌어올렸다	-15191
▁내용이었다	-15192
▁대통령에게	-15193
▁대한민국의	-15194
▁대한항공과	-15195
▁대한항공에	-15196
▁두드러졌다	-15197
▁두산중공업	-15198
▁때문입니다	-15199
▁떨어진다는	-15200
▁롯데마트는	-15201
▁무엇입니까	-15202
▁바람직하다	-15203
▁반영됐다는	-15204
▁베트남에서	-15205
▁불과하다는	-15206
▁브랜드들이	-15207
▁사각지대에	-15208
▁사람들에게	-15209
▁사무실에서	-15210
▁사업장에서	-15211
▁산업혁명의	-15212
▁상생협력을	-15213
▁성장동력을	-15214
▁수소전기차	-15215
▁시스템이다	-15216
▁신라면세점	-15217
▁신한금융의	-15218
▁신한은행이	-15219
▁아르바이트	-15220
▁아시아신탁	-15221
▁아이들에게	-15222
▁아이디어로	-15223
▁아주캐피탈	-15224
▁연구개발을	-15225
▁예비타당성	-15226
▁예정이라고	-15227
▁오세아니아	-15228
▁온라인으로	-15229
▁운영하기로	-15230
▁위해서였다	-15231
▁이례적이다	-15232
▁이어지면서	-15233
▁일방적으로	-15234
▁장기적으로	-15235
▁전시회에서	-15236
▁제공하기로	-15237
▁제외하고는	-15238
▁종신보험은	-15239
▁종합소득세	-15240
▁종합적으로	-15241
▁중요하다고	-15242
▁지속가능한	-15243
▁직무급제를	-15244
▁진행한다고	-15245
▁최저임금법	-15246
▁최저임금은	-15247
▁추천해주는	-15248
▁측면에서도	-15249
▁캘리포니아	-15250
▁텔루라이드	-15251
▁투입하기로	-15252
▁투자자들이	-15253
▁평가받는다	-15254
▁폐플라스틱	-15255
▁포스코건설	-15256
▁프로그램에	-15257
▁프로젝트다	-15258
▁필수적이다	-15259
▁하드디스크	-15260
▁하소연했다	-15261
▁한국레미콘	-15262
▁한국장애인	-15263
▁한진그룹은	-15264
▁현대종합상	-15265
경제연구원은	-15266
경제자문회의	-15267
디스플레이의	-15268
바리퍼블리카	-15269
시장진흥공단	-15270
에어프라이어	-15271
크라우드펀딩	-15272
현대렌탈케어	-15273
▁고용노동부가	-15274
▁내일채움공제	-15275
▁당기순이익은	-15276
▁롯데백화점은	-15277
▁사회간접자본	-15278
▁사회공헌활동	-15279
▁세계무역기구	-15280
▁스타벅스커피	-15281
▁액셀러레이터	-15282
▁여신금융협회	-15283
▁영업이익률은	-15284
▁온라인쇼핑몰	-15285
▁우즈베키스탄	-15286
▁장수돌침대는	-15287
▁전국재해구호	-15288
▁청년구직활동	-15289
▁카카오프렌즈	-15290
▁캠브릿지사첼	-15291
▁컬래버레이션	-15292
▁현대글로비스	-15293
▁현대중공업과	-15294
▁현대중공업의	-15295
게티이미지뱅크	-15296
아시아나항공의	-15297
지역난방공사가	-15298
▁글로벌혁신성장	-15299
▁마이크로소프트	-15300
▁사우디아라비아	-15301
▁소득주도성장을	-15302
▁소득주도성장의	-15303
▁파라다이스시티	-15304
▁한국타이어월드	-15305
▁현대경제연구원	-15306
▁현대삼호중공업	-15307
▁현대중공업지주	-15308
수산식품유통공사	-15309
▁소득주도성장특별	-15310
▁앵커에쿼티파트너	-15311
▁정부세종청사에서	-15312
▁중소벤처기업부는	-15313
▁중소벤처기업부와	-15314
공업협동조합연합회	-15315
▁플러그인하이브리드	-15316
▁소상공인시장진흥공단	-15317
0’	-15318
1·	-15319
48	-15320
75	-15321
94	-15322
CO	-15323
CU	-15324
DR	-15325
EG	-15326
GW	-15327
HI	-15328
KI	-15329
KR	-15330
MD	-15331
NC	-15332
RE	-15333
RO	-15334
RV	-15335
TC	-15336
ey	-15337
he	-15338
un	-15339
up	-15340
~0	-15341
▁m	-15342
▁w	-15343
▁▲	-15344
▁굉	-15345
▁꿀	-15346
▁끄	-15347
▁낯	-15348
▁딘	-15349
▁뛴	-15350
▁란	-15351
▁랜	-15352
▁롱	-15353
▁뭘	-15354
▁밴	-15355
▁붉	-15356
▁뿜	-15357
▁삽	-15358
▁샀	-15359
▁샴	-15360
▁쇠	-15361
▁쏙	-15362
▁씻	-15363
▁엉	-15364
▁으	-15365
▁쟁	-15366
▁찻	-15367
▁촘	-15368
▁콩	-15369
▁퀴	-15370
▁톤	-15371
▁픽	-15372
▁흩	-15373
輸送	-15374
가며	-15375
간병	-15376
감시	-15377
감지	-15378
값에	-15379
개성	-15380
개씩	-15381
격에	-15382
격호	-15383
경남	-15384
고급	-15385
고등	-15386
골든	-15387
구동	-15388
구성	-15389
구정	-15390
굿잡	-15391
그러	-15392
그림	-15393
기록	-15394
까진	-15395
네르	-15396
네요	-15397
노무	-15398
노아	-15399
노펙	-15400
뇨라	-15401
는가	-15402
니발	-15403
니에	-15404
다섯	-15405
담은	-15406
담을	-15407
대비	-15408
데시	-15409
돈이	-15410
되던	-15411
될지	-15412
드레	-15413
드슨	-15414
디비	-15415
디에	-15416
라또	-15417
라리	-15418
라비	-15419
라상	-15420
란지	-15421
래를	-15422
램과	-15423
려다	-15424
렸기	-15425
렸던	-15426
례가	-15427
로켓	-15428
로텍	-15429
루엣	-15430
루즈	-15431
룹슨	-15432
류도	-15433
류에	-15434
르세	-15435
리랑	-15436
리엄	-15437
리조	-15438
리칸	-15439
릴리	-15440
링을	-15441
마늘	-15442
망이	-15443
매트	-15444
먼저	-15445
명령	-15446
모키	-15447
민트	-15448
밀도	-15449
밀히	-15450
바브	-15451
바우	-15452
받기	-15453
방과	-15454
배치	-15455
뱅앤	-15456
벼랑	-15457
보레	-15458
보며	-15459
보좌	-15460
복수	-15461
본격	-15462
부과	-15463
분에	-15464
비에	-15465
빔밥	-15466
사히	-15467
상무	-15468
서로	-15469
선도	-15470
설린	-15471
설이	-15472
성공	-15473
성의	-15474
성향	-15475
세율	-15476
소개	-15477
속도	-15478
송이	-15479
수리	-15480
수신	-15481
수십	-15482
수준	-15483
숙한	-15484
스텀	-15485
슬아	-15486
시오	-15487
시청	-15488
시카	-15489
신뢰	-15490
신저	-15491
실과	-15492
실제	-15493
심이	-15494
싱글	-15495
씨와	-15496
아름	-15497
아모	-15498
아임	-15499
아한	-15500
안의	-15501
았기	-15502
앞에	-15503
액션	-15504
앤머	-15505
얼셀	-15506
엄마	-15507
업도	-15508
에겐	-15509
에미	-15510
에버	-15511
엔은	-15512
열을	-15513
영국	-15514
영수	-15515
영을	-15516
예방	-15517
예정	-15518
오갑	-15519
오던	-15520
오리	-15521
옵션	-15522
요거	-15523
욕을	-15524
용지	-15525
운반	-15526
워커	-15527
워킹	-15528
월말	-15529
유와	-15530
유지	-15531
의류	-15532
이게	-15533
이궁	-15534
이재	-15535
인텔	-15536
일으	-15537
임대	-15538
재다	-15539
재배	-15540
정산	-15541
정원	-15542
제작	-15543
주관	-15544
주물	-15545
중이	-15546
중한	-15547
중훈	-15548
쥬쥬	-15549
즈는	-15550
지식	-15551
지알	-15552
집행	-15553
짜로	-15554
차게	-15555
창수	-15556
처의	-15557
청기	-15558
체다	-15559
초과	-15560
촉진	-15561
최대	-15562
추는	-15563
취급	-15564
취를	-15565
층과	-15566
치며	-15567
칙에	-15568
친화	-15569
카르	-15570
카지	-15571
컬처	-15572
켈리	-15573
코모	-15574
코트	-15575
퀘어	-15576
크릿	-15577
킹통	-15578
타운	-15579
터에	-15580
토크	-15581
투웨	-15582
특정	-15583
특화	-15584
팀이	-15585
팅을	-15586
파를	-15587
팬츠	-15588
폭은	-15589
표시	-15590
표지	-15591
푸본	-15592
푸집	-15593
프터	-15594
피를	-15595
하길	-15596
하시	-15597
하트	-15598
학계	-15599
학회	-15600
한솔	-15601
함의	-15602
항을	-15603
해고	-15604
해를	-15605
해피	-15606
행장	-15607
헬기	-15608
현금	-15609
현수	-15610
현행	-15611
호주	-15612
황금	-15613
힘을	-15614
(-3	-15615
(35	-15616
(39	-15617
(55	-15618
ACC	-15619
DDP	-15620
JAM	-15621
LSI	-15622
PVC	-15623
ity	-15624
ust	-15625
~11	-15626
~60	-15627
▁3,	-15628
▁88	-15629
▁94	-15630
▁IP	-15631
▁In	-15632
▁LF	-15633
▁MG	-15634
▁MS	-15635
▁PG	-15636
▁SC	-15637
▁in	-15638
▁가서	-15639
▁가질	-15640
▁각계	-15641
▁간과	-15642
▁간의	-15643
▁감자	-15644
▁걸려	-15645
▁걸릴	-15646
▁검역	-15647
▁것인	-15648
▁겪어	-15649
▁겪을	-15650
▁경비	-15651
▁경신	-15652
▁경진	-15653
▁고창	-15654
▁골든	-15655
▁공대	-15656
▁공로	-15657
▁공세	-15658
▁과로	-15659
▁과태	-15660
▁관해	-15661
▁교원	-15662
▁교촌	-15663
▁구석	-15664
▁구속	-15665
▁국세	-15666
▁국한	-15667
▁굴착	-15668
▁권리	-15669
▁규격	-15670
▁그날	-15671
▁그램	-15672
▁근원	-15673
▁근육	-15674
▁근절	-15675
▁금방	-15676
▁급변	-15677
▁기용	-15678
▁길러	-15679
▁김교	-15680
▁나눌	-15681
▁나지	-15682
▁낮췄	-15683
▁낳고	-15684
▁내건	-15685
▁내실	-15686
▁내정	-15687
▁넘은	-15688
▁넣을	-15689
▁네팔	-15690
▁년째	-15691
▁노원	-15692
▁녹색	-15693
▁녹차	-15694
▁논현	-15695
▁높기	-15696
▁놓여	-15697
▁놓은	-15698
▁다낭	-15699
▁단가	-15700
▁닫는	-15701
▁닫을	-15702
▁달고	-15703
▁담배	-15704
▁당진	-15705
▁당혹	-15706
▁대는	-15707
▁대당	-15708
▁대면	-15709
▁도울	-15710
▁도태	-15711
▁독과	-15712
▁동급	-15713
▁동료	-15714
▁듀얼	-15715
▁드레	-15716
▁등산	-15717
▁때의	-15718
▁로고	-15719
▁마땅	-15720
▁마인	-15721
▁막혀	-15722
▁만두	-15723
▁많기	-15724
▁맛에	-15725
▁맡는	-15726
▁매콤	-15727
▁맥킨	-15728
▁머무	-15729
▁먹기	-15730
▁명분	-15731
▁모던	-15732
▁모토	-15733
▁몽골	-15734
▁무신	-15735
▁무해	-15736
▁문구	-15737
▁문성	-15738
▁미달	-15739
▁미드	-15740
▁미연	-15741
▁민영	-15742
▁민첩	-15743
▁믿을	-15744
▁바퀴	-15745
▁박승	-15746
▁박태	-15747
▁발암	-15748
▁밟고	-15749
▁방범	-15750
▁방북	-15751
▁백금	-15752
▁백지	-15753
▁버거	-15754
▁벌일	-15755
▁법원	-15756
▁변수	-15757
▁보람	-15758
▁보류	-15759
▁보름	-15760
▁본질	-15761
▁봄을	-15762
▁봉쇄	-15763
▁봉제	-15764
▁부를	-15765
▁부장	-15766
▁부쩍	-15767
▁분당	-15768
▁불릴	-15769
▁브러	-15770
▁브렌	-15771
▁비서	-15772
▁비수	-15773
▁빼가	-15774
▁빼앗	-15775
▁사법	-15776
▁사원	-15777
▁상부	-15778
▁상주	-15779
▁색을	-15780
▁생물	-15781
▁생애	-15782
▁샤오	-15783
▁서서	-15784
▁석사	-15785
▁선불	-15786
▁설탕	-15787
▁성실	-15788
▁센트	-15789
▁셰프	-15790
▁소니	-15791
▁소용	-15792
▁소품	-15793
▁소화	-15794
▁송출	-15795
▁쇼크	-15796
▁수은	-15797
▁숙명	-15798
▁스캔	-15799
▁스케	-15800
▁스핀	-15801
▁시들	-15802
▁시한	-15803
▁신진	-15804
▁싣고	-15805
▁실버	-15806
▁실습	-15807
▁실어	-15808
▁쌀을	-15809
▁쌓여	-15810
▁쏟고	-15811
▁쓴다	-15812
▁아는	-15813
▁아빠	-15814
▁아파	-15815
▁안고	-15816
▁알릴	-15817
▁압력	-15818
▁애도	-15819
▁야기	-15820
▁약화	-15821
▁양념	-15822
▁양조	-15823
▁어른	-15824
▁어민	-15825
▁얻어	-15826
▁없게	-15827
▁역삼	-15828
▁연일	-15829
▁연체	-15830
▁열릴	-15831
▁영문	-15832
▁예민	-15833
▁오늘	-15834
▁옥션	-15835
▁온천	-15836
▁올렸	-15837
▁외형	-15838
▁우드	-15839
▁원금	-15840
▁원내	-15841
▁원쇼	-15842
▁원적	-15843
▁원정	-15844
▁위크	-15845
▁유산	-15846
▁유인	-15847
▁유형	-15848
▁응용	-15849
▁의성	-15850
▁이정	-15851
▁이젠	-15852
▁이케	-15853
▁인위	-15854
▁인플	-15855
▁일도	-15856
▁일러	-15857
▁일찍	-15858
▁일컫	-15859
▁읽어	-15860
▁임기	-15861
▁입국	-15862
▁입금	-15863
▁입원	-15864
▁잘라	-15865
▁재기	-15866
▁재발	-15867
▁재선	-15868
▁재판	-15869
▁저울	-15870
▁전사	-15871
▁전염	-15872
▁전제	-15873
▁절박	-15874
▁접할	-15875
▁정관	-15876
▁정규	-15877
▁종종	-15878
▁주어	-15879
▁주역	-15880
▁주종	-15881
▁주효	-15882
▁중대	-15883
▁지고	-15884
▁지붕	-15885
▁지탱	-15886
▁지프	-15887
▁직불	-15888
▁진지	-15889
▁집약	-15890
▁차는	-15891
▁차에	-15892
▁창이	-15893
▁채소	-15894
▁챙겨	-15895
▁챙기	-15896
▁철도	-15897
▁체내	-15898
▁촉발	-15899
▁촘촘	-15900
▁충원	-15901
▁치러	-15902
▁치즈	-15903
▁친근	-15904
▁침실	-15905
▁카고	-15906
▁캠프	-15907
▁코딩	-15908
▁크로	-15909
▁클릭	-15910
▁타일	-15911
▁타협	-15912
▁템퍼	-15913
▁통닭	-15914
▁퇴진	-15915
▁투싼	-15916
▁튀는	-15917
▁튼튼	-15918
▁팀을	-15919
▁파산	-15920
▁팔마	-15921
▁패소	-15922
▁펜디	-15923
▁평상	-15924
▁표방	-15925
▁풍경	-15926
▁풍요	-15927
▁핀크	-15928
▁하던	-15929
▁한라	-15930
▁한빛	-15931
▁항균	-15932
▁해명	-15933
▁해썹	-15934
▁해제	-15935
▁햇반	-15936
▁협정	-15937
▁협회	-15938
▁형평	-15939
▁호반	-15940
▁혼잡	-15941
▁화상	-15942
▁확립	-15943
▁환원	-15944
▁활약	-15945
▁황금	-15946
▁효능	-15947
▁효자	-15948
▁후배	-15949
▁휩쓸	-15950
개사가	-15951
개사의	-15952
개였다	-15953
겼다는	-15954
경영계	-15955
경영의	-15956
경제부	-15957
계에서	-15958
공장과	-15959
공항공	-15960
관념을	-15961
관리에	-15962
광역시	-15963
국내외	-15964
그렇게	-15965
그룹형	-15966
글리콜	-15967
금융사	-15968
기간을	-15969
기간이	-15970
나이스	-15971
네이버	-15972
년마다	-15973
년보다	-15974
농식품	-15975
다음달	-15976
다이날	-15977
단지를	-15978
단체인	-15979
달라는	-15980
대부분	-15981
대주주	-15982
대출을	-15983
더멘털	-15984
더불어	-15985
돼서다	-15986
됐으며	-15987
라인을	-15988
렉트릭	-15989
로스팅	-15990
로움을	-15991
리테일	-15992
릴레이	-15993
마켓컬	-15994
만원은	-15995
면으로	-15996
모터쇼	-15997
물가지	-15998
미국이	-15999
바브웨	-16000
박근혜	-16001
받아야	-16002
발전을	-16003
뱅앤올	-16004
법원은	-16005
법인인	-16006
보다도	-16007
비디아	-16008
사와의	-16009
산물을	-16010
산안법	-16011
상속세	-16012
서에서	-16013
세에서	-16014
수도권	-16015
수익률	-16016
스위스	-16017
스톤은	-16018
슬레저	-16019
시설과	-16020
시설이	-16021
심에서	-16022
심으로	-16023
씽크빅	-16024
아이는	-16025
억위안	-16026
업계를	-16027
업체도	-16028
었으나	-16029
엠트론	-16030
여명의	-16031
여전히	-16032
오가닉	-16033
오쇼핑	-16034
올리브	-16035
와이드	-16036
우버는	-16037
우호적	-16038
웅진코	-16039
원전을	-16040
유니콘	-16041
으로선	-16042
이유식	-16043
이익을	-16044
이익이	-16045
일수록	-16046
임했다	-16047
자동화	-16048
자외선	-16049
작년에	-16050
재단과	-16051
정보를	-16052
조세탁	-16053
조원대	-16054
주차장	-16055
지먼트	-16056
지역의	-16057
지원을	-16058
지출을	-16059
집에서	-16060
챌린지	-16061
처에서	-16062
축통화	-16063
충전소	-16064
치면서	-16065
캡스는	-16066
케이크	-16067
코드를	-16068
크래커	-16069
큰치킨	-16070
테스트	-16071
텍사스	-16072
툭하면	-16073
티비티	-16074
파업에	-16075
파업을	-16076
패키지	-16077
푸드가	-16078
퓨얼셀	-16079
프랑스	-16080
플라워	-16081
해보자	-16082
해진다	-16083
행사를	-16084
홀딩스	-16085
홀에서	-16086
홈씨씨	-16087
화관법	-16088
화이트	-16089
(250	-16090
...'	-16091
13%)	-16092
ACCP	-16093
PASS	-16094
▁06%	-16095
▁07%	-16096
▁112	-16097
▁115	-16098
▁172	-16099
▁235	-16100
▁42%	-16101
▁4~6	-16102
▁52%	-16103
▁56%	-16104
▁57%	-16105
▁720	-16106
▁78%	-16107
▁7~8	-16108
▁83%	-16109
▁850	-16110
▁876	-16111
▁96%	-16112
▁APR	-16113
▁BBQ	-16114
▁COO	-16115
▁DGB	-16116
▁KBS	-16117
▁Key	-16118
▁OCI	-16119
▁RBC	-16120
▁UHC	-16121
▁가격과	-16122
▁가구를	-16123
▁가구에	-16124
▁가로수	-16125
▁가업을	-16126
▁가죽을	-16127
▁간편한	-16128
▁감소와	-16129
▁감안한	-16130
▁강세를	-16131
▁강조해	-16132
▁같지만	-16133
▁갚아야	-16134
▁개국에	-16135
▁개발이	-16136
▁개방형	-16137
▁개선할	-16138
▁거리가	-16139
▁건물에	-16140
▁건조기	-16141
▁걸리는	-16142
▁걸맞게	-16143
▁검증을	-16144
▁것이냐	-16145
▁것인가	-16146
▁결정된	-16147
▁경사노	-16148
▁경영수	-16149
▁경영학	-16150
▁경쟁은	-16151
▁경찰학	-16152
▁계약의	-16153
▁고객사	-16154
▁고르는	-16155
▁고삐를	-16156
▁고소득	-16157
▁고용이	-16158
▁고인의	-16159
▁골판지	-16160
▁공문을	-16161
▁공유할	-16162
▁공항동	-16163
▁과거와	-16164
▁과정도	-16165
▁과제다	-16166
▁구매해	-16167
▁구입할	-16168
▁구축에	-16169
▁구축할	-16170
▁국가로	-16171
▁국가별	-16172
▁권한을	-16173
▁규정이	-16174
▁규제로	-16175
▁그들이	-16176
▁그란데	-16177
▁금값은	-16178
▁금액의	-16179
▁기관의	-16180
▁기구인	-16181
▁기능에	-16182
▁기반이	-16183
▁기술인	-16184
▁기승을	-16185
▁기자회	-16186
▁기재된	-16187
▁김동연	-16188
▁김상조	-16189
▁꽃무늬	-16190
▁꾀하고	-16191
▁끌어내	-16192
▁끌어모	-16193
▁나란히	-16194
▁나서야	-16195
▁나이스	-16196
▁낚시를	-16197
▁낮에는	-16198
▁내걸고	-16199
▁내년도	-16200
▁내놓자	-16201
▁내부의	-16202
▁내역을	-16203
▁내용은	-16204
▁넘치는	-16205
▁노력은	-16206
▁노력할	-16207
▁노조를	-16208
▁논의에	-16209
▁높아져	-16210
▁높아질	-16211
▁높여야	-16212
▁누르면	-16213
▁누진제	-16214
▁닛산은	-16215
▁다녔다	-16216
▁다수의	-16217
▁단가가	-16218
▁달러화	-16219
▁대법원	-16220
▁대비할	-16221
▁대상의	-16222
▁대열에	-16223
▁대표도	-16224
▁대학교	-16225
▁대학을	-16226
▁도달한	-16227
▁도요타	-16228
▁돈으로	-16229
▁돌렸다	-16230
▁돌아설	-16231
▁돌침대	-16232
▁동생인	-16233
▁되돌아	-16234
▁된다면	-16235
▁두산은	-16236
▁둔화로	-16237
▁둔화에	-16238
▁뒷걸음	-16239
▁든든한	-16240
▁들어설	-16241
▁들어왔	-16242
▁등록한	-16243
▁등에게	-16244
▁때였다	-16245
▁라인은	-16246
▁레쓰비	-16247
▁리조트	-16248
▁마시멜	-16249
▁맞이한	-16250
▁맞추고	-16251
▁맞추는	-16252
▁맞췄다	-16253
▁매각한	-16254
▁머리를	-16255
▁메신저	-16256
▁모델과	-16257
▁모델의	-16258
▁모였다	-16259
▁모이는	-16260
▁모호한	-16261
▁목소리	-16262
▁몸집을	-16263
▁못했던	-16264
▁무엇이	-16265
▁문구를	-16266
▁물어야	-16267
▁물품을	-16268
▁뮤직비	-16269
▁미과즙	-16270
▁미루고	-16271
▁미세한	-16272
▁밀가루	-16273
▁밑으로	-16274
▁바꾸지	-16275
▁바뀐다	-16276
▁바비큐	-16277
▁바이러	-16278
▁박수를	-16279
▁박았다	-16280
▁반려견	-16281
▁받기도	-16282
▁발왕산	-16283
▁방문을	-16284
▁방향은	-16285
▁배분을	-16286
▁배출을	-16287
▁벌인다	-16288
▁범위가	-16289
▁변경은	-16290
▁변하는	-16291
▁보험에	-16292
▁본사로	-16293
▁부동의	-16294
▁부스를	-16295
▁부족할	-16296
▁부진의	-16297
▁불투명	-16298
▁비용과	-16299
▁비효율	-16300
▁빠르다	-16301
▁사라질	-16302
▁사랑의	-16303
▁사이클	-16304
▁사진은	-16305
▁산업이	-16306
▁삼겹살	-16307
▁삼성의	-16308
▁상승률	-16309
▁상승이	-16310
▁상태에	-16311
▁상황도	-16312
▁색상의	-16313
▁생각에	-16314
▁생기면	-16315
▁생산기	-16316
▁생수를	-16317
▁선두를	-16318
▁선발해	-16319
▁선점을	-16320
▁설계한	-16321
▁설치돼	-16322
▁설치를	-16323
▁세대를	-16324
▁소리를	-16325
▁소비는	-16326
▁소아암	-16327
▁소재인	-16328
▁속도는	-16329
▁송호섭	-16330
▁수강생	-16331
▁수당을	-16332
▁수소를	-16333
▁수익이	-16334
▁스미스	-16335
▁스웨덴	-16336
▁스탠더	-16337
▁스파크	-16338
▁슬라이	-16339
▁승무원	-16340
▁승용차	-16341
▁시간은	-16342
▁시중에	-16343
▁시험을	-16344
▁식사를	-16345
▁신뢰와	-16346
▁신차를	-16347
▁신촌세	-16348
▁신호를	-16349
▁신흥국	-16350
▁실루엣	-16351
▁실패를	-16352
▁쏟아붓	-16353
▁아니면	-16354
▁아들인	-16355
▁아르헨	-16356
▁아세아	-16357
▁아이더	-16358
▁아이의	-16359
▁안건을	-16360
▁안았다	-16361
▁안정성	-16362
▁안팎인	-16363
▁않겠다	-16364
▁알아야	-16365
▁압구정	-16366
▁압도적	-16367
▁압력을	-16368
▁약속한	-16369
▁양성을	-16370
▁업무가	-16371
▁없이는	-16372
▁없이도	-16373
▁에스와	-16374
▁에이치	-16375
▁엔진이	-16376
▁여부는	-16377
▁여성이	-16378
▁여행사	-16379
▁역사상	-16380
▁연료비	-16381
▁연장을	-16382
▁염두에	-16383
▁영감을	-16384
▁예상을	-16385
▁오더는	-16386
▁오래전	-16387
▁오징어	-16388
▁올린다	-16389
▁올림픽	-16390
▁올여름	-16391
▁와인과	-16392
▁와인이	-16393
▁완벽한	-16394
▁요건이	-16395
▁요리를	-16396
▁요인은	-16397
▁요즘은	-16398
▁용도로	-16399
▁우려한	-16400
▁우버가	-16401
▁움직일	-16402
▁원단을	-16403
▁원활한	-16404
▁월급을	-16405
▁위기의	-16406
▁위원은	-16407
▁유니버	-16408
▁유럽에	-16409
▁유입을	-16410
▁유전자	-16411
▁유지를	-16412
▁유치해	-16413
▁육성에	-16414
▁은행과	-16415
▁의결을	-16416
▁의무가	-16417
▁이노션	-16418
▁이란의	-16419
▁이론적	-16420
▁이루고	-16421
▁이름이	-16422
▁이명박	-16423
▁이병철	-16424
▁이슈가	-16425
▁이외에	-16426
▁이유에	-16427
▁이재갑	-16428
▁이재현	-16429
▁인력의	-16430
▁인상은	-16431
▁인원은	-16432
▁입맛에	-16433
▁입소문	-16434
▁있느냐	-16435
▁있다며	-16436
▁있다에	-16437
▁자금난	-16438
▁자발적	-16439
▁자원을	-16440
▁자유롭	-16441
▁작성해	-16442
▁작품을	-16443
▁장관의	-16444
▁장례를	-16445
▁재료로	-16446
▁저성장	-16447
▁저출산	-16448
▁적용을	-16449
▁전국의	-16450
▁전략의	-16451
▁전망에	-16452
▁전체에	-16453
▁전통적	-16454
▁절반에	-16455
▁접수한	-16456
▁정년을	-16457
▁정보와	-16458
▁정신을	-16459
▁정원을	-16460
▁정책적	-16461
▁정치적	-16462
▁제공한	-16463
▁제도의	-16464
▁조금씩	-16465
▁조달한	-16466
▁조성할	-16467
▁조중훈	-16468
▁조치가	-16469
▁종업원	-16470
▁주가는	-16471
▁주목할	-16472
▁주제를	-16473
▁주주가	-16474
▁중국어	-16475
▁중대형	-16476
▁중앙회	-16477
▁증가와	-16478
▁증진을	-16479
▁지금과	-16480
▁지나면	-16481
▁지수를	-16482
▁지식을	-16483
▁지원한	-16484
▁지정해	-16485
▁지켰다	-16486
▁지키지	-16487
▁진입을	-16488
▁진출할	-16489
▁진통제	-16490
▁집중해	-16491
▁찍었다	-16492
▁차량에	-16493
▁차량은	-16494
▁차지할	-16495
▁착안해	-16496
▁창고형	-16497
▁창업해	-16498
▁천연물	-16499
▁첫선을	-16500
▁청장은	-16501
▁체제로	-16502
▁초경질	-16503
▁촉진을	-16504
▁총재가	-16505
▁최상급	-16506
▁최소한	-16507
▁추가할	-16508
▁추억을	-16509
▁추진을	-16510
▁추출물	-16511
▁추출한	-16512
▁출시돼	-16513
▁출연금	-16514
▁출장을	-16515
▁취약한	-16516
▁카시트	-16517
▁커스텀	-16518
▁커지자	-16519
▁컬러와	-16520
▁케이크	-16521
▁퀄컴과	-16522
▁타격이	-16523
▁통계에	-16524
▁통보를	-16525
▁통한다	-16526
▁투자유	-16527
▁투자의	-16528
▁파악할	-16529
▁파우더	-16530
▁판교점	-16531
▁판단할	-16532
▁판매는	-16533
▁판매해	-16534
▁팔린다	-16535
▁패밀리	-16536
▁페로텍	-16537
▁폐기물	-16538
▁포용적	-16539
▁표했다	-16540
▁풀었다	-16541
▁품목의	-16542
▁품질은	-16543
▁퓨처북	-16544
▁플랜트	-16545
▁피아트	-16546
▁필수다	-16547
▁하나를	-16548
▁하나씩	-16549
▁하락할	-16550
▁하버드	-16551
▁하이퐁	-16552
▁한국전	-16553
▁한부모	-16554
▁할인을	-16555
▁할인점	-16556
▁함량을	-16557
▁합하면	-16558
▁해결할	-16559
▁해소를	-16560
▁행사와	-16561
▁행사장	-16562
▁향상과	-16563
▁혁신의	-16564
▁혁신형	-16565
▁현상은	-16566
▁현지의	-16567
▁협상에	-16568
▁협업한	-16569
▁협의를	-16570
▁확률이	-16571
▁확보가	-16572
▁확산에	-16573
▁활기를	-16574
▁활발히	-16575
▁회전형	-16576
▁효과는	-16577
▁효도잔	-16578
▁후원한	-16579
▁흔들림	-16580
▁흘러나	-16581
輸送報國	-16582
개성공단	-16583
갤러리아	-16584
경사노위	-16585
공항공사	-16586
기술육성	-16587
기업가치	-16588
기후환경	-16589
노브랜드	-16590
대한통운	-16591
동서발전	-16592
로그앤머	-16593
르세데스	-16594
면세점은	-16595
문화재단	-16596
법인으로	-16597
본부장은	-16598
분기에는	-16599
사모펀드	-16600
사회공헌	-16601
산업부는	-16602
산업에서	-16603
산화물을	-16604
상생협력	-16605
상여금을	-16606
생명보험	-16607
스킨라빈	-16608
시스템과	-16609
시장에선	-16610
시장으로	-16611
안전관리	-16612
앞으로도	-16613
어메이징	-16614
억원어치	-16615
언스파크	-16616
업종별로	-16617
에미리트	-16618
엘라코닉	-16619
연구개발	-16620
연구원장	-16621
예산정책	-16622
운송협회	-16623
이지투웨	-16624
인간공학	-16625
인공지능	-16626
자일리톨	-16627
장려금은	-16628
저장장치	-16629
정보기술	-16630
젠테이션	-16631
중앙회장	-16632
지역으로	-16633
짜파게티	-16634
최근에는	-16635
컨티넨탈	-16636
플레이스	-16637
하우시스	-16638
한국에서	-16639
현장에서	-16640
홈앤쇼핑	-16641
화하면서	-16642
환경부는	-16643
회계법인	-16644
회장님은	-16645
▁-03%	-16646
▁115%	-16647
▁1919	-16648
▁1983	-16649
▁1993	-16650
▁2100	-16651
▁2200	-16652
▁25%,	-16653
▁4500	-16654
▁6500	-16655
▁가계부채	-16656
▁가능하며	-16657
▁가맹계약	-16658
▁가업승계	-16659
▁감각적인	-16660
▁감소세로	-16661
▁강화해야	-16662
▁개선했다	-16663
▁개정안은	-16664
▁개정안이	-16665
▁개최하고	-16666
▁개최한다	-16667
▁객관적인	-16668
▁결정체계	-16669
▁결제하면	-16670
▁경영개선	-16671
▁경쟁력은	-16672
▁계열사별	-16673
▁고기능성	-16674
▁고려하는	-16675
▁고용창출	-16676
▁공간으로	-16677
▁공감대를	-16678
▁공개하고	-16679
▁공개하는	-16680
▁공급하며	-16681
▁공략했다	-16682
▁공무원이	-16683
▁관계자도	-16684
▁교육기관	-16685
▁구매하고	-16686
▁구입하는	-16687
▁구현했다	-16688
▁국민소득	-16689
▁국세청이	-16690
▁금융거래	-16691
▁금융사가	-16692
▁기가지니	-16693
▁기능으로	-16694
▁기술이다	-16695
▁기술창업	-16696
▁기술평가	-16697
▁기술혁신	-16698
▁기업금융	-16699
▁기업문화	-16700
▁기여하는	-16701
▁기여했다	-16702
▁기울이고	-16703
▁기획했다	-16704
▁깨끗하고	-16705
▁끊임없는	-16706
▁나서겠다	-16707
▁나섰지만	-16708
▁나타난다	-16709
▁낮아지고	-16710
▁내놓았다	-16711
▁내부거래	-16712
▁내비쳤다	-16713
▁넘어서는	-16714
▁높아진다	-16715
▁다양하고	-16716
▁다음으로	-16717
▁단계에서	-16718
▁단독가구	-16719
▁단독으로	-16720
▁달한다는	-16721
▁대구은행	-16722
▁대기업과	-16723
▁대기업에	-16724
▁대중화를	-16725
▁대출받을	-16726
▁대통령과	-16727
▁대표들과	-16728
▁델타항공	-16729
▁도급승인	-16730
▁도시에서	-16731
▁도입된다	-16732
▁도입으로	-16733
▁도입한다	-16734
▁도전장을	-16735
▁독보적인	-16736
▁독자적인	-16737
▁돌아섰다	-16738
▁동떨어진	-16739
▁동일인이	-16740
▁들어선다	-16741
▁등에서도	-16742
▁떠올랐다	-16743
▁롯데리아	-16744
▁리모델링	-16745
▁리튬이온	-16746
▁마감했다	-16747
▁마련하는	-16748
▁많았지만	-16749
▁말했다조	-16750
▁매장에선	-16751
▁매장으로	-16752
▁모르겠다	-16753
▁몰리면서	-16754
▁못지않게	-16755
▁문화예술	-16756
▁미지급금	-16757
▁민간기업	-16758
▁밀레니엄	-16759
▁바이네르	-16760
▁반대하고	-16761
▁반도체에	-16762
▁반발하는	-16763
▁반영됐다	-16764
▁반영한다	-16765
▁발생한다	-16766
▁발언하고	-16767
▁방지하기	-16768
▁번개장터	-16769
▁벌어진다	-16770
▁변동성이	-16771
▁보내준다	-16772
▁보험사는	-16773
▁보험설계	-16774
▁보험자의	-16775
▁본관에서	-16776
▁본회의를	-16777
▁부가가치	-16778
▁부모님께	-16779
▁부족하다	-16780
▁부총리의	-16781
▁부회장과	-16782
▁분기별로	-16783
▁분기보다	-16784
▁분류된다	-16785
▁분석하고	-16786
▁분석하는	-16787
▁불가피한	-16788
▁불가피할	-16789
▁불과했던	-16790
▁불러일으	-16791
▁블렌딩해	-16792
▁빌려주는	-16793
▁사람들을	-16794
▁사무실을	-16795
▁사업구조	-16796
▁사업장에	-16797
▁삼성페이	-16798
▁상인들의	-16799
▁상품기획	-16800
▁생산업체	-16801
▁서울시가	-16802
▁선임됐다	-16803
▁선정하고	-16804
▁설계했다	-16805
▁성공적인	-16806
▁성과연봉	-16807
▁세금으로	-16808
▁세미나를	-16809
▁소개하는	-16810
▁쇼핑몰을	-16811
▁쇼핑몰인	-16812
▁수단으로	-16813
▁수수료가	-16814
▁시나리오	-16815
▁시달리는	-16816
▁시리즈는	-16817
▁시민단체	-16818
▁시스템인	-16819
▁시작되는	-16820
▁식재료를	-16821
▁신라호텔	-16822
▁신뢰도를	-16823
▁신산업을	-16824
▁신청서를	-16825
▁신청자가	-16826
▁쏟아냈다	-16827
▁쓰촨현대	-16828
▁아니었다	-16829
▁아카데미	-16830
▁않겠다고	-16831
▁애완동물	-16832
▁어려움에	-16833
▁어려워질	-16834
▁에어부산	-16835
▁에틸렌을	-16836
▁연구하고	-16837
▁연구하는	-16838
▁연기했다	-16839
▁연세유업	-16840
▁연속으로	-16841
▁오랫동안	-16842
▁완성했다	-16843
▁우수조달	-16844
▁운영하며	-16845
▁운영했다	-16846
▁움직임에	-16847
▁원화계좌	-16848
▁위메프는	-16849
▁위원장과	-16850
▁유아용품	-16851
▁유지했다	-16852
▁은행에서	-16853
▁의존하는	-16854
▁이르렀다	-16855
▁이번에는	-16856
▁이비테크	-16857
▁이상이면	-16858
▁이야기가	-16859
▁이용자가	-16860
▁인상률은	-16861
▁인상률을	-16862
▁인상률이	-16863
▁인상했다	-16864
▁인재들이	-16865
▁인정하고	-16866
▁인정하는	-16867
▁인지도를	-16868
▁일등석을	-16869
▁일정으로	-16870
▁임직원의	-16871
▁입장이다	-16872
▁입증했다	-16873
▁있다동원	-16874
▁있다또한	-16875
▁있다신한	-16876
▁있다이런	-16877
▁자구안을	-16878
▁자기소개	-16879
▁자동화를	-16880
▁자원순환	-16881
▁자유로운	-16882
▁잠재력이	-16883
▁장기적인	-16884
▁저렴하다	-16885
▁적극행정	-16886
▁적금상품	-16887
▁적립금을	-16888
▁전기추진	-16889
▁전날보다	-16890
▁전담하는	-16891
▁전원합의	-16892
▁전환사채	-16893
▁점유율로	-16894
▁정부조달	-16895
▁정체성을	-16896
▁정치권과	-16897
▁제거하는	-16898
▁제공된다	-16899
▁제시한다	-16900
▁제외하면	-16901
▁제일기획	-16902
▁제품들이	-16903
▁조달청이	-16904
▁조직으로	-16905
▁조직이다	-16906
▁졸업하고	-16907
▁주무부처	-16908
▁준공식을	-16909
▁중위임금	-16910
▁즐거움을	-16911
▁증가폭이	-16912
▁지시했다	-16913
▁지역경제	-16914
▁지원금이	-16915
▁지정하고	-16916
▁지정학적	-16917
▁직접적인	-16918
▁진입했다	-16919
▁집중하는	-16920
▁착용감이	-16921
▁참석한다	-16922
▁창업주인	-16923
▁채택했다	-16924
▁책임지는	-16925
▁천연가죽	-16926
▁청와대가	-16927
▁청호나이	-16928
▁초과하는	-16929
▁초등학교	-16930
▁초등학생	-16931
▁최고재무	-16932
▁최소화할	-16933
▁추산된다	-16934
▁추정하고	-16935
▁추진했다	-16936
▁출시하는	-16937
▁취급하는	-16938
▁콘셉트카	-16939
▁탈취필터	-16940
▁태림포장	-16941
▁티토니의	-16942
▁판단하고	-16943
▁패키지는	-16944
▁패키지에	-16945
▁팹리스의	-16946
▁평가에서	-16947
▁평가하고	-16948
▁평균급여	-16949
▁평균임금	-16950
▁포화상태	-16951
▁표현했다	-16952
▁프로모션	-16953
▁프리필터	-16954
▁피해액이	-16955
▁필요하면	-16956
▁하락세를	-16957
▁한국여성	-16958
▁한국표준	-16959
▁한국항공	-16960
▁한자리에	-16961
▁한화그룹	-16962
▁항공산업	-16963
▁해결하는	-16964
▁행복하게	-16965
▁현대그린	-16966
▁현대해상	-16967
▁홍보했다	-16968
▁화웨이는	-16969
▁확인됐다	-16970
▁확인하는	-16971
▁확인해야	-16972
▁확장하고	-16973
▁활동하는	-16974
▁활발하게	-16975
▁활용한다	-16976
▁획기적인	-16977
▁효율성이	-16978
▁효율적인	-16979
▁후원하고	-16980
▁희망하는	-16981
금융그룹의	-16982
금융그룹이	-16983
기술연구소	-16984
기업가정신	-16985
롯데케미칼	-16986
문화재단은	-16987
뱅앤올룹슨	-16988
부동산신탁	-16989
브란스병원	-16990
스마트공장	-16991
인베스트먼	-16992
저축은행이	-16993
주도성장은	-16994
투썸플레이	-16995
하셨습니다	-16996
하우시스의	-16997
한화그룹은	-16998
▁Brand	-16999
▁“2030	-17000
▁가능해진다	-17001
▁갑작스럽게	-17002
▁경쟁력으로	-17003
▁경쟁적으로	-17004
▁경제정책을	-17005
▁계획이라고	-17006
▁구조조정은	-17007
▁국민은행장	-17008
▁근로시간이	-17009
▁금융회사의	-17010
▁대조적이다	-17011
▁독자적으로	-17012
▁동반성장을	-17013
▁동일인으로	-17014
▁롯데그룹이	-17015
▁마이너스로	-17016
▁만들겠다는	-17017
▁만들어내는	-17018
▁말했다그는	-17019
▁명예회장은	-17020
▁모모스커피	-17021
▁모바일뱅킹	-17022
▁무역전쟁에	-17023
▁반도체업계	-17024
▁발표하면서	-17025
▁부가서비스	-17026
▁사은품으로	-17027
▁사회안전망	-17028
▁산업연구원	-17029
▁선제적으로	-17030
▁설명했다이	-17031
▁설문조사한	-17032
▁성공했다고	-17033
▁성장하면서	-17034
▁셰일가스를	-17035
▁스마트폰에	-17036
▁시작했다고	-17037
▁신선식품을	-17038
▁신용카드를	-17039
▁신한금융은	-17040
▁실내공기를	-17041
▁에탄크래커	-17042
▁여행상품을	-17043
▁영업이익률	-17044
▁우리금융은	-17045
▁운영한다고	-17046
▁위해서라도	-17047
▁유로모니터	-17048
▁유통기한이	-17049
▁의무적으로	-17050
▁이례적으로	-17051
▁인터브랜드	-17052
▁임시주주총	-17053
▁전기요금은	-17054
▁전문인력을	-17055
▁제주항공은	-17056
▁종합부동산	-17057
▁주목받았다	-17058
▁중요하다는	-17059
▁증가하면서	-17060
▁지난해에도	-17061
▁지배적이다	-17062
▁청호나이스	-17063
▁최우선으로	-17064
▁케이뱅크의	-17065
▁투자금액은	-17066
▁패션그룹형	-17067
▁푸드케어는	-17068
▁플랫폼으로	-17069
▁한진그룹의	-17070
▁할인해준다	-17071
▁해외에서도	-17072
▁행사장에서	-17073
▁혁신성장에	-17074
▁협력사와의	-17075
▁홈페이지를	-17076
▁획기적으로	-17077
기아자동차가	-17078
디자인플라자	-17079
이지투웨니스	-17080
장수돌침대는	-17081
테크니컬센터	-17082
▁10~20%	-17083
▁가상화폐거래	-17084
▁고용노동부는	-17085
▁공기청정기는	-17086
▁공기청정기와	-17087
▁공기청정기의	-17088
▁금융감독원에	-17089
▁금융감독원이	-17090
▁기아자동차의	-17091
▁대기오염물질	-17092
▁더마코스메틱	-17093
▁데크플레이트	-17094
▁롯데백화점이	-17095
▁베이징현대의	-17096
▁보험계약자가	-17097
▁샌프란시스코	-17098
▁소상공인에게	-17099
▁아랍에미리트	-17100
▁애큐온캐피탈	-17101
▁에틸렌글리콜	-17102
▁유가증권시장	-17103
▁이스타항공은	-17104
▁코오롱스포츠	-17105
▁투자했습니다	-17106
▁파리바게뜨는	-17107
▁한국야쿠르트	-17108
▁현대자동차와	-17109
로보어드바이저	-17110
중소기업중앙회	-17111
▁법학전문대학원	-17112
▁비바리퍼블리카	-17113
▁서울지방국세청	-17114
▁신세계백화점은	-17115
▁중소벤처기업을	-17116
▁최저임금위원회	-17117
▁한국경제신문은	-17118
▁한국수력원자력	-17119
▁한국자동차산업	-17120
▁현대중공업으로	-17121
▁산업통상자원부는	-17122
▁코오롱인더스트리	-17123
▁동대문디자인플라자	-17124
▁사회복지공동모금회에	-17125
▁중소벤처기업진흥공단은	-17126
!’	-17127
-1	-17128
2’	-17129
81	-17130
BU	-17131
CE	-17132
DM	-17133
FS	-17134
HR	-17135
IG	-17136
II	-17137
IM	-17138
PT	-17139
RI	-17140
VO	-17141
Wh	-17142
XP	-17143
ad	-17144
gy	-17145
ib	-17146
ip	-17147
ir	-17148
·3	-17149
·4	-17150
’”	-17151
▁:	-17152
▁l	-17153
▁▷	-17154
▁갓	-17155
▁괴	-17156
▁굿	-17157
▁꼴	-17158
▁꽉	-17159
▁낭	-17160
▁넷	-17161
▁닐	-17162
▁띈	-17163
▁띠	-17164
▁랍	-17165
▁랩	-17166
▁맑	-17167
▁빔	-17168
▁탕	-17169
▁펩	-17170
▁펭	-17171
▁흙	-17172
▁흠	-17173
가리	-17174
가인	-17175
각각	-17176
간식	-17177
갈비	-17178
감사	-17179
강원	-17180
개년	-17181
개별	-17182
개와	-17183
개점	-17184
갤러	-17185
건물	-17186
건조	-17187
겔은	-17188
경찰	-17189
경험	-17190
고루	-17191
공서	-17192
공시	-17193
공영	-17194
공인	-17195
관도	-17196
관춘	-17197
관행	-17198
괄도	-17199
광석	-17200
교실	-17201
구역	-17202
구체	-17203
권에	-17204
규정	-17205
균관	-17206
기아	-17207
기홍	-17208
김치	-17209
께서	-17210
꾸로	-17211
나기	-17212
나면	-17213
나비	-17214
남도	-17215
남호	-17216
납입	-17217
내부	-17218
냄새	-17219
네넴	-17220
년물	-17221
노소	-17222
노후	-17223
누스	-17224
뉴욕	-17225
닐라	-17226
다리	-17227
닥친	-17228
당이	-17229
당장	-17230
대고	-17231
대림	-17232
대복	-17233
대폰	-17234
덴셜	-17235
도나	-17236
도서	-17237
동과	-17238
동일	-17239
되게	-17240
두로	-17241
두주	-17242
디다	-17243
뛰드	-17244
라톤	-17245
랑이	-17246
래브	-17247
량한	-17248
러블	-17249
런트	-17250
레탄	-17251
로라	-17252
로워	-17253
루가	-17254
루를	-17255
루언	-17256
른김	-17257
리얼	-17258
리퐁	-17259
링턴	-17260
마리	-17261
만삭	-17262
매도	-17263
매매	-17264
매우	-17265
메디	-17266
면접	-17267
명당	-17268
모카	-17269
목적	-17270
무풍	-17271
미안	-17272
미역	-17273
미터	-17274
바의	-17275
바퀴	-17276
박람	-17277
반박	-17278
반짝	-17279
발표	-17280
배가	-17281
배기	-17282
배나	-17283
범한	-17284
법정	-17285
베르	-17286
베스	-17287
벽이	-17288
병을	-17289
보조	-17290
보지	-17291
본다	-17292
부자	-17293
부정	-17294
부하	-17295
분리	-17296
뷰를	-17297
브라	-17298
비싼	-17299
비준	-17300
산지	-17301
상업	-17302
생제	-17303
생태	-17304
서점	-17305
선다	-17306
선제	-17307
선진	-17308
설턴	-17309
성수	-17310
세스	-17311
세인	-17312
세전	-17313
셰일	-17314
소년	-17315
소문	-17316
소자	-17317
속에	-17318
손실	-17319
수한	-17320
스포	-17321
슬레	-17322
승재	-17323
시대	-17324
시머	-17325
시중	-17326
시행	-17327
신라	-17328
신발	-17329
실대	-17330
실무	-17331
실사	-17332
실험	-17333
쓸이	-17334
아빠	-17335
아침	-17336
안경	-17337
안주	-17338
야지	-17339
양과	-17340
어떤	-17341
어린	-17342
어치	-17343
억여	-17344
언젠	-17345
에로	-17346
엔터	-17347
여당	-17348
여력	-17349
여신	-17350
여야	-17351
여운	-17352
연령	-17353
연율	-17354
영양	-17355
영향	-17356
오이	-17357
오카	-17358
오프	-17359
오픈	-17360
외식	-17361
욕실	-17362
우기	-17363
원가	-17364
원더	-17365
월물	-17366
월이	-17367
위비	-17368
유리	-17369
유에	-17370
유증	-17371
유진	-17372
유해	-17373
으려	-17374
이로	-17375
이윤	-17376
인구	-17377
인생	-17378
인정	-17379
일감	-17380
일회	-17381
임시	-17382
잎을	-17383
자구	-17384
자나	-17385
장히	-17386
재생	-17387
전남	-17388
전년	-17389
전달	-17390
전무	-17391
전선	-17392
전인	-17393
점도	-17394
정우	-17395
제과	-17396
제이	-17397
젤리	-17398
조림	-17399
조회	-17400
주면	-17401
주방	-17402
주영	-17403
주지	-17404
주체	-17405
주한	-17406
주휴	-17407
즈니	-17408
증현	-17409
지던	-17410
지엄	-17411
지침	-17412
직업	-17413
진해	-17414
차관	-17415
창고	-17416
채용	-17417
천리	-17418
철도	-17419
청구	-17420
청장	-17421
청춘	-17422
체로	-17423
초에	-17424
카스	-17425
카와	-17426
캐너	-17427
커녕	-17428
컵을	-17429
코노	-17430
코인	-17431
코튼	-17432
크레	-17433
키는	-17434
킬러	-17435
태수	-17436
테일	-17437
텔라	-17438
통닭	-17439
트럭	-17440
트에	-17441
트유	-17442
트의	-17443
틀을	-17444
티아	-17445
티앤	-17446
팀장	-17447
파가	-17448
파격	-17449
패를	-17450
편을	-17451
폐합	-17452
포터	-17453
품은	-17454
풍력	-17455
플독	-17456
하니	-17457
하루	-17458
하성	-17459
항이	-17460
해튼	-17461
헌재	-17462
협업	-17463
협에	-17464
호봉	-17465
홍보	-17466
환율	-17467
환자	-17468
회담	-17469
회도	-17470
후보	-17471
휴업	-17472
흡수	-17473
히지	-17474
힐튼	-17475
(-8	-17476
(13	-17477
(36	-17478
(45	-17479
(49	-17480
(76	-17481
2%(	-17482
386	-17483
47%	-17484
BTS	-17485
CFO	-17486
CLI	-17487
EUV	-17488
FDI	-17489
FSC	-17490
KDB	-17491
KPM	-17492
PEA	-17493
SCI	-17494
TCR	-17495
UAE	-17496
WBC	-17497
WSJ	-17498
eal	-17499
hin	-17500
ign	-17501
new	-17502
pay	-17503
ppm	-17504
red	-17505
ver	-17506
~24	-17507
~25	-17508
~29	-17509
~64	-17510
~70	-17511
▁08	-17512
▁1+	-17513
▁91	-17514
▁CN	-17515
▁MD	-17516
▁OK	-17517
▁PD	-17518
▁RV	-17519
▁UV	-17520
▁VR	-17521
▁XM	-17522
▁to	-17523
▁‘5	-17524
▁‘7	-17525
▁가깝	-17526
▁가성	-17527
▁각기	-17528
▁각별	-17529
▁간격	-17530
▁간소	-17531
▁감정	-17532
▁갑질	-17533
▁강경	-17534
▁강사	-17535
▁개소	-17536
▁거대	-17537
▁거뒀	-17538
▁건수	-17539
▁걸리	-17540
▁걸어	-17541
▁견고	-17542
▁겹쳐	-17543
▁계단	-17544
▁계정	-17545
▁계통	-17546
▁고래	-17547
▁고른	-17548
▁고리	-17549
▁고무	-17550
▁고심	-17551
▁고액	-17552
▁고조	-17553
▁곳도	-17554
▁공룡	-17555
▁공원	-17556
▁공학	-17557
▁공헌	-17558
▁과연	-17559
▁구강	-17560
▁구인	-17561
▁구자	-17562
▁굴곡	-17563
▁궁극	-17564
▁그칠	-17565
▁근접	-17566
▁긁힘	-17567
▁기사	-17568
▁기아	-17569
▁기원	-17570
▁긴축	-17571
▁김범	-17572
▁김현	-17573
▁김홍	-17574
▁깎는	-17575
▁꼽을	-17576
▁끝내	-17577
▁끼고	-17578
▁나스	-17579
▁낙후	-17580
▁남발	-17581
▁남자	-17582
▁내각	-17583
▁내게	-17584
▁내면	-17585
▁냉방	-17586
▁넣는	-17587
▁노릇	-17588
▁녹아	-17589
▁놀라	-17590
▁농장	-17591
▁능동	-17592
▁늦어	-17593
▁다량	-17594
▁다름	-17595
▁다용	-17596
▁닦아	-17597
▁단과	-17598
▁달여	-17599
▁달해	-17600
▁닭을	-17601
▁담는	-17602
▁닿는	-17603
▁대답	-17604
▁대략	-17605
▁대행	-17606
▁도어	-17607
▁돌며	-17608
▁동네	-17609
▁동아	-17610
▁되레	-17611
▁되어	-17612
▁두꺼	-17613
▁듀오	-17614
▁드럼	-17615
▁들려	-17616
▁들지	-17617
▁땀이	-17618
▁때나	-17619
▁때다	-17620
▁뛰는	-17621
▁뜻의	-17622
▁뜻이	-17623
▁띈다	-17624
▁라스	-17625
▁리모	-17626
▁리콜	-17627
▁마을	-17628
▁마중	-17629
▁많을	-17630
▁말로	-17631
▁말에	-17632
▁맡길	-17633
▁매번	-17634
▁맥락	-17635
▁맺어	-17636
▁먹어	-17637
▁메카	-17638
▁메탈	-17639
▁멜론	-17640
▁몇몇	-17641
▁모나	-17642
▁무궁	-17643
▁무급	-17644
▁무림	-17645
▁무보	-17646
▁무브	-17647
▁묶여	-17648
▁물건	-17649
▁물과	-17650
▁미백	-17651
▁믹스	-17652
▁바삭	-17653
▁바지	-17654
▁박준	-17655
▁박찬	-17656
▁반사	-17657
▁반짝	-17658
▁반찬	-17659
▁반팔	-17660
▁발레	-17661
▁발렌	-17662
▁방산	-17663
▁방수	-17664
▁방치	-17665
▁배기	-17666
▁배려	-17667
▁배에	-17668
▁배율	-17669
▁배타	-17670
▁버는	-17671
▁벌금	-17672
▁법안	-17673
▁법을	-17674
▁벽지	-17675
▁병에	-17676
▁보게	-17677
▁볼륨	-17678
▁부대	-17679
▁부동	-17680
▁부르	-17681
▁부응	-17682
▁부임	-17683
▁부합	-17684
▁불매	-17685
▁불신	-17686
▁비관	-17687
▁비난	-17688
▁비리	-17689
▁비어	-17690
▁비축	-17691
▁비치	-17692
▁사막	-17693
▁사사	-17694
▁사흘	-17695
▁산실	-17696
▁산책	-17697
▁살리	-17698
▁삼광	-17699
▁삼정	-17700
▁상급	-17701
▁상륙	-17702
▁상반	-17703
▁상상	-17704
▁상세	-17705
▁상쇄	-17706
▁상판	-17707
▁상해	-17708
▁생겼	-17709
▁생필	-17710
▁샴푸	-17711
▁서명	-17712
▁선명	-17713
▁선배	-17714
▁선양	-17715
▁섹터	-17716
▁소고	-17717
▁소극	-17718
▁소량	-17719
▁소시	-17720
▁소홀	-17721
▁솔트	-17722
▁수년	-17723
▁수단	-17724
▁수량	-17725
▁수료	-17726
▁수사	-17727
▁수순	-17728
▁수신	-17729
▁수지	-17730
▁수직	-17731
▁수트	-17732
▁수혈	-17733
▁스낵	-17734
▁스며	-17735
▁스와	-17736
▁스카	-17737
▁스탬	-17738
▁스틸	-17739
▁승소	-17740
▁시력	-17741
▁시몬	-17742
▁시야	-17743
▁식약	-17744
▁신세	-17745
▁실린	-17746
▁실속	-17747
▁실정	-17748
▁싸움	-17749
▁쌀과	-17750
▁쓰면	-17751
▁씨를	-17752
▁아낀	-17753
▁아산	-17754
▁아크	-17755
▁아테	-17756
▁아홉	-17757
▁알뜰	-17758
▁앓고	-17759
▁암참	-17760
▁앞선	-17761
▁애를	-17762
▁액면	-17763
▁약정	-17764
▁양과	-17765
▁어긋	-17766
▁어두	-17767
▁어릴	-17768
▁어학	-17769
▁엔화	-17770
▁엘라	-17771
▁연주	-17772
▁열쇠	-17773
▁영원	-17774
▁예스	-17775
▁예타	-17776
▁옥죄	-17777
▁온수	-17778
▁올인	-17779
▁옮길	-17780
▁와서	-17781
▁울타	-17782
▁워킹	-17783
▁원을	-17784
▁원자	-17785
▁원재	-17786
▁위주	-17787
▁유래	-17788
▁유모	-17789
▁이견	-17790
▁이경	-17791
▁이공	-17792
▁이긴	-17793
▁이력	-17794
▁이송	-17795
▁이인	-17796
▁이체	-17797
▁이학	-17798
▁이화	-17799
▁일곱	-17800
▁일산	-17801
▁일일	-17802
▁입자	-17803
▁자가	-17804
▁자란	-17805
▁자만	-17806
▁자부	-17807
▁자식	-17808
▁자칫	-17809
▁작아	-17810
▁잠금	-17811
▁잠식	-17812
▁장년	-17813
▁장세	-17814
▁장식	-17815
▁잦은	-17816
▁재경	-17817
▁재원	-17818
▁재직	-17819
▁저는	-17820
▁저지	-17821
▁적고	-17822
▁전만	-17823
▁전소	-17824
▁전수	-17825
▁전진	-17826
▁전투	-17827
▁절세	-17828
▁점진	-17829
▁정우	-17830
▁정원	-17831
▁제이	-17832
▁제철	-17833
▁제형	-17834
▁조장	-17835
▁조화	-17836
▁존속	-17837
▁종결	-17838
▁종일	-17839
▁좌석	-17840
▁주된	-17841
▁주제	-17842
▁주중	-17843
▁중과	-17844
▁중립	-17845
▁즉석	-17846
▁지름	-17847
▁지불	-17848
▁지시	-17849
▁지인	-17850
▁지체	-17851
▁지퍼	-17852
▁지폐	-17853
▁질이	-17854
▁짐을	-17855
▁짓고	-17856
▁징역	-17857
▁차선	-17858
▁차승	-17859
▁착즙	-17860
▁창단	-17861
▁창작	-17862
▁챙길	-17863
▁처방	-17864
▁철폐	-17865
▁철회	-17866
▁첫째	-17867
▁청각	-17868
▁청계	-17869
▁청산	-17870
▁청취	-17871
▁초록	-17872
▁초밥	-17873
▁총력	-17874
▁최철	-17875
▁추월	-17876
▁추적	-17877
▁추징	-17878
▁축인	-17879
▁충무	-17880
▁취영	-17881
▁취할	-17882
▁취향	-17883
▁칠레	-17884
▁카피	-17885
▁칼라	-17886
▁커져	-17887
▁쿠페	-17888
▁타개	-17889
▁타는	-17890
▁타워	-17891
▁타지	-17892
▁탈출	-17893
▁탓이	-17894
▁토요	-17895
▁토털	-17896
▁톡식	-17897
▁통지	-17898
▁통행	-17899
▁투숙	-17900
▁투표	-17901
▁트래	-17902
▁트레	-17903
▁특례	-17904
▁팀이	-17905
▁파란	-17906
▁파문	-17907
▁판정	-17908
▁팔기	-17909
▁팔도	-17910
▁팔지	-17911
▁퍼스	-17912
▁퍼져	-17913
▁펼친	-17914
▁포드	-17915
▁포털	-17916
▁폭의	-17917
▁표기	-17918
▁표지	-17919
▁품절	-17920
▁풍미	-17921
▁플로	-17922
▁피드	-17923
▁피자	-17924
▁피지	-17925
▁피터	-17926
▁한미	-17927
▁한성	-17928
▁한승	-17929
▁한일	-17930
▁할지	-17931
▁함량	-17932
▁함정	-17933
▁항만	-17934
▁해보	-17935
▁햇차	-17936
▁했을	-17937
▁헌혈	-17938
▁헤드	-17939
▁형제	-17940
▁호가	-17941
▁호기	-17942
▁호전	-17943
▁호칭	-17944
▁혼합	-17945
▁홈택	-17946
▁화관	-17947
▁화보	-17948
▁화소	-17949
▁환기	-17950
▁환노	-17951
▁환불	-17952
▁환아	-17953
▁황사	-17954
▁황토	-17955
▁후에	-17956
▁훌륭	-17957
▁흥미	-17958
▁힐링	-17959
가고용	-17960
가르드	-17961
개월의	-17962
개혁특	-17963
거리다	-17964
거티브	-17965
경하는	-17966
계열사	-17967
고객을	-17968
공장에	-17969
공장의	-17970
과정을	-17971
관세를	-17972
구조가	-17973
군에서	-17974
그랜드	-17975
그러나	-17976
그리드	-17977
금액의	-17978
금액이	-17979
기능을	-17980
기본법	-17981
기정통	-17982
기존의	-17983
기준을	-17984
기획재	-17985
께서는	-17986
냈다는	-17987
네넴띤	-17988
년대생	-17989
념으로	-17990
노조가	-17991
노조의	-17992
놀이를	-17993
농심은	-17994
단순히	-17995
닭볶음	-17996
대였다	-17997
대표부	-17998
대학교	-17999
덜란드	-18000
도시에	-18001
드라이	-18002
드슨야	-18003
디저트	-18004
라이언	-18005
라파고	-18006
로드는	-18007
루언서	-18008
리너스	-18009
리미어	-18010
리스트	-18011
리에이	-18012
리지널	-18013
마끼다	-18014
마루는	-18015
마리를	-18016
마킷에	-18017
만큼은	-18018
맛우유	-18019
면에는	-18020
물산은	-18021
바네사	-18022
바람과	-18023
박스를	-18024
방식을	-18025
방에서	-18026
버리지	-18027
베이거	-18028
보드를	-18029
보상배	-18030
보이고	-18031
보험금	-18032
브로드	-18033
비빔밥	-18034
빙그레	-18035
빠르게	-18036
사업장	-18037
사이트	-18038
사하고	-18039
사항을	-18040
상여금	-18041
상품은	-18042
상황에	-18043
새롭게	-18044
생산은	-18045
선행상	-18046
섰다는	-18047
성실의	-18048
센터가	-18049
손보는	-18050
수익을	-18051
스러워	-18052
스와프	-18053
시간씩	-18054
시간은	-18055
시장과	-18056
신사업	-18057
신산업	-18058
실상부	-18059
실장이	-18060
아마존	-18061
아파트	-18062
안마의	-18063
았는데	-18064
액티브	-18065
야말로	-18066
어떻게	-18067
어지지	-18068
어피치	-18069
억원은	-18070
업금지	-18071
었으며	-18072
역에서	-18073
연금을	-18074
였다면	-18075
예금은	-18076
옵니다	-18077
와디즈	-18078
외국인	-18079
워지는	-18080
위에서	-18081
위였다	-18082
은행과	-18083
은행을	-18084
음식점	-18085
이다이	-18086
이면서	-18087
이버거	-18088
인건비	-18089
인들은	-18090
일까요	-18091
임블리	-18092
자금이	-18093
자산은	-18094
작지만	-18095
재해가	-18096
전선은	-18097
전시회	-18098
전에는	-18099
전에서	-18100
조달청	-18101
조양호	-18102
조정실	-18103
조직인	-18104
주거래	-18105
주에서	-18106
증권은	-18107
증후군	-18108
지금은	-18109
지수도	-18110
지표를	-18111
직영점	-18112
직원은	-18113
직원이	-18114
직장인	-18115
진코스	-18116
진흥원	-18117
질설비	-18118
천지인	-18119
청소기	-18120
출하고	-18121
층으로	-18122
치웠다	-18123
카지룩	-18124
카콜라	-18125
컬렉션	-18126
컬처웍	-18127
케이는	-18128
크라상	-18129
클렌징	-18130
탈레이	-18131
테이블	-18132
테크핀	-18133
파이낸	-18134
팩토리	-18135
퍼니싱	-18136
푸어스	-18137
품이다	-18138
플란트	-18139
플로러	-18140
피겔은	-18141
하이저	-18142
학위를	-18143
한국이	-18144
해하고	-18145
협약을	-18146
호기를	-18147
호텔은	-18148
화비닐	-18149
화해야	-18150
활력을	-18151
휴대폰	-18152
(3,7	-18153
...’	-18154
12%)	-18155
1500	-18156
18%)	-18157
20%)	-18158
2010	-18159
65%)	-18160
7500	-18161
KPMG	-18162
omer	-18163
~35%	-18164
~60%	-18165
~70%	-18166
~90%	-18167
▁117	-18168
▁142	-18169
▁145	-18170
▁148	-18171
▁20’	-18172
▁220	-18173
▁230	-18174
▁240	-18175
▁280	-18176
▁297	-18177
▁2~4	-18178
▁330	-18179
▁390	-18180
▁3~6	-18181
▁476	-18182
▁51%	-18183
▁5~6	-18184
▁66%	-18185
▁67%	-18186
▁73%	-18187
▁84%	-18188
▁86%	-18189
▁ADT	-18190
▁AIG	-18191
▁AMC	-18192
▁APD	-18193
▁BGF	-18194
▁CUV	-18195
▁EUV	-18196
▁GPU	-18197
▁IMM	-18198
▁JKL	-18199
▁KTX	-18200
▁NRC	-18201
▁RPA	-18202
▁WBC	-18203
▁가로막	-18204
▁가리지	-18205
▁가방에	-18206
▁가방은	-18207
▁가볍게	-18208
▁가볍고	-18209
▁가입국	-18210
▁가입해	-18211
▁가전을	-18212
▁가정에	-18213
▁가족을	-18214
▁가중될	-18215
▁가치로	-18216
▁각오를	-18217
▁각지의	-18218
▁강렬한	-18219
▁갖춰야	-18220
▁개념을	-18221
▁개발로	-18222
▁개발은	-18223
▁개인의	-18224
▁개장한	-18225
▁개점을	-18226
▁개척에	-18227
▁개척을	-18228
▁거느린	-18229
▁거리에	-18230
▁거세게	-18231
▁거슬러	-18232
▁거주자	-18233
▁걱정을	-18234
▁걸린다	-18235
▁것에서	-18236
▁결과는	-18237
▁결과에	-18238
▁결정적	-18239
▁경계를	-18240
▁경기부	-18241
▁경수로	-18242
▁경우는	-18243
▁경제계	-18244
▁경제도	-18245
▁경차의	-18246
▁계약도	-18247
▁고가의	-18248
▁고급차	-18249
▁고단열	-18250
▁고려할	-18251
▁고르게	-18252
▁고민은	-18253
▁고민이	-18254
▁고용량	-18255
▁고용원	-18256
▁골고루	-18257
▁공간은	-18258
▁공부방	-18259
▁공정이	-18260
▁공짜로	-18261
▁과거에	-18262
▁과일을	-18263
▁과제가	-18264
▁관세가	-18265
▁광고는	-18266
▁광고도	-18267
▁광고에	-18268
▁굉장히	-18269
▁교류를	-18270
▁교수진	-18271
▁교육부	-18272
▁교육생	-18273
▁구도가	-18274
▁국가가	-18275
▁국가에	-18276
▁국내로	-18277
▁국민을	-18278
▁권리가	-18279
▁권리를	-18280
▁규제와	-18281
▁그려진	-18282
▁그림을	-18283
▁그치지	-18284
▁급여를	-18285
▁기계류	-18286
▁기계식	-18287
▁기대와	-18288
▁기술적	-18289
▁기재돼	-18290
▁기조가	-18291
▁기조는	-18292
▁기조연	-18293
▁기준인	-18294
▁김광수	-18295
▁김대중	-18296
▁김동호	-18297
▁꿈꾸는	-18298
▁끝까지	-18299
▁나라는	-18300
▁나오자	-18301
▁낮다고	-18302
▁낮아진	-18303
▁내년에	-18304
▁내려갈	-18305
▁내리면	-18306
▁내부를	-18307
▁내용도	-18308
▁넉넉한	-18309
▁넓혔다	-18310
▁넘어설	-18311
▁넣으면	-18312
▁네모닉	-18313
▁노력한	-18314
▁노리는	-18315
▁노씨가	-18316
▁노조에	-18317
▁농가는	-18318
▁농기계	-18319
▁누군가	-18320
▁뉴스가	-18321
▁느낌의	-18322
▁능력과	-18323
▁닛산이	-18324
▁다변화	-18325
▁다보스	-18326
▁다양해	-18327
▁다졌다	-18328
▁단계인	-18329
▁단백질	-18330
▁단체가	-18331
▁달라질	-18332
▁달렸다	-18333
▁달리고	-18334
▁달리는	-18335
▁달했던	-18336
▁답변을	-18337
▁당사자	-18338
▁대가로	-18339
▁대국민	-18340
▁대도시	-18341
▁대리점	-18342
▁대응할	-18343
▁대중화	-18344
▁대책도	-18345
▁대출금	-18346
▁대출은	-18347
▁대화에	-18348
▁대회를	-18349
▁더케이	-18350
▁도소매	-18351
▁도수가	-18352
▁도시에	-18353
▁돌아가	-18354
▁돌아온	-18355
▁동원은	-18356
▁동유럽	-18357
▁동의를	-18358
▁되려면	-18359
▁되면서	-18360
▁된다고	-18361
▁두께를	-18362
▁두바이	-18363
▁드릴십	-18364
▁듣는다	-18365
▁들어야	-18366
▁들어와	-18367
▁등급인	-18368
▁등장해	-18369
▁떠났다	-18370
▁똑같이	-18371
▁뜯어고	-18372
▁뜻으로	-18373
▁라이선	-18374
▁란제리	-18375
▁렌털료	-18376
▁로그인	-18377
▁마련돼	-18378
▁마른김	-18379
▁마음껏	-18380
▁만나볼	-18381
▁많은데	-18382
▁말라는	-18383
▁말에는	-18384
▁맡기는	-18385
▁맡았던	-18386
▁매력적	-18387
▁매장도	-18388
▁매출액	-18389
▁맥주에	-18390
▁맨해튼	-18391
▁메뉴가	-18392
▁메뉴다	-18393
▁명확히	-18394
▁모델도	-18395
▁모델인	-18396
▁모양새	-18397
▁모은다	-18398
▁모터와	-18399
▁목적에	-18400
▁목적이	-18401
▁목표치	-18402
▁몰라도	-18403
▁몰랐다	-18404
▁몰렸다	-18405
▁무너질	-18406
▁무뇨스	-18407
▁묵직한	-18408
▁문구가	-18409
▁문성현	-18410
▁물었다	-18411
▁미국계	-18412
▁미만인	-18413
▁바닥에	-18414
▁박상현	-18415
▁반려동	-18416
▁반열에	-18417
▁반응은	-18418
▁발굴에	-18419
▁발생해	-18420
▁발언은	-18421
▁발의한	-18422
▁발전과	-18423
▁발행된	-18424
▁밤에는	-18425
▁밥맛을	-18426
▁배출해	-18427
▁백종원	-18428
▁법원은	-18429
▁법인의	-18430
▁변신을	-18431
▁보고를	-18432
▁보따리	-18433
▁보면서	-18434
▁보복이	-18435
▁보스턴	-18436
▁보이자	-18437
▁보청기	-18438
▁보험업	-18439
▁보험은	-18440
▁부과할	-18441
▁부담도	-18442
▁부리는	-18443
▁부문과	-18444
▁부문별	-18445
▁부분적	-18446
▁부산을	-18447
▁부진에	-18448
▁부처와	-18449
▁부처의	-18450
▁부피가	-18451
▁분리해	-18452
▁분야가	-18453
▁분통을	-18454
▁불안이	-18455
▁불어난	-18456
▁불편한	-18457
▁불황에	-18458
▁비금융	-18459
▁비례해	-18460
▁비상이	-18461
▁비정기	-18462
▁사건을	-18463
▁사계절	-18464
▁사고와	-18465
▁사람과	-18466
▁사료를	-18467
▁사명이	-18468
▁사실은	-18469
▁사용될	-18470
▁사운드	-18471
▁사회를	-18472
▁사흘간	-18473
▁살펴볼	-18474
▁삼천리	-18475
▁상권을	-18476
▁상생과	-18477
▁상승은	-18478
▁상태로	-18479
▁상품과	-18480
▁색다른	-18481
▁색상은	-18482
▁색상이	-18483
▁샌더스	-18484
▁생겨난	-18485
▁생산직	-18486
▁생산체	-18487
▁서버에	-18488
▁석태수	-18489
▁선도할	-18490
▁선박을	-18491
▁선언한	-18492
▁설계돼	-18493
▁설계해	-18494
▁성과는	-18495
▁성균관	-18496
▁성능이	-18497
▁세금은	-18498
▁세대가	-18499
▁세수가	-18500
▁세이프	-18501
▁세종시	-18502
▁소유한	-18503
▁소음이	-18504
▁소장은	-18505
▁소통할	-18506
▁속으로	-18507
▁수명이	-18508
▁수작업	-18509
▁수주한	-18510
▁수출품	-18511
▁수출할	-18512
▁수치는	-18513
[...]
