<unk>	0
<s>	0
</s>	0
▁기	-0
▁2	-1
▁1	-2
▁이	-3
으로	-4
▁전	-5
▁대	-6
▁지	-7
했다	-8
코로	-9
코로나	-10
▁있	-11
▁[	-12
에서	-13
▁수	-14
19	-15
▁주	-16
▁3	-17
▁사	-18
▁기자	-19
▁상	-20
▁한	-21
▁중	-22
▁가	-23
▁코로나	-24
▁신	-25
경제	-26
▁시	-27
▁최	-28
00	-29
▁등	-30
▁매	-31
▁있다	-32
▁'	-33
▁5	-34
▁공	-35
▁위	-36
▁제	-37
억원	-38
▁지난	-39
▁보	-40
▁‘	-41
▁국	-42
▁인	-43
▁4	-44
하는	-45
▁밝	-46
이다	-47
혔다	-48
▁오	-49
▁것	-50
▁정	-51
▁밝혔다	-52
▁서	-53
분기	-54
▁감	-55
▁연	-56
▁개	-57
하고	-58
▁유	-59
▁자	-60
▁29	-61
▁따	-62
▁거	-63
▁영	-64
한다	-65
투자	-66
▁나	-67
▁부	-68
▁현	-69
바이	-70
▁28	-71
▁27	-72
▁소	-73
금융	-74
▁6	-75
▁경	-76
▁올	-77
▁분	-78
데이	-79
▁선	-80
러스	-81
▁고	-82
▁확	-83
▁차	-84
▁모	-85
▁증	-86
▁미	-87
시아	-88
▁비	-89
▁일	-90
▁하	-91
▁아	-92
▁발	-93
▁실	-94
▁동	-95
▁조	-96
▁20	-97
바이러스	-98
19)	-99
▁최근	-100
▁관	-101
▁마	-102
투데이	-103
머니	-104
까지	-105
머니투데이	-106
이익	-107
염증	-108
▁순	-109
▁거래	-110
아시아	-111
▁통	-112
▁내	-113
르면	-114
▁구	-115
▁다	-116
▁매출	-117
▁한국	-118
아시아경제	-119
▁코로나바이러스	-120
▁것으로	-121
▁신종	-122
▁따르면	-123
▁대비	-124
부터	-125
기업	-126
▁기업	-127
했다고	-128
20	-129
▁영업	-130
▁상승	-131
▁국내	-132
▁종	-133
▁단	-134
▁투자	-135
▁금융	-136
▁있는	-137
▁외	-138
은행	-139
▁업	-140
▁서울	-141
▁올해	-142
됐다	-143
▁◆	-144
▁성	-145
▁7	-146
산업	-147
▁세	-148
▁진	-149
▁재	-150
면서	-151
▁8	-152
▁순매	-153
▁출	-154
삼성	-155
▁반	-156
▁여	-157
▁회	-158
▁차트	-159
▁해	-160
▁스	-161
▁위해	-162
▁기준	-163
▁분석	-164
000	-165
▁감염증	-166
▁강	-167
▁예	-168
▁-	-169
▁시장	-170
▁판	-171
▁만	-172
▁특	-173
▁기록	-174
▁증가	-175
▁"	-176
▁추	-177
▁우	-178
▁김	-179
▁9	-180
증권	-181
▁전년	-182
▁장	-183
▁지원	-184
▁계	-185
▁삼성	-186
▁규	-187
▁달	-188
▁방	-189
비스	-190
사진	-191
만원	-192
▁생	-193
국인	-194
한다고	-195
▁영업이익	-196
▁10	-197
▁원	-198
▁지난해	-199
▁그	-200
▁30	-201
%)	-202
▁감소	-203
▁늘	-204
▁사업	-205
▁어	-206
▁외국인	-207
▁결	-208
들이	-209
▁같	-210
▁코	-211
▁적	-212
▁높	-213
▁주가	-214
▁집	-215
랜드	-216
전자	-217
▁실적	-218
지만	-219
▁기간	-220
▁기관	-221
보다	-222
▁개인	-223
▁안	-224
시장	-225
▁미국	-226
▁공시	-227
▁당	-228
▁의	-229
▁같은	-230
된다	-231
럴드	-232
헤럴드	-233
헤럴드경제	-234
라인	-235
하기	-236
▁위한	-237
▁대한	-238
▁S	-239
▁판매	-240
▁및	-241
▁통해	-242
▁순매수	-243
▁프	-244
▁나타	-245
▁브	-246
▁사태	-247
▁도	-248
었다	-249
▁불	-250
▁경제	-251
▁규모	-252
▁정부	-253
▁급	-254
▁서비스	-255
▁종목	-256
▁현대	-257
▁단기	-258
▁받	-259
주를	-260
▁운	-261
억원으로	-262
▁이번	-263
▁K	-264
▁각	-265
사업	-266
▁0	-267
▁건	-268
▁현재	-269
▁무	-270
글로	-271
글로벌	-272
▁발표	-273
▁채	-274
▁포	-275
났다	-276
▁직	-277
▁이어	-278
▁줄	-279
▁L	-280
▁평	-281
▁전일	-282
▁맞	-283
▁브랜드	-284
▁출시	-285
▁돌	-286
▁경기	-287
▁본	-288
▁온	-289
▁전망	-290
▁글로벌	-291
▁총	-292
▁열	-293
▁이후	-294
이라	-295
▁전문	-296
▁더	-297
▁두	-298
▁확산	-299
▁진행	-300
적으로	-301
▁대표	-302
▁최대	-303
▁동기	-304
▁입	-305
카드	-306
▁청	-307
▁고객	-308
▁19	-309
▁소비	-310
적인	-311
들의	-312
롯데	-313
항공	-314
▁산업	-315
▁12	-316
▁배	-317
그룹	-318
▁제품	-319
▁역	-320
co	-321
▁문	-322
▁에	-323
▁나타났다	-324
▁활	-325
스트	-326
▁/	-327
▁제공	-328
▁화	-329
마트	-330
▁중소	-331
▁공시했다	-332
▁박	-333
▁매출액	-334
▁11	-335
▁대상	-336
▁취	-337
▁주요	-338
만주를	-339
▁삼성전자	-340
▁코스	-341
▁대해	-342
▁이상	-343
▁하락	-344
다고	-345
운데	-346
일부터	-347
동차	-348
▁때	-349
▁디	-350
▁체	-351
▁가운데	-352
▁수출	-353
▁P	-354
▁골	-355
억원을	-356
▁참	-357
지수	-358
▁연결	-359
▁양	-360
거래	-361
이고	-362
에도	-363
▁약	-364
▁온라인	-365
에게	-366
▁“	-367
▁알	-368
▁임	-369
▁C	-370
▁않	-371
▁교	-372
시간	-373
0)	-374
▁관련	-375
▁여파	-376
▁앞	-377
▁이날	-378
▁세계	-379
▁지역	-380
▁중국	-381
▁파	-382
대비	-383
▁확대	-384
▁리	-385
▁LG	-386
일까지	-387
▁물	-388
▁매매	-389
▁해외	-390
▁(	-391
▁성장	-392
에는	-393
▁등을	-394
세를	-395
다는	-396
▁호	-397
▁설	-398
▁초	-399
▁13	-400
▁가장	-401
▁롯데	-402
크로	-403
▁15	-404
조원	-405
센터	-406
▁노	-407
지원	-408
▁후	-409
▁오는	-410
▁저	-411
▁201	-412
니다	-413
▁상품	-414
회사	-415
감염증	-416
▁없	-417
지고	-418
▁늘어	-419
▁말	-420
라이	-421
▁들	-422
▁주체	-423
▁금	-424
▁충	-425
▁A	-426
▁변	-427
파트	-428
펀드	-429
▁협	-430
▁당기	-431
▁바	-432
▁새	-433
▁개발	-434
▁공급	-435
▁SK	-436
▁코로나바이러스감염증	-437
▁창	-438
(1	-439
▁과	-440
▁운영	-441
업계	-442
▁당기순	-443
위원	-444
▁카	-445
▁수요	-446
▁행	-447
▁보면	-448
%,	-449
▁필	-450
되는	-451
▁생산	-452
▁시작	-453
▁어려	-454
업체	-455
동산	-456
▁영향	-457
▁집계	-458
▁60	-459
▁프로	-460
▁지난달	-461
▁전국	-462
▁피	-463
▁할	-464
▁따른	-465
인트	-466
하며	-467
▁종목의	-468
만원으로	-469
(0	-470
▁모습	-471
▁플	-472
▁손	-473
▁돌파	-474
리아	-475
▁순매도	-476
▁연속	-477
▁완	-478
▁선정	-479
▁함	-480
▁뉴	-481
▁투자자	-482
▁당기순이익	-483
▁작	-484
개월	-485
레이	-486
▁각각	-487
▁오전	-488
건설	-489
배열	-490
벤처	-491
▁기준으로	-492
▁크	-493
▁중기	-494
동향	-495
되고	-496
▁기록했다	-497
5%	-498
▁여파로	-499
▁커	-500
▁기술	-501
3%	-502
기준	-503
주택	-504
▁경영	-505
▁상장	-506
▁식	-507
▁영업이익이	-508
▁목	-509
▁편	-510
▁메	-511
매수	-512
▁업계	-513
▁회사	-514
▁아파트	-515
▁2020	-516
들은	-517
회의	-518
▁신용	-519
▁16	-520
▁주식	-521
▁주체별	-522
본부	-523
▁가능	-524
▁들어	-525
▁집계됐다	-526
▁14	-527
▁한달	-528
▁넘	-529
▁속	-530
▁처	-531
▁환	-532
▁수준	-533
1%	-534
▁간	-535
▁24	-536
▁위기	-537
▁단기간	-538
▁결과	-539
▁예상	-540
▁골든	-541
가구	-542
그래	-543
스크	-544
했고	-545
현지	-546
▁가격	-547
25	-548
▁G	-549
케이	-550
보험	-551
제공	-552
크로스	-553
6%	-554
장이	-555
▁구매	-556
▁사태로	-557
▁I	-558
▁폭	-559
7%	-560
▁골든크로스	-561
on	-562
▁면	-563
사를	-564
하게	-565
▁다음	-566
▁부동산	-567
▁애	-568
달러	-569
쇼핑	-570
았다	-571
현지시간	-572
8%	-573
▁기대	-574
▁따라	-575
▁100	-576
▁농	-577
▁또	-578
▁아이	-579
▁담	-580
상공	-581
그래프	-582
2%	-583
▁우리	-584
30	-585
포인트	-586
▁미래	-587
▁발생	-588
자가	-589
▁함께	-590
▁매출액은	-591
▁코스피	-592
평선	-593
흐름	-594
▁이평선	-595
가격	-596
장은	-597
al	-598
약을	-599
50	-600
▁타	-601
하면서	-602
▁매매동향	-603
▁요	-604
금을	-605
사는	-606
▁참여	-607
▁고용	-608
뉴스	-609
부는	-610
▁본격	-611
▁추가	-612
▁자동차	-613
▁선보	-614
▁이용	-615
▁평균	-616
▁상황	-617
▁최고	-618
원에	-619
▁스마트	-620
▁겪	-621
위원회	-622
도체	-623
스템	-624
▁주택	-625
기관	-626
페이	-627
지는	-628
▁17	-629
▁오른	-630
▁항공	-631
▁전년동	-632
움을	-633
▁매물	-634
▁업체	-635
상공인	-636
▁주가가	-637
▁대상으로	-638
▁점	-639
▁정배열	-640
4%	-641
to	-642
비중	-643
▁만에	-644
력을	-645
▁국제	-646
▁다양	-647
(+	-648
▁채용	-649
▁살	-650
졌다	-651
▁전년동기	-652
▁중소기업	-653
자산	-654
▁거래비중	-655
▁업무	-656
▁보이고	-657
▁소상공인	-658
▁광	-659
▁유통	-660
▁증시	-661
9%	-662
▁B	-663
▁등의	-664
▁비중	-665
▁연구	-666
가를	-667
▁많	-668
▁형	-669
▁분양	-670
▁패	-671
기술	-672
▁이는	-673
세대	-674
위기	-675
▁때문	-676
▁증가한	-677
er	-678
개발	-679
정보	-680
케어	-681
▁창업	-682
▁체결	-683
▁다양한	-684
0%	-685
▁기존	-686
▁반면	-687
▁누	-688
▁사용	-689
▁하나	-690
▁긴	-691
▁못	-692
▁관심	-693
▁대량	-694
▁만들	-695
▁유지	-696
▁사진	-697
▁예정	-698
▁인한	-699
▁매물대	-700
리는	-701
▁대응	-702
바이오	-703
▁▲	-704
▁△	-705
가는	-706
▁강화	-707
▁절	-708
왔다	-709
카오	-710
▁두산	-711
벤처기업	-712
▁휴	-713
▁연결기준	-714
▁추진	-715
),	-716
▁E	-717
원은	-718
테크	-719
하면	-720
▁사회	-721
▁매출은	-722
▁정부가	-723
리고	-724
정부	-725
▁18	-726
▁26	-727
▁결정	-728
▁모두	-729
▁제조	-730
▁합	-731
장을	-732
▁보유	-733
▁근	-734
▁효	-735
비율	-736
▁있어	-737
▁특히	-738
▁규모의	-739
70	-740
▁신규	-741
관리	-742
세계	-743
▁필요	-744
▁어려움을	-745
▁오후	-746
▁한달을	-747
▁큰	-748
량이	-749
▁매수	-750
▁빠	-751
▁치	-752
랫폼	-753
▁명	-754
자를	-755
투자증권	-756
▁월	-757
에셋	-758
▁흐름	-759
이라는	-760
▁심	-761
▁준	-762
19(	-763
▁22	-764
▁전년동기대비	-765
▁컨	-766
▁인천	-767
▁지급	-768
▁하고	-769
▁기관은	-770
▁혜	-771
▁목표	-772
▁선물	-773
▁외국인이	-774
▁검	-775
백화	-776
벤트	-777
성이	-778
백화점	-779
이라고	-780
▁발표한	-781
▁권	-782
자는	-783
코리아	-784
▁당기순이익은	-785
(2	-786
▁계획	-787
▁긴급	-788
▁원유	-789
▁줄어	-790
▁차트에서	-791
▁영업이익은	-792
si	-793
▁홈	-794
성을	-795
이사	-796
치를	-797
▁대출	-798
▁우려	-799
▁은행	-800
▁했다	-801
▁이벤트	-802
스는	-803
연구	-804
▁1,	-805
▁부문	-806
▁전략	-807
▁크게	-808
▁감소한	-809
▁드	-810
▁높은	-811
▁마이	-812
사진제공	-813
▁첫	-814
▁계약	-815
▁전환	-816
▁발표했다	-817
기를	-818
▁법	-819
▁잠	-820
▁뉴욕	-821
▁지속	-822
에서는	-823
14	-824
대면	-825
지털	-826
서울	-827
자리	-828
▁열린	-829
▁지수	-830
▁평가	-831
자동차	-832
▁산	-833
▁티	-834
협회	-835
▁작년	-836
금리	-837
▁기획	-838
▁이동	-839
▁카카오	-840
▁극	-841
너스	-842
▁경쟁	-843
▁분야	-844
▁허	-845
였다	-846
통신	-847
▁자산	-848
서비스	-849
2020	-850
▁모습이다	-851
)’	-852
자인	-853
▁개선	-854
▁할인	-855
▁회복	-856
데이터	-857
▁200	-858
▁플랫폼	-859
▁서비스를	-860
▁기록했다고	-861
▁접	-862
▁황	-863
들을	-864
▁조사	-865
▁증권	-866
▁처음	-867
▁확인	-868
▁M	-869
대로	-870
지주	-871
▁가구	-872
▁이달	-873
하기로	-874
▁반도체	-875
CO	-876
▁데	-877
▁홍	-878
공사	-879
운용	-880
자원	-881
화를	-882
▁25	-883
▁강남	-884
▁장관	-885
되면서	-886
10	-887
▁신한	-888
▁늘어난	-889
ID	-890
▁보험	-891
▁소비자	-892
▁감소했다	-893
지를	-894
혁신	-895
▁국가	-896
▁인수	-897
com	-898
▁안정	-899
▁상승한	-900
▁비교	-901
▁수익	-902
▁전기	-903
▁최초	-904
▁로	-905
반기	-906
%),	-907
▁거리	-908
▁나선	-909
▁맞아	-910
▁시간	-911
▁일본	-912
15	-913
ae	-914
▁용	-915
주연	-916
뱅크	-917
▁04	-918
▁스타	-919
▁실적을	-920
인다	-921
일간	-922
▁관계	-923
▁것이다	-924
ER	-925
으며	-926
▁주목	-927
▁다음달	-928
12	-929
하지	-930
VID	-931
▁규제	-932
▁마련	-933
▁스마트폰	-934
▁활용	-935
▁있다는	-936
)'	-937
▁송	-938
▁KT	-939
▁높아	-940
▁마감	-941
▁혜택	-942
섰다	-943
▁가입	-944
▁교육	-945
ro	-946
▁N	-947
로운	-948
베이	-949
▁코스닥	-950
▁미래에셋	-951
kr	-952
공업	-953
제품	-954
침체	-955
한국	-956
회를	-957
▁내용	-958
▁중이다	-959
▁증가했다	-960
손실	-961
asi	-962
정의	-963
▁것이	-964
▁공공	-965
▁관리	-966
▁개인이	-967
COVID	-968
규모	-969
리지	-970
안을	-971
학교	-972
▁GS	-973
▁실시	-974
▁유가	-975
▁중소벤처기업	-976
40	-977
▁공개	-978
▁식품	-979
에서도	-980
▁D	-981
▁트	-982
바일	-983
▁발행	-984
▁프리	-985
했지만	-986
cokr	-987
▁오주연	-988
asiae	-989
(-	-990
라는	-991
업종	-992
위를	-993
▁모델	-994
▁업종	-995
asiaecokr	-996
▁남	-997
▁키	-998
▁공동	-999
▁면세	-1000
▁보고	-1001
▁생활	-1002
▁포함	-1003
▁토	-1004
그램	-1005
도록	-1006
▁23	-1007
▁기반	-1008
▁전체	-1009
▁충격	-1010
▁마스크	-1011
▁품	-1012
사가	-1013
이며	-1014
이트	-1015
(00	-1016
▁50	-1017
▁이민	-1018
▁거래일	-1019
너지	-1020
하다	-1021
▁적용	-1022
▁중앙	-1023
18	-1024
22	-1025
▁떨	-1026
▁수주	-1027
▁호텔	-1028
▁확보	-1029
▁낮	-1030
▁레	-1031
▁악	-1032
▁시행	-1033
▁형성	-1034
▁때문이다	-1035
▁외국인과	-1036
▁삼성전자는	-1037
▁향	-1038
세가	-1039
▁신청	-1040
▁특별	-1041
▁활성	-1042
은행은	-1043
-19)	-1044
▁차트의	-1045
▁민	-1046
계약	-1047
통상	-1048
▁KB	-1049
▁계열	-1050
▁방식	-1051
▁사람	-1052
거래소	-1053
▁사회적	-1054
78	-1055
▁뚫	-1056
▁투	-1057
화학	-1058
100	-1059
▁구성	-1060
▁떨어	-1061
▁하는	-1062
▁승	-1063
▁건설	-1064
▁위축	-1065
▁일부	-1066
▁장기	-1067
▁정책	-1068
습니다	-1069
통상자원	-1070
스코	-1071
페인	-1072
▁21	-1073
▁가는	-1074
▁높다	-1075
▁뚫고	-1076
▁자금	-1077
▁전용	-1078
▁종합	-1079
▁청년	-1080
▁뒤	-1081
식품	-1082
▁경우	-1083
▁적자	-1084
▁중심	-1085
▁채권	-1086
선까지	-1087
▁비중이	-1088
TI	-1089
▁H	-1090
들도	-1091
▁무역	-1092
▁유럽	-1093
▁인도	-1094
억원의	-1095
▁만들고	-1096
44	-1097
약품	-1098
의견	-1099
했던	-1100
▁국민	-1101
▁진단	-1102
대출	-1103
린이	-1104
상품	-1105
플러스	-1106
▁단기간에	-1107
유가	-1108
이는	-1109
전환	-1110
▁카드	-1111
▁편의	-1112
지수는	-1113
▁거래량	-1114
▁나왔다	-1115
경영	-1116
▁게	-1117
▁언	-1118
실적	-1119
▁건강	-1120
중공업	-1121
▁현대차	-1122
일선까지	-1123
▁골든크로스를	-1124
TN	-1125
별로	-1126
원이	-1127
▁나온	-1128
▁경기도	-1129
▁모바일	-1130
▁버	-1131
▁캠	-1132
▁테	-1133
명을	-1134
▁급감	-1135
▁모집	-1136
▁애플	-1137
▁이에	-1138
▁중단	-1139
▁디자인	-1140
45	-1141
프로	-1142
▁33	-1143
▁상태	-1144
▁정보	-1145
어지고	-1146
하겠	-1147
▁누적	-1148
48	-1149
▁윤	-1150
서는	-1151
▁겪고	-1152
▁늘었다	-1153
▁새로운	-1154
13	-1155
공개	-1156
공시	-1157
기자	-1158
대표	-1159
사의	-1160
▁일반	-1161
은행이	-1162
▁관심이	-1163
▁순매수했다	-1164
▁육	-1165
▁흑	-1166
기가	-1167
안전	-1168
액은	-1169
WTI	-1170
▁인해	-1171
65	-1172
ti	-1173
솔루	-1174
▁등에	-1175
▁등이	-1176
▁케이	-1177
▁시스템	-1178
▁전문가	-1179
▁힘	-1180
교통	-1181
▁극복	-1182
▁비상	-1183
▁조달	-1184
지면서	-1185
▁PER	-1186
▁업계에	-1187
▁줄어든	-1188
▁상승세를	-1189
▁영향으로	-1190
▁산업통상자원	-1191
▁날	-1192
▁캐	-1193
▁탄	-1194
갤럭	-1195
이나	-1196
쳤다	-1197
her	-1198
▁인터	-1199
▁전날	-1200
▁비대면	-1201
▁일자리	-1202
▁마이너스	-1203
28	-1204
▁독	-1205
▁블	-1206
감독	-1207
매도	-1208
성장	-1209
소득	-1210
지역	-1211
평가	-1212
▁40	-1213
▁다시	-1214
▁도입	-1215
▁세종	-1216
▁확진	-1217
an	-1218
▁삼	-1219
률이	-1220
제로	-1221
주식	-1222
▁구축	-1223
▁동안	-1224
▁알려	-1225
▁조성	-1226
▁펀드	-1227
▁혁신	-1228
▁캠페인	-1229
▁하지만	-1230
택트	-1231
▁이루	-1232
▁추세	-1233
갤럭시	-1234
사에서	-1235
29	-1236
▁네	-1237
▁폐	-1238
스가	-1239
으나	-1240
▁반영	-1241
▁쇼핑	-1242
증권은	-1243
rp	-1244
▁V	-1245
대책	-1246
200	-1247
▁부산	-1248
▁잠정	-1249
▁기관이	-1250
▁디지털	-1251
▁쿠	-1252
생활	-1253
서를	-1254
▁진행한다고	-1255
▁T	-1256
▁곳	-1257
년간	-1258
미엄	-1259
활동	-1260
ald	-1261
업계에	-1262
▁거래가	-1263
▁거리두	-1264
▁어린이	-1265
▁갖	-1266
두고	-1267
▁대형	-1268
▁청약	-1269
▁한편	-1270
▁해당	-1271
▁협력	-1272
▁대규모	-1273
▁상승세	-1274
herald	-1275
33	-1276
▁F	-1277
▁복	-1278
▁클	-1279
단지	-1280
▁매도	-1281
▁매장	-1282
▁현금	-1283
▁흐름은	-1284
원을	-1285
corp	-1286
▁프로그램	-1287
▁확산으로	-1288
▁증가했다고	-1289
heraldcorp	-1290
27	-1291
59	-1292
CC	-1293
기로	-1294
▁상향	-1295
▁우수	-1296
▁이루어지고	-1297
는다	-1298
산물	-1299
주는	-1300
항이	-1301
▁것은	-1302
▁완화	-1303
▁기획재	-1304
▁나온다	-1305
60	-1306
▁군	-1307
▁표	-1308
트업	-1309
환경	-1310
▁to	-1311
▁공장	-1312
▁대학	-1313
솔루션	-1314
입니다	-1315
지원금	-1316
DP	-1317
▁찾	-1318
▁성공	-1319
▁의료	-1320
▁침체	-1321
들에게	-1322
증권부	-1323
▁수요가	-1324
▁엔	-1325
리를	-1326
부가	-1327
신종	-1328
하이	-1329
▁다만	-1330
▁아니	-1331
▁역대	-1332
▁준비	-1333
월부터	-1334
▁나선다	-1335
▁서울시	-1336
▁선에서	-1337
▁앞두고	-1338
▁발생했다	-1339
▁막	-1340
▁태	-1341
잔량	-1342
▁국토	-1343
▁이사	-1344
▁환경	-1345
▁줄었다	-1346
자산운용	-1347
▁금융감독	-1348
68	-1349
SE	-1350
대우	-1351
리가	-1352
▁진출	-1353
▁집중	-1354
▁기업의	-1355
매수비율	-1356
▁2018	-1357
▁toto	-1358
▁체결했다고	-1359
24	-1360
▁=	-1361
▁몰	-1362
▁음	-1363
면적	-1364
▁됐다	-1365
▁500	-1366
▁가정의	-1367
▁개인의	-1368
▁업무협	-1369
▁순매수했고	-1370
▁totoro	-1371
BR	-1372
▁돕	-1373
동안	-1374
렸다	-1375
아이	-1376
이하	-1377
전문	-1378
판매	-1379
▁내놓	-1380
▁오프	-1381
▁재개	-1382
▁제외	-1383
금융그룹	-1384
▁바이러스	-1385
▁외국인은	-1386
23	-1387
▁백	-1388
등급	-1389
젝트	-1390
▁더욱	-1391
▁데이터	-1392
▁매출이	-1393
▁프리미엄	-1394
un	-1395
해야	-1396
▁개최	-1397
▁사상	-1398
▁적극	-1399
▁말했다	-1400
▁자회사	-1401
▁스타트업	-1402
▁앱	-1403
▁측	-1404
교육	-1405
널리	-1406
도시	-1407
방송	-1408
점을	-1409
진흥	-1410
텔레	-1411
▁사전	-1412
▁재무	-1413
▁취업	-1414
▁순이익	-1415
▁시장에	-1416
▁특이사	-1417
▁확인할	-1418
▁특이사항이	-1419
▁뛰	-1420
▁얼	-1421
▁기능	-1422
▁직접	-1423
▁흑자	-1424
회에서	-1425
▁정부의	-1426
▁종목에	-1427
▁개인들도	-1428
80	-1429
ar	-1430
▁축	-1431
테일	-1432
▁최종	-1433
▁통계	-1434
텔레콤	-1435
▁등으로	-1436
▁보인다	-1437
▁m	-1438
▁눈	-1439
기에	-1440
율이	-1441
제약	-1442
▁달러	-1443
▁열고	-1444
▁지하	-1445
▁직원	-1446
▁황금	-1447
▁대해서	-1448
▁비교해	-1449
▁있도록	-1450
▁2019	-1451
▁영업손실	-1452
in	-1453
▁번	-1454
▁석	-1455
량을	-1456
르게	-1457
스를	-1458
안정	-1459
율은	-1460
프라	-1461
▁반등	-1462
▁설명	-1463
▁악화	-1464
▁조정	-1465
tion	-1466
▁사업을	-1467
▁이민우	-1468
▁전망이다	-1469
heraldcorpcom	-1470
17	-1471
도가	-1472
명이	-1473
자이	-1474
재난	-1475
▁이같	-1476
▁이를	-1477
▁종가	-1478
▁회장	-1479
▁효과	-1480
업종은	-1481
투자자	-1482
▁혜택을	-1483
▁급락	-1484
▁인공	-1485
▁중인	-1486
▁애널리	-1487
▁지원을	-1488
▁중심으로	-1489
건축	-1490
도를	-1491
리츠	-1492
마켓	-1493
법인	-1494
시설	-1495
자금	-1496
▁개정	-1497
▁비해	-1498
▁안전	-1499
▁전월	-1500
▁PBR	-1501
▁규모로	-1502
세업종은	-1503
▁전문기업	-1504
▁기획재정부	-1505
69	-1506
▁베	-1507
▁울	-1508
동성	-1509
연휴	-1510
퍼런	-1511
▁NH	-1512
▁비롯	-1513
시스템	-1514
플레이	-1515
▁아시아	-1516
▁신용카드	-1517
73	-1518
▁북	-1519
▁잇	-1520
기는	-1521
대를	-1522
액이	-1523
지가	-1524
피스	-1525
핵심	-1526
▁된다	-1527
라이브	-1528
▁목표주	-1529
▁포스코	-1530
▁활성화	-1531
ation	-1532
49	-1533
AI	-1534
격탄	-1535
기간	-1536
부문	-1537
▁공식	-1538
▁달성	-1539
▁받은	-1540
▁지분	-1541
▁한다	-1542
분기에	-1543
5000	-1544
▁거래를	-1545
▁신제품	-1546
▁장기화	-1547
▁하반기	-1548
▁홈페이	-1549
▁것이라는	-1550
21	-1551
43	-1552
▁질	-1553
▁콘	-1554
라고	-1555
사인	-1556
스타	-1557
었고	-1558
케팅	-1559
▁31	-1560
▁가동	-1561
▁없는	-1562
▁에이	-1563
▁재고	-1564
▁최저	-1565
▁최근에	-1566
▁편의점	-1567
▁공시가격	-1568
▁금융위기	-1569
▁이평선이	-1570
▁거래비중은	-1571
▁걸	-1572
▁풀	-1573
시에	-1574
정책	-1575
키트	-1576
▁AI	-1577
▁많은	-1578
▁모든	-1579
▁문제	-1580
▁연휴	-1581
▁제출	-1582
▁상태로	-1583
▁최초로	-1584
▁투자의견	-1585
▁논	-1586
▁될	-1587
▁빅	-1588
▁착	-1589
▁항	-1590
청은	-1591
현대	-1592
▁35	-1593
▁만큼	-1594
▁수입	-1595
▁취득	-1596
▁피해	-1597
구하고	-1598
시장의	-1599
▁나섰다	-1600
▁인터넷	-1601
▁직격탄	-1602
시장에서	-1603
▁수준으로	-1604
▁삼성전자가	-1605
▁애널리스트	-1606
46	-1607
도로	-1608
헬스	-1609
▁결제	-1610
▁분기	-1611
▁오픈	-1612
▁주주	-1613
▁상품을	-1614
▁있다고	-1615
▁하락한	-1616
▁국토교통	-1617
▁대한항공	-1618
▁출시한다고	-1619
PO	-1620
만에	-1621
보면	-1622
음을	-1623
조선	-1624
지니	-1625
하여	-1626
▁소재	-1627
▁주관	-1628
▁Val	-1629
▁바이오	-1630
▁재건축	-1631
금융투자	-1632
▁정배열로	-1633
▁견	-1634
▁꾸	-1635
머스	-1636
사에	-1637
프트	-1638
▁돌아	-1639
▁수도	-1640
▁타격	-1641
대학교	-1642
▁그리고	-1643
▁영업익	-1644
▁전망이	-1645
▁잡	-1646
▁학	-1647
권을	-1648
냈다	-1649
서다	-1650
▁55	-1651
▁부진	-1652
▁자본	-1653
만원을	-1654
,000	-1655
▁본격화	-1656
▁지수는	-1657
대책본부	-1658
▁'2020	-1659
(3	-1660
le	-1661
▁별	-1662
▁씨	-1663
▁천	-1664
국민	-1665
생산	-1666
이노	-1667
지능	-1668
▁내달	-1669
▁대신	-1670
▁뛰어	-1671
▁변경	-1672
▁설립	-1673
▁여전	-1674
▁이뤄	-1675
▁인증	-1676
퍼런스	-1677
▁금융권	-1678
▁면세점	-1679
▁사태가	-1680
▁Valu	-1681
▁오프라인	-1682
▁산업통상자원부	-1683
11	-1684
63	-1685
▁돈	-1686
▁팔	-1687
료를	-1688
이드	-1689
▁70	-1690
▁겪는	-1691
▁관한	-1692
▁근로	-1693
▁급등	-1694
▁하루	-1695
▁회사채	-1696
▁계획이다	-1697
▁중소벤처기업부	-1698
)=	-1699
▁와	-1700
▁철	-1701
거나	-1702
나라	-1703
로드	-1704
장품	-1705
푸드	-1706
▁광고	-1707
▁구조	-1708
▁나오	-1709
▁대우	-1710
▁물론	-1711
▁반포	-1712
▁부담	-1713
▁서초	-1714
▁일정	-1715
▁전자	-1716
▁지정	-1717
▁통한	-1718
▁핵심	-1719
▁회의	-1720
리테일	-1721
▁투자자들의	-1722
84	-1723
▁U	-1724
량은	-1725
자로	-1726
▁앞서	-1727
▁제한	-1728
선으로	-1729
▁기대감	-1730
▁마쳤다	-1731
▁시장의	-1732
▁우려가	-1733
▁처음으로	-1734
51	-1735
▁격	-1736
▁덕	-1737
▁둔	-1738
▁벌	-1739
가전	-1740
들과	-1741
리티	-1742
홀딩	-1743
▁받아	-1744
▁배터	-1745
▁의견	-1746
▁정상	-1747
▁티몬	-1748
로부터	-1749
▁있지만	-1750
▁상장지수	-1751
▁시장에서	-1752
▁예정이다	-1753
▁직격탄을	-1754
▁감소했다고	-1755
▁머니투데이	-1756
'(	-1757
55	-1758
ed	-1759
▁라	-1760
▁친	-1761
공장	-1762
션을	-1763
시가	-1764
시는	-1765
170	-1766
▁[[	-1767
▁소득	-1768
▁자구	-1769
의약품	-1770
▁시장이	-1771
스플레이	-1772
▁선정됐다	-1773
▁진단키트	-1774
▁황금연휴	-1775
▁응	-1776
노동	-1777
대에	-1778
업을	-1779
처럼	-1780
▁급격	-1781
▁급증	-1782
▁단지	-1783
▁담은	-1784
▁임대	-1785
▁있게	-1786
건설은	-1787
▁기업개	-1788
▁백화점	-1789
▁1000	-1790
▁국제유가	-1791
▁운영하는	-1792
▁프로젝트	-1793
▁미래에셋대우	-1794
▁Valuation	-1795
90	-1796
TF	-1797
▁끌	-1798
▁되	-1799
▁받을	-1800
▁방송	-1801
▁일봉	-1802
▁출범	-1803
으로는	-1804
▁대표는	-1805
▁모습은	-1806
▁아니라	-1807
▁기업개요	-1808
▁불구하고	-1809
▁제공하는	-1810
▁순매도했다	-1811
',	-1812
EO	-1813
스의	-1814
어링	-1815
▁기사	-1816
▁넘어	-1817
▁받고	-1818
▁방문	-1819
▁상당	-1820
만달러	-1821
원으로	-1822
▁그동안	-1823
▁전기차	-1824
▁필요한	-1825
퍼런스콜	-1826
▁마감했다	-1827
MA	-1828
도는	-1829
보증	-1830
워크	-1831
확실	-1832
▁고려	-1833
▁매각	-1834
▁출발	-1835
조원을	-1836
커머스	-1837
▁정부는	-1838
▁코스피는	-1839
il	-1840
▁▷	-1841
▁밀	-1842
대상	-1843
데믹	-1844
률은	-1845
리에	-1846
수가	-1847
주주	-1848
지에	-1849
oon	-1850
▁내린	-1851
▁지표	-1852
건설이	-1853
한다는	-1854
▁불확실	-1855
▁화장품	-1856
▁긴급재난	-1857
▁방식으로	-1858
▁인공지능	-1859
▁진행한다	-1860
77	-1861
93	-1862
건을	-1863
구역	-1864
돌파	-1865
리스	-1866
모레	-1867
무역	-1868
일에	-1869
종목	-1870
평균	-1871
▁가전	-1872
▁각종	-1873
▁과정	-1874
▁변화	-1875
▁사이	-1876
▁수급	-1877
▁않은	-1878
▁입주	-1879
▁참석	-1880
▁폭락	-1881
었지만	-1882
▁마케팅	-1883
▁빠르게	-1884
▁역배열	-1885
▁제품을	-1886
헬스케어	-1887
▁관계자는	-1888
▁이벤트를	-1889
▁추세선으로	-1890
▁O	-1891
▁꼽	-1892
▁놓	-1893
계층	-1894
디오	-1895
만주	-1896
발표	-1897
연합	-1898
차를	-1899
600	-1900
▁CJ	-1901
▁거뒀	-1902
▁돕기	-1903
▁매입	-1904
▁상대	-1905
▁이미	-1906
▁이전	-1907
▁인기	-1908
▁전달	-1909
▁최소	-1910
▁솔루션	-1911
1)	-1912
▁▶	-1913
▁갈	-1914
기금	-1915
생명	-1916
선을	-1917
업자	-1918
조사	-1919
퍼시	-1920
회가	-1921
500	-1922
▁2,	-1923
▁것을	-1924
▁구간	-1925
▁나서	-1926
▁또한	-1927
▁수치	-1928
2000	-1929
▁WTI	-1930
▁것이란	-1931
▁아이폰	-1932
▁확산에	-1933
▁순매수를	-1934
▁‘2020	-1935
▁순매도했고	-1936
EX	-1937
SI	-1938
▁떠	-1939
▁팬	-1940
경기	-1941
기획	-1942
디어	-1943
이자	-1944
제를	-1945
종합	-1946
중앙	-1947
▁공모	-1948
▁변동	-1949
▁임직	-1950
▁통과	-1951
▁판단	-1952
▁가능한	-1953
▁기관도	-1954
▁에너지	-1955
▁이같이	-1956
▁이마트	-1957
▁거리두기	-1958
▁수주공시	-1959
▁실적발표	-1960
53	-1961
▁겸	-1962
▁좋	-1963
되며	-1964
▁대전	-1965
▁동반	-1966
▁사실	-1967
▁여행	-1968
▁차지	-1969
▁치료	-1970
▁패션	-1971
▁향후	-1972
퍼시픽	-1973
170@	-1974
▁메리츠	-1975
▁moon	-1976
▁상향돌파	-1977
▁두산중공업	-1978
47	-1979
▁볼	-1980
과학	-1981
년도	-1982
률을	-1983
매출	-1984
었던	-1985
지구	-1986
품을	-1987
호텔	-1988
▁39	-1989
▁80	-1990
▁99	-1991
▁가족	-1992
▁개별	-1993
▁살펴	-1994
▁승인	-1995
▁이유	-1996
▁있을	-1997
버리지	-1998
▁영향을	-1999
▁증시가	-2000
▁코리아	-2001
금융지주	-2002
▁출시했다고	-2003
▁현대자동차	-2004
▁머니투데이방송	-2005
LS	-2006
▁탑	-2007
부를	-2008
율을	-2009
▁67	-2010
▁간담	-2011
▁늘고	-2012
▁문화	-2013
▁방역	-2014
▁신동	-2015
▁위치	-2016
▁조선	-2017
▁조치	-2018
▁지방	-2019
▁쿠팡	-2020
▁한경	-2021
그룹이	-2022
이었다	-2023
▁20%	-2024
▁30%	-2025
▁가격이	-2026
▁계약을	-2027
▁고객을	-2028
▁선보인	-2029
▁신세계	-2030
▁실적이	-2031
▁아모레	-2032
31	-2033
or	-2034
▁책	-2035
먼트	-2036
물산	-2037
보고	-2038
원유	-2039
튜브	-2040
▁52	-2041
▁대부	-2042
▁문을	-2043
▁배달	-2044
▁성과	-2045
▁우선	-2046
▁운송	-2047
▁울산	-2048
▁이익	-2049
▁자동	-2050
▁주거	-2051
▁탄소	-2052
▁품목	-2053
▁활동	-2054
사이트	-2055
자들이	-2056
회의를	-2057
▁기사는	-2058
▁투자를	-2059
▁공공기관	-2060
▁업무협약을	-2061
BC	-2062
▁촉	-2063
▁콜	-2064
▁퍼	-2065
고용	-2066
구조	-2067
대한	-2068
뷰티	-2069
사스	-2070
상장	-2071
소비	-2072
엑스	-2073
▁49	-2074
▁공정	-2075
▁국회	-2076
▁도시	-2077
▁위험	-2078
▁잇따	-2079
▁조합	-2080
▁지적	-2081
▁통신	-2082
▁한정	-2083
원에서	-2084
텍사스	-2085
▁대기업	-2086
▁매수우	-2087
▁서초구	-2088
▁주가는	-2089
▁커지고	-2090
▁프로모	-2091
▁집계됐다고	-2092
▁한국거래소	-2093
ew	-2094
▁R	-2095
▁냉	-2096
▁먼	-2097
결제	-2098
드는	-2099
발전	-2100
수를	-2101
스터	-2102
식을	-2103
웨이	-2104
인터	-2105
자의	-2106
조정	-2107
협력	-2108
▁36	-2109
▁달을	-2110
▁맞춤	-2111
▁사장	-2112
▁손실	-2113
▁통합	-2114
▁화상	-2115
디지털	-2116
명으로	-2117
반도체	-2118
프로젠	-2119
▁늘어나	-2120
▁보고서	-2121
▁상반기	-2122
▁시장을	-2123
▁언택트	-2124
▁오피스	-2125
▁아모레퍼시픽	-2126
):	-2127
▁끝	-2128
▁암	-2129
▁액	-2130
리어	-2131
민국	-2132
분양	-2133
상을	-2134
소연	-2135
수익	-2136
신용	-2137
주년	-2138
텐츠	-2139
▁기초	-2140
▁노동	-2141
▁보도	-2142
▁중구	-2143
장에서	-2144
▁300	-2145
▁내용을	-2146
▁전일대비	-2147
(4	-2148
▁◇	-2149
▁먹	-2150
▁희	-2151
가고	-2152
계획	-2153
기능	-2154
니스	-2155
르고	-2156
리즈	-2157
부에	-2158
선물	-2159
원의	-2160
웨어	-2161
화된	-2162
▁그룹	-2163
▁맞은	-2164
▁운용	-2165
▁주문	-2166
▁현실	-2167
년까지	-2168
약계층	-2169
억달러	-2170
카드는	-2171
▁대부분	-2172
▁한달간	-2173
위원회는	-2174
▁연구원은	-2175
26	-2176
86	-2177
87	-2178
▁엘	-2179
가지	-2180
▁59	-2181
▁기아	-2182
▁라인	-2183
▁물류	-2184
▁민간	-2185
▁부품	-2186
▁석유	-2187
▁자체	-2188
▁재정	-2189
▁제기	-2190
은행과	-2191
▁10%	-2192
▁금융투자	-2193
▁지원하기	-2194
▁지원하는	-2195
LG	-2196
▁은	-2197
이어	-2198
총리	-2199
취재	-2200
타워	-2201
▁대구	-2202
▁또는	-2203
▁법인	-2204
▁상환	-2205
▁한진	-2206
라이프	-2207
부동산	-2208
실적을	-2209
▁계열사	-2210
▁미국의	-2211
▁증권사	-2212
▁친환경	-2213
▁2017	-2214
▁삼성물산	-2215
▁예상된다	-2216
▁출시했다	-2217
▁하락했다	-2218
▁홈페이지	-2219
▁컨퍼런스콜	-2220
(5	-2221
▁봄	-2222
공급	-2223
국이	-2224
네트	-2225
롭게	-2226
비를	-2227
제도	-2228
청이	-2229
테이	-2230
통령	-2231
파원	-2232
▁34	-2233
▁가까	-2234
▁건물	-2235
▁공적	-2236
▁절반	-2237
▁제작	-2238
▁행정	-2239
그룹은	-2240
남취재	-2241
억원에	-2242
▁배터리	-2243
▁유동성	-2244
남취재본부	-2245
16	-2246
▁웃	-2247
공단	-2248
됐던	-2249
사회	-2250
순위	-2251
시티	-2252
에스	-2253
연금	-2254
오일	-2255
월물	-2256
유행	-2257
창업	-2258
청장	-2259
치는	-2260
해양	-2261
▁IB	-2262
▁간편	-2263
▁공유	-2264
▁넘게	-2265
▁받는	-2266
▁불가	-2267
▁없이	-2268
▁중요	-2269
비대면	-2270
연구소	-2271
▁ETN	-2272
▁갤럭시	-2273
▁시리즈	-2274
▁여전히	-2275
▁자금을	-2276
▁회장이	-2277
▁유지했다	-2278
IC	-2279
SK	-2280
단체	-2281
방역	-2282
사이	-2283
수요	-2284
시스	-2285
십자	-2286
재단	-2287
트남	-2288
▁43	-2289
▁계좌	-2290
▁관세	-2291
▁기념	-2292
▁보다	-2293
▁비용	-2294
▁소형	-2295
▁얼어	-2296
▁역시	-2297
▁제시	-2298
▁투입	-2299
▁행사	-2300
▁힘입	-2301
베스트	-2302
브로드	-2303
업계가	-2304
홀딩스	-2305
2019	-2306
▁대통령	-2307
으로부터	-2308
▁레버리지	-2309
▁상황에서	-2310
▁이동통신	-2311
의약품안전	-2312
▁에이프로젠	-2313
~3	-2314
▁움	-2315
▁풍	-2316
내고	-2317
모델	-2318
정은	-2319
제한	-2320
종을	-2321
지난	-2322
트리	-2323
▁53	-2324
▁광주	-2325
▁금리	-2326
▁넘는	-2327
▁담당	-2328
▁등급	-2329
▁등록	-2330
▁요구	-2331
▁인턴	-2332
▁인하	-2333
으면서	-2334
포스트	-2335
했으나	-2336
▁기록한	-2337
▁대유행	-2338
▁받았다	-2339
▁알려져	-2340
▁제조업	-2341
▁특파원	-2342
▁한다는	-2343
▁힘입어	-2344
▁개인투자자	-2345
의약품안전처	-2346
67	-2347
IT	-2348
▁]	-2349
개를	-2350
남기	-2351
명의	-2352
유의	-2353
이기	-2354
일을	-2355
조합	-2356
트를	-2357
파크	-2358
하우	-2359
▁경험	-2360
▁근무	-2361
▁내수	-2362
▁대책	-2363
▁매년	-2364
▁벤처	-2365
▁상위	-2366
▁서부	-2367
▁협약	-2368
거래일	-2369
그룹의	-2370
에너지	-2371
프라이	-2372
했으며	-2373
▁120	-2374
▁더욱이	-2375
▁사태에	-2376
▁채권단	-2377
▁팬데믹	-2378
▁회장은	-2379
코리아는	-2380
▁비상경제	-2381
▁신용등급	-2382
▁전용면적	-2383
OD	-2384
▁J	-2385
기기	-2386
디아	-2387
반포	-2388
버스	-2389
IPO	-2390
▁TV	-2391
▁금액	-2392
▁낮은	-2393
▁다른	-2394
▁성적	-2395
▁연방	-2396
▁움직	-2397
▁의미	-2398
▁지식	-2399
▁케어	-2400
▁협업	-2401
▁회원	-2402
월까지	-2403
100,	-2404
▁관심을	-2405
▁등에서	-2406
▁보유한	-2407
▁수도권	-2408
▁위기를	-2409
▁인프라	-2410
▁전세계	-2411
▁거래량이	-2412
▁드라이브	-2413
▁매수우위	-2414
▁우리나라	-2415
▁체결했다	-2416
▁흑자전환	-2417
▁카카오뱅크	-2418
▁긴급재난지원금	-2419
58	-2420
’(	-2421
▁납	-2422
▁봉	-2423
▁야	-2424
▁잘	-2425
기사	-2426
분야	-2427
성과	-2428
시험	-2429
지상	-2430
포츠	-2431
합계	-2432
%)=	-2433
▁(※	-2434
▁검토	-2435
▁그러	-2436
▁독일	-2437
▁먼저	-2438
▁발전	-2439
▁보급	-2440
▁소식	-2441
▁소폭	-2442
▁연기	-2443
▁완료	-2444
▁중견	-2445
▁직장	-2446
▁취소	-2447
▁측은	-2448
▁탑재	-2449
▁허가	-2450
(%)=	-2451
6000	-2452
▁뉴욕증	-2453
▁동시에	-2454
▁임직원	-2455
▁장관이	-2456
매도비율	-2457
매수잔량	-2458
잔량합계	-2459
지니어링	-2460
하겠다는	-2461
*100,	-2462
▁거래량은	-2463
▁국내에서	-2464
▁살펴보면	-2465
▁상승했다	-2466
▁강세업종은	-2467
▁식품의약품안전처	-2468
ST	-2469
UV	-2470
en	-2471
▁워	-2472
▁잔	-2473
▁탓	-2474
갔다	-2475
개사	-2476
되지	-2477
렌드	-2478
력이	-2479
마이	-2480
임을	-2481
주의	-2482
(-0	-2483
▁38	-2484
▁대폭	-2485
▁많이	-2486
▁사모	-2487
▁않고	-2488
▁자리	-2489
▁전장	-2490
▁키움	-2491
▁합병	-2492
베이션	-2493
점으로	-2494
▁50%	-2495
▁IBK	-2496
▁국내외	-2497
▁맞춤형	-2498
▁수출입	-2499
▁위축된	-2500
▁포인트	-2501
▁2000	-2502
▁본격적인	-2503
▁기사입니다	-2504
39	-2505
▁<	-2506
▁머	-2507
국의	-2508
닷컴	-2509
복지	-2510
슬라	-2511
신문	-2512
첨단	-2513
프레	-2514
▁골프	-2515
▁내년	-2516
▁부족	-2517
▁시험	-2518
▁역할	-2519
▁영국	-2520
▁의결	-2521
▁종사	-2522
▁채널	-2523
▁현지	-2524
전자가	-2525
▁강남구	-2526
▁동종목	-2527
▁베트남	-2528
▁얼어붙	-2529
▁위기에	-2530
▁이번에	-2531
▁가능성이	-2532
▁루	-2533
계에	-2534
금은	-2535
라우	-2536
받고	-2537
사장	-2538
성에	-2539
세다	-2540
세로	-2541
안에	-2542
엔터	-2543
캐피	-2544
19’	-2545
▁58	-2546
▁84	-2547
▁CN	-2548
▁감염	-2549
▁농협	-2550
▁돌입	-2551
▁매일	-2552
▁생각	-2553
▁소개	-2554
▁예비	-2555
▁이런	-2556
▁주도	-2557
▁하이	-2558
▁한화	-2559
년부터	-2560
언택트	-2561
화학은	-2562
▁새롭게	-2563
▁수치다	-2564
▁타격을	-2565
조선해양	-2566
회의에서	-2567
▁100%	-2568
▁개별주택	-2569
▁기업들의	-2570
▁기업들이	-2571
▁대표이사	-2572
▁동기보다	-2573
▁선보인다	-2574
▁투자자는	-2575
▁거래비중이	-2576
99	-2577
AS	-2578
TV	-2579
▁길	-2580
▁쉽	-2581
▁쌍	-2582
는데	-2583
랐다	-2584
리트	-2585
사와	-2586
스와	-2587
어컨	-2588
영선	-2589
이스	-2590
이터	-2591
전지	-2592
하자	-2593
회는	-2594
20)	-2595
▁구입	-2596
▁기부	-2597
▁기흥	-2598
▁논의	-2599
▁선택	-2600
▁소송	-2601
▁외환	-2602
▁이하	-2603
▁입찰	-2604
▁장을	-2605
▁제도	-2606
▁제로	-2607
▁출자	-2608
▁풀이	-2609
▁개인은	-2610
▁급격히	-2611
▁분석이	-2612
▁불리는	-2613
▁앞으로	-2614
▁위치한	-2615
▁2008	-2616
▁기업공개	-2617
▁순이익은	-2618
▁풀이된다	-2619
엔지니어링	-2620
▁국제유가가	-2621
값이	-2622
고객	-2623
기구	-2624
농협	-2625
부와	-2626
사로	-2627
씨는	-2628
▁37	-2629
▁갖춘	-2630
▁단독	-2631
▁단일	-2632
▁사례	-2633
▁시민	-2634
▁양호	-2635
▁유진	-2636
▁음식	-2637
▁있고	-2638
▁주력	-2639
▁패키	-2640
▁확정	-2641
금액은	-2642
서울청	-2643
전자는	-2644
튜디오	-2645
하이닉	-2646
해보험	-2647
▁비롯해	-2648
▁쇼핑몰	-2649
▁어려운	-2650
▁적자를	-2651
▁제품은	-2652
▁한국의	-2653
프라이즈	-2654
▁수준이다	-2655
▁순매도한	-2656
▁어린이날	-2657
▁지원한다	-2658
▁확진자가	-2659
▁목표주가는	-2660
CB	-2661
DB	-2662
MC	-2663
re	-2664
▁Q	-2665
▁W	-2666
▁슈	-2667
▁탈	-2668
▁페	-2669
▁혼	-2670
감도	-2671
계를	-2672
구가	-2673
다운	-2674
대의	-2675
리바	-2676
용품	-2677
인력	-2678
임대	-2679
점수	-2680
주구	-2681
준비	-2682
▁당일	-2683
▁당초	-2684
▁배당	-2685
▁수는	-2686
▁실업	-2687
▁전경	-2688
▁플래	-2689
금융은	-2690
비사업	-2691
빌리티	-2692
은행의	-2693
▁경제가	-2694
▁고객이	-2695
▁분위기	-2696
▁사업은	-2697
▁삼성전	-2698
▁상황이	-2699
▁종목은	-2700
▁줄어들	-2701
▁폭으로	-2702
▁홍남기	-2703
▁확진자	-2704
유플러스	-2705
코리아가	-2706
텍사스산	-2707
▁금융권에	-2708
▁설명했다	-2709
▁시작했다	-2710
▁아시아나	-2711
▁취약계층	-2712
▁활성화를	-2713
이노베이션	-2714
▁디스플레이	-2715
▁실시한다고	-2716
▁정부서울청	-2717
▁한국은행이	-2718
61	-2719
64	-2720
▁된	-2721
▁둘	-2722
▁셀	-2723
▁쏠	-2724
▁즐	-2725
▁펼	-2726
감정	-2727
거리	-2728
금이	-2729
대가	-2730
린다	-2731
변화	-2732
유지	-2733
이상	-2734
주가	-2735
진다	-2736
체인	-2737
ETN	-2738
▁32	-2739
▁88	-2740
▁그는	-2741
▁동향	-2742
▁맞춰	-2743
▁방침	-2744
▁베이	-2745
▁설치	-2746
▁수혜	-2747
▁실물	-2748
▁없다	-2749
▁인력	-2750
▁자신	-2751
▁재택	-2752
▁저축	-2753
▁정기	-2754
▁초반	-2755
▁특허	-2756
▁허용	-2757
겠다는	-2758
라우드	-2759
센터는	-2760
시장이	-2761
이라며	-2762
했음을	-2763
흐름을	-2764
▁규모는	-2765
▁내용의	-2766
▁만들어	-2767
▁수출이	-2768
▁영향이	-2769
▁주가의	-2770
▁주체로	-2771
정보통신	-2772
NY	-2773
OU	-2774
▁넷	-2775
▁벗	-2776
▁핀	-2777
▁휘	-2778
건강	-2779
대학	-2780
분석	-2781
성은	-2782
수료	-2783
운드	-2784
융합	-2785
저가	-2786
차관	-2787
탄소	-2788
히려	-2789
▁가맹	-2790
▁감사	-2791
▁로봇	-2792
▁선방	-2793
▁시설	-2794
▁연장	-2795
▁올라	-2796
▁유치	-2797
▁이끌	-2798
▁일상	-2799
▁제약	-2800
▁차별	-2801
▁피부	-2802
▁한샘	-2803
▁해결	-2804
레이션	-2805
브랜드	-2806
연구원	-2807
우위를	-2808
지수가	-2809
▁규모가	-2810
▁달하는	-2811
▁박영선	-2812
▁오히려	-2813
▁이동우	-2814
▁장관은	-2815
▁차세대	-2816
▁트렌드	-2817
▁행사를	-2818
▁결정했다	-2819
▁공동주택	-2820
▁늘어났다	-2821
▁보도했다	-2822
▁사진제공	-2823
▁안정적인	-2824
▁오피스텔	-2825
투자증권은	-2826
▁참여했음을	-2827
▁호남취재본부	-2828
▁컨퍼런스콜에서	-2829
79	-2830
▁낙	-2831
▁낸	-2832
▁맺	-2833
▁싱	-2834
▁쓰	-2835
로보	-2836
센서	-2837
수기	-2838
수소	-2839
수출	-2840
아주	-2841
였던	-2842
왼쪽	-2843
용차	-2844
장의	-2845
재인	-2846
점에	-2847
제철	-2848
치고	-2849
프리	-2850
(10	-2851
▁65	-2852
▁기본	-2853
▁수가	-2854
▁신설	-2855
▁연계	-2856
▁예산	-2857
▁유망	-2858
▁유명	-2859
▁이른	-2860
▁이재	-2861
▁제주	-2862
▁주재	-2863
▁진정	-2864
▁축소	-2865
▁희망	-2866
롯데온	-2867
4000	-2868
▁150	-2869
▁나오고	-2870
▁늘었고	-2871
▁방안을	-2872
▁성장을	-2873
▁시작한	-2874
▁실적은	-2875
▁활용한	-2876
▁고객에게	-2877
▁기준금리	-2878
▁동종목의	-2879
▁빅데이터	-2880
▁한국감정	-2881
▁롯데백화점	-2882
▁매도우위를	-2883
)]	-2884
DA	-2885
PE	-2886
ac	-2887
▁색	-2888
▁압	-2889
▁캔	-2890
대는	-2891
렉트	-2892
마다	-2893
으면	-2894
전략	-2895
전을	-2896
중에	-2897
티브	-2898
협의	-2899
▁IT	-2900
▁경남	-2901
▁공간	-2902
▁단위	-2903
▁보건	-2904
▁상가	-2905
▁설계	-2906
▁손잡	-2907
▁수원	-2908
▁시세	-2909
▁안방	-2910
▁알파	-2911
▁육성	-2912
▁이들	-2913
▁자료	-2914
▁자율	-2915
▁재난	-2916
▁전남	-2917
▁정유	-2918
▁찾아	-2919
▁첨단	-2920
▁파트	-2921
개월간	-2922
네트웍	-2923
케이션	-2924
3000	-2925
▁그러나	-2926
▁농산물	-2927
▁때문에	-2928
▁원하는	-2929
▁이상의	-2930
▁잇따라	-2931
▁차트상	-2932
▁테슬라	-2933
▁포함한	-2934
▁대한민국	-2935
▁서비스업	-2936
▁유가증권	-2937
▁이어지는	-2938
▁종합점수	-2939
▁상승흐름을	-2940
▁선정됐다고	-2941
BA	-2942
DI	-2943
MM	-2944
▁렌	-2945
▁빌	-2946
가스	-2947
나고	-2948
이낸	-2949
인의	-2950
최근	-2951
효과	-2952
2%)	-2953
▁00	-2954
▁93	-2955
▁PD	-2956
▁le	-2957
▁개장	-2958
▁계속	-2959
▁국무	-2960
▁김지	-2961
▁동일	-2962
▁만든	-2963
▁백신	-2964
▁사우	-2965
▁완성	-2966
▁이탈	-2967
▁전세	-2968
▁전통	-2969
▁제휴	-2970
▁증정	-2971
▁최악	-2972
▁최적	-2973
▁판교	-2974
▁표시	-2975
▁하향	-2976
▁효율	-2977
소프트	-2978
점에서	-2979
하다는	-2980
7000	-2981
▁기업을	-2982
▁대표가	-2983
▁떨어진	-2984
▁보였다	-2985
▁않았다	-2986
▁고용노동	-2987
▁기록하고	-2988
▁속에서도	-2989
▁순매수한	-2990
▁조사됐다	-2991
▁아시아나항공	-2992
▁애널리스트는	-2993
35	-2994
36	-2995
98	-2996
ED	-2997
th	-2998
▁뜻	-2999
▁르	-3000
구를	-3001
독제	-3002
로는	-3003
리오	-3004
리핑	-3005
만명	-3006
메라	-3007
박스	-3008
사랑	-3009
상증	-3010
설팅	-3011
어나	-3012
예산	-3013
우리	-3014
중소	-3015
체결	-3016
퍼니	-3017
프앤	-3018
ETF	-3019
▁01	-3020
▁1%	-3021
▁3,	-3022
▁64	-3023
▁가치	-3024
▁경북	-3025
▁과학	-3026
▁교보	-3027
▁국산	-3028
▁김영	-3029
▁다소	-3030
▁배송	-3031
▁보장	-3032
▁부회	-3033
▁사무	-3034
▁세탁	-3035
▁수상	-3036
▁에스	-3037
▁외부	-3038
▁인재	-3039
▁자사	-3040
▁저렴	-3041
▁전면	-3042
▁점포	-3043
▁통화	-3044
▁한시	-3045
별로는	-3046
억원이	-3047
페이스	-3048
▁개정안	-3049
▁극복을	-3050
▁기업이	-3051
▁매출을	-3052
▁비중은	-3053
▁스포츠	-3054
▁유통업	-3055
▁중저가	-3056
▁출시한	-3057
▁파트너	-3058
▁현실화	-3059
지원금을	-3060
▁건강기능	-3061
▁경기침체	-3062
▁기간보다	-3063
▁기반으로	-3064
▁판매하는	-3065
▁약세업종은	-3066
▁한국거래소에	-3067
75	-3068
76	-3069
81	-3070
NK	-3071
▁겨	-3072
▁겹	-3073
▁꽃	-3074
▁빙	-3075
▁쇼	-3076
▁숙	-3077
데시	-3078
되면	-3079
미지	-3080
업무	-3081
와의	-3082
인당	-3083
인이	-3084
주로	-3085
코스	-3086
파워	-3087
yun	-3088
▁63	-3089
▁고급	-3090
▁공략	-3091
▁국면	-3092
▁기회	-3093
▁내놨	-3094
▁보여	-3095
▁보통	-3096
▁선제	-3097
▁소유	-3098
▁시범	-3099
▁시승	-3100
▁실제	-3101
▁않는	-3102
▁입점	-3103
▁절차	-3104
▁접수	-3105
▁참가	-3106
▁취임	-3107
▁특화	-3108
마스크	-3109
했다는	-3110
후변화	-3111
ODEX	-3112
▁CDP	-3113
▁개발한	-3114
▁공급망	-3115
▁급감한	-3116
▁비롯한	-3117
▁성적표	-3118
▁올해는	-3119
▁마이크로	-3120
▁분석의견	-3121
▁사모펀드	-3122
▁해외주식	-3123
▁모집한다고	-3124
▁정부서울청사에서	-3125
71	-3126
IB	-3127
▁얻	-3128
민영	-3129
스토	-3130
유율	-3131
윤모	-3132
인증	-3133
장고	-3134
주행	-3135
폭이	-3136
▁89	-3137
▁관광	-3138
▁꾸준	-3139
▁끌어	-3140
▁다우	-3141
▁메디	-3142
▁상담	-3143
▁송파	-3144
▁예약	-3145
▁전반	-3146
▁제안	-3147
▁채무	-3148
▁추천	-3149
▁통상	-3150
▁휴대	-3151
매출액	-3152
사회적	-3153
시장에	-3154
아파트	-3155
주년을	-3156
캐피탈	-3157
▁매출과	-3158
▁보급형	-3159
▁유상증	-3160
계약체결	-3161
▁구조조정	-3162
▁단일판매	-3163
▁업무협약	-3164
▁장기화로	-3165
▁한국경제	-3166
▁선보인다고	-3167
▁상장지수펀드	-3168
74	-3169
95	-3170
is	-3171
te	-3172
▁e	-3173
▁난	-3174
▁멈	-3175
▁빚	-3176
▁엄	-3177
공정	-3178
밸리	-3179
병원	-3180
불어	-3181
상이	-3182
세권	-3183
였고	-3184
의도	-3185
의료	-3186
일은	-3187
있는	-3188
장비	-3189
재된	-3190
전력	-3191
점은	-3192
정적	-3193
제는	-3194
제표	-3195
ews	-3196
▁41	-3197
▁45	-3198
▁54	-3199
▁90	-3200
▁92	-3201
▁가정	-3202
▁달리	-3203
▁당시	-3204
▁데다	-3205
▁모양	-3206
▁보증	-3207
▁복합	-3208
▁성북	-3209
▁어떤	-3210
▁오늘	-3211
▁입국	-3212
▁장중	-3213
▁주장	-3214
▁질병	-3215
▁차질	-3216
▁판로	-3217
노삼성	-3218
뉴스국	-3219
사들이	-3220
사업을	-3221
실에서	-3222
▁가까이	-3223
▁내놓은	-3224
▁무역수	-3225
▁손잡고	-3226
▁수수료	-3227
▁코엑스	-3228
▁활용해	-3229
브로드밴	-3230
서비스업	-3231
▁2016	-3232
▁거래되고	-3233
▁선보이는	-3234
▁시작으로	-3235
▁전망된다	-3236
▁중앙방역	-3237
▁판매량이	-3238
▁지난해보다	-3239
디지털뉴스국	-3240
▁건강기능식품	-3241
▁상장지수증권	-3242
▁중앙방역대책본부	-3243
88	-3244
94	-3245
DC	-3246
▁녹	-3247
▁딜	-3248
▁빨	-3249
▁뿐	-3250
결합	-3251
국내	-3252
깜짝	-3253
들에	-3254
렉스	-3255
미래	-3256
벨벳	-3257
비르	-3258
수는	-3259
신한	-3260
언스	-3261
연계	-3262
원장	-3263
월에	-3264
이즈	-3265
자와	-3266
제조	-3267
조건	-3268
조달	-3269
집단	-3270
컴퓨	-3271
테인	-3272
트는	-3273
ᆞ공급	-3274
▁51	-3275
▁강조	-3276
▁교통	-3277
▁반려	-3278
▁번째	-3279
▁서버	-3280
▁선도	-3281
▁선호	-3282
▁수소	-3283
▁신선	-3284
▁않아	-3285
▁연간	-3286
▁요금	-3287
▁이름	-3288
▁조직	-3289
▁증설	-3290
▁충전	-3291
▁프랑	-3292
증권의	-3293
해주는	-3294
▁실시간	-3295
▁콘텐츠	-3296
데시비르	-3297
위원회가	-3298
▁5000	-3299
▁가능하다	-3300
▁개인들은	-3301
▁거뒀다고	-3302
▁기간산업	-3303
▁상승하여	-3304
▁상장주식	-3305
▁예상보다	-3306
▁현대차는	-3307
매출액대비	-3308
▁결정했다고	-3309
ᆞ공급계약체결	-3310
▁단일판매ᆞ공급계약체결	-3311
▁넥	-3312
▁붙	-3313
▁씽	-3314
▁터	-3315
가가	-3316
개국	-3317
국제	-3318
대본	-3319
대형	-3320
되기	-3321
배송	-3322
상업	-3323
성도	-3324
수록	-3325
스루	-3326
업이	-3327
위안	-3328
유통	-3329
점검	-3330
(+0	-3331
300	-3332
CCP	-3333
▁5,	-3334
▁가계	-3335
▁관측	-3336
▁담보	-3337
▁리빙	-3338
▁명동	-3339
▁별도	-3340
▁보호	-3341
▁뷰티	-3342
▁상회	-3343
▁심각	-3344
▁없어	-3345
▁여신	-3346
▁이틀	-3347
▁일제	-3348
▁조기	-3349
▁최신	-3350
▁클럽	-3351
▁특례	-3352
▁특징	-3353
▁홍보	-3354
경영자	-3355
만원에	-3356
총생산	-3357
8000	-3358
▁분석한	-3359
▁상대로	-3360
▁저소득	-3361
▁적자로	-3362
▁추가로	-3363
▁판매를	-3364
▁핀테크	-3365
▁환율은	-3366
▁회사는	-3367
▁3000	-3368
▁것이라고	-3369
▁공개했다	-3370
▁과학기술	-3371
▁벤처기업	-3372
▁분석이다	-3373
▁신용평가	-3374
▁자구안을	-3375
▁제조업체	-3376
▁중견기업	-3377
▁국내총생산	-3378
▁달성했다고	-3379
▁국토교통부는	-3380
▁중앙대책본부	-3381
코로나바이러스	-3382
2,	-3383
ON	-3384
SJ	-3385
TE	-3386
UY	-3387
am	-3388
▁c	-3389
▁닫	-3390
▁답	-3391
▁락	-3392
▁맥	-3393
▁웹	-3394
과의	-3395
라스	-3396
름돈	-3397
분을	-3398
씨엘	-3399
안타	-3400
어스	-3401
자에	-3402
점이	-3403
주공	-3404
지로	-3405
케아	-3406
하려	-3407
해외	-3408
화폐	-3409
휘선	-3410
GDP	-3411
▁81	-3412
▁거쳐	-3413
▁과거	-3414
▁김유	-3415
▁둔화	-3416
▁물량	-3417
▁사들	-3418
▁상한	-3419
▁세부	-3420
▁스탠	-3421
▁시중	-3422
▁신고	-3423
▁아직	-3424
▁양성	-3425
▁예금	-3426
▁이내	-3427
▁있기	-3428
▁자녀	-3429
▁전북	-3430
구청장	-3431
세계적	-3432
스름돈	-3433
스마트	-3434
원이다	-3435
이미지	-3436
테리어	-3437
하거나	-3438
▁BNK	-3439
▁CEO	-3440
▁개발에	-3441
▁결과를	-3442
▁기아차	-3443
▁미국과	-3444
▁불가피	-3445
▁사업에	-3446
▁소비가	-3447
▁실시한	-3448
▁여의도	-3449
▁의약품	-3450
▁제출한	-3451
▁중국의	-3452
▁최소화	-3453
▁카메라	-3454
인사이트	-3455
하겠다고	-3456
▁2022	-3457
▁경제위기	-3458
▁기대된다	-3459
▁기후변화	-3460
▁생활가전	-3461
▁안방보험	-3462
▁이벤트는	-3463
▁지원사업	-3464
렘데시비르	-3465
▁본격적으로	-3466
▁상장주식수	-3467
▁소상공인을	-3468
62	-3469
▁러	-3470
▁빈	-3471
▁흡	-3472
가능	-3473
가치	-3474
겼다	-3475
경정	-3476
공항	-3477
구는	-3478
대전	-3479
리기	-3480
메이	-3481
방은	-3482
봤다	-3483
설계	-3484
세에	-3485
스바	-3486
시키	-3487
안보	-3488
어를	-3489
올해	-3490
유진	-3491
입금	-3492
채권	-3493
하던	-3494
합병	-3495
회계	-3496
60)	-3497
LCC	-3498
han	-3499
▁48	-3500
▁개요	-3501
▁구직	-3502
▁김도	-3503
▁네이	-3504
▁높음	-3505
▁단계	-3506
▁덕분	-3507
▁드러	-3508
▁라이	-3509
▁배럴	-3510
▁봉쇄	-3511
▁분쟁	-3512
▁성능	-3513
▁신속	-3514
▁예방	-3515
▁원격	-3516
▁이렇	-3517
▁인허	-3518
▁일대	-3519
▁정도	-3520
▁중점	-3521
▁집행	-3522
▁차량	-3523
▁착수	-3524
▁편입	-3525
네시아	-3526
시장을	-3527
하다고	-3528
1000	-3529
▁70%	-3530
▁게재된	-3531
▁내놨다	-3532
▁리스크	-3533
▁말까지	-3534
▁부총리	-3535
▁사장은	-3536
▁양호한	-3537
▁운영을	-3538
▁이른바	-3539
▁저금리	-3540
▁전분기	-3541
▁지난주	-3542
▁지원이	-3543
▁직장인	-3544
▁치료제	-3545
▁항공기	-3546
▁했다고	-3547
▁협약을	-3548
분기에는	-3549
손해보험	-3550
인베스트	-3551
▁기대감이	-3552
▁들어서는	-3553
▁모빌리티	-3554
▁보고서를	-3555
▁이어지고	-3556
▁이탈리아	-3557
▁있습니다	-3558
▁전날보다	-3559
▁코스피가	-3560
▁키움증권	-3561
▁한경로보	-3562
금융그룹은	-3563
▁금융감독원	-3564
▁돌파했다고	-3565
▁프로그램을	-3566
▁프로모션을	-3567
▁현대백화점	-3568
▁━	-3569
▁니	-3570
▁존	-3571
▁택	-3572
▁퇴	-3573
▁획	-3574
가량	-3575
과장	-3576
나노	-3577
라도	-3578
로에	-3579
리브	-3580
리한	-3581
릭터	-3582
보는	-3583
상환	-3584
신라	-3585
았던	-3586
에이	-3587
재무	-3588
전형	-3589
종철	-3590
패스	-3591
포트	-3592
114	-3593
CEO	-3594
▁02	-3595
▁1~	-3596
▁5%	-3597
▁가량	-3598
▁고민	-3599
▁뉴딜	-3600
▁두고	-3601
▁마켓	-3602
▁만나	-3603
▁맞이	-3604
▁바로	-3605
▁발굴	-3606
▁방법	-3607
▁방향	-3608
▁배우	-3609
▁부분	-3610
▁선언	-3611
▁아닌	-3612
▁안내	-3613
▁액화	-3614
▁여러	-3615
▁유일	-3616
▁이정	-3617
▁이행	-3618
▁정례	-3619
▁주방	-3620
▁주차	-3621
▁진입	-3622
▁창출	-3623
▁책임	-3624
▁항목	-3625
▁해소	-3626
▁휴업	-3627
계약을	-3628
상거래	-3629
스바겐	-3630
▁ELS	-3631
▁경영권	-3632
▁공시를	-3633
▁구성원	-3634
▁금융업	-3635
▁기능을	-3636
▁더불어	-3637
▁배럴당	-3638
▁사실상	-3639
▁업무를	-3640
▁역할을	-3641
▁이어질	-3642
▁일제히	-3643
▁전망을	-3644
▁종사자	-3645
▁주식을	-3646
▁진행한	-3647
▁캐릭터	-3648
▁판매가	-3649
사진기사	-3650
▁2009	-3651
▁2015	-3652
▁공급계약	-3653
▁돌파했다	-3654
▁르노삼성	-3655
▁본사에서	-3656
▁연구개발	-3657
▁인테리어	-3658
▁전장보다	-3659
▁전환했다	-3660
▁증가하고	-3661
▁진행하는	-3662
▁케이뱅크	-3663
▁투자은행	-3664
▁헬스케어	-3665
▁KODEX	-3666
▁단기적으로	-3667
▁삼성전자와	-3668
▁자본시장의	-3669
▁잠정실적을	-3670
▁미래에셋자산운용	-3671
32	-3672
72	-3673
89	-3674
FP	-3675
IS	-3676
PA	-3677
el	-3678
fn	-3679
ic	-3680
ol	-3681
▁값	-3682
▁앵	-3683
결과	-3684
대문	-3685
동에	-3686
미를	-3687
블록	-3688
수준	-3689
심리	-3690
앤락	-3691
에선	-3692
원과	-3693
월말	-3694
재산	-3695
전망	-3696
정을	-3697
주간	-3698
칠성	-3699
톡스	-3700
포레	-3701
00)	-3702
30)	-3703
70)	-3704
▁건전	-3705
▁내부	-3706
▁모아	-3707
▁바탕	-3708
▁부장	-3709
▁빠른	-3710
▁상무	-3711
▁소속	-3712
▁손소	-3713
▁원료	-3714
▁이슈	-3715
▁인근	-3716
▁자이	-3717
▁점검	-3718
▁주민	-3719
▁준공	-3720
▁체험	-3721
▁파생	-3722
▁필수	-3723
▁합격	-3724
▁회계	-3725
가이드	-3726
만원의	-3727
센터를	-3728
심리가	-3729
일자리	-3730
자이너	-3731
하겠다	-3732
ACCP	-3733
▁600	-3734
▁BUY	-3735
▁가격에	-3736
▁거래소	-3737
▁문재인	-3738
▁사업체	-3739
▁소프트	-3740
▁유안타	-3741
▁유튜브	-3742
▁의정부	-3743
▁조사한	-3744
▁충격이	-3745
▁확대를	-3746
관리본부	-3747
▁구간에서	-3748
▁매출액이	-3749
▁생산하는	-3750
▁선보였다	-3751
▁제공한다	-3752
▁주목받고	-3753
▁코스닥은	-3754
▁불확실성이	-3755
▁수주공시를	-3756
▁최고경영자	-3757
38	-3758
85	-3759
RE	-3760
es	-3761
ir	-3762
’,	-3763
▁글	-3764
▁느	-3765
▁닛	-3766
▁범	-3767
▁쌓	-3768
▁쏟	-3769
▁옥	-3770
감을	-3771
근무	-3772
르는	-3773
버그	-3774
벤츠	-3775
여행	-3776
음료	-3777
의를	-3778
인은	-3779
인을	-3780
장관	-3781
지며	-3782
회에	-3783
회와	-3784
225	-3785
▁62	-3786
▁DB	-3787
▁개학	-3788
▁교체	-3789
▁기조	-3790
▁김현	-3791
▁놓고	-3792
▁다이	-3793
▁달간	-3794
▁돈을	-3795
▁되는	-3796
▁막기	-3797
▁방사	-3798
▁방안	-3799
▁살균	-3800
▁상생	-3801
▁시가	-3802
▁아마	-3803
▁앞둔	-3804
▁용인	-3805
▁원금	-3806
▁유효	-3807
▁의류	-3808
▁임상	-3809
▁중순	-3810
▁지금	-3811
▁촉진	-3812
▁충족	-3813
▁카페	-3814
▁형태	-3815
▁화재	-3816
▁화학	-3817
▁활발	-3818
▁효성	-3819
산업이	-3820
었다고	-3821
일렉트	-3822
자에게	-3823
정부가	-3824
즈니스	-3825
홈쇼핑	-3826
9000	-3827
▁250	-3828
▁ETF	-3829
▁관련해	-3830
▁기관과	-3831
▁기관의	-3832
▁기록해	-3833
▁기술을	-3834
▁기업은	-3835
▁롯데온	-3836
▁못하고	-3837
▁문제가	-3838
▁상당의	-3839
▁선정된	-3840
▁성윤모	-3841
▁속에서	-3842
▁시간이	-3843
▁완성차	-3844
▁있으며	-3845
▁컨설팅	-3846
▁플래그	-3847
▁공정거래	-3848
▁금융지원	-3849
▁나타냈다	-3850
▁디자이너	-3851
▁떨어졌다	-3852
▁마련됐다	-3853
▁목표주가	-3854
▁상대방은	-3855
▁유통업체	-3856
▁지식산업	-3857
▁진행된다	-3858
▁추가경정	-3859
▁클라우드	-3860
디스플레이	-3861
▁거래비중을	-3862
▁인도네시아	-3863
▁금융감독원에	-3864
▁과학기술정보통신	-3865
TS	-3866
]]	-3867
▁≪	-3868
▁돼	-3869
▁멤	-3870
▁몸	-3871
▁싶	-3872
개미	-3873
국가	-3874
내셔	-3875
니티	-3876
대응	-3877
동구	-3878
만큼	-3879
물을	-3880
사용	-3881
수산	-3882
염병	-3883
오는	-3884
워드	-3885
준영	-3886
타임	-3887
통화	-3888
플릭	-3889
MOU	-3890
▁'1	-3891
▁76	-3892
▁79	-3893
▁가상	-3894
▁거의	-3895
▁꾸러	-3896
▁냈다	-3897
▁높이	-3898
▁둘러	-3899
▁북미	-3900
▁블룸	-3901
▁비슷	-3902
▁스루	-3903
▁앞당	-3904
▁연준	-3905
▁유예	-3906
▁유입	-3907
▁이래	-3908
▁주는	-3909
▁주와	-3910
▁중고	-3911
▁청구	-3912
▁추정	-3913
▁특수	-3914
▁혜안	-3915
가격은	-3916
겠다고	-3917
달러에	-3918
리면서	-3919
자들의	-3920
제약은	-3921
▁HDC	-3922
▁경영난	-3923
▁규모다	-3924
▁기업에	-3925
▁냉장고	-3926
▁모델로	-3927
▁모델을	-3928
▁박소연	-3929
▁선정을	-3930
▁에프앤	-3931
▁올랐다	-3932
▁월스트	-3933
▁인도분	-3934
▁임대료	-3935
▁주이다	-3936
▁지원에	-3937
▁채용을	-3938
▁휴대폰	-3939
분기부터	-3940
▁CNBC	-3941
▁경쟁력을	-3942
▁나타내고	-3943
▁대형마트	-3944
▁성공했다	-3945
▁연방준비	-3946
▁제품이다	-3947
▁투자자의	-3948
▁계약금액은	-3949
▁비교해보면	-3950
▁월스트리트	-3951
▁판매한다고	-3952
마켓인사이트	-3953
▁방송서비스업	-3954
▁하나금융투자	-3955
▁한경로보뉴스	-3956
"]	-3957
2)	-3958
97	-3959
AM	-3960
CE	-3961
FO	-3962
ay	-3963
it	-3964
ur	-3965
▁X	-3966
▁몇	-3967
▁억	-3968
▁컬	-3969
그니	-3970
길을	-3971
되어	-3972
로봇	-3973
메프	-3974
비용	-3975
사무	-3976
상식	-3977
앤드	-3978
월드	-3979
은모	-3980
자료	-3981
재희	-3982
저널	-3983
중국	-3984
촬영	-3985
층에	-3986
치로	-3987
텍은	-3988
팩토	-3989
폭을	-3990
할만	-3991
해진	-3992
1%)	-3993
1%,	-3994
19%	-3995
19'	-3996
WSJ	-3997
▁03	-3998
▁57	-3999
▁75	-4000
▁강원	-4001
▁개편	-4002
▁거주	-4003
▁건축	-4004
▁고양	-4005
▁구현	-4006
▁김용	-4007
▁낮아	-4008
▁도심	-4009
▁리츠	-4010
▁메이	-4011
▁면접	-4012
▁무기	-4013
▁발간	-4014
▁빠진	-4015
▁산하	-4016
▁상호	-4017
▁설비	-4018
▁안에	-4019
▁앵커	-4020
▁에쓰	-4021
▁월간	-4022
▁위탁	-4023
▁이기	-4024
▁이자	-4025
▁임시	-4026
▁정식	-4027
▁좋은	-4028
▁치열	-4029
▁해양	-4030
▁획득	-4031
기업의	-4032
이지만	-4033
인터넷	-4034
인프라	-4035
푸어스	-4036
▁280	-4037
▁let	-4038
▁계기로	-4039
▁고객은	-4040
▁구은모	-4041
▁권재희	-4042
▁규모를	-4043
▁미디어	-4044
▁발생한	-4045
▁보이며	-4046
▁상장사	-4047
▁수준을	-4048
▁시그니	-4049
▁어려움	-4050
▁운송업	-4051
▁은행권	-4052
▁전망치	-4053
▁정상화	-4054
▁증시는	-4055
▁최악의	-4056
▁컨센서	-4057
▁투자해	-4058
▁패키지	-4059
▁확산을	-4060
▁흐름을	-4061
리케이션	-4062
리테일은	-4063
인터내셔	-4064
임대주택	-4065
타워에서	-4066
테인먼트	-4067
▁2012	-4068
▁2014	-4069
▁기업으로	-4070
▁높아지고	-4071
▁대우건설	-4072
▁롯데쇼핑	-4073
▁롯데지주	-4074
▁모집한다	-4075
▁바탕으로	-4076
▁분석했다	-4077
▁블룸버그	-4078
▁알려졌다	-4079
▁에쓰오일	-4080
▁이어가고	-4081
▁지속가능	-4082
▁처음이다	-4083
▁최고치를	-4084
▁판매한다	-4085
▁프로모션	-4086
▁플래그십	-4087
▁'2019	-4088
▁HACCP	-4089
▁공시가격이	-4090
▁카카오페이	-4091
▁한시적으로	-4092
인베스트먼트	-4093
▁에프앤가이드	-4094
▁연방준비제도	-4095
▁질병관리본부	-4096
▁월스트리트저널	-4097
▁산업통상자원부는	-4098
96	-4099
NH	-4100
▁#	-4101
▁k	-4102
▁귀	-4103
▁끊	-4104
▁뜨	-4105
▁멀	-4106
가에	-4107
규제	-4108
금액	-4109
내는	-4110
년에	-4111
만개	-4112
메틱	-4113
비아	-4114
생을	-4115
섬유	-4116
신탁	-4117
영상	-4118
영업	-4119
웠다	-4120
위는	-4121
장과	-4122
전거	-4123
주당	-4124
주인	-4125
진단	-4126
클럽	-4127
포럼	-4128
힐스	-4129
(19	-4130
5%)	-4131
LED	-4132
▁4,	-4133
▁44	-4134
▁감안	-4135
▁남은	-4136
▁내려	-4137
▁노트	-4138
▁대거	-4139
▁대체	-4140
▁동참	-4141
▁면역	-4142
▁모으	-4143
▁무료	-4144
▁버핏	-4145
▁선행	-4146
▁설문	-4147
▁수석	-4148
▁시각	-4149
▁쏟아	-4150
▁아울	-4151
▁열어	-4152
▁오름	-4153
▁유로	-4154
▁인정	-4155
▁일환	-4156
▁접어	-4157
▁주변	-4158
▁주유	-4159
▁지배	-4160
▁직전	-4161
▁초기	-4162
▁파악	-4163
▁한도	-4164
곳에서	-4165
됐다고	-4166
상품권	-4167
업계의	-4168
중이다	-4169
컴퓨터	-4170
▁25%	-4171
▁SUV	-4172
▁거뒀다	-4173
▁결과다	-4174
▁구간에	-4175
▁그랜드	-4176
▁기회를	-4177
▁꾸준히	-4178
▁넷플릭	-4179
▁대출을	-4180
▁들어간	-4181
▁락앤락	-4182
▁받는다	-4183
▁사전예	-4184
▁수준의	-4185
▁신반포	-4186
▁쌍용차	-4187
▁업종에	-4188
▁움직임	-4189
▁의견을	-4190
▁이렇게	-4191
▁자동화	-4192
▁종목이	-4193
▁충격을	-4194
▁티몬이	-4195
▁파이낸	-4196
▁포함해	-4197
▁한정수	-4198
연구원은	-4199
자동차가	-4200
▁경제활동	-4201
▁고용유지	-4202
▁뉴욕상업	-4203
▁마스크를	-4204
▁유지하고	-4205
▁의료기기	-4206
▁이어왔다	-4207
▁전망했다	-4208
▁정보기술	-4209
▁제공하고	-4210
▁중앙은행	-4211
▁지급하는	-4212
▁캠페인을	-4213
▁판매하고	-4214
▁폭스바겐	-4215
금융그룹이	-4216
▁디자인기자	-4217
▁단기적으로는	-4218
▁당기순이익이	-4219
▁유진투자증권	-4220
▁추가경정예산	-4221
(6	-4222
-1	-4223
FT	-4224
km	-4225
zw	-4226
▁Z	-4227
▁깊	-4228
▁론	-4229
▁핫	-4230
가율	-4231
경쟁	-4232
구에	-4233
기계	-4234
다가	-4235
떻게	-4236
리며	-4237
마의	-4238
만의	-4239
문을	-4240
배당	-4241
번째	-4242
변동	-4243
사람	-4244
소를	-4245
어로	-4246
없이	-4247
연결	-4248
인지	-4249
자치	-4250
종민	-4251
지환	-4252
채석	-4253
체계	-4254
패턴	-4255
행정	-4256
황을	-4257
10)	-4258
▁78	-4259
▁LH	-4260
▁각국	-4261
▁강력	-4262
▁검찰	-4263
▁경신	-4264
▁고가	-4265
▁구체	-4266
▁금감	-4267
▁김은	-4268
▁끌고	-4269
▁나노	-4270
▁뉴스	-4271
▁동원	-4272
▁동월	-4273
▁론칭	-4274
▁리스	-4275
▁마지	-4276
▁멤버	-4277
▁못한	-4278
▁미니	-4279
▁바닥	-4280
▁보이	-4281
▁보인	-4282
▁불안	-4283
▁사내	-4284
▁생명	-4285
▁선발	-4286
▁신약	-4287
▁심화	-4288
▁씽크	-4289
▁않았	-4290
▁업황	-4291
▁유동	-4292
▁이로	-4293
▁있던	-4294
▁제일	-4295
▁조건	-4296
▁지상	-4297
▁캐시	-4298
▁탓에	-4299
▁태국	-4300
▁하기	-4301
▁한컴	-4302
▁현장	-4303
만명을	-4304
만원대	-4305
소비자	-4306
틸리티	-4307
▁13%	-4308
▁80%	-4309
▁MBA	-4310
▁가격을	-4311
▁결과에	-4312
▁경제의	-4313
▁공장을	-4314
▁관련된	-4315
▁김도윤	-4316
▁단지는	-4317
▁대응을	-4318
▁동대문	-4319
▁목표로	-4320
▁방지를	-4321
▁보유량	-4322
▁사업이	-4323
▁생산이	-4324
▁시장은	-4325
▁어려워	-4326
▁여파가	-4327
▁우수한	-4328
▁이기민	-4329
▁인기를	-4330
▁전략을	-4331
▁전략적	-4332
▁조사를	-4333
▁줄었고	-4334
▁추세상	-4335
▁티몬은	-4336
▁포스트	-4337
▁프랑스	-4338
▁피씨엘	-4339
▁한진주	-4340
▁행사는	-4341
미래에셋	-4342
삼성전자	-4343
일렉트릭	-4344
파워센터	-4345
퍼레이션	-4346
▁국민연금	-4347
▁기록하며	-4348
▁돌아섰다	-4349
▁스튜디오	-4350
▁시스템을	-4351
▁액화수소	-4352
▁위해서다	-4353
▁이날부터	-4354
▁자율주행	-4355
▁추진한다	-4356
▁하락세를	-4357
▁letzw	-4358
▁소상공인의	-4359
▁전문가들은	-4360
▁추진한다고	-4361
▁금융위원회는	-4362
▁지식산업센터	-4363
▁추세상으로는	-4364
▁한국조선해양	-4365
▁뉴욕상업거래소	-4366
GB	-4367
PI	-4368
im	-4369
▁b	-4370
▁s	-4371
▁괴	-4372
▁긍	-4373
▁맛	-4374
▁맡	-4375
▁익	-4376
▁즉	-4377
▁징	-4378
▁흔	-4379
개동	-4380
고를	-4381
골프	-4382
관광	-4383
구매	-4384
근당	-4385
더블	-4386
도어	-4387
리얼	-4388
명은	-4389
무리	-4390
세미	-4391
약처	-4392
양광	-4393
왕국	-4394
인데	-4395
인천	-4396
재현	-4397
존스	-4398
주신	-4399
지표	-4400
타운	-4401
태원	-4402
2%,	-4403
▁(5	-4404
▁56	-4405
▁61	-4406
▁82	-4407
▁85	-4408
▁[(	-4409
▁개시	-4410
▁견인	-4411
▁국채	-4412
▁김대	-4413
▁김철	-4414
▁꼽히	-4415
▁논란	-4416
▁눈에	-4417
▁다가	-4418
▁명품	-4419
▁벌어	-4420
▁부양	-4421
▁부채	-4422
▁성남	-4423
▁수행	-4424
▁신임	-4425
▁여수	-4426
▁위안	-4427
▁입사	-4428
▁자연	-4429
▁전해	-4430
▁종로	-4431
▁타임	-4432
▁파산	-4433
▁편성	-4434
▁폐쇄	-4435
▁품평	-4436
▁학생	-4437
▁향상	-4438
▁화물	-4439
▁화보	-4440
▁화훼	-4441
▁확장	-4442
가구로	-4443
공사는	-4444
지난해	-4445
진흥원	-4446
카드가	-4447
카카오	-4448
컴퍼니	-4449
협회에	-4450
힐스테	-4451
▁22%	-4452
▁경제적	-4453
▁구성된	-4454
▁기업인	-4455
▁대비해	-4456
▁대상은	-4457
▁러시아	-4458
▁마지막	-4459
▁문채석	-4460
▁벗어나	-4461
▁분양에	-4462
▁사례가	-4463
▁사업의	-4464
▁상품은	-4465
▁상하이	-4466
▁성장성	-4467
▁시가총	-4468
▁씽크풀	-4469
▁아마존	-4470
▁업계가	-4471
▁이민하	-4472
▁적자가	-4473
▁전시장	-4474
▁정보를	-4475
▁제외한	-4476
▁주요국	-4477
▁주주총	-4478
▁지적이	-4479
▁효과가	-4480
센터에서	-4481
전문금융	-4482
정보공개	-4483
정비사업	-4484
텔레콤은	-4485
티이미지	-4486
▁금융상품	-4487
▁다우존스	-4488
▁대응하기	-4489
▁롯데마트	-4490
▁방침이다	-4491
▁변동성이	-4492
▁산업활동	-4493
▁서비스가	-4494
▁시그니처	-4495
▁실물경제	-4496
▁온라인몰	-4497
▁요구하는	-4498
▁적자전환	-4499
▁주목된다	-4500
▁통계청이	-4501
▁한국무역	-4502
▁현대제철	-4503
브로드밴드	-4504
▁거래일보다	-4505
▁관계자들이	-4506
▁상대적으로	-4507
▁투자자들이	-4508
▁황금연휴를	-4509
▁순매도했지만	-4510
▁한국경제신문	-4511
▁한국투자증권	-4512
▁letzwin	-4513
▁신종코로나바이러스	-4514
=1	-4515
BS	-4516
CA	-4517
GS	-4518
NG	-4519
iv	-4520
op	-4521
▁띄	-4522
▁병	-4523
▁샤	-4524
▁죽	-4525
▁찍	-4526
▁폴	-4527
규직	-4528
기도	-4529
니퍼	-4530
됨에	-4531
러운	-4532
문숙	-4533
물질	-4534
보호	-4535
부산	-4536
부의	-4537
비가	-4538
상담	-4539
수의	-4540
우수	-4541
유입	-4542
일이	-4543
자유	-4544
제안	-4545
조한	-4546
채용	-4547
탱크	-4548
톡신	-4549
해서	-4550
4%)	-4551
40)	-4552
▁46	-4553
▁공기	-4554
▁교역	-4555
▁네오	-4556
▁네트	-4557
▁메뉴	-4558
▁박종	-4559
▁부처	-4560
▁비트	-4561
▁살아	-4562
▁수용	-4563
▁신축	-4564
▁악재	-4565
▁암호	-4566
▁약국	-4567
▁언제	-4568
▁얼마	-4569
▁연말	-4570
▁용산	-4571
▁육류	-4572
▁자유	-4573
▁적정	-4574
▁주말	-4575
▁통보	-4576
▁판결	-4577
녹십자	-4578
니퍼룸	-4579
배문숙	-4580
보다는	-4581
에어컨	-4582
울왕국	-4583
(1~3	-4584
▁1,9	-4585
▁26%	-4586
▁IPO	-4587
▁가격은	-4588
▁개발을	-4589
▁경기가	-4590
▁구매한	-4591
▁구매할	-4592
▁금융당	-4593
▁기록할	-4594
▁김영주	-4595
▁노트북	-4596
▁눈길을	-4597
▁매장을	-4598
▁물량이	-4599
▁비교적	-4600
▁사람이	-4601
▁사태를	-4602
▁사태의	-4603
▁세탁기	-4604
▁소식에	-4605
▁어떻게	-4606
▁이같은	-4607
▁인터뷰	-4608
▁인허가	-4609
▁있었다	-4610
▁자산이	-4611
▁전했다	-4612
▁점유율	-4613
▁조준영	-4614
▁집에서	-4615
▁효과를	-4616
리테일이	-4617
전문은행	-4618
프로젝트	-4619
(0059	-4620
▁2013	-4621
▁거래량의	-4622
▁과정에서	-4623
▁금융회사	-4624
▁매장에서	-4625
▁있어서다	-4626
▁저축은행	-4627
▁충격으로	-4628
▁행정안전	-4629
힐스테이트	-4630
▁공적마스크	-4631
▁국토교통부	-4632
▁중점적으로	-4633
▁투자의견은	-4634
▁현대중공업	-4635
엔터프라이즈	-4636
,9	-4637
PC	-4638
RO	-4639
ea	-4640
▁h	-4641
▁갑	-4642
▁꿈	-4643
▁던	-4644
▁쉐	-4645
▁앰	-4646
▁펫	-4647
감이	-4648
나는	-4649
나무	-4650
넥스	-4651
년대	-4652
더드	-4653
도에	-4654
되자	-4655
모터	-4656
무원	-4657
뱅킹	-4658
버이	-4659
변경	-4660
보니	-4661
부장	-4662
부지	-4663
분의	-4664
붕괴	-4665
사채	-4666
상의	-4667
수입	-4668
어가	-4669
장치	-4670
제이	-4671
지의	-4672
집자	-4673
통계	-4674
항을	-4675
해영	-4676
화의	-4677
효진	-4678
(20	-4679
Fed	-4680
SDI	-4681
▁47	-4682
▁66	-4683
▁GC	-4684
▁가중	-4685
▁가진	-4686
▁개척	-4687
▁검증	-4688
▁경상	-4689
▁골드	-4690
▁공고	-4691
▁국세	-4692
▁그렇	-4693
▁깜짝	-4694
▁노후	-4695
▁당첨	-4696
▁동결	-4697
▁되고	-4698
▁목적	-4699
▁바꾸	-4700
▁받았	-4701
▁상권	-4702
▁색상	-4703
▁선임	-4704
▁선전	-4705
▁속속	-4706
▁숙박	-4707
▁쉽게	-4708
▁스토	-4709
▁아동	-4710
▁알아	-4711
▁영상	-4712
▁유도	-4713
▁이승	-4714
▁일시	-4715
▁자카	-4716
▁장비	-4717
▁차이	-4718
▁철강	-4719
▁체크	-4720
▁커피	-4721
▁크림	-4722
▁타이	-4723
▁협의	-4724
▁후보	-4725
뉴시스	-4726
아이폰	-4727
업체인	-4728
차이즈	-4729
편집자	-4730
프리카	-4731
협회가	-4732
▁40%	-4733
▁MTN	-4734
▁가입자	-4735
▁경쟁력	-4736
▁고객의	-4737
▁국내에	-4738
▁권해영	-4739
▁기간에	-4740
▁김민영	-4741
▁김철현	-4742
▁나서고	-4743
▁네이버	-4744
▁닛케이	-4745
▁대상을	-4746
▁들어서	-4747
▁맞았다	-4748
▁모습을	-4749
▁분석을	-4750
▁분양을	-4751
▁비슷한	-4752
▁송파구	-4753
▁수산물	-4754
▁수익성	-4755
▁순손실	-4756
▁시대에	-4757
▁약세를	-4758
▁역량을	-4759
▁연휴를	-4760
▁이상을	-4761
▁장관과	-4762
▁절차를	-4763
▁정부와	-4764
▁제대로	-4765
▁조유진	-4766
▁진행된	-4767
▁최적화	-4768
▁퍼스트	-4769
▁한다고	-4770
▁항공사	-4771
▁확보에	-4772
하이닉스	-4773
▁4000	-4774
▁강조했다	-4775
▁금융지주	-4776
▁기술개발	-4777
▁네트워크	-4778
▁무역안보	-4779
▁서비스다	-4780
▁손소독제	-4781
▁수익률이	-4782
▁스탠더드	-4783
▁아이디어	-4784
▁영업익은	-4785
▁오름세를	-4786
▁이어갔다	-4787
▁이커머스	-4788
▁일환으로	-4789
▁적극적인	-4790
▁전거래일	-4791
▁주목할만	-4792
▁줄었지만	-4793
▁최대주주	-4794
▁파생결합	-4795
▁파이낸셜	-4796
▁홈플러스	-4797
▁확대하고	-4798
증권거래소	-4799
▁두산그룹이	-4800
▁시작한다고	-4801
▁영업손실이	-4802
▁전자상거래	-4803
▁서부텍사스산	-4804
▁현대일렉트릭	-4805
▁중소벤처기업부는	-4806
37	-4807
PS	-4808
as	-4809
de	-4810
ml	-4811
us	-4812
▁까	-4813
▁넓	-4814
▁넣	-4815
▁능	-4816
▁졸	-4817
가동	-4818
걱정	-4819
겠다	-4820
경원	-4821
계현	-4822
고가	-4823
곳이	-4824
공간	-4825
관련	-4826
국은	-4827
국장	-4828
년여	-4829
두산	-4830
라젠	-4831
모리	-4832
박준	-4833
밖에	-4834
받을	-4835
비고	-4836
수당	-4837
스티	-4838
약국	-4839
어는	-4840
위에	-4841
유니	-4842
이프	-4843
인공	-4844
장려	-4845
졌던	-4846
진행	-4847
췄다	-4848
치킨	-4849
캄보	-4850
트로	-4851
플래	-4852
하락	-4853
해온	-4854
했기	-4855
혜윤	-4856
황금	-4857
(15	-4858
9%,	-4859
CDP	-4860
MEX	-4861
PEC	-4862
the	-4863
▁42	-4864
▁73	-4865
▁86	-4866
▁가속	-4867
▁가지	-4868
▁거듭	-4869
▁고성	-4870
▁공인	-4871
▁기하	-4872
▁내다	-4873
▁떠오	-4874
▁마트	-4875
▁만기	-4876
▁무선	-4877
▁받게	-4878
▁붕괴	-4879
▁블랙	-4880
▁속에	-4881
▁씨젠	-4882
▁아웃	-4883
▁않을	-4884
▁연체	-4885
▁외신	-4886
▁외출	-4887
▁요청	-4888
▁웃돌	-4889
▁인식	-4890
▁입은	-4891
▁자격	-4892
▁작성	-4893
▁장애	-4894
▁전시	-4895
▁정리	-4896
▁정순	-4897
▁지나	-4898
▁처분	-4899
▁추경	-4900
▁특정	-4901
▁프랜	-4902
▁함안	-4903
▁행복	-4904
가격이	-4905
고가를	-4906
년만에	-4907
료전지	-4908
셧다운	-4909
여명이	-4910
올리브	-4911
의약국	-4912
증가율	-4913
테크노	-4914
학개미	-4915
합니다	-4916
화학이	-4917
▁1~2	-4918
▁계획을	-4919
▁기념해	-4920
▁기존의	-4921
▁뛰어넘	-4922
▁못하는	-4923
▁사장이	-4924
▁설립된	-4925
▁소송을	-4926
▁심재현	-4927
▁애플이	-4928
▁업종이	-4929
▁에어컨	-4930
▁자금이	-4931
▁전염병	-4932
▁정혜윤	-4933
▁종가를	-4934
▁종근당	-4935
▁중고차	-4936
▁지역의	-4937
▁최고의	-4938
▁침체된	-4939
▁판매할	-4940
▁평가를	-4941
▁피해를	-4942
▁확산이	-4943
과학기술	-4944
나노튜브	-4945
산업개발	-4946
아주경제	-4947
자치단체	-4948
캄보디아	-4949
NYMEX	-4950
▁감소했고	-4951
▁거래일을	-4952
▁관세청은	-4953
▁넷플릭스	-4954
▁뉴욕증시	-4955
▁데이터를	-4956
▁동기대비	-4957
▁상황이다	-4958
▁순이익이	-4959
▁시작한다	-4960
▁신선식품	-4961
▁전국에서	-4962
▁전년대비	-4963
▁제품으로	-4964
▁지역에서	-4965
▁지원하고	-4966
▁투자하는	-4967
▁특징이다	-4968
▁한국전력	-4969
앤드푸어스	-4970
주신고가를	-4971
▁롯데홀딩스	-4972
▁삼성전자의	-4973
▁어린이날을	-4974
▁엘타워에서	-4975
▁중소기업을	-4976
▁매출액증가율	-4977
▁신한금융투자	-4978
▁주목할만하다	-4979
▁뉴욕증권거래소	-4980
▁카카오엔터프라이즈	-4981
▁단일판매ᆞ공급계약체결을	-4982
ch	-4983
ne	-4984
oo	-4985
~4	-4986
▁美	-4987
▁런	-4988
▁릴	-4989
▁링	-4990
▁숨	-4991
▁슬	-4992
▁캡	-4993
▁켜	-4994
▁큐	-4995
▁푸	-4996
▁헌	-4997
강남	-4998
개의	-4999
경희	-5000
균형	-5001
급여	-5002
니아	-5003
달아	-5004
담당	-5005
미국	-5006
부품	-5007
소재	-5008
수원	-5009
스키	-5010
슬기	-5011
심사	-5012
아가	-5013
역시	-5014
요일	-5015
우고	-5016
위험	-5017
이란	-5018
이치	-5019
점의	-5020
중인	-5021
즈는	-5022
진대	-5023
차량	-5024
착한	-5025
챌린	-5026
함에	-5027
화에	-5028
FDA	-5029
act	-5030
ing	-5031
▁-0	-5032
▁05	-5033
▁87	-5034
▁JB	-5035
▁KC	-5036
▁가시	-5037
▁검사	-5038
▁결혼	-5039
▁고령	-5040
▁관내	-5041
▁괴리	-5042
▁구글	-5043
▁구미	-5044
▁그간	-5045
▁누구	-5046
▁도내	-5047
▁도안	-5048
▁동아	-5049
▁라임	-5050
▁메르	-5051
▁무상	-5052
▁무인	-5053
▁미세	-5054
▁복지	-5055
▁상업	-5056
▁실무	-5057
▁언론	-5058
▁예측	-5059
▁외국	-5060
▁외식	-5061
▁의무	-5062
▁의사	-5063
▁일주	-5064
▁재배	-5065
▁적발	-5066
▁절감	-5067
▁청와	-5068
▁초과	-5069
▁총선	-5070
▁충북	-5071
▁커뮤	-5072
▁타입	-5073
▁택배	-5074
▁포장	-5075
▁품질	-5076
▁하늘	-5077
▁할부	-5078
기관인	-5079
더라도	-5080
됐지만	-5081
마의자	-5082
버이날	-5083
센티브	-5084
스타일	-5085
자들은	-5086
플랫폼	-5087
하였다	-5088
hank	-5089
▁130	-5090
▁15%	-5091
▁90%	-5092
▁강세를	-5093
▁강화에	-5094
▁경쟁이	-5095
▁그쳤다	-5096
▁근로자	-5097
▁기업과	-5098
▁김용범	-5099
▁내에서	-5100
▁대주주	-5101
▁뛰어난	-5102
▁마무리	-5103
▁비트코	-5104
▁셀트리	-5105
▁손실을	-5106
▁신동빈	-5107
▁실적에	-5108
▁역세권	-5109
▁웃도는	-5110
▁위메프	-5111
▁유가가	-5112
▁이로써	-5113
▁이민지	-5114
▁이유로	-5115
▁중대본	-5116
▁지역에	-5117
▁콜센터	-5118
▁하나로	-5119
▁활동을	-5120
개월만에	-5121
상공회의	-5122
했습니다	-5123
▁공급하는	-5124
▁금융정보	-5125
▁나선다고	-5126
▁나타나고	-5127
▁보유하고	-5128
▁브랜드로	-5129
▁비교하면	-5130
▁삼성전기	-5131
▁상승률이	-5132
▁서비스는	-5133
▁얼어붙은	-5134
▁올해부터	-5135
▁이사회를	-5136
▁자회사인	-5137
▁재택근무	-5138
▁전망치를	-5139
▁전문업체	-5140
▁제니퍼룸	-5141
▁지속적인	-5142
▁지역경제	-5143
▁진행하고	-5144
▁출발했다	-5145
▁해외시장	-5146
인터내셔널	-5147
코퍼레이션	-5148
ewscom	-5149
▁소프트웨어	-5150
▁식품의약국	-5151
▁온라인으로	-5152
▁프랜차이즈	-5153
▁여신전문금융	-5154
▁탄소나노튜브	-5155
▁현대자동차가	-5156
2(	-5157
IM	-5158
LF	-5159
MR	-5160
aj	-5161
ap	-5162
▁듣	-5163
▁래	-5164
▁밸	-5165
▁엇	-5166
▁침	-5167
▁컸	-5168
▁팀	-5169
▁혐	-5170
▁흥	-5171
게이	-5172
관은	-5173
금속	-5174
너무	-5175
다리	-5176
데스	-5177
도와	-5178
링턴	-5179
마저	-5180
매일	-5181
민수	-5182
법원	-5183
사태	-5184
서치	-5185
선일	-5186
속보	-5187
신청	-5188
십을	-5189
없는	-5190
영호	-5191
자본	-5192
장기	-5193
정기	-5194
정밀	-5195
주차	-5196
창환	-5197
천시	-5198
크셔	-5199
키로	-5200
플란	-5201
혜민	-5202
휴직	-5203
힌다	-5204
8%,	-5205
90)	-5206
AFP	-5207
RAS	-5208
▁09	-5209
▁8,	-5210
▁97	-5211
▁FT	-5212
▁In	-5213
▁갖고	-5214
▁결산	-5215
▁고시	-5216
▁관악	-5217
▁김건	-5218
▁김주	-5219
▁내고	-5220
▁대용	-5221
▁목소	-5222
▁미러	-5223
▁발맞	-5224
▁밝힌	-5225
▁벨벳	-5226
▁본사	-5227
▁본인	-5228
▁부모	-5229
▁부실	-5230
▁부합	-5231
▁북한	-5232
▁블록	-5233
▁사랑	-5234
▁새벽	-5235
▁성우	-5236
▁세대	-5237
▁소셜	-5238
▁시공	-5239
▁식당	-5240
▁아우	-5241
▁엇갈	-5242
▁여름	-5243
▁오르	-5244
▁완판	-5245
▁원을	-5246
▁이야	-5247
▁이은	-5248
▁인상	-5249
▁자발	-5250
▁잠실	-5251
▁제거	-5252
▁주로	-5253
▁지출	-5254
▁집단	-5255
▁추락	-5256
▁출연	-5257
▁출하	-5258
▁토지	-5259
▁편리	-5260
▁풍부	-5261
▁한계	-5262
▁해서	-5263
▁호주	-5264
▁화성	-5265
격적인	-5266
기술을	-5267
백종민	-5268
보고서	-5269
비케어	-5270
서경원	-5271
세트를	-5272
식으로	-5273
신도시	-5274
차관은	-5275
총리는	-5276
테크놀	-5277
폴리오	-5278
하도록	-5279
하지만	-5280
회사인	-5281
▁112	-5282
▁19)	-5283
▁805	-5284
▁감소할	-5285
▁강세다	-5286
▁개선을	-5287
▁경제에	-5288
▁금리를	-5289
▁금액을	-5290
▁급락한	-5291
▁기간을	-5292
▁기대를	-5293
▁김지희	-5294
▁끌어올	-5295
▁노하우	-5296
▁늘면서	-5297
▁도움을	-5298
▁미국에	-5299
▁발생할	-5300
▁변동성	-5301
▁보유세	-5302
▁부담을	-5303
▁성과를	-5304
▁시장조	-5305
▁식약처	-5306
▁양사는	-5307
▁없었다	-5308
▁요금제	-5309
▁이르면	-5310
▁이용할	-5311
▁인수를	-5312
▁자카르	-5313
▁저렴한	-5314
▁정도로	-5315
▁조치를	-5316
▁조합원	-5317
▁지수가	-5318
▁캐시백	-5319
▁평가가	-5320
▁평가다	-5321
▁필요할	-5322
▁현상이	-5323
▁확대에	-5324
동학개미	-5325
억원이다	-5326
유틸리티	-5327
프로그램	-5328
RASSI	-5329
▁간담회를	-5330
▁거스름돈	-5331
▁동반성장	-5332
▁마련했다	-5333
▁매출액과	-5334
▁부문에서	-5335
▁성적표를	-5336
▁업체들이	-5337
▁유상증자	-5338
▁자본시장	-5339
▁재무제표	-5340
▁제시했다	-5341
▁차별화된	-5342
▁텍사스산	-5343
상공회의소	-5344
시장위원회	-5345
▁1,000	-5346
▁간담회에서	-5347
▁개최한다고	-5348
▁늘어났다는	-5349
fnRASSI	-5350
▁드라이브스루	-5351
▁산업활동동향	-5352
▁시스템반도체	-5353
▁인터넷전문은행	-5354
▁스탠더드앤드푸어스	-5355
AR	-5356
MI	-5357
TC	-5358
VC	-5359
ge	-5360
os	-5361
ot	-5362
tv	-5363
▁끈	-5364
▁땅	-5365
▁린	-5366
걸이	-5367
곳을	-5368
기다	-5369
동훈	-5370
로를	-5371
리버	-5372
문화	-5373
받는	-5374
받아	-5375
발언	-5376
번가	-5377
분간	-5378
사례	-5379
석유	-5380
선에	-5381
성훈	-5382
세종	-5383
세희	-5384
스에	-5385
승인	-5386
씨가	-5387
았고	-5388
요인	-5389
용해	-5390
운동	-5391
운영	-5392
월을	-5393
윤영	-5394
윤주	-5395
이던	-5396
이번	-5397
종의	-5398
주얼	-5399
지자	-5400
지하	-5401
출연	-5402
텍이	-5403
특별	-5404
펀딩	-5405
호흡	-5406
(24	-5407
400	-5408
Oil	-5409
arb	-5410
▁07	-5411
▁6,	-5412
▁68	-5413
▁7,	-5414
▁77	-5415
▁CU	-5416
▁SD	-5417
▁가공	-5418
▁가파	-5419
▁걱정	-5420
▁걸쳐	-5421
▁경력	-5422
▁너무	-5423
▁대외	-5424
▁대중	-5425
▁도전	-5426
▁드론	-5427
▁레이	-5428
▁맞는	-5429
▁매우	-5430
▁매주	-5431
▁바이	-5432
▁별세	-5433
▁불과	-5434
▁불황	-5435
▁사고	-5436
▁사망	-5437
▁생계	-5438
▁서류	-5439
▁속한	-5440
▁수립	-5441
▁신입	-5442
▁어느	-5443
▁에드	-5444
▁에디	-5445
▁연령	-5446
▁영위	-5447
▁영화	-5448
▁예고	-5449
▁의혹	-5450
▁이지	-5451
▁인구	-5452
▁인사	-5453
▁일회	-5454
▁작용	-5455
▁전개	-5456
▁정지	-5457
▁제네	-5458
▁제이	-5459
▁주최	-5460
▁지연	-5461
▁차단	-5462
▁창원	-5463
▁처리	-5464
▁체감	-5465
▁충남	-5466
▁충칭	-5467
▁캔들	-5468
▁키즈	-5469
▁편집	-5470
▁폐업	-5471
▁포트	-5472
▁한번	-5473
▁한솔	-5474
▁현행	-5475
▁현황	-5476
▁흡수	-5477
가정의	-5478
개사를	-5479
국제공	-5480
김휘선	-5481
까지는	-5482
들었다	-5483
등이다	-5484
레이딩	-5485
롭테크	-5486
반전형	-5487
사업체	-5488
스러운	-5489
일이다	-5490
치면서	-5491
하려는	-5492
하였고	-5493
한국판	-5494
(000	-5495
gcom	-5496
▁123	-5497
▁공개한	-5498
▁관계자	-5499
▁구축을	-5500
▁급증한	-5501
▁기간은	-5502
▁기반의	-5503
▁기하영	-5504
▁김건우	-5505
▁김대섭	-5506
▁꼽힌다	-5507
▁나서는	-5508
▁더케이	-5509
▁도시락	-5510
▁드라이	-5511
▁로이터	-5512
▁만이다	-5513
▁박종일	-5514
▁박지환	-5515
▁발표를	-5516
▁버크셔	-5517
▁분야의	-5518
▁브리핑	-5519
▁사들인	-5520
▁선결제	-5521
▁셧다운	-5522
▁시공사	-5523
▁시작된	-5524
▁신동주	-5525
▁신사업	-5526
▁아너스	-5527
▁안정준	-5528
▁연면적	-5529
▁열었다	-5530
▁이사장	-5531
▁이상이	-5532
▁이용해	-5533
▁이케아	-5534
▁인력을	-5535
▁재개발	-5536
▁종로구	-5537
▁중소형	-5538
▁증가로	-5539
▁참석한	-5540
▁크리에	-5541
▁탓이다	-5542
▁판매량	-5543
▁황윤주	-5544
▁회장의	-5545
산업단지	-5546
연합뉴스	-5547
arbon	-5548
▁178%	-5549
▁계열사인	-5550
▁계좌입금	-5551
▁구매하는	-5552
▁넘어섰다	-5553
▁단독주택	-5554
▁대통령이	-5555
▁대학경제	-5556
▁매수세가	-5557
▁무역협회	-5558
▁발표하고	-5559
▁부총리는	-5560
▁분야에서	-5561
▁셀트리온	-5562
▁아프리카	-5563
▁안마의자	-5564
▁어버이날	-5565
▁예상되는	-5566
▁이베스트	-5567
▁전년보다	-5568
▁전문인력	-5569
▁제로페이	-5570
▁조선업계	-5571
▁주식시장	-5572
▁창업지원	-5573
▁추진하는	-5574
▁캔들패턴	-5575
▁캠페인은	-5576
▁평가했다	-5577
▁현금으로	-5578
▁확산세가	-5579
평균지수는	-5580
▁공시가격을	-5581
▁소비자들이	-5582
▁지속적으로	-5583
▁포트폴리오	-5584
▁한국감정원	-5585
엔터테인먼트	-5586
티이미지뱅크	-5587
현대산업개발	-5588
hankyun	-5589
▁애플리케이션	-5590
▁한국무역협회	-5591
공개시장위원회	-5592
(005930)	-5593
▁미래에셋대우는	-5594
▁한국경제신문과	-5595
▁유가증권시장에서	-5596
▁중소벤처기업부가	-5597
▁포스코인터내셔널	-5598
hankyungcom	-5599
4,	-5600
52	-5601
DS	-5602
KT	-5603
MS	-5604
MW	-5605
OT	-5606
SS	-5607
▁놀	-5608
▁듯	-5609
▁뚜	-5610
▁럭	-5611
▁멕	-5612
▁벼	-5613
▁벽	-5614
▁텐	-5615
▁헤	-5616
가정	-5617
가포	-5618
간담	-5619
공제	-5620
광호	-5621
김현	-5622
년을	-5623
단계	-5624
도서	-5625
됐고	-5626
라워	-5627
라질	-5628
물량	-5629
물류	-5630
반떼	-5631
반써	-5632
상승	-5633
상황	-5634
석용	-5635
선옥	-5636
세트	-5637
션은	-5638
식량	-5639
아동	-5640
억엔	-5641
역을	-5642
우선	-5643
이오	-5644
인턴	-5645
자율	-5646
장에	-5647
전용	-5648
점과	-5649
제가	-5650
제일	-5651
즈를	-5652
진을	-5653
처분	-5654
친다	-5655
카이	-5656
켰다	-5657
토지	-5658
트가	-5659
특례	-5660
페셜	-5661
학생	-5662
호점	-5663
효주	-5664
(13	-5665
50)	-5666
7%)	-5667
▁74	-5668
▁83	-5669
▁96	-5670
▁‘3	-5671
▁가로	-5672
▁강한	-5673
▁같이	-5674
▁공포	-5675
▁기가	-5676
▁나올	-5677
▁넥슨	-5678
▁노인	-5679
▁대면	-5680
▁도로	-5681
▁들여	-5682
▁딜러	-5683
▁마포	-5684
▁멀티	-5685
▁무디	-5686
▁미만	-5687
▁바람	-5688
▁보조	-5689
▁보합	-5690
▁선불	-5691
▁소매	-5692
▁쇼크	-5693
▁스킨	-5694
▁시도	-5695
▁앱을	-5696
▁어렵	-5697
▁연금	-5698
▁연다	-5699
▁올렸	-5700
▁운수	-5701
▁원활	-5702
▁위원	-5703
▁유니	-5704
▁육박	-5705
▁이와	-5706
▁자문	-5707
▁저장	-5708
▁적립	-5709
▁전력	-5710
▁조세	-5711
▁주간	-5712
▁주당	-5713
▁주류	-5714
▁지주	-5715
▁집값	-5716
▁천연	-5717
▁초고	-5718
▁출신	-5719
▁폐지	-5720
▁피치	-5721
▁학교	-5722
▁힘을	-5723
가포르	-5724
권혜민	-5725
농산물	-5726
모델링	-5727
모바일	-5728
반써밋	-5729
사무엘	-5730
사이다	-5731
산업은	-5732
세데스	-5733
쇼핑몰	-5734
스테이	-5735
억원과	-5736
억원대	-5737
업종의	-5738
에서다	-5739
오피스	-5740
온라인	-5741
이상배	-5742
조사를	-5743
종으로	-5744
프레시	-5745
해지고	-5746
회사로	-5747
ajun	-5748
▁11%	-5749
▁110	-5750
▁145	-5751
▁17%	-5752
▁193	-5753
▁247	-5754
▁43%	-5755
▁650	-5756
▁KDB	-5757
▁LTE	-5758
▁가맹점	-5759
▁강력한	-5760
▁강화를	-5761
▁경제부	-5762
▁공급이	-5763
▁그대로	-5764
▁기능이	-5765
▁단위로	-5766
▁동향을	-5767
▁들어선	-5768
▁마음을	-5769
▁메모리	-5770
▁박효주	-5771
▁발행을	-5772
▁방윤영	-5773
▁베이징	-5774
▁변화를	-5775
▁부담이	-5776
▁분석해	-5777
▁성동구	-5778
▁세계적	-5779
▁애플의	-5780
▁업계는	-5781
▁예상을	-5782
▁오정은	-5783
▁용인시	-5784
▁이광호	-5785
▁이랜드	-5786
▁이승진	-5787
▁이어가	-5788
▁이중에	-5789
▁제품이	-5790
▁조감도	-5791
▁조달청	-5792
▁청와대	-5793
▁탑재한	-5794
▁피해가	-5795
▁한진칼	-5796
▁허가를	-5797
네트웍스	-5798
대한민국	-5799
보증기금	-5800
사업본부	-5801
사이언스	-5802
생활건강	-5803
인프라코	-5804
중소기업	-5805
진흥공단	-5806
테크놀로	-5807
편집자주	-5808
▁2030	-5809
▁8000	-5810
▁간편하게	-5811
▁개정안을	-5812
▁거래됐다	-5813
▁교보생명	-5814
▁근로자의	-5815
▁금융기관	-5816
▁김사무엘	-5817
▁늘었지만	-5818
▁담당하는	-5819
▁리모델링	-5820
▁면세품을	-5821
▁모두발언	-5822
▁미국에서	-5823
▁브랜드를	-5824
▁석유화학	-5825
▁싱가포르	-5826
▁에드링턴	-5827
▁여파에도	-5828
▁유비케어	-5829
▁인수합병	-5830
▁인프라를	-5831
▁자카르타	-5832
▁재무구조	-5833
▁정비사업	-5834
▁증가했고	-5835
▁차원에서	-5836
▁참여하는	-5837
▁창업기업	-5838
▁체크카드	-5839
▁캄보디아	-5840
▁커뮤니티	-5841
▁커지면서	-5842
▁컨센서스	-5843
▁한국성장	-5844
▁한국은행	-5845
▁현대카드	-5846
▁확대한다	-5847
사랑상품권	-5848
종합지수는	-5849
▁기준금리를	-5850
▁대우건설은	-5851
▁두산그룹은	-5852
▁렘데시비르	-5853
▁마이너스를	-5854
▁영업이익을	-5855
▁자동차보험	-5856
▁지원한다고	-5857
▁코엑스에서	-5858
▁홈페이지를	-5859
▁확산되면서	-5860
▁당기순이익도	-5861
게티이미지뱅크	-5862
▁산업통상자원부와	-5863
BI	-5864
RA	-5865
kg	-5866
ul	-5867
wi	-5868
▁꺼	-5869
▁덜	-5870
▁엠	-5871
▁젊	-5872
개로	-5873
개선	-5874
관계	-5875
구안	-5876
긴급	-5877
년이	-5878
디에	-5879
라마	-5880
라면	-5881
라임	-5882
러한	-5883
레인	-5884
리눔	-5885
리온	-5886
릿수	-5887
마을	-5888
만여	-5889
미널	-5890
박경	-5891
법에	-5892
보경	-5893
브리	-5894
상가	-5895
세서	-5896
세요	-5897
소가	-5898
시지	-5899
실사	-5900
아라	-5901
액을	-5902
우영	-5903
유공	-5904
자력	-5905
전체	-5906
주관	-5907
줄이	-5908
진이	-5909
창고	-5910
책을	-5911
청약	-5912
쿠르	-5913
타이	-5914
통을	-5915
트라	-5916
풍이	-5917
한달	-5918
해도	-5919
(03	-5920
(04	-5921
(05	-5922
(25	-5923
252	-5924
sed	-5925
▁"2	-5926
▁06	-5927
▁72	-5928
▁개설	-5929
▁건조	-5930
▁교수	-5931
▁구인	-5932
▁구청	-5933
▁극대	-5934
▁급식	-5935
▁김태	-5936
▁날을	-5937
▁납품	-5938
▁내세	-5939
▁농촌	-5940
▁동남	-5941
▁등은	-5942
▁럭셔	-5943
▁만족	-5944
▁무엇	-5945
▁발언	-5946
▁법조	-5947
▁보잉	-5948
▁부사	-5949
▁불어	-5950
▁블루	-5951
▁빙수	-5952
▁산유	-5953
▁생생	-5954
▁생필	-5955
▁성분	-5956
▁세운	-5957
▁시대	-5958
▁시흥	-5959
▁신혼	-5960
▁실직	-5961
▁실질	-5962
▁심리	-5963
▁연일	-5964
▁올린	-5965
▁외화	-5966
▁요인	-5967
▁윤석	-5968
▁은퇴	-5969
▁의존	-5970
▁이의	-5971
▁일별	-5972
▁재산	-5973
▁적금	-5974
▁젊은	-5975
▁점을	-5976
▁접목	-5977
▁정확	-5978
▁조짐	-5979
▁직면	-5980
▁찾은	-5981
▁챌린	-5982
▁청소	-5983
▁체계	-5984
▁추첨	-5985
▁출고	-5986
▁커넥	-5987
▁테마	-5988
▁파월	-5989
▁폭발	-5990
▁필기	-5991
▁하면	-5992
▁한은	-5993
▁합의	-5994
가구가	-5995
기자본	-5996
도시의	-5997
배이다	-5998
사들은	-5999
사업은	-6000
스템임	-6001
음에도	-6002
장으로	-6003
저금리	-6004
적십자	-6005
졌다는	-6006
조감도	-6007
조원이	-6008
충성도	-6009
콘텐츠	-6010
팩토리	-6011
해졌다	-6012
호흡기	-6013
NYSE	-6014
▁140	-6015
▁314	-6016
▁888	-6017
▁HMM	-6018
▁SDJ	-6019
▁강민수	-6020
▁건전성	-6021
▁결과가	-6022
▁경진대	-6023
▁고석용	-6024
▁골프존	-6025
▁김보경	-6026
▁내놓고	-6027
▁농가를	-6028
▁높아진	-6029
▁당분간	-6030
▁때마다	-6031
▁리서치	-6032
▁모양새	-6033
▁무제한	-6034
▁발맞춰	-6035
▁변화에	-6036
▁사업장	-6037
▁사용할	-6038
▁산업계	-6039
▁상황을	-6040
▁속도를	-6041
▁송선옥	-6042
▁수밖에	-6043
▁수출은	-6044
▁시상식	-6045
▁실거래	-6046
▁쏠리고	-6047
▁쏠린다	-6048
▁아이템	-6049
▁안정적	-6050
▁업체인	-6051
▁없다는	-6052
▁여부를	-6053
▁영업을	-6054
▁우경희	-6055
▁이들은	-6056
▁이번주	-6057
▁일평균	-6058
▁재테크	-6059
▁정인지	-6060
▁제품의	-6061
▁주목을	-6062
▁충격에	-6063
▁태양광	-6064
▁테스트	-6065
▁필요가	-6066
▁회사가	-6067
▁회사의	-6068
국민은행	-6069
바이오는	-6070
서비스를	-6071
최근한달	-6072
풍에어컨	-6073
▁1200	-6074
▁2025	-6075
▁금융시장	-6076
▁급감했다	-6077
▁늘어나는	-6078
▁브랜드가	-6079
▁브랜드의	-6080
▁비즈니스	-6081
▁사람들이	-6082
▁산업은행	-6083
▁상품으로	-6084
▁서울시가	-6085
▁시민들이	-6086
▁신제품을	-6087
▁실시한다	-6088
▁이용하는	-6089
▁인센티브	-6090
▁인턴기자	-6091
▁자산관리	-6092
▁제공하기	-6093
▁직원들이	-6094
▁통화정책	-6095
▁판매량은	-6096
▁한경닷컴	-6097
칠성사이다	-6098
▁고객충성도	-6099
▁대한적십자	-6100
▁메리츠증권	-6101
▁세계적으로	-6102
▁소상공인과	-6103
▁시행한다고	-6104
▁코스닥시장	-6105
▁개인투자자의	-6106
▁두산인프라코	-6107
▁시장조사업체	-6108
▁하나금융지주	-6109
▁마이크로소프트	-6110
▁산업평균지수는	-6111
▁현대엔지니어링	-6112
정보공개프로젝트	-6113
▁여신전문금융회사	-6114
ajunewscom	-6115
(8	-6116
02	-6117
83	-6118
BB	-6119
jp	-6120
▁d	-6121
▁덮	-6122
▁빼	-6123
▁뿌	-6124
▁옮	-6125
▁짓	-6126
▁탐	-6127
▁혹	-6128
▁히	-6129
가의	-6130
감사	-6131
건이	-6132
건전	-6133
년형	-6134
농가	-6135
니어	-6136
담보	-6137
당금	-6138
데다	-6139
람코	-6140
랜트	-6141
레븐	-6142
리빙	-6143
마젠	-6144
마크	-6145
만이	-6146
몬스	-6147
발란	-6148
발유	-6149
방안	-6150
보장	-6151
복합	-6152
븐일	-6153
생제	-6154
서부	-6155
세포	-6156
센트	-6157
소의	-6158
스로	-6159
스쿨	-6160
시청	-6161
오롱	-6162
위가	-6163
유럽	-6164
유로	-6165
인가	-6166
저축	-6167
주거	-6168
즈니	-6169
집콕	-6170
청년	-6171
축산	-6172
틱스	-6173
품의	-6174
하라	-6175
할인	-6176
함을	-6177
현우	-6178
화가	-6179
활용	-6180
회복	-6181
회전	-6182
(+2	-6183
(06	-6184
4%,	-6185
6%)	-6186
6%,	-6187
jpg	-6188
~30	-6189
▁"1	-6190
▁91	-6191
▁95	-6192
▁PC	-6193
▁개포	-6194
▁겨냥	-6195
▁결합	-6196
▁경고	-6197
▁과제	-6198
▁농림	-6199
▁니혼	-6200
▁담긴	-6201
▁대장	-6202
▁도는	-6203
▁두드	-6204
▁등과	-6205
▁랜드	-6206
▁마사	-6207
▁많아	-6208
▁멈춰	-6209
▁면제	-6210
▁문경	-6211
▁민생	-6212
▁바뀌	-6213
▁박미	-6214
▁발급	-6215
▁방지	-6216
▁불편	-6217
▁빌딩	-6218
▁사흘	-6219
▁새로	-6220
▁선박	-6221
▁소독	-6222
▁소액	-6223
▁소진	-6224
▁송금	-6225
▁수단	-6226
▁슈퍼	-6227
▁스피	-6228
▁신경	-6229
▁심사	-6230
▁안팎	-6231
▁알고	-6232
▁연봉	-6233
▁영구	-6234
▁오상	-6235
▁우량	-6236
▁우미	-6237
▁원가	-6238
▁유료	-6239
▁융합	-6240
▁응답	-6241
▁이주	-6242
▁이중	-6243
▁임금	-6244
▁자매	-6245
▁작업	-6246
▁재편	-6247
▁전에	-6248
▁절벽	-6249
▁접근	-6250
▁조현	-6251
▁졸업	-6252
▁주상	-6253
▁주춤	-6254
▁즐길	-6255
▁집을	-6256
▁착용	-6257
▁채굴	-6258
▁추구	-6259
▁추출	-6260
▁출생	-6261
▁충분	-6262
▁토마	-6263
▁패널	-6264
▁하위	-6265
▁학습	-6266
▁해도	-6267
▁호조	-6268
▁홍콩	-6269
▁환율	-6270
▁휴게	-6271
가구에	-6272
계획을	-6273
기간은	-6274
니스톱	-6275
라비아	-6276
마케팅	-6277
메이션	-6278
브리핑	-6279
빌리지	-6280
산업을	-6281
산업의	-6282
시부터	-6283
야쿠르	-6284
월에는	-6285
유선일	-6286
임종철	-6287
지수도	-6288
태펀드	-6289
툴리눔	-6290
항공사	-6291
FOMC	-6292
hyun	-6293
▁133	-6294
▁195	-6295
▁400	-6296
▁75%	-6297
▁800	-6298
▁KIC	-6299
▁hwi	-6300
▁개발해	-6301
▁골자로	-6302
▁공기청	-6303
▁관리를	-6304
▁교육과	-6305
▁극대화	-6306
▁급등한	-6307
▁기술력	-6308
▁김효진	-6309
▁높았고	-6310
▁늘어날	-6311
▁대용량	-6312
▁도이치	-6313
▁라이프	-6314
▁매수에	-6315
▁먹거리	-6316
▁박차를	-6317
▁분야에	-6318
▁비비고	-6319
▁비율이	-6320
▁빠졌다	-6321
▁사이버	-6322
▁사이트	-6323
▁소비를	-6324
▁시대를	-6325
▁심각한	-6326
▁여기에	-6327
▁여파에	-6328
▁연다고	-6329
▁이들이	-6330
▁이러한	-6331
▁인용해	-6332
▁일대에	-6333
▁일회성	-6334
▁있었던	-6335
▁자료에	-6336
▁접어들	-6337
▁정수기	-6338
▁정순식	-6339
▁줄이고	-6340
▁중국에	-6341
▁중요한	-6342
▁최신혜	-6343
▁출시된	-6344
▁커넥티	-6345
▁투자가	-6346
▁투자에	-6347
▁판매한	-6348
▁프라이	-6349
▁하면서	-6350
▁협약에	-6351
▁혜택과	-6352
게이자이	-6353
국제공항	-6354
븐일레븐	-6355
신용평가	-6356
원유선물	-6357
자유구역	-6358
코스메틱	-6359
▁가상자산	-6360
▁경신했다	-6361
▁고용안정	-6362
▁대표적인	-6363
▁디자인을	-6364
▁매일경제	-6365
▁보건복지	-6366
▁분석된다	-6367
▁불확실성	-6368
▁비상식량	-6369
▁사업으로	-6370
▁사업이다	-6371
▁사태에도	-6372
▁삼성증권	-6373
▁생명보험	-6374
▁선보이고	-6375
▁선정하고	-6376
▁시가총액	-6377
▁시중은행	-6378
▁신용유의	-6379
▁예상치를	-6380
▁오스템임	-6381
▁운영하고	-6382
▁적정수준	-6383
▁전달했다	-6384
▁전월보다	-6385
▁주가연계	-6386
▁주관하는	-6387
▁주택시장	-6388
▁지난해에	-6389
▁차지했다	-6390
▁출시된다	-6391
▁출시한다	-6392
▁특례수입	-6393
▁희망하는	-6394
농협은행은	-6395
유플러스는	-6396
▁거리두기가	-6397
▁금융위원회	-6398
▁기아자동차	-6399
▁당기순손실	-6400
▁메르세데스	-6401
▁비교해보니	-6402
▁삼성물산이	-6403
▁삼성중공업	-6404
▁서프라이즈	-6405
▁신한은행이	-6406
▁아파트값이	-6407
▁이어지면서	-6408
▁중소기업의	-6409
▁하반기부터	-6410
▁한국은행은	-6411
▁hwijpg	-6412
▁금융감독원이	-6413
▁기간산업안정	-6414
▁니혼게이자이	-6415
▁두산중공업의	-6416
▁금융투자업계에	-6417
▁긴급재난지원금을	-6418
▁서부텍사스산원유	-6419
CI	-6420
GM	-6421
IG	-6422
IN	-6423
KB	-6424
LH	-6425
UA	-6426
ig	-6427
▁r	-6428
▁꼭	-6429
▁끼	-6430
▁밤	-6431
▁삶	-6432
▁샌	-6433
▁셈	-6434
▁얘	-6435
▁왕	-6436
▁욜	-6437
▁웨	-6438
▁퀀	-6439
간편	-6440
결연	-6441
결정	-6442
공학	-6443
나다	-6444
난다	-6445
난티	-6446
네이	-6447
니터	-6448
단은	-6449
동물	-6450
등이	-6451
등포	-6452
리콘	-6453
망고	-6454
목적	-6455
몬드	-6456
볼케	-6457
서더	-6458
소시	-6459
시켜	-6460
어닝	-6461
오늘	-6462
울산	-6463
의가	-6464
인원	-6465
자격	-6466
자형	-6467
정지	-6468
주와	-6469
지급	-6470
지다	-6471
질환	-6472
처리	-6473
터카	-6474
판에	-6475
펭수	-6476
학렬	-6477
해각	-6478
화는	-6479
(+3	-6480
(+4	-6481
-19	-6482
ELS	-6483
HMR	-6484
SUV	-6485
ail	-6486
▁'3	-6487
▁(0	-6488
▁-4	-6489
▁GM	-6490
▁IM	-6491
▁‘1	-6492
▁‘4	-6493
▁건의	-6494
▁게임	-6495
▁격리	-6496
▁견본	-6497
▁결국	-6498
▁경찰	-6499
▁계절	-6500
▁구경	-6501
▁국방	-6502
▁그린	-6503
▁기금	-6504
▁기여	-6505
▁김포	-6506
▁나라	-6507
▁낙찰	-6508
▁달라	-6509
▁담배	-6510
▁당부	-6511
▁더블	-6512
▁돕는	-6513
▁동구	-6514
▁뚜렷	-6515
▁리콜	-6516
▁마찬	-6517
▁모범	-6518
▁모터	-6519
▁발인	-6520
▁방위	-6521
▁본부	-6522
▁부엌	-6523
▁불러	-6524
▁비타	-6525
▁사옥	-6526
▁상온	-6527
▁서민	-6528
▁소외	-6529
▁수면	-6530
▁시급	-6531
▁시는	-6532
▁신차	-6533
▁실행	-6534
▁싱글	-6535
▁아세	-6536
▁안산	-6537
▁앞세	-6538
▁약속	-6539
▁양도	-6540
▁억제	-6541
▁에코	-6542
▁역량	-6543
▁우대	-6544
▁워런	-6545
▁유승	-6546
▁유턴	-6547
▁인명	-6548
▁자기	-6549
▁자안	-6550
▁적은	-6551
▁접속	-6552
▁정시	-6553
▁조언	-6554
▁차례	-6555
▁최장	-6556
▁쿠션	-6557
▁퀀트	-6558
▁특성	-6559
▁폭이	-6560
▁표준	-6561
▁플립	-6562
▁피자	-6563
▁한미	-6564
▁한우	-6565
▁함유	-6566
▁혐의	-6567
가스업	-6568
관학교	-6569
급휴직	-6570
기업인	-6571
룸에서	-6572
리바트	-6573
블록에	-6574
사들의	-6575
소득세	-6576
슬기나	-6577
시까지	-6578
신세계	-6579
아몬드	-6580
업체의	-6581
역에서	-6582
영업자	-6583
원자력	-6584
자회사	-6585
정부는	-6586
조원대	-6587
조원에	-6588
커볼케	-6589
타이어	-6590
터미널	-6591
협력팀	-6592
▁114	-6593
▁161	-6594
▁24%	-6595
▁369	-6596
▁44%	-6597
▁견조한	-6598
▁경제를	-6599
▁고려해	-6600
▁고성능	-6601
▁관리에	-6602
▁관측이	-6603
▁교육을	-6604
▁규제가	-6605
▁극복과	-6606
▁기록을	-6607
▁김유리	-6608
▁꼽히는	-6609
▁내국인	-6610
▁높이고	-6611
▁동영상	-6612
▁둘러싼	-6613
▁드라마	-6614
▁라이브	-6615
▁럭셔리	-6616
▁리스펙	-6617
▁릴레이	-6618
▁만드는	-6619
▁매매가	-6620
▁못했다	-6621
▁미치는	-6622
▁박미주	-6623
▁반려견	-6624
▁방문해	-6625
▁법인세	-6626
▁벽걸이	-6627
▁사우디	-6628
▁상황에	-6629
▁성남시	-6630
▁성장률	-6631
▁소득이	-6632
▁소마젠	-6633
▁수입차	-6634
▁시간을	-6635
▁아반떼	-6636
▁알파벳	-6637
▁올렸다	-6638
▁와이드	-6639
▁용산구	-6640
▁의미다	-6641
▁이름을	-6642
▁이학렬	-6643
▁일원에	-6644
▁자신의	-6645
▁재가동	-6646
▁전보다	-6647
▁점에서	-6648
▁주재로	-6649
▁줄줄이	-6650
▁증가에	-6651
▁지분을	-6652
▁지원할	-6653
▁차관은	-6654
▁케이크	-6655
▁토마토	-6656
▁통계를	-6657
▁파운드	-6658
▁페이스	-6659
▁풍부한	-6660
▁플렉스	-6661
▁한국형	-6662
▁협업해	-6663
기관으로	-6664
대한항공	-6665
만원에서	-6666
스페이스	-6667
심리지수	-6668
재무제표	-6669
중앙은행	-6670
하면서도	-6671
호텔에서	-6672
▁1900	-6673
▁2021	-6674
▁거래량을	-6675
▁견본주택	-6676
▁경기도는	-6677
▁경제성장	-6678
▁공시대상	-6679
▁기업경기	-6680
▁내다봤다	-6681
▁달성했다	-6682
▁대신증권	-6683
▁락앤락은	-6684
▁마찬가지	-6685
▁매매회전	-6686
▁매수세에	-6687
▁모양새다	-6688
▁보툴리눔	-6689
▁서울시는	-6690
▁선정했다	-6691
▁세계적인	-6692
▁소비자가	-6693
▁신청하면	-6694
▁올렸다고	-6695
▁외국인의	-6696
▁원유선물	-6697
▁인천공항	-6698
▁자매결연	-6699
▁자산운용	-6700
▁재무분석	-6701
▁전환사채	-6702
▁정보통신	-6703
▁제안했다	-6704
▁제출했다	-6705
▁조슬기나	-6706
▁조정했다	-6707
▁지급한다	-6708
▁티브로드	-6709
▁페이스북	-6710
▁편의성을	-6711
▁해외에서	-6712
▁현대건설	-6713
▁호텔로봇	-6714
▁회의에서	-6715
디아라비아	-6716
Carbon	-6717
▁‘2019	-6718
▁거래중이다	-6719
▁경제부총리	-6720
▁무역수지가	-6721
▁소비자들의	-6722
▁시장에서는	-6723
▁신용카드를	-6724
▁업계에서는	-6725
▁유안타증권	-6726
▁전기가스업	-6727
▁중기협력팀	-6728
▁크리에이터	-6729
경제자유구역	-6730
산업통상자원	-6731
중소벤처기업	-6732
▁당기순이익을	-6733
▁연결재무제표	-6734
▁오스템임플란	-6735
▁비상식량세트를	-6736
▁스포츠유틸리티	-6737
▁에프앤가이드에	-6738
▁이베스트투자증권	-6739
▁연방공개시장위원회	-6740
(9	-6741
AV	-6742
GF	-6743
SG	-6744
ct	-6745
ey	-6746
oT	-6747
▁*	-6748
▁객	-6749
▁닥	-6750
▁밑	-6751
▁셰	-6752
▁솔	-6753
▁술	-6754
▁싸	-6755
▁쓸	-6756
▁좀	-6757
건의	-6758
검사	-6759
공원	-6760
과제	-6761
관을	-6762
기고	-6763
기본	-6764
뉴얼	-6765
다시	-6766
등록	-6767
람회	-6768
럼프	-6769
로의	-6770
리그	-6771
마진	-6772
머티	-6773
멘토	-6774
무기	-6775
무는	-6776
문형	-6777
미아	-6778
밀리	-6779
받은	-6780
번지	-6781
법을	-6782
보통	-6783
비에	-6784
비즈	-6785
산한	-6786
상우	-6787
스킨	-6788
스탁	-6789
시도	-6790
시복	-6791
시킬	-6792
신동	-6793
애플	-6794
얀마	-6795
여개	-6796
오른	-6797
위크	-6798
음식	-6799
이승	-6800
이지	-6801
익이	-6802
일리	-6803
있다	-6804
재가	-6805
재료	-6806
전기	-6807
전이	-6808
제당	-6809
제주	-6810
지도	-6811
지분	-6812
지사	-6813
짜리	-6814
친상	-6815
카페	-6816
코노	-6817
티는	-6818
티지	-6819
팩트	-6820
해상	-6821
혜선	-6822
호선	-6823
화로	-6824
회장	-6825
(-1	-6826
706	-6827
81@	-6828
▁98	-6829
▁MC	-6830
▁US	-6831
▁감산	-6832
▁개념	-6833
▁거론	-6834
▁고통	-6835
▁공룡	-6836
▁공사	-6837
▁국책	-6838
▁규격	-6839
▁급여	-6840
▁기타	-6841
▁남아	-6842
▁대림	-6843
▁더해	-6844
▁도약	-6845
▁돌려	-6846
▁동서	-6847
▁등장	-6848
▁렌털	-6849
▁리더	-6850
▁리브	-6851
▁린데	-6852
▁마음	-6853
▁마친	-6854
▁매칭	-6855
▁몰린	-6856
▁못해	-6857
▁무려	-6858
▁미뤄	-6859
▁바꿔	-6860
▁박광	-6861
▁법률	-6862
▁벤츠	-6863
▁보낼	-6864
▁본점	-6865
▁분산	-6866
▁상용	-6867
▁생존	-6868
▁신발	-6869
▁신영	-6870
▁앰배	-6871
▁야심	-6872
▁양산	-6873
▁양천	-6874
▁여객	-6875
▁연초	-6876
▁오랜	-6877
▁완구	-6878
▁완전	-6879
▁웨스	-6880
▁위협	-6881
▁유성	-6882
▁이진	-6883
▁임원	-6884
▁입학	-6885
▁재생	-6886
▁전사	-6887
▁전지	-6888
▁전형	-6889
▁전화	-6890
▁정무	-6891
▁정수	-6892
▁조업	-6893
▁조인	-6894
▁주고	-6895
▁중간	-6896
▁지켜	-6897
▁직후	-6898
▁질문	-6899
▁차종	-6900
▁창사	-6901
▁처한	-6902
▁촬영	-6903
▁출근	-6904
▁코란	-6905
▁타깃	-6906
▁탄력	-6907
▁투기	-6908
▁퍼스	-6909
▁폐렴	-6910
▁하한	-6911
▁합성	-6912
▁항균	-6913
▁해제	-6914
▁행보	-6915
▁환기	-6916
▁흔들	-6917
광역시	-6918
김현민	-6919
남부지	-6920
년보다	-6921
사업에	-6922
사업이	-6923
센터가	-6924
속도로	-6925
업계는	-6926
이면서	-6927
정적인	-6928
중개사	-6929
중앙회	-6930
푸드빌	-6931
플래닛	-6932
▁117	-6933
▁122	-6934
▁144	-6935
▁180	-6936
▁34%	-6937
▁35%	-6938
▁Pro	-6939
▁kim	-6940
▁△84	-6941
▁가까운	-6942
▁가시화	-6943
▁가입할	-6944
▁각국의	-6945
▁감소로	-6946
▁공략에	-6947
▁관련한	-6948
▁국회의	-6949
▁규제를	-6950
▁금리가	-6951
▁금액은	-6952
▁기간이	-6953
▁기능성	-6954
▁김은별	-6955
▁김주현	-6956
▁높이는	-6957
▁누구나	-6958
▁머스크	-6959
▁메이커	-6960
▁멤버십	-6961
▁미분양	-6962
▁미세먼	-6963
▁반영해	-6964
▁변화가	-6965
▁보였고	-6966
▁보이는	-6967
▁부문의	-6968
▁불가능	-6969
▁사실을	-6970
▁산업의	-6971
▁상품권	-6972
▁상품에	-6973
▁선물을	-6974
▁선정해	-6975
▁수요를	-6976
▁시너지	-6977
▁시장점	-6978
▁신라젠	-6979
▁아니다	-6980
▁아울러	-6981
▁양성을	-6982
▁어려울	-6983
▁얼마나	-6984
▁업체가	-6985
▁영등포	-6986
▁영업적	-6987
▁예정인	-6988
▁올해도	-6989
▁위기가	-6990
▁위주로	-6991
▁윤석헌	-6992
▁이들의	-6993
▁이미지	-6994
▁이용에	-6995
▁이정혁	-6996
▁이창환	-6997
▁일정이	-6998
▁있을지	-6999
▁자금난	-7000
▁자료를	-7001
▁자산을	-7002
▁자전거	-7003
▁전망도	-7004
▁절차에	-7005
▁정규직	-7006
▁제공할	-7007
▁주유소	-7008
▁증시에	-7009
▁진행할	-7010
▁집계한	-7011
▁참여한	-7012
▁책임을	-7013
▁쿠팡은	-7014
▁타격이	-7015
▁트럼프	-7016
▁하락이	-7017
▁한국과	-7018
▁한도를	-7019
▁합니다	-7020
▁형태로	-7021
동향조사	-7022
마이크로	-7023
만원까지	-7024
머티리얼	-7025
산업은행	-7026
상장지수	-7027
신라호텔	-7028
왼쪽부터	-7029
주택공사	-7030
축산식품	-7031
탄소경영	-7032
텔레콤과	-7033
(2418	-7034
▁2011	-7035
▁2023	-7036
▁243%	-7037
▁276%	-7038
▁343%	-7039
▁개정안이	-7040
▁개포주공	-7041
▁고용보험	-7042
▁구성됐다	-7043
▁국회에서	-7044
▁그랜드볼	-7045
▁금융생활	-7046
▁기가지니	-7047
▁기초자산	-7048
▁꾸러미를	-7049
▁늘어나고	-7050
▁당부했다	-7051
▁대해서는	-7052
▁덕분이다	-7053
▁동커볼케	-7054
▁뛰어넘는	-7055
▁발생하는	-7056
▁본회의를	-7057
▁사용하지	-7058
▁사전점검	-7059
▁상승하며	-7060
▁상품이다	-7061
▁서울에서	-7062
▁설명이다	-7063
▁성장률이	-7064
▁아웃도어	-7065
▁아파트를	-7066
▁앰배서더	-7067
▁영향이다	-7068
▁우수기업	-7069
▁웃돌았다	-7070
▁일반분양	-7071
▁전월대비	-7072
▁전통시장	-7073
▁제일기획	-7074
▁증정하는	-7075
▁참석했다	-7076
▁청년인턴	-7077
▁특별고용	-7078
▁포함되어	-7079
▁플랫폼을	-7080
▁합병법인	-7081
▁호실적을	-7082
sedail	-7083
▁20204	-7084
▁늘어나면서	-7085
▁다이아몬드	-7086
▁대우건설이	-7087
▁벤처캐피탈	-7088
▁보고서에서	-7089
▁영업손실을	-7090
▁정례브리핑	-7091
▁콘퍼런스콜	-7092
▁한국소비자	-7093
▁한국야쿠르	-7094
이노베이션은	-7095
토지주택공사	-7096
▁금융정보업체	-7097
▁매매회전율이	-7098
▁메리츠증권은	-7099
▁신세계백화점	-7100
▁코스피지수가	-7101
▁흑자전환했다	-7102
(241820)	-7103
▁kimhyun	-7104
▁계좌입금서비스	-7105
▁고용유지지원금	-7106
▁더케이손해보험	-7107
▁미래에셋대우를	-7108
▁상하이종합지수는	-7109
-2	-7110
42	-7111
82	-7112
AA	-7113
NS	-7114
Wh	-7115
et	-7116
▁&	-7117
▁곤	-7118
▁곧	-7119
▁깨	-7120
▁냈	-7121
▁벤	-7122
▁빗	-7123
▁윈	-7124
▁좌	-7125
▁챙	-7126
▁펜	-7127
▁퓨	-7128
가입	-7129
강욱	-7130
거운	-7131
걸음	-7132
계열	-7133
곳에	-7134
공공	-7135
공구	-7136
관한	-7137
근로	-7138
기만	-7139
꼬북	-7140
남도	-7141
냐는	-7142
년과	-7143
노인	-7144
니지	-7145
단기	-7146
대공	-7147
되던	-7148
디락	-7149
래스	-7150
러다	-7151
렸던	-7152
료품	-7153
명에	-7154
명한	-7155
문호	-7156
미는	-7157
믹스	-7158
방식	-7159
방향	-7160
번호	-7161
범석	-7162
보령	-7163
보자	-7164
빌딩	-7165
뿐만	-7166
상권	-7167
스닥	-7168
스럽	-7169
스백	-7170
시의	-7171
신규	-7172
실장	-7173
양대	-7174
엠에	-7175
완화	-7176
월과	-7177
유아	-7178
장터	-7179
전쟁	-7180
정상	-7181
주기	-7182
지오	-7183
차는	-7184
총괄	-7185
총장	-7186
추경	-7187
측면	-7188
커피	-7189
튜버	-7190
트럭	-7191
판사	-7192
패션	-7193
필드	-7194
한화	-7195
혁명	-7196
현재	-7197
현황	-7198
홀로	-7199
화순	-7200
(29	-7201
3%)	-7202
ISA	-7203
and	-7204
▁9,	-7205
▁CO	-7206
▁KG	-7207
▁KR	-7208
▁SH	-7209
▁가득	-7210
▁개미	-7211
▁건립	-7212
▁것과	-7213
▁것도	-7214
▁격려	-7215
▁결의	-7216
▁과도	-7217
▁과잉	-7218
▁구독	-7219
▁기다	-7220
▁기울	-7221
▁나눠	-7222
▁나주	-7223
▁단백	-7224
▁단행	-7225
▁대리	-7226
▁더존	-7227
▁독점	-7228
▁돈이	-7229
▁동시	-7230
▁레저	-7231
▁로고	-7232
▁맺고	-7233
▁몰려	-7234
▁방어	-7235
▁밸류	-7236
▁부상	-7237
▁빠져	-7238
▁삼선	-7239
▁서영	-7240
▁설정	-7241
▁섬유	-7242
▁손을	-7243
▁수사	-7244
▁시즌	-7245
▁신뢰	-7246
▁실태	-7247
▁씨티	-7248
▁않다	-7249
▁없을	-7250
▁에어	-7251
▁엑스	-7252
▁엔씨	-7253
▁엔진	-7254
▁영동	-7255
▁영세	-7256
▁유기	-7257
▁유사	-7258
▁이해	-7259
▁작은	-7260
▁전담	-7261
▁전쟁	-7262
▁제롬	-7263
▁제반	-7264
▁종료	-7265
▁중반	-7266
▁찾는	-7267
▁커질	-7268
▁컬렉	-7269
▁컸다	-7270
▁콘셉	-7271
▁트랙	-7272
▁평소	-7273
▁폭의	-7274
▁해야	-7275
▁형제	-7276
건으로	-7277
관에서	-7278
금융의	-7279
금융이	-7280
기업이	-7281
기획재	-7282
꼬북칩	-7283
대출을	-7284
등학교	-7285
디자인	-7286
라인드	-7287
립니다	-7288
만명이	-7289
명에게	-7290
민주당	-7291
박준규	-7292
본부장	-7293
비즈온	-7294
사미아	-7295
사업부	-7296
사업의	-7297
소시엄	-7298
스토랑	-7299
실리스	-7300
아이씨	-7301
었으나	-7302
이기범	-7303
이케아	-7304
전환도	-7305
조원의	-7306
지현우	-7307
코노미	-7308
탄포레	-7309
테이너	-7310
통신에	-7311
하고자	-7312
했는데	-7313
회사의	-7314
4%),	-7315
6400	-7316
OTRA	-7317
tact	-7318
▁108	-7319
▁270	-7320
▁57%	-7321
▁68%	-7322
▁LIG	-7323
▁LNG	-7324
▁SKC	-7325
▁가구는	-7326
▁가능성	-7327
▁가능해	-7328
▁가속화	-7329
▁가치를	-7330
▁간담회	-7331
▁감염병	-7332
▁강남권	-7333
▁권화순	-7334
▁금보령	-7335
▁급격한	-7336
▁김소연	-7337
▁김휘선	-7338
▁나타나	-7339
▁대출이	-7340
▁대표를	-7341
▁동기간	-7342
▁두나무	-7343
▁맞이해	-7344
▁목표를	-7345
▁미얀마	-7346
▁박광범	-7347
▁반영한	-7348
▁방식을	-7349
▁벌이고	-7350
▁보이스	-7351
▁보통주	-7352
▁본사를	-7353
▁부문은	-7354
▁부진한	-7355
▁비중을	-7356
▁사업화	-7357
▁상품이	-7358
▁서울대	-7359
▁선제적	-7360
▁성북천	-7361
▁속도로	-7362
▁손실이	-7363
▁수석부	-7364
▁수요에	-7365
▁수익률	-7366
▁수익을	-7367
▁승인을	-7368
▁신혼부	-7369
▁안정화	-7370
▁업종을	-7371
▁예산을	-7372
▁위스키	-7373
▁유전자	-7374
▁의지를	-7375
▁이베이	-7376
▁이용이	-7377
▁이용한	-7378
▁이전에	-7379
▁임종철	-7380
▁있다며	-7381
▁자발적	-7382
▁장시복	-7383
▁전기로	-7384
▁전망은	-7385
▁전세기	-7386
▁정책을	-7387
▁제공해	-7388
▁제도를	-7389
▁제품인	-7390
▁조강욱	-7391
▁조인경	-7392
▁주인공	-7393
▁주택의	-7394
▁중심의	-7395
▁증가할	-7396
▁증시의	-7397
▁지급을	-7398
▁진출을	-7399
▁차민영	-7400
▁참여할	-7401
▁청약홈	-7402
▁초대형	-7403
▁최태원	-7404
▁충분히	-7405
▁카드는	-7406
▁케어젠	-7407
▁투시도	-7408
▁패밀리	-7409
▁펼친다	-7410
▁폴더블	-7411
▁할인된	-7412
▁했지만	-7413
▁혁신을	-7414
▁협력을	-7415
▁확대해	-7416
▁환경을	-7417
▁후분양	-7418
기업집단	-7419
대표이사	-7420
분기까지	-7421
분기에도	-7422
시스템에	-7423
실사지수	-7424
연합회는	-7425
위원회의	-7426
일까지다	-7427
취약계층	-7428
홀딩스는	-7429
▁1500	-7430
▁고객들을	-7431
▁구성된다	-7432
▁기업집단	-7433
▁대부분의	-7434
▁대비하기	-7435
▁대상이다	-7436
▁들어갔다	-7437
▁들어선다	-7438
▁라인업을	-7439
▁롯데그룹	-7440
▁방위사업	-7441
▁보여주는	-7442
▁분양한다	-7443
▁브랜드인	-7444
▁블라인드	-7445
▁상승세가	-7446
▁상한가를	-7447
▁생활용품	-7448
▁성북구가	-7449
▁수급측면	-7450
▁신제품은	-7451
▁씽크풀이	-7452
▁영동대로	-7453
▁영위하는	-7454
▁오픈마켓	-7455
▁위해서는	-7456
▁유일하게	-7457
▁일대에서	-7458
▁일자리가	-7459
▁저소득층	-7460
▁제주항공	-7461
▁증시에서	-7462
▁지금까지	-7463
▁진출한다	-7464
▁진행되는	-7465
▁채권단에	-7466
▁초저금리	-7467
▁해양수산	-7468
▁호텔신라	-7469
▁회복세를	-7470
자산운용이	-7471
카카오뱅크	-7472
▁공급계약을	-7473
▁높아지면서	-7474
▁뉴욕증시는	-7475
▁대한항공이	-7476
▁더존비즈온	-7477
▁사전예약을	-7478
▁삼선전환도	-7479
▁삼성전기는	-7480
▁소비심리가	-7481
▁스타투데이	-7482
▁우리농산물	-7483
▁운영한다고	-7484
▁인공호흡기	-7485
▁중소기업에	-7486
▁증가했지만	-7487
▁지급한다고	-7488
▁프리빌리지	-7489
▁현대제철은	-7490
▁금융감독원은	-7491
▁더불어민주당	-7492
▁롯데백화점은	-7493
▁리빙파워센터	-7494
▁유안타증권은	-7495
▁인천국제공항	-7496
▁적자전환했다	-7497
▁지방자치단체	-7498
▁코스피지수는	-7499
▁파생결합증권	-7500
▁포스코건설이	-7501
▁그랜드볼룸에서	-7502
▁대한상공회의소	-7503
▁사우디아라비아	-7504
▁성우엔지니어링	-7505
▁소비자동향조사	-7506
▁자매결연도시의	-7507
▁니혼게이자이신문	-7508
▁스포츠유틸리티차량	-7509
▁식품의약품안전처는	-7510
-3	-7511
1,	-7512
41	-7513
AC	-7514
CD	-7515
CJ	-7516
Sh	-7517
TO	-7518
ek	-7519
ub	-7520
~7	-7521
▁:	-7522
▁g	-7523
▁p	-7524
▁갚	-7525
▁갤	-7526
▁곡	-7527
▁꺾	-7528
▁든	-7529
▁랩	-7530
▁묶	-7531
▁빕	-7532
▁뽑	-7533
▁쉬	-7534
▁옵	-7535
▁잃	-7536
▁훈	-7537
▁훌	-7538
감한	-7539
개가	-7540
개인	-7541
경진	-7542
고도	-7543
고에	-7544
공헌	-7545
권에	-7546
규어	-7547
그린	-7548
극복	-7549
길이	-7550
나눔	-7551
네오	-7552
능력	-7553
담을	-7554
대란	-7555
됐기	-7556
드래	-7557
들로	-7558
로키	-7559
리안	-7560
리핀	-7561
만장	-7562
맞이	-7563
매매	-7564
면세	-7565
민족	-7566
밥캣	-7567
벨트	-7568
보건	-7569
보레	-7570
보조	-7571
부진	-7572
분해	-7573
성연	-7574
세라	-7575
센스	-7576
아리	-7577
어진	-7578
엄식	-7579
영경	-7580
예측	-7581
우는	-7582
위로	-7583
이를	-7584
일반	-7585
일임	-7586
자체	-7587
종이	-7588
준다	-7589
준생	-7590
진공	-7591
책임	-7592
철도	-7593
치매	-7594
케미	-7595
트롤	-7596
평양	-7597
픽스	-7598
하나	-7599
항만	-7600
현길	-7601
호연	-7602
(01	-7603
0)=	-7604
409	-7605
BSI	-7606
PEF	-7607
ard	-7608
for	-7609
ure	-7610
▁6%	-7611
▁7%	-7612
▁71	-7613
▁8%	-7614
▁감시	-7615
▁강도	-7616
▁검색	-7617
▁것에	-7618
▁고윤	-7619
▁골목	-7620
▁곳에	-7621
▁곳이	-7622
▁공업	-7623
▁광명	-7624
▁구리	-7625
▁군수	-7626
▁그런	-7627
▁금지	-7628
▁기저	-7629
▁김종	-7630
▁납부	-7631
▁농업	-7632
▁놓인	-7633
▁뉴질	-7634
▁늘려	-7635
▁대치	-7636
▁더마	-7637
▁동박	-7638
▁뒤를	-7639
▁떠올	-7640
▁런던	-7641
▁레드	-7642
▁메시	-7643
▁멘토	-7644
▁명의	-7645
▁모듈	-7646
▁모색	-7647
▁목동	-7648
▁미리	-7649
▁바운	-7650
▁반복	-7651
▁밝혔	-7652
▁밝히	-7653
▁본업	-7654
▁비행	-7655
▁산은	-7656
▁산학	-7657
▁세전	-7658
▁세트	-7659
▁센터	-7660
▁소녀	-7661
▁송도	-7662
▁수의	-7663
▁순차	-7664
▁스낵	-7665
▁스크	-7666
▁스트	-7667
▁안심	-7668
▁어디	-7669
▁언급	-7670
▁연동	-7671
▁연예	-7672
▁올랐	-7673
▁요즘	-7674
▁용역	-7675
▁우주	-7676
▁의장	-7677
▁의한	-7678
▁이영	-7679
▁인건	-7680
▁인민	-7681
▁잠재	-7682
▁장수	-7683
▁정비	-7684
▁좋아	-7685
▁지구	-7686
▁지키	-7687
▁직무	-7688
▁집에	-7689
▁차입	-7690
▁착공	-7691
▁청라	-7692
▁측면	-7693
▁치솟	-7694
▁타고	-7695
▁테라	-7696
▁테크	-7697
▁폭증	-7698
▁푸드	-7699
▁하우	-7700
▁하지	-7701
▁하회	-7702
▁한글	-7703
▁한창	-7704
▁합작	-7705
▁해석	-7706
▁해운	-7707
▁해지	-7708
▁현상	-7709
▁혹은	-7710
가격을	-7711
가구를	-7712
가정신	-7713
경제인	-7714
공사가	-7715
공장을	-7716
그룹과	-7717
드래곤	-7718
디락스	-7719
라스틱	-7720
레이드	-7721
문호남	-7722
분기는	-7723
선에서	-7724
성연진	-7725
센터와	-7726
양전환	-7727
역세권	-7728
웨이브	-7729
의민족	-7730
이노텍	-7731
이마트	-7732
일에는	-7733
자금을	-7734
최우영	-7735
투자가	-7736
투자를	-7737
파이낸	-7738
퍼니싱	-7739
하는데	-7740
해왔다	-7741
행사를	-7742
협회와	-7743
환율은	-7744
(014	-7745
150)	-7746
onam	-7747
▁163	-7748
▁189	-7749
▁190	-7750
▁67%	-7751
▁679	-7752
▁BMW	-7753
▁Fed	-7754
▁IMM	-7755
▁mun	-7756
▁△59	-7757
▁갈수록	-7758
▁강화한	-7759
▁건설업	-7760
▁고배당	-7761
▁고점의	-7762
▁과정을	-7763
▁긍정적	-7764
▁기술이	-7765
▁기준을	-7766
▁김유경	-7767
▁노동절	-7768
▁높이기	-7769
▁뉴발란	-7770
▁다가구	-7771
▁단백질	-7772
▁단지가	-7773
▁대단지	-7774
▁대표와	-7775
▁대표적	-7776
▁덕분에	-7777
▁도약을	-7778
▁동일한	-7779
▁때까지	-7780
▁또다시	-7781
▁리뉴얼	-7782
▁마사지	-7783
▁모니터	-7784
▁모집에	-7785
▁문화가	-7786
▁반영된	-7787
▁반지하	-7788
▁발간한	-7789
▁베스트	-7790
▁봄맞이	-7791
▁부문이	-7792
▁부사장	-7793
▁부원장	-7794
▁사업자	-7795
▁산업이	-7796
▁살리기	-7797
▁상환을	-7798
▁생필품	-7799
▁서울의	-7800
▁성장한	-7801
▁셈이다	-7802
▁소식이	-7803
▁쇼크로	-7804
▁쉐보레	-7805
▁스타벅	-7806
▁스테이	-7807
▁신속한	-7808
▁실제로	-7809
▁아이오	-7810
▁악화가	-7811
▁알려진	-7812
▁앞당겨	-7813
▁양천구	-7814
▁예정이	-7815
▁오현길	-7816
▁원장은	-7817
▁원호연	-7818
▁유엄식	-7819
▁유전체	-7820
▁유튜버	-7821
▁이번이	-7822
▁이어간	-7823
▁이익이	-7824
▁이재윤	-7825
▁이틀간	-7826
▁인버스	-7827
▁인스타	-7828
▁인증을	-7829
▁일본의	-7830
▁임혜선	-7831
▁입장을	-7832
▁있는데	-7833
▁있으나	-7834
▁자구안	-7835
▁자사주	-7836
▁저점과	-7837
▁적용한	-7838
▁적용해	-7839
▁정부에	-7840
▁조건을	-7841
▁주관한	-7842
▁주재한	-7843
▁즐기는	-7844
▁직거래	-7845
▁진경진	-7846
▁차원의	-7847
▁차이인	-7848
▁창업을	-7849
▁취하고	-7850
▁침체가	-7851
▁캐나다	-7852
▁캐주얼	-7853
▁커졌다	-7854
▁커지는	-7855
▁케이엠	-7856
▁코오롱	-7857
▁특별한	-7858
▁패러다	-7859
▁퍼스널	-7860
▁펀드를	-7861
▁펀드의	-7862
▁플래닝	-7863
▁하락을	-7864
▁한정판	-7865
▁행사에	-7866
▁협력사	-7867
▁확대로	-7868
▁확보를	-7869
▁환경이	-7870
▁활력을	-7871
▁회복될	-7872
▁흐름이	-7873
거스름돈	-7874
공정거래	-7875
기본소득	-7876
드라이브	-7877
마이너스	-7878
변동률을	-7879
본부장은	-7880
본부장이	-7881
분기보다	-7882
억원에서	-7883
오일뱅크	-7884
제일제당	-7885
하이마트	-7886
호반써밋	-7887
▁1930	-7888
▁2010	-7889
▁7000	-7890
▁가계대출	-7891
▁건설분야	-7892
▁검토하고	-7893
▁겨울왕국	-7894
▁경제단체	-7895
▁공동으로	-7896
▁구체적인	-7897
▁국가유공	-7898
▁급격하게	-7899
▁기술력을	-7900
▁기자간담	-7901
▁긴급사용	-7902
▁까사미아	-7903
▁나오면서	-7904
▁뉴질랜드	-7905
▁당일배송	-7906
▁대비하고	-7907
▁대통령은	-7908
▁대표하는	-7909
▁두산밥캣	-7910
▁드러났다	-7911
▁들어간다	-7912
▁메디톡스	-7913
▁보고서에	-7914
▁보장하는	-7915
▁보통사람	-7916
▁사용하는	-7917
▁사전예약	-7918
▁상무부는	-7919
▁상승으로	-7920
▁선호하는	-7921
▁성장했다	-7922
▁세계에서	-7923
▁시작됐다	-7924
▁시작된다	-7925
▁신한지주	-7926
▁아파트가	-7927
▁아파트값	-7928
▁애플망고	-7929
▁외환시장	-7930
▁의료정밀	-7931
▁이번에는	-7932
▁자동으로	-7933
▁전문위원	-7934
▁제기됐다	-7935
▁제로금리	-7936
▁제외하면	-7937
▁조성된다	-7938
▁진행되고	-7939
▁차지하는	-7940
▁최대치를	-7941
▁추락했다	-7942
▁치료제로	-7943
▁컨소시엄	-7944
▁통과했다	-7945
▁투자자별	-7946
▁폴더블폰	-7947
▁프롭테크	-7948
▁하락으로	-7949
▁해당하는	-7950
▁확인됐다	-7951
▁회사채를	-7952
네트웍스는	-7953
▁20200	-7954
▁3147%	-7955
▁거래소에서	-7956
▁공급계약에	-7957
▁대신증권은	-7958
▁대한항공과	-7959
▁마이너스로	-7960
▁선정했다고	-7961
▁순매수하며	-7962
▁신한은행은	-7963
▁엔씨소프트	-7964
▁취약계층을	-7965
▁코스닥에서	-7966
▁파트너십을	-7967
▁한국자동차	-7968
▁현대건설은	-7969
sedaily	-7970
▁농림축산식품	-7971
▁당기순손실은	-7972
▁영남취재본부	-7973
▁유럽중앙은행	-7974
▁주가변동률을	-7975
▁특별고용지원	-7976
▁munonam	-7977
▁수급측면으로는	-7978
▁콘퍼런스콜에서	-7979
▁한국조선해양은	-7980
▁기업경기실사지수	-7981
▁셀트리온헬스케어	-7982
▁한국토지주택공사	-7983
(7	-7984
2@	-7985
57	-7986
66	-7987
AB	-7988
CS	-7989
EU	-7990
IL	-7991
ab	-7992
om	-7993
~5	-7994
~6	-7995
▁굳	-7996
▁년	-7997
▁롤	-7998
▁류	-7999
▁망	-8000
▁찬	-8001
▁혈	-8002
개정	-8003
건희	-8004
게임	-8005
결을	-8006
국에	-8007
기정	-8008
끄는	-8009
널드	-8010
니커	-8011
다면	-8012
동일	-8013
드카	-8014
렌탈	-8015
려면	-8016
력과	-8017
로서	-8018
마하	-8019
매김	-8020
매체	-8021
면에	-8022
미안	-8023
버거	-8024
보유	-8025
보육	-8026
보텔	-8027
부양	-8028
사고	-8029
상보	-8030
세는	-8031
슬러	-8032
승연	-8033
시민	-8034
시킨	-8035
앤피	-8036
어의	-8037
었기	-8038
예정	-8039
외선	-8040
요금	-8041
월은	-8042
이엔	-8043
일까	-8044
자동	-8045
장한	-8046
재는	-8047
절벽	-8048
절차	-8049
주름	-8050
중견	-8051
지배	-8052
지점	-8053
직원	-8054
진출	-8055
체는	-8056
체육	-8057
최고	-8058
출이	-8059
츠는	-8060
치료	-8061
칼텍	-8062
타입	-8063
통합	-8064
패드	-8065
퍼스	-8066
표를	-8067
품평	-8068
피싱	-8069
하늘	-8070
항영	-8071
호나	-8072
홍삼	-8073
확인	-8074
150	-8075
7%,	-8076
80)	-8077
904	-8078
ECB	-8079
ICT	-8080
ate	-8081
ect	-8082
~20	-8083
▁-1	-8084
▁3%	-8085
▁BB	-8086
▁DS	-8087
▁II	-8088
▁XT	-8089
▁가수	-8090
▁가스	-8091
▁감지	-8092
▁감축	-8093
▁고정	-8094
▁국립	-8095
▁근접	-8096
▁나누	-8097
▁나눔	-8098
▁나빠	-8099
▁나설	-8100
▁낮춰	-8101
▁내에	-8102
▁내외	-8103
▁노사	-8104
▁농가	-8105
▁다각	-8106
▁도민	-8107
▁둔곡	-8108
▁등도	-8109
▁뜨겁	-8110
▁링컨	-8111
▁맞게	-8112
▁매달	-8113
▁명이	-8114
▁무너	-8115
▁문턱	-8116
▁물동	-8117
▁박형	-8118
▁발탁	-8119
▁발효	-8120
▁배출	-8121
▁보는	-8122
▁보안	-8123
▁보였	-8124
▁부과	-8125
▁불거	-8126
▁불법	-8127
▁비영	-8128
▁비율	-8129
▁빚을	-8130
▁빨리	-8131
▁산출	-8132
▁선을	-8133
▁선점	-8134
▁선진	-8135
▁세일	-8136
▁수십	-8137
▁수정	-8138
▁순환	-8139
▁시황	-8140
▁신흥	-8141
▁실내	-8142
▁쌍용	-8143
▁아주	-8144
▁애니	-8145
▁양적	-8146
▁엄격	-8147
▁여당	-8148
▁연내	-8149
▁열려	-8150
▁영남	-8151
▁운동	-8152
▁원칙	-8153
▁위반	-8154
▁위생	-8155
▁유리	-8156
▁유해	-8157
▁은평	-8158
▁응모	-8159
▁응원	-8160
▁이제	-8161
▁일괄	-8162
▁일으	-8163
▁자치	-8164
▁전보	-8165
▁전원	-8166
▁전주	-8167
▁점유	-8168
▁주어	-8169
▁중위	-8170
▁직업	-8171
▁착한	-8172
▁첫째	-8173
▁취급	-8174
▁치과	-8175
▁커진	-8176
▁콜라	-8177
▁탱크	-8178
▁톡신	-8179
▁페어	-8180
▁펼쳐	-8181
▁평택	-8182
▁한때	-8183
▁해남	-8184
▁현물	-8185
▁혼조	-8186
▁확충	-8187
▁회전	-8188
▁훌쩍	-8189
▁흥행	-8190
▁힘든	-8191
개발원	-8192
개사에	-8193
경기도	-8194
공사에	-8195
그룹에	-8196
금속업	-8197
기금을	-8198
기업에	-8199
다리스	-8200
라운드	-8201
만으로	-8202
모터스	-8203
박경훈	-8204
부문의	-8205
사업장	-8206
사이클	-8207
서울시	-8208
스럽게	-8209
스크림	-8210
안정적	-8211
양영경	-8212
에게는	-8213
엠케이	-8214
자릿수	-8215
자전거	-8216
장려금	-8217
졌지만	-8218
주주총	-8219
창업자	-8220
카이라	-8221
투자의	-8222
하우스	-8223
협력을	-8224
협회는	-8225
화증권	-8226
(044	-8227
2%),	-8228
4500	-8229
9900	-8230
▁'20	-8231
▁107	-8232
▁128	-8233
▁266	-8234
▁295	-8235
▁305	-8236
▁31%	-8237
▁42%	-8238
▁65%	-8239
▁700	-8240
▁753	-8241
▁BGF	-8242
▁ECB	-8243
▁UAM	-8244
▁가구가	-8245
▁가동을	-8246
▁강화해	-8247
▁개최한	-8248
▁거래대	-8249
▁공개된	-8250
▁공기업	-8251
▁과제를	-8252
▁관련주	-8253
▁구경민	-8254
▁그룹의	-8255
▁기회로	-8256
▁김현정	-8257
▁나타날	-8258
▁내용이	-8259
▁넘어선	-8260
▁노보텔	-8261
▁뉴스룸	-8262
▁다세대	-8263
▁던졌다	-8264
▁도널드	-8265
▁등이다	-8266
▁라인업	-8267
▁말부터	-8268
▁매수를	-8269
▁모델이	-8270
▁물량을	-8271
▁보내는	-8272
▁보험사	-8273
▁부정적	-8274
▁부회장	-8275
▁분양이	-8276
▁사람을	-8277
▁사무실	-8278
▁산업용	-8279
▁상승에	-8280
▁상장을	-8281
▁선물은	-8282
▁선방한	-8283
▁성능을	-8284
▁세계를	-8285
▁소독제	-8286
▁소재로	-8287
▁스페셜	-8288
▁시설을	-8289
▁시행령	-8290
▁어워드	-8291
▁업계의	-8292
▁열린다	-8293
▁영유아	-8294
▁오르고	-8295
▁오리온	-8296
▁올해로	-8297
▁유명한	-8298
▁음식점	-8299
▁이용자	-8300
▁인기가	-8301
▁일정을	-8302
▁잇달아	-8303
▁자리를	-8304
▁작업이	-8305
▁재활용	-8306
▁저유가	-8307
▁전국의	-8308
▁전년비	-8309
▁전망에	-8310
▁조치다	-8311
▁조치로	-8312
▁조합에	-8313
▁주제로	-8314
▁지자체	-8315
▁차질이	-8316
▁참여를	-8317
▁채용에	-8318
▁챌린지	-8319
▁청약을	-8320
▁최초의	-8321
▁출시를	-8322
▁컴퓨터	-8323
▁크리스	-8324
▁타이슨	-8325
▁통계청	-8326
▁투입해	-8327
▁판매처	-8328
▁피부를	-8329
▁하나의	-8330
▁하우버	-8331
▁한솔제	-8332
▁협력해	-8333
▁화이트	-8334
▁확산과	-8335
▁회복에	-8336
▁회사로	-8337
▁회의를	-8338
▁휘발유	-8339
과컴퓨터	-8340
긴급재난	-8341
드립니다	-8342
매일경제	-8343
모빌리티	-8344
보고서를	-8345
비즈니스	-8346
업계에서	-8347
위원회를	-8348
자율공시	-8349
주관사로	-8350
투자일임	-8351
투자자문	-8352
▁1,93	-8353
▁221%	-8354
▁가능성을	-8355
▁감소폭이	-8356
▁감소하고	-8357
▁감안하면	-8358
▁강화하는	-8359
▁고객들의	-8360
▁곳곳에서	-8361
▁국회의원	-8362
▁금융교육	-8363
▁금융그룹	-8364
▁기업들은	-8365
▁기업평가	-8366
▁대비로는	-8367
▁레스토랑	-8368
▁모태펀드	-8369
▁바운스백	-8370
▁반포주공	-8371
▁발행액은	-8372
▁보험계약	-8373
▁본인인증	-8374
▁분위기다	-8375
▁블록체인	-8376
▁사회공헌	-8377
▁서비스인	-8378
▁서울시와	-8379
▁서울지역	-8380
▁소개하고	-8381
▁소녀주의	-8382
▁소비자를	-8383
▁수요예측	-8384
▁수익성이	-8385
▁순손실을	-8386
▁실업수당	-8387
▁어려움에	-8388
▁연구위원	-8389
▁예상했다	-8390
▁욜디락스	-8391
▁원격의료	-8392
▁일반적인	-8393
▁자기자본	-8394
▁자리매김	-8395
▁자영업자	-8396
▁전략이다	-8397
▁조기상환	-8398
▁종목으로	-8399
▁주목하고	-8400
▁주식거래	-8401
▁주주제안	-8402
▁준비하는	-8403
▁지식재산	-8404
▁지역화폐	-8405
▁지원금을	-8406
▁집에서도	-8407
▁차지하며	-8408
▁참여율을	-8409
▁청약홈에	-8410
▁최저치로	-8411
▁최저치를	-8412
▁최종품평	-8413
▁추구하는	-8414
▁취업준비	-8415
▁친환경차	-8416
▁카카오는	-8417
▁컨테이너	-8418
▁편리하게	-8419
▁필기시험	-8420
▁해외여행	-8421
▁해외투자	-8422
▁홈퍼니싱	-8423
▁확진자는	-8424
▁흡수합병	-8425
박경훈기자	-8426
하이닉스가	-8427
▁거스름돈을	-8428
▁고객들에게	-8429
▁고용노동부	-8430
▁공인중개사	-8431
▁기업가정신	-8432
▁디자인스킨	-8433
▁목표주가를	-8434
▁미래에셋은	-8435
▁삼성물산은	-8436
▁삼성증권은	-8437
▁상황에서도	-8438
▁선제적으로	-8439
▁세븐일레븐	-8440
▁수출입은행	-8441
▁시장점유율	-8442
▁애니메이션	-8443
▁전국경제인	-8444
▁증가하면서	-8445
▁착수했다고	-8446
▁키움증권은	-8447
▁필요하다고	-8448
▁흑자전환에	-8449
다리스튜디오	-8450
동학개미운동	-8451
리빙파워센터	-8452
▁대우조선해양	-8453
▁서울신라호텔	-8454
▁재난기본소득	-8455
▁파이낸셜타임	-8456
바이오사이언스	-8457
▁개별주택가격은	-8458
▁두나무투자일임	-8459
▁삼성디스플레이	-8460
▁소비자심리지수	-8461
▁하나금융투자는	-8462
sedailycom	-8463
▁과학기술정보통신부	-8464
▁미래에셋자산운용은	-8465
AN	-8466
CP	-8467
OL	-8468
PF	-8469
RS	-8470
SB	-8471
ce	-8472
cl	-8473
ob	-8474
~1	-8475
▁걷	-8476
▁낼	-8477
▁뒷	-8478
▁롱	-8479
▁묻	-8480
▁뭉	-8481
▁밥	-8482
▁섹	-8483
▁짧	-8484
▁칠	-8485
▁케	-8486
▁튀	-8487
▁펄	-8488
▁폰	-8489
▁휩	-8490
객이	-8491
검단	-8492
경봇	-8493
계가	-8494
계와	-8495
고은	-8496
과정	-8497
교섭	-8498
구니	-8499
구마	-8500
균관	-8501
나가	-8502
나인	-8503
남동	-8504
논현	-8505
눈에	-8506
달라	-8507
동욱	-8508
등을	-8509
래픽	-8510
레오	-8511
려는	-8512
려한	-8513
로버	-8514
마일	-8515
만간	-8516
매장	-8517
맥주	-8518
물자	-8519
미콘	-8520
보기	-8521
보안	-8522
산은	-8523
상생	-8524
상선	-8525
상태	-8526
서도	-8527
서류	-8528
선애	-8529
성남	-8530
성분	-8531
성의	-8532
셀러	-8533
소로	-8534
소한	-8535
수도	-8536
순환	-8537
실을	-8538
심한	-8539
싱턴	-8540
아너	-8541
아오	-8542
암호	-8543
액의	-8544
언트	-8545
에어	-8546
영향	-8547
예금	-8548
오고	-8549
오프	-8550
우주	-8551
월의	-8552
유식	-8553
이슬	-8554
이영	-8555
인승	-8556
인치	-8557
일과	-8558
일러	-8559
잡을	-8560
재생	-8561
재용	-8562
재해	-8563
전화	-8564
조치	-8565
좋은	-8566
주에	-8567
준환	-8568
지대	-8569
지던	-8570
지방	-8571
차가	-8572
창현	-8573
채널	-8574
청에	-8575
체국	-8576
체에	-8577
추가	-8578
출된	-8579
취업	-8580
치지	-8581
터가	-8582
트론	-8583
팀장	-8584
파이	-8585
프란	-8586
플립	-8587
해운	-8588
해준	-8589
현수	-8590
형제	-8591
혜원	-8592
화와	-8593
(14	-8594
(2,	-8595
(22	-8596
780	-8597
PER	-8598
ell	-8599
ent	-8600
new	-8601
riv	-8602
▁"5	-8603
▁'5	-8604
▁08	-8605
▁69	-8606
▁94	-8607
▁CT	-8608
▁KF	-8609
▁ch	-8610
▁so	-8611
▁가리	-8612
▁가져	-8613
▁간단	-8614
▁감독	-8615
▁감면	-8616
▁강북	-8617
▁거점	-8618
▁겹친	-8619
▁경매	-8620
▁경품	-8621
▁고위	-8622
▁곳은	-8623
▁과천	-8624
▁교촌	-8625
▁구는	-8626
▁국적	-8627
▁금호	-8628
▁급속	-8629
▁길어	-8630
▁김세	-8631
▁김형	-8632
▁끝에	-8633
▁내는	-8634
▁늘린	-8635
▁달할	-8636
▁당뇨	-8637
▁당선	-8638
▁대다	-8639
▁대대	-8640
▁대명	-8641
▁되지	-8642
▁들고	-8643
▁따르	-8644
▁로드	-8645
▁매월	-8646
▁면적	-8647
▁못할	-8648
▁반납	-8649
▁반도	-8650
▁반응	-8651
▁방산	-8652
▁배경	-8653
▁배치	-8654
▁번에	-8655
▁법정	-8656
▁보상	-8657
▁보수	-8658
▁보완	-8659
▁복귀	-8660
▁부여	-8661
▁비정	-8662
▁뿌리	-8663
▁사라	-8664
▁사명	-8665
▁산정	-8666
▁삼일	-8667
▁생태	-8668
▁세금	-8669
▁손쉽	-8670
▁손해	-8671
▁순천	-8672
▁스위	-8673
▁식물	-8674
▁실현	-8675
▁싶은	-8676
▁씨는	-8677
▁아산	-8678
▁알뜰	-8679
▁야외	-8680
▁양재	-8681
▁열람	-8682
▁영어	-8683
▁영역	-8684
▁와인	-8685
▁용품	-8686
▁운항	-8687
▁원고	-8688
▁유력	-8689
▁유용	-8690
▁유행	-8691
▁윤종	-8692
▁음료	-8693
▁의뢰	-8694
▁이대	-8695
▁이브	-8696
▁이외	-8697
▁인지	-8698
▁일단	-8699
▁임차	-8700
▁입증	-8701
▁자국	-8702
▁자랑	-8703
▁적응	-8704
▁적합	-8705
▁전혀	-8706
▁전후	-8707
▁정관	-8708
▁정면	-8709
▁정한	-8710
▁제고	-8711
▁제너	-8712
▁조금	-8713
▁조지	-8714
▁조회	-8715
▁존재	-8716
▁진화	-8717
▁질적	-8718
▁청량	-8719
▁추종	-8720
▁측에	-8721
▁캡처	-8722
▁코나	-8723
▁티볼	-8724
▁표현	-8725
▁한강	-8726
▁한일	-8727
▁호반	-8728
▁혼란	-8729
▁확실	-8730
▁환자	-8731
과장급	-8732
라이언	-8733
리바바	-8734
리지널	-8735
리포트	-8736
마켓과	-8737
면서다	-8738
미디어	-8739
민동훈	-8740
받는다	-8741
센트럴	-8742
스티벌	-8743
스포츠	-8744
시켰다	-8745
시키는	-8746
실적은	-8747
어린이	-8748
업계를	-8749
월에도	-8750
웨이가	-8751
이승환	-8752
자들을	-8753
제약이	-8754
제조업	-8755
졌다고	-8756
지에서	-8757
카드의	-8758
펀드는	-8759
함으로	-8760
해각서	-8761
했다가	-8762
현대차	-8763
협의회	-8764
13%)	-8765
2277	-8766
2500	-8767
OPEC	-8768
PLCC	-8769
clos	-8770
ject	-8771
open	-8772
tech	-8773
▁03%	-8774
▁1,3	-8775
▁106	-8776
▁115	-8777
▁119	-8778
▁129	-8779
▁211	-8780
▁215	-8781
▁241	-8782
▁251	-8783
▁28%	-8784
▁2~3	-8785
▁33%	-8786
▁344	-8787
▁412	-8788
▁415	-8789
▁45%	-8790
▁49%	-8791
▁Dis	-8792
▁FTA	-8793
▁가구를	-8794
▁가입한	-8795
▁가치가	-8796
▁가파른	-8797
▁개발이	-8798
▁개선이	-8799
▁거래에	-8800
▁건강한	-8801
▁건수가	-8802
▁경기를	-8803
▁경영에	-8804
▁고양시	-8805
▁구조를	-8806
▁그만큼	-8807
▁금액이	-8808
▁기대가	-8809
▁꾸러미	-8810
▁나스닥	-8811
▁넘어서	-8812
▁늘렸다	-8813
▁달한다	-8814
▁대책을	-8815
▁돌아선	-8816
▁됐다고	-8817
▁등급인	-8818
▁마아라	-8819
▁마치고	-8820
▁매도한	-8821
▁맺었다	-8822
▁물량은	-8823
▁박계현	-8824
▁반준환	-8825
▁방향을	-8826
▁보였던	-8827
▁부모님	-8828
▁부친상	-8829
▁분양가	-8830
▁비영리	-8831
▁비타민	-8832
▁사업비	-8833
▁사진은	-8834
▁상승을	-8835
▁상업자	-8836
▁상품의	-8837
▁성공한	-8838
▁수익형	-8839
▁수자원	-8840
▁스카이	-8841
▁시기를	-8842
▁신기술	-8843
▁신청을	-8844
▁실리콘	-8845
▁아경봇	-8846
▁아난티	-8847
▁아울렛	-8848
▁않는다	-8849
▁앱으로	-8850
▁연준은	-8851
▁열렸다	-8852
▁예상치	-8853
▁오디오	-8854
▁우수연	-8855
▁우체국	-8856
▁운송에	-8857
▁운영에	-8858
▁위기의	-8859
▁위워크	-8860
▁유명희	-8861
▁유지할	-8862
▁은행과	-8863
▁이건희	-8864
▁이끄는	-8865
▁이상인	-8866
▁이선애	-8867
▁이영민	-8868
▁이유는	-8869
▁이제는	-8870
▁자구노	-8871
▁자사의	-8872
▁재설계	-8873
▁전환한	-8874
▁정책에	-8875
▁조짐을	-8876
▁주상돈	-8877
▁줄면서	-8878
▁중장기	-8879
▁중진공	-8880
▁증가해	-8881
▁증권가	-8882
▁지수를	-8883
▁지역은	-8884
▁지역을	-8885
▁지정된	-8886
▁지하철	-8887
▁직원이	-8888
▁집값이	-8889
▁차별화	-8890
▁차질을	-8891
▁참석해	-8892
▁채용이	-8893
▁청소년	-8894
▁체제로	-8895
▁초유의	-8896
▁취업을	-8897
▁침체에	-8898
▁케이블	-8899
▁코람코	-8900
▁토픽스	-8901
▁품목을	-8902
▁플러스	-8903
▁필리핀	-8904
▁하나인	-8905
▁한고은	-8906
▁한국미	-8907
▁한눈에	-8908
▁한샘은	-8909
▁확보한	-8910
▁환율이	-8911
겨울왕국	-8912
국제도시	-8913
담보대출	-8914
물인터넷	-8915
보조기구	-8916
업체들이	-8917
점검회의	-8918
중견기업	-8919
▁-48%	-8920
▁017%	-8921
▁1980	-8922
▁1990	-8923
▁211%	-8924
▁KCFT	-8925
▁QLED	-8926
▁가격으로	-8927
▁강화하고	-8928
▁개인들의	-8929
▁개최하고	-8930
▁거래액이	-8931
▁경기도가	-8932
▁경기부양	-8933
▁경영대학	-8934
▁급감으로	-8935
▁급등했다	-8936
▁기업은행	-8937
▁돌입했다	-8938
▁두산솔루	-8939
▁롯데칠성	-8940
▁마감됐다	-8941
▁메시지를	-8942
▁면세점이	-8943
▁모니터링	-8944
▁목소리가	-8945
▁법조계에	-8946
▁별도기준	-8947
▁상승세다	-8948
▁상온물류	-8949
▁서울특별	-8950
▁성장세를	-8951
▁신용대출	-8952
▁아니냐는	-8953
▁알리바바	-8954
▁연말까지	-8955
▁영향에도	-8956
▁운영자금	-8957
▁움직임을	-8958
▁위안화의	-8959
▁유료방송	-8960
▁음식료품	-8961
▁이엠케이	-8962
▁입찰제안	-8963
▁자금조달	-8964
▁자회사를	-8965
▁작년보다	-8966
▁전자공시	-8967
▁조달청은	-8968
▁조사결과	-8969
▁주도하고	-8970
▁주주총회	-8971
▁주택가격	-8972
▁증권사의	-8973
▁지적이다	-8974
▁집중되고	-8975
▁참여하지	-8976
▁체결하고	-8977
▁최적화된	-8978
▁추진하고	-8979
▁출범한다	-8980
▁케어푸드	-8981
▁케이스를	-8982
▁코아시아	-8983
▁통상교섭	-8984
▁패러다임	-8985
▁페스티벌	-8986
▁협업으로	-8987
▁확산되고	-8988
▁확산에도	-8989
▁회복했다	-8990
▁휴게음식	-8991
금융그룹의	-8992
기획재정부	-8993
사업장에서	-8994
카이라이프	-8995
회의실에서	-8996
▁계획이라고	-8997
▁금융시장의	-8998
▁다음달부터	-8999
▁디지털금융	-9000
▁마찬가지로	-9001
▁복합쇼핑몰	-9002
▁본회의에서	-9003
▁비대면고객	-9004
▁산업은행과	-9005
▁서비스센터	-9006
▁서울남부지	-9007
▁소녀주의보	-9008
▁신용등급이	-9009
▁아이스크림	-9010
▁예비창업자	-9011
▁우리나라의	-9012
▁인스타그램	-9013
▁인터뷰에서	-9014
▁일본은행은	-9015
▁적극적으로	-9016
▁중소기업과	-9017
▁지난해부터	-9018
▁진단키트를	-9019
▁칠성사이다	-9020
▁투자자들은	-9021
▁현대카드는	-9022
▁활성화하기	-9023
라이프플래닛	-9024
브로드밴드는	-9025
조선호텔에서	-9026
closure	-9027
▁기술보증기금	-9028
▁대표주관사로	-9029
▁대한적십자사	-9030
▁두산중공업에	-9031
▁순매수하였고	-9032
▁주가연계증권	-9033
▁주관기관으로	-9034
▁첨단보조기구	-9035
▁파이낸셜뉴스	-9036
▁한국미니스톱	-9037
▁현대오일뱅크	-9038
▁Project	-9039
▁개인투자자들의	-9040
▁중소벤처기업의	-9041
▁현대일렉트릭은	-9042
▁기간산업안정기금	-9043
▁아모레퍼시픽그룹은	-9044
▁Disclosure	-9045
▁과학기술정보통신부는	-9046
▁탄소정보공개프로젝트	-9047
▁신종코로나바이러스감염증	-9048
,3	-9049
3)	-9050
3,	-9051
56	-9052
8,	-9053
DR	-9054
MH	-9055
aT	-9056
▁j	-9057
▁겁	-9058
▁뛴	-9059
▁맘	-9060
▁믿	-9061
▁숫	-9062
▁엑	-9063
▁융	-9064
▁을	-9065
▁쪽	-9066
▁컴	-9067
▁톡	-9068
▁펴	-9069
▁햇	-9070
각을	-9071
개장	-9072
곳의	-9073
공동	-9074
관이	-9075
구본	-9076
국상	-9077
권과	-9078
규석	-9079
그레	-9080
남에	-9081
넥신	-9082
년생	-9083
놈앤	-9084
누리	-9085
다음	-9086
당성	-9087
동전	-9088
두로	-9089
라며	-9090
량의	-9091
력에	-9092
리포	-9093
만대	-9094
머지	-9095
메리	-9096
멘텀	-9097
뮤직	-9098
박세	-9099
발된	-9100
배달	-9101
봐야	-9102
브이	-9103
블루	-9104
생태	-9105
석환	-9106
설명	-9107
성수	-9108
소송	-9109
소에	-9110
소형	-9111
스톱	-9112
스포	-9113
승의	-9114
시코	-9115
식이	-9116
아암	-9117
아연	-9118
아직	-9119
안이	-9120
어도	-9121
억을	-9122
에만	-9123
여객	-9124
연도	-9125
우며	-9126
월중	-9127
웨덴	-9128
위인	-9129
유동	-9130
이면	-9131
이토	-9132
인재	-9133
인호	-9134
일로	-9135
일웅	-9136
자재	-9137
장씩	-9138
정식	-9139
주고	-9140
주문	-9141
중기	-9142
즈의	-9143
지노	-9144
차로	-9145
창출	-9146
채은	-9147
철영	-9148
카데	-9149
퀘어	-9150
퀴즈	-9151
크림	-9152
태화	-9153
터에	-9154
토막	-9155
퇴근	-9156
투어	-9157
특수	-9158
플루	-9159
화문	-9160
화정	-9161
활성	-9162
(16	-9163
115	-9164
203	-9165
309	-9166
689	-9167
800	-9168
Mir	-9169
art	-9170
ekb	-9171
mer	-9172
old	-9173
ood	-9174
~10	-9175
▁Cr	-9176
▁LF	-9177
▁SE	-9178
▁간식	-9179
▁갈아	-9180
▁갑작	-9181
▁강타	-9182
▁갤러	-9183
▁거부	-9184
▁검단	-9185
▁고수	-9186
▁고형	-9187
▁공영	-9188
▁공항	-9189
▁구제	-9190
▁국외	-9191
▁그의	-9192
▁근거	-9193
▁금강	-9194
▁김정	-9195
▁꿈꾸	-9196
▁나섰	-9197
▁내장	-9198
▁넘은	-9199
▁녹색	-9200
▁다날	-9201
▁단체	-9202
▁당사	-9203
▁대기	-9204
▁대화	-9205
▁덕에	-9206
▁도쿄	-9207
▁동래	-9208
▁되살	-9209
▁로켓	-9210
▁루크	-9211
▁만날	-9212
▁많다	-9213
▁맞고	-9214
▁모여	-9215
▁모은	-9216
▁밀려	-9217
▁받기	-9218
▁발견	-9219
▁보내	-9220
▁보성	-9221
▁분할	-9222
▁비싼	-9223
▁뿐만	-9224
▁사로	-9225
▁사막	-9226
▁사원	-9227
▁산림	-9228
▁삼양	-9229
▁서구	-9230
▁성인	-9231
▁세입	-9232
▁수확	-9233
▁쉽지	-9234
▁슈즈	-9235
▁스케	-9236
▁스태	-9237
▁승진	-9238
▁시사	-9239
▁시티	-9240
▁실천	-9241
▁안랩	-9242
▁압박	-9243
▁어플	-9244
▁여성	-9245
▁연합	-9246
▁영양	-9247
▁예능	-9248
▁예외	-9249
▁오락	-9250
▁원더	-9251
▁웹툰	-9252
▁유아	-9253
▁유한	-9254
▁음악	-9255
▁이강	-9256
▁이노	-9257
▁이연	-9258
▁이종	-9259
▁일원	-9260
▁일이	-9261
▁일일	-9262
▁입성	-9263
▁자제	-9264
▁잡고	-9265
▁장례	-9266
▁재판	-9267
▁전동	-9268
▁조절	-9269
▁줄고	-9270
▁줄여	-9271
▁중에	-9272
▁증발	-9273
▁증액	-9274
▁지붕	-9275
▁징검	-9276
▁채소	-9277
▁청정	-9278
▁청주	-9279
▁최동	-9280
▁축적	-9281
▁취약	-9282
▁치킨	-9283
▁친구	-9284
▁큐브	-9285
▁타운	-9286
▁탄생	-9287
▁탄탄	-9288
▁통제	-9289
▁파운	-9290
▁파인	-9291
▁페이	-9292
▁평생	-9293
▁폐기	-9294
▁포털	-9295
▁푸르	-9296
▁하방	-9297
▁혼자	-9298
▁홀로	-9299
▁홍대	-9300
▁화면	-9301
▁화제	-9302
▁환매	-9303
▁회수	-9304
▁휘센	-9305
간편식	-9306
공장의	-9307
구에서	-9308
기업을	-9309
김대우	-9310
더블유	-9311
됐으며	-9312
드팩토	-9313
라이트	-9314
르면서	-9315
만개를	-9316
만명의	-9317
명이다	-9318
모비스	-9319
물량이	-9320
민상식	-9321
받았다	-9322
발전소	-9323
발전은	-9324
방안을	-9325
본부는	-9326
사이언	-9327
사진을	-9328
상장관	-9329
성정보	-9330
수료를	-9331
스트림	-9332
시설이	-9333
았다고	-9334
았지만	-9335
양대근	-9336
업으로	-9337
업체가	-9338
업체로	-9339
었으며	-9340
연합회	-9341
오쇼핑	-9342
위에서	-9343
이어서	-9344
이영규	-9345
이익은	-9346
이토젠	-9347
자산이	-9348
재단과	-9349
전자산	-9350
전자의	-9351
정책관	-9352
제품을	-9353
주체는	-9354
지원을	-9355
차관이	-9356
차세대	-9357
채상우	-9358
친환경	-9359
캐피털	-9360
코스피	-9361
트리밍	-9362
판매를	-9363
프란시	-9364
하기도	-9365
핵융합	-9366
홍태화	-9367
화이트	-9368
(-00	-9369
(003	-9370
3252	-9371
4100	-9372
6%),	-9373
610)	-9374
▁02%	-9375
▁102	-9376
▁14%	-9377
▁153	-9378
▁160	-9379
▁19%	-9380
▁322	-9381
▁360	-9382
▁550	-9383
▁56%	-9384
▁609	-9385
▁74%	-9386
▁760	-9387
▁89%	-9388
▁CNN	-9389
▁FCA	-9390
▁FDA	-9391
▁가구의	-9392
▁강원도	-9393
▁겁니다	-9394
▁경계현	-9395
▁경영을	-9396
▁계좌로	-9397
▁고용을	-9398
▁공장의	-9399
▁괴리율	-9400
▁구직자	-9401
▁구채은	-9402
▁그런데	-9403
▁금융사	-9404
▁기업어	-9405
▁기회가	-9406
▁김성은	-9407
▁김정은	-9408
▁꼬북칩	-9409
▁나들이	-9410
▁나머지	-9411
▁나아가	-9412
▁높였다	-9413
▁달했다	-9414
▁담보로	-9415
▁대법원	-9416
▁데일리	-9417
▁도입을	-9418
▁되면서	-9419
▁등록된	-9420
▁디즈니	-9421
▁렌터카	-9422
▁롯데가	-9423
▁메뉴를	-9424
▁명동의	-9425
▁모양의	-9426
▁모으기	-9427
▁무기한	-9428
▁무인기	-9429
▁문제는	-9430
▁물건을	-9431
▁부양책	-9432
▁부족한	-9433
▁부진이	-9434
▁부처님	-9435
▁사용한	-9436
▁산업을	-9437
▁산유국	-9438
▁상품과	-9439
▁생산을	-9440
▁생산한	-9441
▁성균관	-9442
▁소규모	-9443
▁소비심	-9444
▁손쉽게	-9445
▁송화정	-9446
▁수익이	-9447
▁수준에	-9448
▁스웨덴	-9449
▁시세차	-9450
▁신청할	-9451
▁안건을	-9452
▁안전한	-9453
▁안정을	-9454
▁알파돔	-9455
▁업체에	-9456
▁엔지니	-9457
▁여부에	-9458
▁여전사	-9459
▁열기가	-9460
▁오늘장	-9461
▁와중에	-9462
▁완료한	-9463
▁우려로	-9464
▁우려에	-9465
▁웨스틴	-9466
▁웹세미	-9467
▁유로존	-9468
▁유승목	-9469
▁의료기	-9470
▁이슈를	-9471
▁이었다	-9472
▁이지스	-9473
▁이태원	-9474
▁일주일	-9475
▁임철영	-9476
▁있으면	-9477
▁장세희	-9478
▁저비용	-9479
▁전환에	-9480
▁정일웅	-9481
▁제넥신	-9482
▁조달을	-9483
▁조만간	-9484
▁조치가	-9485
▁주주연	-9486
▁주차장	-9487
▁중국이	-9488
▁중단된	-9489
▁지대공	-9490
▁지속될	-9491
▁지역별	-9492
▁지역이	-9493
▁지영호	-9494
▁지원금	-9495
▁지원해	-9496
▁차량을	-9497
▁채권형	-9498
▁청호나	-9499
▁체감경	-9500
▁체로키	-9501
▁최선을	-9502
▁추진할	-9503
▁축산물	-9504
▁출발한	-9505
▁출범한	-9506
▁쿠팡이	-9507
▁타이어	-9508
▁투자는	-9509
▁판결이	-9510
▁플레이	-9511
▁하락에	-9512
▁하락해	-9513
▁한규석	-9514
▁한라는	-9515
▁행사가	-9516
▁현금을	-9517
▁화려한	-9518
▁화성시	-9519
▁확보해	-9520
▁활기를	-9521
▁활동이	-9522
▁황국상	-9523
▁흑자로	-9524
경제과학	-9525
국민카드	-9526
기업으로	-9527
네트워크	-9528
도시공사	-9529
보고서에	-9530
생명과학	-9531
식품유통	-9532
신용정보	-9533
업무단지	-9534
연구소는	-9535
이자이익	-9536
지배지분	-9537
트레이딩	-9538
황금연휴	-9539
회계법인	-9540
▁113%	-9541
▁161%	-9542
▁174%	-9543
▁2007	-9544
▁2365	-9545
▁253%	-9546
▁813%	-9547
▁999%	-9548
▁open	-9549
▁soco	-9550
▁가입자가	-9551
▁가입하는	-9552
▁강화하기	-9553
▁강화한다	-9554
▁같은기간	-9555
▁개최했다	-9556
▁겹치면서	-9557
▁경쟁률을	-9558
▁경진대회	-9559
▁고객들이	-9560
▁공격적인	-9561
▁공급되는	-9562
▁공급한다	-9563
▁국가통계	-9564
▁극복하기	-9565
▁급증하고	-9566
▁기업들을	-9567
▁기저효과	-9568
▁기점으로	-9569
▁기초지수	-9570
▁기획전을	-9571
▁긴급대출	-9572
▁누적수익	-9573
▁다가오는	-9574
▁대기업의	-9575
▁대외경제	-9576
▁맺었다고	-9577
▁몰리면서	-9578
▁반려동물	-9579
▁발언하고	-9580
▁배터리를	-9581
▁부산시가	-9582
▁부회장이	-9583
▁불가피할	-9584
▁비상교육	-9585
▁산학협력	-9586
▁삼성닷컴	-9587
▁상품권을	-9588
▁새벽배송	-9589
▁선불카드	-9590
▁성장지원	-9591
▁수익률을	-9592
▁스마트홈	-9593
▁스킨푸드	-9594
▁스타필드	-9595
▁스트리밍	-9596
▁시장으로	-9597
▁시장조사	-9598
▁신한은행	-9599
▁실시했다	-9600
▁씽크풀과	-9601
▁아파트에	-9602
▁업계에서	-9603
▁에디션을	-9604
▁엑스레이	-9605
▁연료전지	-9606
▁예금보험	-9607
▁오리지널	-9608
▁완료하고	-9609
▁요청했다	-9610
▁운영한다	-9611
▁움직임이	-9612
▁육박하는	-9613
▁의약품업	-9614
▁이마트는	-9615
▁이상으로	-9616
▁이후에도	-9617
▁일자리를	-9618
▁임상시험	-9619
▁임직원이	-9620
▁잇따르고	-9621
▁적용한다	-9622
▁제외하고	-9623
▁종근당은	-9624
▁주방가전	-9625
▁중국에서	-9626
▁중순부터	-9627
▁증가율을	-9628
▁지속되고	-9629
▁채권단은	-9630
▁채권시장	-9631
▁코스메틱	-9632
▁통상장관	-9633
▁투자전략	-9634
▁트렌드에	-9635
▁파운드리	-9636
▁품평회가	-9637
▁프라이빗	-9638
▁하락세가	-9639
▁해당한다	-9640
▁해외진출	-9641
▁행복주택	-9642
▁혁신성장	-9643
▁화상으로	-9644
▁확대된다	-9645
금융지주가	-9646
녹십자엠에	-9647
산업은행과	-9648
스마트뱅킹	-9649
아이씨에스	-9650
유플러스가	-9651
테크노밸리	-9652
투자증권의	-9653
하락반전형	-9654
▁20~30	-9655
▁leekb	-9656
▁가맹점에서	-9657
▁개최했다고	-9658
▁견본주택을	-9659
▁글로벌기업	-9660
▁급락하면서	-9661
▁기록했지만	-9662
▁뉴욕증시가	-9663
▁동남아시아	-9664
▁떨어지면서	-9665
▁로이터통신	-9666
▁매수우위를	-9667
▁모두발언을	-9668
▁무풍에어컨	-9669
▁보이스피싱	-9670
▁삼성증권의	-9671
▁신동탄포레	-9672
▁신용등급을	-9673
▁실시간으로	-9674
▁실적발표를	-9675
▁안방보험이	-9676
▁예정이라고	-9677
▁온라인쇼핑	-9678
▁의료정밀업	-9679
▁인수하기로	-9680
▁임직원에게	-9681
▁자구노력을	-9682
▁정기주주총	-9683
▁증권사들이	-9684
▁지원사업은	-9685
▁직원들에게	-9686
▁진출한다고	-9687
▁채용한다고	-9688
▁취업준비생	-9689
▁커넥티드카	-9690
▁프로그램은	-9691
▁획득했다고	-9692
▁힐스테이트	-9693
미래에셋대우	-9694
▁롯데하이마트	-9695
▁무역협회장이	-9696
▁서울남부지검	-9697
▁순매수하였다	-9698
▁주택담보대출	-9699
▁중소기업유통	-9700
▁카카오뱅크가	-9701
▁홈페이지에서	-9702
긴급재난지원금	-9703
▁기업평가사이트	-9704
▁삼성엔지니어링	-9705
▁상온물류서비스	-9706
▁유진투자증권은	-9707
▁파이낸셜뉴스의	-9708
▁흑자전환했다고	-9709
▁공정거래위원회는	-9710
▁산업통상자원부가	-9711
▁산업통상자원부에	-9712
▁인천경제자유구역	-9713
"(	-9714
7,	-9715
92	-9716
AX	-9717
CN	-9718
DT	-9719
GI	-9720
GV	-9721
IF	-9722
JB	-9723
OC	-9724
OS	-9725
SH	-9726
TH	-9727
XM	-9728
ll	-9729
▁>	-9730
▁i	-9731
▁○	-9732
▁中	-9733
▁늦	-9734
▁덴	-9735
▁센	-9736
▁써	-9737
▁쏘	-9738
▁쓴	-9739
▁염	-9740
▁옷	-9741
▁왜	-9742
▁젠	-9743
▁칼	-9744
▁캘	-9745
▁틀	-9746
▁펀	-9747
▁핑	-9748
▁횡	-9749
가공	-9750
가족	-9751
갱신	-9752
거주	-9753
게는	-9754
경남	-9755
고양	-9756
골든	-9757
곳은	-9758
과는	-9759
광다	-9760
광석	-9761
군은	-9762
군이	-9763
글라	-9764
급제	-9765
기호	-9766
난이	-9767
년단	-9768
니저	-9769
니트	-9770
다발	-9771
돈을	-9772
동나	-9773
동반	-9774
드가	-9775
드림	-9776
드에	-9777
든한	-9778
들어	-9779
들휴	-9780
디악	-9781
라밸	-9782
렌트	-9783
로가	-9784
로명	-9785
론을	-9786
만한	-9787
망을	-9788
매물	-9789
메디	-9790
면역	-9791
모든	-9792
목을	-9793
목인	-9794
바트	-9795
발생	-9796
배로	-9797
부로	-9798
부처	-9799
불이	-9800
비전	-9801
사법	-9802
사상	-9803
사전	-9804
사항	-9805
상에	-9806
상위	-9807
상호	-9808
서면	-9809
설비	-9810
세의	-9811
세중	-9812
셔츠	-9813
송금	-9814
쇼크	-9815
수석	-9816
시다	-9817
시드	-9818
시와	-9819
신날	-9820
심의	-9821
아야	-9822
앤씨	-9823
어서	-9824
억캔	-9825
연수	-9826
열에	-9827
예비	-9828
와는	-9829
용직	-9830
원더	-9831
원태	-9832
윈드	-9833
육성	-9834
은상	-9835
이가	-9836
이용	-9837
익을	-9838
인과	-9839
인용	-9840
인포	-9841
입국	-9842
입찰	-9843
자문	-9844
자연	-9845
장학	-9846
재석	-9847
저장	-9848
전에	-9849
정이	-9850
젝시	-9851
조차	-9852
준호	-9853
증시	-9854
지기	-9855
지인	-9856
지지	-9857
지혜	-9858
직을	-9859
진은	-9860
차게	-9861
차례	-9862
차트	-9863
참여	-9864
천연	-9865
청과	-9866
촉을	-9867
최대	-9868
추고	-9869
춘성	-9870
춘희	-9871
츠온	-9872
치며	-9873
캘란	-9874
캡슐	-9875
태형	-9876
테라	-9877
편한	-9878
푸르	-9879
프렌	-9880
플레	-9881
한을	-9882
한희	-9883
호를	-9884
호에	-9885
호의	-9886
확산	-9887
히고	-9888
히트	-9889
(11	-9890
(30	-9891
002	-9892
180	-9893
182	-9894
250	-9895
3%,	-9896
50%	-9897
686	-9898
9%)	-9899
DLF	-9900
UAE	-9901
ark	-9902
ess	-9903
lee	-9904
nex	-9905
ror	-9906
▁'0	-9907
▁3~	-9908
▁4%	-9909
▁IP	-9910
▁OK	-9911
▁tv	-9912
▁가게	-9913
▁같다	-9914
▁계양	-9915
▁고무	-9916
▁곳을	-9917
▁공격	-9918
▁구도	-9919
▁군사	-9920
▁군에	-9921
▁군포	-9922
▁귀재	-9923
▁균형	-9924
▁그럼	-9925
▁끈다	-9926
▁나와	-9927
▁남성	-9928
▁내림	-9929
▁노력	-9930
▁노르	-9931
▁단순	-9932
▁달에	-9933
▁담아	-9934
▁대란	-9935
▁대변	-9936
▁도서	-9937
▁동작	-9938
▁동행	-9939
▁되면	-9940
▁마늘	-9941
▁마일	-9942
▁만의	-9943
▁목재	-9944
▁몰아	-9945
▁문구	-9946
▁물질	-9947
▁미간	-9948
▁미칠	-9949
▁밀집	-9950
▁바라	-9951
▁박사	-9952
▁반월	-9953
▁발사	-9954
▁발송	-9955
▁발주	-9956
▁버킷	-9957
▁변호	-9958
▁병행	-9959
▁볼보	-9960
▁봤다	-9961
▁부대	-9962
▁비자	-9963
▁빌려	-9964
▁빕스	-9965
▁빗썸	-9966
▁사는	-9967
▁살때	-9968
▁살려	-9969
▁상시	-9970
▁상조	-9971
▁상주	-9972
▁서로	-9973
▁선포	-9974
▁성수	-9975
▁세슘	-9976
▁셰일	-9977
▁수혈	-9978
▁스텝	-9979
▁스티	-9980
▁스프	-9981
▁시추	-9982
▁실패	-9983
▁실험	-9984
▁쓰고	-9985
▁알짜	-9986
▁양태	-9987
▁어닝	-9988
▁얻고	-9989
▁엄청	-9990
▁엔젤	-9991
▁여는	-9992
▁연수	-9993
▁연출	-9994
▁옥션	-9995
▁완벽	-9996
▁외교	-9997
▁외에	-9998
▁운전	-9999
▁운행	-10000
▁유형	-10001
▁윤호	-10002
▁인물	-10003
▁인텔	-10004
▁일각	-10005
▁일목	-10006
▁일을	-10007
▁입금	-10008
▁입력	-10009
▁입장	-10010
▁장난	-10011
▁장세	-10012
▁재료	-10013
▁전례	-10014
▁전방	-10015
▁전복	-10016
▁전속	-10017
▁전액	-10018
▁정찬	-10019
▁정회	-10020
▁제어	-10021
▁제재	-10022
▁종이	-10023
▁종전	-10024
▁주화	-10025
▁중개	-10026
▁중증	-10027
▁중지	-10028
▁즉석	-10029
▁지도	-10030
▁지웰	-10031
▁진로	-10032
▁차를	-10033
▁천호	-10034
▁체질	-10035
▁출장	-10036
▁커버	-10037
▁컨셉	-10038
▁코세	-10039
▁탄산	-10040
▁탈출	-10041
▁태광	-10042
▁토익	-10043
▁토핑	-10044
▁퇴직	-10045
▁특가	-10046
▁파일	-10047
▁파주	-10048
▁팔때	-10049
▁포지	-10050
▁프레	-10051
▁한류	-10052
▁한층	-10053
▁합리	-10054
▁현아	-10055
▁호가	-10056
▁호소	-10057
▁호재	-10058
▁화소	-10059
▁휴무	-10060
▁휴직	-10061
▁흑석	-10062
가구의	-10063
경제가	-10064
관광부	-10065
구본혁	-10066
기관에	-10067
기능성	-10068
기업과	-10069
기자가	-10070
김창현	-10071
년에는	-10072
년으로	-10073
도서관	-10074
들휴브	-10075
만건을	-10076
면세점	-10077
명에서	-10078
바구니	-10079
법원에	-10080
부문은	-10081
부정적	-10082
브리드	-10083
비세미	-10084
비율은	-10085
사업자	-10086
사회의	-10087
상이다	-10088
생명이	-10089
생산은	-10090
세서리	-10091
쇼어링	-10092
스에서	-10093
실적이	-10094
에서만	-10095
위원장	-10096
이오드	-10097
인력을	-10098
일자로	-10099
재단은	-10100
전문가	-10101
정보를	-10102
제약의	-10103
주택의	-10104
증시는	-10105
창업사	-10106
청에서	-10107
카데미	-10108
캠퍼스	-10109
컨설팅	-10110
케어는	-10111
트리스	-10112
티스트	-10113
틱스는	-10114
플라워	-10115
플랜트	-10116
하라고	-10117
학년도	-10118
항생제	-10119
활동에	-10120
활동이	-10121
(221	-10122
17%)	-10123
1900	-10124
3300	-10125
43%)	-10126
4473	-10127
AIST	-10128
ilis	-10129
orea	-10130
rand	-10131
▁12%	-10132
▁125	-10133
▁179	-10134
▁21%	-10135
▁220	-10136
▁230	-10137
▁240	-10138
▁272	-10139
▁283	-10140
▁36%	-10141
▁55(	-10142
▁6-1	-10143
▁848	-10144
▁KCC	-10145
▁PMI	-10146
▁SPC	-10147
▁감소를	-10148
▁개선에	-10149
▁개시될	-10150
▁개인과	-10151
▁개척을	-10152
▁건물을	-10153
▁겨냥한	-10154
▁경쟁률	-10155
▁경쟁을	-10156
▁경제는	-10157
▁고형광	-10158
▁공급과	-10159
▁공장이	-10160
▁광화문	-10161
▁구입할	-10162
▁국회는	-10163
▁금감원	-10164
▁기간과	-10165
▁기조를	-10166
▁김태인	-10167
▁남겼다	-10168
▁내용은	-10169
▁노력을	-10170
▁능력을	-10171
▁다하고	-10172
▁대다수	-10173
▁대비한	-10174
▁대학생	-10175
▁돌파한	-10176
▁두드러	-10177
▁들어가	-10178
▁등급을	-10179
▁뜨겁다	-10180
▁마련에	-10181
▁마스터	-10182
▁만트럭	-10183
▁많았다	-10184
▁말한다	-10185
▁머무는	-10186
▁멕시코	-10187
▁면접을	-10188
▁모델의	-10189
▁모았다	-10190
▁목표다	-10191
▁문은상	-10192
▁문제를	-10193
▁미국이	-10194
▁바닥을	-10195
▁박형수	-10196
▁반토막	-10197
▁받아들	-10198
▁발생해	-10199
▁방문객	-10200
▁법원에	-10201
▁보이지	-10202
▁부진을	-10203
▁불어넣	-10204
▁비용을	-10205
▁비율은	-10206
▁상장에	-10207
▁상장폐	-10208
▁생산과	-10209
▁선보여	-10210
▁선보일	-10211
▁성수기	-10212
▁성장동	-10213
▁성적을	-10214
▁세웠다	-10215
▁소아암	-10216
▁소유의	-10217
▁속도가	-10218
▁수량을	-10219
▁수요와	-10220
▁수준이	-10221
▁스승의	-10222
▁스크린	-10223
▁스페인	-10224
▁시대의	-10225
▁시점을	-10226
▁신논현	-10227
▁신약은	-10228
▁실적과	-10229
▁안재용	-10230
▁않으면	-10231
▁양성희	-10232
▁양재동	-10233
▁얘기다	-10234
▁엄격한	-10235
▁업체는	-10236
▁업체를	-10237
▁없지만	-10238
▁열리는	-10239
▁열풍이	-10240
▁예비타	-10241
▁올리고	-10242
▁올리는	-10243
▁외신에	-10244
▁울트라	-10245
▁워싱턴	-10246
▁원더톡	-10247
▁위험이	-10248
▁유럽과	-10249
▁은행별	-10250
▁의견이	-10251
▁의결권	-10252
▁의료진	-10253
▁이대호	-10254
▁이뤄진	-10255
▁이어져	-10256
▁인턴십	-10257
▁인하와	-10258
▁있을까	-10259
▁작업에	-10260
▁잡았다	-10261
▁장애인	-10262
▁전까지	-10263
▁전략이	-10264
▁전체의	-10265
▁접수가	-10266
▁제도다	-10267
▁제약업	-10268
▁제조사	-10269
▁제품과	-10270
▁조원태	-10271
▁조정을	-10272
▁주택은	-10273
▁주택을	-10274
▁주택이	-10275
▁줄이기	-10276
▁중국발	-10277
▁중기부	-10278
▁중대형	-10279
▁증가율	-10280
▁지놈앤	-10281
▁지표가	-10282
▁직면한	-10283
▁촉발된	-10284
▁총자산	-10285
▁최대폭	-10286
▁최우수	-10287
▁추세를	-10288
▁추진해	-10289
▁출시해	-10290
▁코란도	-10291
▁통신사	-10292
▁티구안	-10293
▁판매에	-10294
▁패스트	-10295
▁펫케어	-10296
▁편리한	-10297
▁포함된	-10298
▁플라워	-10299
▁필두로	-10300
▁하한가	-10301
▁협약식	-10302
▁홈쇼핑	-10303
▁확대와	-10304
▁확보할	-10305
▁황준호	-10306
▁회사에	-10307
▁효성은	-10308
▁희비가	-10309
건강보험	-10310
건설산업	-10311
달러이고	-10312
대학교가	-10313
대학교는	-10314
만원이다	-10315
맵플러스	-10316
비세미콘	-10317
아너시티	-10318
안정자금	-10319
었습니다	-10320
연구원이	-10321
올리브영	-10322
조원으로	-10323
추가상장	-10324
코리아에	-10325
탄소년단	-10326
텔레콤이	-10327
파트너스	-10328
팩토리원	-10329
프리미엄	-10330
하면서다	-10331
함으로써	-10332
했음에도	-10333
(0048	-10334
▁159%	-10335
▁1950	-10336
▁2004	-10337
▁315%	-10338
▁6000	-10339
▁9000	-10340
▁가로주택	-10341
▁감시대상	-10342
▁강남대로	-10343
▁계열사의	-10344
▁고객상담	-10345
▁고려아연	-10346
▁관리하는	-10347
▁교역조건	-10348
▁그럼에도	-10349
▁근무하는	-10350
▁급락으로	-10351
▁급증했다	-10352
▁기념촬영	-10353
▁기대감에	-10354
▁기업결합	-10355
▁기업어음	-10356
▁내놓았다	-10357
▁다이렉트	-10358
▁대응으로	-10359
▁대중교통	-10360
▁도시락을	-10361
▁둘러보고	-10362
▁때문으로	-10363
▁떠오르고	-10364
▁리스크가	-10365
▁마일리지	-10366
▁매매거래	-10367
▁메드팩토	-10368
▁무급휴직	-10369
▁무역수지	-10370
▁미간주름	-10371
▁보고서는	-10372
▁보합세를	-10373
▁본부장은	-10374
▁분위기를	-10375
▁브리핑을	-10376
▁비트코인	-10377
▁상승률은	-10378
▁상회하는	-10379
▁생산라인	-10380
▁서비스로	-10381
▁선물세트	-10382
▁선보이며	-10383
▁소송에서	-10384
▁수출액이	-10385
▁스텝다운	-10386
▁스피리츠	-10387
▁시행된다	-10388
▁시행한다	-10389
▁신고가를	-10390
▁아파트의	-10391
▁안전자산	-10392
▁암호화폐	-10393
▁양해각서	-10394
▁어려워진	-10395
▁업사이클	-10396
▁업체들의	-10397
▁여신금융	-10398
▁영업익이	-10399
▁외환위기	-10400
▁우려된다	-10401
▁위탁운용	-10402
▁유럽연합	-10403
▁이야기를	-10404
▁이의신청	-10405
▁이코노미	-10406
▁입주자를	-10407
▁자구안에	-10408
▁적발됐다	-10409
▁전문은행	-10410
▁정상화를	-10411
▁정수기를	-10412
▁제기했다	-10413
▁제시하지	-10414
▁조건으로	-10415
▁조지아주	-10416
▁주장했다	-10417
▁준비하고	-10418
▁중단됐던	-10419
▁중단사업	-10420
▁지웰시티	-10421
▁지정됐다	-10422
▁진행했다	-10423
▁집중하고	-10424
▁징검다리	-10425
▁참여했다	-10426
▁창업보육	-10427
▁청년들의	-10428
▁출시하고	-10429
▁테슬라의	-10430
▁트랙라인	-10431
▁트레이딩	-10432
▁특수고용	-10433
▁티볼리를	-10434
▁파격적인	-10435
▁패키지를	-10436
▁평가에서	-10437
▁포인트를	-10438
▁한계기업	-10439
▁한국에서	-10440
▁한국항공	-10441
▁해외유입	-10442
▁현대상선	-10443
▁협력사에	-10444
▁확대됐다	-10445
▁확대하는	-10446
광다이오드	-10447
국민카드가	-10448
국민카드는	-10449
기업은행은	-10450
상승반전형	-10451
시지사에서	-10452
신한부동산	-10453
프란시스코	-10454
Mirror	-10455
▁감소했지만	-10456
▁거리두기를	-10457
▁검단신도시	-10458
▁공기청정기	-10459
▁공시가격은	-10460
▁구조조정이	-10461
▁국내에서는	-10462
▁급감하면서	-10463
▁대표이사가	-10464
▁대한항공은	-10465
▁로봇기자가	-10466
▁롯데지주는	-10467
▁빅데이터를	-10468
▁시작했다고	-10469
▁신선식품을	-10470
▁신용평가사	-10471
▁신한은행과	-10472
▁신한카드는	-10473
▁예상된다고	-10474
▁오픈했다고	-10475
▁유상증자를	-10476
▁유통업계가	-10477
▁음식료품업	-10478
▁제조업체로	-10479
▁중소기업이	-10480
▁지속되면서	-10481
▁지역경제를	-10482
▁최대주주인	-10483
▁투자심리가	-10484
▁프로바이오	-10485
▁필요하다는	-10486
▁현대리바트	-10487
▁확대한다고	-10488
▁확산하면서	-10489
▁활성화하고	-10490
브로드밴드와	-10491
주택도시공사	-10492
창업사관학교	-10493
nexilis	-10494
▁국무회의에서	-10495
▁국토교통부에	-10496
▁기획재정부는	-10497
▁라임자산운용	-10498
▁롯데칠성음료	-10499
▁삼일회계법인	-10500
▁서영아너시티	-10501
▁쌍용자동차가	-10502
▁영구임대주택	-10503
▁외환시장에서	-10504
▁중소기업중앙	-10505
▁컨퍼런스콜을	-10506
▁플래그십스토	-10507
▁한국위원회가	-10508
▁한글과컴퓨터	-10509
산업통상자원부	-10510
▁기자간담회에서	-10511
▁르노삼성자동차	-10512
▁오스템임플란트	-10513
▁키다리스튜디오	-10514
▁가로주택정비사업	-10515
▁서울특별시지사에서	-10516
▁중소벤처기업진흥공단	-10517
AT	-10518
BT	-10519
CM	-10520
LE	-10521
LT	-10522
NA	-10523
NI	-10524
at	-10525
ha	-10526
mo	-10527
ow	-10528
ra	-10529
▁o	-10530
▁’	-10531
▁굴	-10532
▁균	-10533
▁꽁	-10534
▁꾀	-10535
▁를	-10536
▁벅	-10537
▁뵨	-10538
▁붐	-10539
▁욕	-10540
▁읍	-10541
▁읽	-10542
▁층	-10543
▁틈	-10544
▁펩	-10545
▁픽	-10546
▁핸	-10547
▁햄	-10548
▁흘	-10549
▁힐	-10550
경수	-10551
계의	-10552
계좌	-10553
고로	-10554
고리	-10555
골드	-10556
관실	-10557
교역	-10558
구성	-10559
기아	-10560
김명	-10561
끗한	-10562
끼는	-10563
나갈	-10564
나미	-10565
나요	-10566
내기	-10567
년째	-10568
느냐	-10569
더기	-10570
도그	-10571
라즈	-10572
락을	-10573
란다	-10574
란드	-10575
란히	-10576
랍에	-10577
렀다	-10578
로켓	-10579
룩스	-10580
르네	-10581
르몬	-10582
르자	-10583
마블	-10584
마자	-10585
매입	-10586
메가	-10587
명수	-10588
목이	-10589
박범	-10590
발행	-10591
방지	-10592
백신	-10593
밴드	-10594
보가	-10595
보복	-10596
볶음	-10597
부제	-10598
분에	-10599
브라	-10600
블릿	-10601
비는	-10602
비상	-10603
사자	-10604
상사	-10605
상향	-10606
성비	-10607
소은	-10608
수로	-10609
수한	-10610
스파	-10611
씨엔	-10612
씬파	-10613
아트	-10614
앤티	-10615
야구	-10616
약정	-10617
어요	-10618
언즈	-10619
업은	-10620
엔봇	-10621
엔젤	-10622
엔진	-10623
여신	-10624
연율	-10625
연준	-10626
영국	-10627
영양	-10628
예선	-10629
온유	-10630
요한	-10631
우기	-10632
울한	-10633
원동	-10634
원혁	-10635
위축	-10636
유망	-10637
유치	-10638
이체	-10639
일업	-10640
재훈	-10641
저우	-10642
제연	-10643
종과	-10644
주방	-10645
주시	-10646
중심	-10647
줬다	-10648
직한	-10649
진영	-10650
착순	-10651
천리	-10652
청구	-10653
추진	-10654
충돌	-10655
치엘	-10656
치의	-10657
캠프	-10658
클리	-10659
키스	-10660
키친	-10661
토핑	-10662
톡히	-10663
통장	-10664
통제	-10665
트와	-10666
팀이	-10667
페코	-10668
포스	-10669
표준	-10670
풍선	-10671
프린	-10672
피자	-10673
학과	-10674
학기	-10675
학적	-10676
한경	-10677
한이	-10678
함이	-10679
합성	-10680
해질	-10681
했을	-10682
험생	-10683
현석	-10684
현정	-10685
혜림	-10686
홍조	-10687
화훼	-10688
회견	-10689
회생	-10690
히는	-10691
(09	-10692
(17	-10693
(18	-10694
(55	-10695
24,	-10696
45(	-10697
557	-10698
8%)	-10699
864	-10700
944	-10701
ASS	-10702
CAP	-10703
OIL	-10704
OLD	-10705
STR	-10706
ine	-10707
sis	-10708
~25	-10709
~84	-10710
▁"3	-10711
▁'2	-10712
▁0%	-10713
▁0~	-10714
▁9%	-10715
▁AA	-10716
▁[4	-10717
▁dw	-10718
▁간의	-10719
▁개의	-10720
▁갱신	-10721
▁거둔	-10722
▁거친	-10723
▁걸맞	-10724
▁게이	-10725
▁결성	-10726
▁고기	-10727
▁고사	-10728
▁고전	-10729
▁곤두	-10730
▁공익	-10731
▁과세	-10732
▁관망	-10733
▁광역	-10734
▁국유	-10735
▁그리	-10736
▁근육	-10737
▁기계	-10738
▁기름	-10739
▁길을	-10740
▁김승	-10741
▁김해	-10742
▁꽁꽁	-10743
▁끝나	-10744
▁낙관	-10745
▁납입	-10746
▁낮춘	-10747
▁내몰	-10748
▁냉동	-10749
▁넷째	-10750
▁노바	-10751
▁노선	-10752
▁높인	-10753
▁다수	-10754
▁다운	-10755
▁다중	-10756
▁달콤	-10757
▁당장	-10758
▁덜어	-10759
▁돕고	-10760
▁드림	-10761
▁떠나	-10762
▁라틴	-10763
▁런칭	-10764
▁루미	-10765
▁리얼	-10766
▁리튬	-10767
▁마오	-10768
▁만년	-10769
▁맛을	-10770
▁맞물	-10771
▁매경	-10772
▁메가	-10773
▁명예	-10774
▁모임	-10775
▁못지	-10776
▁문의	-10777
▁미친	-10778
▁박정	-10779
▁받지	-10780
▁배상	-10781
▁버는	-10782
▁법적	-10783
▁별로	-10784
▁병원	-10785
▁보낸	-10786
▁보니	-10787
▁복잡	-10788
▁부동	-10789
▁부보	-10790
▁부서	-10791
▁부지	-10792
▁분리	-10793
▁비빔	-10794
▁비판	-10795
▁상관	-10796
▁상단	-10797
▁상이	-10798
▁서면	-10799
▁세미	-10800
▁소환	-10801
▁속출	-10802
▁손상	-10803
▁수강	-10804
▁수산	-10805
▁승부	-10806
▁시기	-10807
▁시달	-10808
▁시선	-10809
▁시점	-10810
▁시정	-10811
▁신주	-10812
▁실증	-10813
▁쓰는	-10814
▁아래	-10815
▁안착	-10816
▁앞다	-10817
▁양국	-10818
▁양극	-10819
▁양대	-10820
▁양파	-10821
▁엔터	-10822
▁여건	-10823
▁여야	-10824
▁연질	-10825
▁예타	-10826
▁올려	-10827
▁우세	-10828
▁우아	-10829
▁우정	-10830
▁원리	-10831
▁원장	-10832
▁월세	-10833
▁위에	-10834
▁유연	-10835
▁육아	-10836
▁의약	-10837
▁이것	-10838
▁익숙	-10839
▁인피	-10840
▁일명	-10841
▁일임	-10842
▁입고	-10843
▁자극	-10844
▁재차	-10845
▁저희	-10846
▁전무	-10847
▁절대	-10848
▁점이	-10849
▁점차	-10850
▁정밀	-10851
▁주효	-10852
▁죽은	-10853
▁중장	-10854
▁지능	-10855
▁지목	-10856
▁지인	-10857
▁지프	-10858
▁진료	-10859
▁진작	-10860
▁창립	-10861
▁철저	-10862
▁총력	-10863
▁충돌	-10864
▁치즈	-10865
▁캐피	-10866
▁캠핑	-10867
▁코어	-10868
▁코인	-10869
▁크지	-10870
▁터치	-10871
▁토탈	-10872
▁파격	-10873
▁파견	-10874
▁파라	-10875
▁파킹	-10876
▁패턴	-10877
▁펭수	-10878
▁편안	-10879
▁포기	-10880
▁포천	-10881
▁폭을	-10882
▁표면	-10883
▁하며	-10884
▁학원	-10885
▁한방	-10886
▁한숨	-10887
▁후반	-10888
▁후즈	-10889
▁휴장	-10890
개국에	-10891
개사가	-10892
겠지만	-10893
공장이	-10894
국기구	-10895
국에서	-10896
그래픽	-10897
금액이	-10898
금으로	-10899
김명룡	-10900
김범석	-10901
너지를	-10902
대까지	-10903
동아리	-10904
됐으나	-10905
디에프	-10906
랍에미	-10907
레이크	-10908
렌트유	-10909
마을금	-10910
메이커	-10911
면서도	-10912
물량은	-10913
바이스	-10914
박로명	-10915
보통주	-10916
산업에	-10917
생산이	-10918
성벤처	-10919
성장을	-10920
소득이	-10921
수요가	-10922
스퀘어	-10923
스탁스	-10924
승인을	-10925
시설로	-10926
었다는	-10927
에이치	-10928
에프앤	-10929
였다고	-10930
오른쪽	-10931
오신날	-10932
웨이는	-10933
으로서	-10934
이태형	-10935
장비업	-10936
재개발	-10937
조합은	-10938
주인수	-10939
주차장	-10940
증시가	-10941
차전지	-10942
최고의	-10943
최원혁	-10944
충당금	-10945
케미칼	-10946
코스닥	-10947
콤팩트	-10948
크로젠	-10949
포럼이	-10950
필요한	-10951
한국형	-10952
한희라	-10953
해서다	-10954
회장이	-10955
히어로	-10956
(+13	-10957
(15:	-10958
1%),	-10959
1419	-10960
19'(	-10961
2793	-10962
3125	-10963
3200	-10964
4756	-10965
6500	-10966
7278	-10967
7300	-10968
8600	-10969
PASS	-10970
▁-00	-10971
▁1,0	-10972
▁109	-10973
▁121	-10974
▁124	-10975
▁134	-10976
▁139	-10977
▁143	-10978
▁158	-10979
▁162	-10980
▁172	-10981
▁175	-10982
▁18%	-10983
▁196	-10984
▁212	-10985
▁223	-10986
▁287	-10987
▁365	-10988
▁378	-10989
▁38%	-10990
▁384	-10991
▁404	-10992
▁46%	-10993
▁60%	-10994
▁644	-10995
▁648	-10996
▁670	-10997
▁73%	-10998
▁95%	-10999
▁AFP	-11000
▁DAX	-11001
▁DLS	-11002
▁ICE	-11003
▁KTB	-11004
▁Key	-11005
▁MOU	-11006
▁Man	-11007
▁Pre	-11008
▁TBT	-11009
▁가구당	-11010
▁가구에	-11011
▁가이드	-11012
▁가졌다	-11013
▁가처분	-11014
▁간편식	-11015
▁강기준	-11016
▁강화와	-11017
▁개선된	-11018
▁거듭나	-11019
▁건조기	-11020
▁격전지	-11021
▁경영자	-11022
▁경험과	-11023
▁계절적	-11024
▁계좌에	-11025
▁고부가	-11026
▁공급에	-11027
▁공무원	-11028
▁공장은	-11029
▁과도한	-11030
▁관리가	-11031
▁광고를	-11032
▁국가공	-11033
▁국내로	-11034
▁국민이	-11035
▁그린카	-11036
▁급성장	-11037
▁기자재	-11038
▁꼽혔다	-11039
▁꾸준한	-11040
▁나가는	-11041
▁나누고	-11042
▁나타난	-11043
▁낮췄다	-11044
▁내놓을	-11045
▁냈다고	-11046
▁넘었다	-11047
▁녹십자	-11048
▁논란이	-11049
▁논의를	-11050
▁늘어났	-11051
▁달아오	-11052
▁대학교	-11053
▁도입한	-11054
▁도입해	-11055
▁도현정	-11056
▁동전을	-11057
▁두산베	-11058
▁든든한	-11059
▁들여다	-11060
▁때보다	-11061
▁롯데몰	-11062
▁리브엠	-11063
▁매각과	-11064
▁매니저	-11065
▁맥캘란	-11066
▁메디톡	-11067
▁모멘텀	-11068
▁몰리고	-11069
▁무기명	-11070
▁무조건	-11071
▁문턱을	-11072
▁문혜원	-11073
▁박람회	-11074
▁방문이	-11075
▁방법은	-11076
▁방사선	-11077
▁방식의	-11078
▁변경을	-11079
▁보조금	-11080
▁분석도	-11081
▁분쟁이	-11082
▁불이익	-11083
▁브리지	-11084
▁비상장	-11085
▁비수기	-11086
▁비율을	-11087
▁사업과	-11088
▁사용해	-11089
▁사이에	-11090
▁삼성과	-11091
▁상무는	-11092
▁상업용	-11093
▁상장협	-11094
▁상황은	-11095
▁생산은	-11096
▁서버용	-11097
▁선구매	-11098
▁선정돼	-11099
▁선정한	-11100
▁선착순	-11101
▁설립한	-11102
▁성공할	-11103
▁성기호	-11104
▁성장에	-11105
▁성장이	-11106
▁세계가	-11107
▁소유자	-11108
▁소유한	-11109
▁수요도	-11110
▁수출에	-11111
▁수험생	-11112
▁수혜를	-11113
▁스태프	-11114
▁스토어	-11115
▁승용차	-11116
▁시대가	-11117
▁시몬스	-11118
▁시험을	-11119
▁식음료	-11120
▁신성장	-11121
▁앞세워	-11122
▁야심작	-11123
▁양태연	-11124
▁어렵다	-11125
▁언론에	-11126
▁없어도	-11127
▁연기를	-11128
▁연봉을	-11129
▁연이어	-11130
▁예방을	-11131
▁예정된	-11132
▁오세중	-11133
▁오프쇼	-11134
▁완전히	-11135
▁요건을	-11136
▁우려를	-11137
▁울산시	-11138
▁원활히	-11139
▁월평균	-11140
▁위축과	-11141
▁유성구	-11142
▁유일한	-11143
▁의미를	-11144
▁이끌고	-11145
▁이끌어	-11146
▁이뤄질	-11147
▁이사회	-11148
▁이어갈	-11149
▁이어진	-11150
▁이유다	-11151
▁이익을	-11152
▁이재용	-11153
▁이춘희	-11154
▁인근에	-11155
▁인천시	-11156
▁임온유	-11157
▁임홍조	-11158
▁자산은	-11159
▁자외선	-11160
▁잔액이	-11161
▁장난감	-11162
▁재고를	-11163
▁재규어	-11164
▁재산세	-11165
▁재학생	-11166
▁전달할	-11167
▁전문점	-11168
▁전체를	-11169
▁점이다	-11170
▁접목한	-11171
▁정세희	-11172
▁정이슬	-11173
▁제고를	-11174
▁제안한	-11175
▁제한된	-11176
▁조금씩	-11177
▁조사는	-11178
▁종목을	-11179
▁주장이	-11180
▁중수익	-11181
▁증가와	-11182
▁진출한	-11183
▁진행해	-11184
▁집주인	-11185
▁채널을	-11186
▁처분을	-11187
▁천예선	-11188
▁체계를	-11189
▁초점을	-11190
▁최고급	-11191
▁최우선	-11192
▁충당금	-11193
▁충칭과	-11194
▁카드사	-11195
▁컬렉션	-11196
▁키워드	-11197
▁태블릿	-11198
▁톡톡히	-11199
▁투자한	-11200
▁펼치고	-11201
▁평가해	-11202
▁하락할	-11203
▁학자금	-11204
▁한국은	-11205
▁핫도그	-11206
▁해결할	-11207
▁했으나	-11208
▁행진을	-11209
▁현상을	-11210
▁호르몬	-11211
▁화보를	-11212
▁확대된	-11213
▁확대할	-11214
▁확산된	-11215
▁활용할	-11216
▁회복을	-11217
거래소의	-11218
그레이드	-11219
기업공개	-11220
기업들의	-11221
기업들이	-11222
만달러를	-11223
벤처투자	-11224
산업계에	-11225
소상공인	-11226
스코어가	-11227
스테이션	-11228
시스템을	-11229
신용등급	-11230
씬파일러	-11231
연구소가	-11232
위원회에	-11233
일부터는	-11234
자산관리	-11235
지원센터	-11236
지주회사	-11237
천연가스	-11238
투자신탁	-11239
한국전력	-11240
홈쇼핑은	-11241
(0053	-11242
):45(	-11243
ntact	-11244
▁002%	-11245
▁1122	-11246
▁1209	-11247
▁1377	-11248
▁1646	-11249
▁169%	-11250
▁1751	-11251
▁1920	-11252
▁1960	-11253
▁1997	-11254
▁300%	-11255
▁3376	-11256
▁3~4%	-11257
▁673%	-11258
▁829%	-11259
▁936%	-11260
▁FTSE	-11261
▁가능하게	-11262
▁개발하는	-11263
▁개인투자	-11264
▁거주하는	-11265
▁건강보험	-11266
▁경영난에	-11267
▁경제매체	-11268
▁계열사를	-11269
▁고용위기	-11270
▁골프존은	-11271
▁공공조달	-11272
▁관계자를	-11273
▁구매하고	-11274
▁국세청은	-11275
▁규제혁신	-11276
▁금감원은	-11277
▁금융보안	-11278
▁급등하고	-11279
▁긍정적인	-11280
▁기업대출	-11281
▁기자회견	-11282
▁기초생활	-11283
▁김포공항	-11284
▁나서면서	-11285
▁넥실리스	-11286
▁노하우를	-11287
▁대상에서	-11288
▁돌입한다	-11289
▁드라이버	-11290
▁들어서만	-11291
▁떠올랐다	-11292
▁랜드로버	-11293
▁마크로젠	-11294
▁매도세를	-11295
▁매매가격	-11296
▁매매까지	-11297
▁목적으로	-11298
▁무디스는	-11299
▁미세먼지	-11300
▁발행액이	-11301
▁백화점과	-11302
▁부사장은	-11303
▁부합하는	-11304
▁부회장은	-11305
▁비정규직	-11306
▁빅스트림	-11307
▁사업에서	-11308
▁사업장의	-11309
▁산업단지	-11310
▁산업재해	-11311
▁산업혁명	-11312
▁새마을금	-11313
▁서민금융	-11314
▁서비스에	-11315
▁서울시내	-11316
▁서울행정	-11317
▁설문조사	-11318
▁성균관대	-11319
▁수상했다	-11320
▁수익률은	-11321
▁수준까지	-11322
▁수혜주로	-11323
▁스케일업	-11324
▁스토어를	-11325
▁시범사업	-11326
▁신용회복	-11327
▁아랍에미	-11328
▁않았지만	-11329
▁에이치엘	-11330
▁연질캡슐	-11331
▁영등포구	-11332
▁예정일은	-11333
▁완판됐다	-11334
▁외화대출	-11335
▁요인으로	-11336
▁운수창고	-11337
▁의정부역	-11338
▁이달부터	-11339
▁이뤄지는	-11340
▁이마트와	-11341
▁이벤트로	-11342
▁인도분은	-11343
▁인명사전	-11344
▁일주일에	-11345
▁자기주식	-11346
▁자녀장려	-11347
▁장기화에	-11348
▁적용되는	-11349
▁전기로에	-11350
▁전략으로	-11351
▁전망됐다	-11352
▁전문적인	-11353
▁전반적인	-11354
▁정책으로	-11355
▁제거하는	-11356
▁제기되고	-11357
▁제네시스	-11358
▁제한하는	-11359
▁종목들의	-11360
▁주관사로	-11361
▁주문하면	-11362
▁줄어들고	-11363
▁중기부는	-11364
▁지배구조	-11365
▁지속되는	-11366
▁지원대상	-11367
▁참여한다	-11368
▁창업자가	-11369
▁청사진을	-11370
▁코리아는	-11371
▁키즈랜드	-11372
▁탄소경영	-11373
▁탄소섬유	-11374
▁투자자를	-11375
▁투자했다	-11376
▁트렌드를	-11377
▁파산보호	-11378
▁판매되고	-11379
▁편의점과	-11380
▁포지션을	-11381
▁품평회를	-11382
▁플랫폼인	-11383
▁하나은행	-11384
▁한국산업	-11385
▁한미약품	-11386
▁현대렌탈	-11387
▁현대차가	-11388
▁협력업체	-11389
▁호텔에서	-11390
▁화훼농가	-11391
▁확대하기	-11392
▁확대했다	-11393
▁회복되고	-11394
▁효율적인	-11395
금융지주는	-11396
분기부터는	-11397
상생플러스	-11398
성벤처밸리	-11399
수출국기구	-11400
신용평가사	-11401
자산운용은	-11402
전자상거래	-11403
한국거래소	-11404
(014%)	-11405
newsis	-11406
▁2,000	-11407
▁3,000	-11408
▁KOTRA	-11409
▁Korea	-11410
▁dwlee	-11411
▁가정간편식	-11412
▁거리두기에	-11413
▁경기침체로	-11414
▁경제단체장	-11415
▁공공기관의	-11416
▁관련업계에	-11417
▁근로장려금	-11418
▁기록하면서	-11419
▁르노삼성차	-11420
▁리서치센터	-11421
▁무역수지는	-11422
▁바이오헬스	-11423
▁배달의민족	-11424
▁본격화하고	-11425
▁사물인터넷	-11426
▁삼성전자에	-11427
▁서부텍사스	-11428
▁성공적으로	-11429
▁수상했다고	-11430
▁수석부원장	-11431
▁알파돔시티	-11432
▁예비타당성	-11433
▁온라인에서	-11434
▁우리은행은	-11435
▁운수장비업	-11436
▁위축되면서	-11437
▁유비케어는	-11438
▁인터넷은행	-11439
▁임직원들이	-11440
▁자카르타에	-11441
▁전반적으로	-11442
▁정례회의를	-11443
▁제공한다고	-11444
▁제출했다고	-11445
▁조성한다고	-11446
▁줄어들었다	-11447
▁채권형펀드	-11448
▁철강금속업	-11449
▁컨센서스를	-11450
▁특례수입을	-11451
▁하이브리드	-11452
▁한솔제지는	-11453
▁허용한다고	-11454
▁현대모비스	-11455
▁홈페이지에	-11456
▁홈페이지와	-11457
▁홈플러스는	-11458
▁황금연휴가	-11459
▁휴게음식점	-11460
니트헬스케어	-11461
스카이라이프	-11462
▁189706	-11463
▁socool	-11464
▁고용노동부가	-11465
▁고용노동부는	-11466
▁공적마스크를	-11467
▁국토교통부가	-11468
▁기후변화대응	-11469
▁라이프스타일	-11470
▁루미마이크로	-11471
▁매입임대주택	-11472
▁삼성중공업은	-11473
▁순매도하였고	-11474
▁신용유의자가	-11475
▁아랍에미리트	-11476
▁저비용항공사	-11477
▁카카오뱅크와	-11478
▁파생결합펀드	-11479
▁한국감정원에	-11480
▁행정안전부는	-11481
▁현대차증권은	-11482
▁금융감독원장이	-11483
▁금융투자협회에	-11484
▁도이치텔레콤과	-11485
▁두산인프라코어	-11486
▁미래에셋대우의	-11487
▁에이프로젠제약	-11488
▁한국자동차산업	-11489
▁현대중공업지주	-11490
newsiscom	-11491
▁공시대상기업집단	-11492
▁교보라이프플래닛	-11493
▁메리츠금융그룹은	-11494
▁중소벤처기업부와	-11495
▁신사업창업사관학교	-11496
-9	-11497
07	-11498
1'	-11499
5)	-11500
5,	-11501
AP	-11502
BL	-11503
CT	-11504
EM	-11505
FI	-11506
FX	-11507
IP	-11508
KI	-11509
MT	-11510
PL	-11511
Pl	-11512
TT	-11513
UG	-11514
US	-11515
iz	-11516
mt	-11517
oc	-11518
st	-11519
vi	-11520
~8	-11521
’)	-11522
▁+	-11523
▁겔	-11524
▁낳	-11525
▁돋	-11526
▁됐	-11527
▁똑	-11528
▁벨	-11529
▁봤	-11530
▁삭	-11531
▁습	-11532
▁썼	-11533
▁앉	-11534
▁웰	-11535
▁잦	-11536
▁쟁	-11537
▁탁	-11538
▁팁	-11539
▁횟	-11540
감소	-11541
감시	-11542
개념	-11543
개별	-11544
고무	-11545
고채	-11546
공유	-11547
공행	-11548
과와	-11549
관세	-11550
괄적	-11551
광고	-11552
교보	-11553
국토	-11554
기념	-11555
기의	-11556
길에	-11557
김훈	-11558
나스	-11559
내용	-11560
넥슨	-11561
년물	-11562
니얼	-11563
다드	-11564
동원	-11565
두부	-11566
뒀다	-11567
디앤	-11568
디프	-11569
딩을	-11570
라톤	-11571
려고	-11572
로이	-11573
론은	-11574
론의	-11575
료에	-11576
뤘다	-11577
리세	-11578
리즘	-11579
립을	-11580
마감	-11581
말을	-11582
망이	-11583
매각	-11584
면접	-11585
명과	-11586
모집	-11587
목동	-11588
미노	-11589
반등	-11590
방법	-11591
방어	-11592
배에	-11593
백을	-11594
법률	-11595
부상	-11596
부족	-11597
브로	-11598
비서	-11599
비트	-11600
비티	-11601
산을	-11602
산지	-11603
서구	-11604
서스	-11605
성우	-11606
세균	-11607
세일	-11608
소매	-11609
소스	-11610
수급	-11611
수주	-11612
수현	-11613
쉐어	-11614
스턴	-11615
스틸	-11616
스팬	-11617
실업	-11618
심을	-11619
심이	-11620
씨의	-11621
아임	-11622
안은	-11623
약한	-11624
양념	-11625
에너	-11626
에프	-11627
여대	-11628
여름	-11629
연료	-11630
영제	-11631
왔던	-11632
외식	-11633
용역	-11634
우권	-11635
워커	-11636
원료	-11637
월초	-11638
윅스	-11639
유기	-11640
이진	-11641
인구	-11642
인주	-11643
일물	-11644
일의	-11645
일인	-11646
일자	-11647
자극	-11648
자다	-11649
재정	-11650
전은	-11651
정에	-11652
조를	-11653
주류	-11654
준욱	-11655
중단	-11656
증명	-11657
지숙	-11658
지연	-11659
지출	-11660
진료	-11661
질의	-11662
징주	-11663
차원	-11664
채무	-11665
채와	-11666
천궁	-11667
추기	-11668
충격	-11669
취를	-11670
캐슬	-11671
캡스	-11672
타협	-11673
탑스	-11674
티몬	-11675
파가	-11676
파킹	-11677
파티	-11678
팔자	-11679
편의	-11680
폭은	-11681
피씨	-11682
피해	-11683
학을	-11684
한도	-11685
헬로	-11686
현동	-11687
혜미	-11688
호가	-11689
호는	-11690
회째	-11691
흥순	-11692
(+1	-11693
(-)	-11694
(02	-11695
(07	-11696
(12	-11697
(33	-11698
(40	-11699
109	-11700
22%	-11701
231	-11702
266	-11703
303	-11704
49)	-11705
50(	-11706
700	-11707
73%	-11708
771	-11709
IMF	-11710
IND	-11711
IoT	-11712
LTE	-11713
MDS	-11714
ack	-11715
ang	-11716
dex	-11717
ful	-11718
ity	-11719
per	-11720
ube	-11721
und	-11722
▁De	-11723
▁HS	-11724
▁XM	-11725
▁‘5	-11726
▁강세	-11727
▁강의	-11728
▁개연	-11729
▁건수	-11730
▁경향	-11731
▁고매	-11732
▁고품	-11733
▁공릉	-11734
▁공무	-11735
▁공부	-11736
▁관람	-11737
▁교환	-11738
▁구강	-11739
▁구로	-11740
▁국화	-11741
▁권고	-11742
▁권태	-11743
▁글을	-11744
▁금통	-11745
▁급변	-11746
▁길이	-11747
▁김봉	-11748
▁김인	-11749
▁김재	-11750
▁끝난	-11751
▁나쁘	-11752
▁나왔	-11753
▁날로	-11754
▁날인	-11755
▁남구	-11756
▁남양	-11757
▁남짓	-11758
▁누릴	-11759
▁다섯	-11760
▁대두	-11761
▁대법	-11762
▁데이	-11763
▁도래	-11764
▁도모	-11765
▁동부	-11766
▁되찾	-11767
▁둘째	-11768
▁등교	-11769
▁땅값	-11770
▁때는	-11771
▁뜨거	-11772
▁래핑	-11773
▁렌탈	-11774
▁리노	-11775
▁만난	-11776
▁먹을	-11777
▁메인	-11778
▁명을	-11779
▁몰고	-11780
▁무게	-11781
▁물가	-11782
▁미용	-11783
▁미혼	-11784
▁민관	-11785
▁바뀐	-11786
▁박준	-11787
▁반발	-11788
▁버팀	-11789
▁법무	-11790
▁베팅	-11791
▁변신	-11792
▁부각	-11793
▁부근	-11794
▁불리	-11795
▁붙은	-11796
▁비덴	-11797
▁비전	-11798
▁사재	-11799
▁샌드	-11800
▁선고	-11801
▁세단	-11802
▁셀프	-11803
▁소니	-11804
▁속도	-11805
▁수령	-11806
▁수분	-11807
▁수은	-11808
▁순유	-11809
▁스폰	-11810
▁시원	-11811
▁시절	-11812
▁시현	-11813
▁신형	-11814
▁실습	-11815
▁아침	-11816
▁약세	-11817
▁약화	-11818
▁양사	-11819
▁얻을	-11820
▁역외	-11821
▁연례	-11822
▁열흘	-11823
▁영원	-11824
▁영통	-11825
▁예전	-11826
▁옵션	-11827
▁와이	-11828
▁용이	-11829
▁용적	-11830
▁워킹	-11831
▁원인	-11832
▁원천	-11833
▁월급	-11834
▁유례	-11835
▁유의	-11836
▁융자	-11837
▁음성	-11838
▁이겨	-11839
▁이관	-11840
▁이서	-11841
▁이성	-11842
▁이온	-11843
▁인생	-11844
▁인원	-11845
▁인제	-11846
▁인컴	-11847
▁일관	-11848
▁일론	-11849
▁임명	-11850
▁재원	-11851
▁적지	-11852
▁전광	-11853
▁전량	-11854
▁점은	-11855
▁정산	-11856
▁정착	-11857
▁정치	-11858
▁제목	-11859
▁젝시	-11860
▁조이	-11861
▁종류	-11862
▁종식	-11863
▁주석	-11864
▁준다	-11865
▁증대	-11866
▁지니	-11867
▁지불	-11868
▁지어	-11869
▁지지	-11870
▁지친	-11871
▁징역	-11872
▁찍을	-11873
▁철회	-11874
▁첫날	-11875
▁체코	-11876
▁촉구	-11877
▁총괄	-11878
▁축하	-11879
▁출렁	-11880
▁카테	-11881
▁컬러	-11882
▁쿠폰	-11883
▁테스	-11884
▁통장	-11885
▁트럭	-11886
▁티몰	-11887
▁파급	-11888
▁판촉	-11889
▁펀딩	-11890
▁포착	-11891
▁품절	-11892
▁필터	-11893
▁하남	-11894
▁한남	-11895
▁한라	-11896
▁한해	-11897
▁합쳐	-11898
▁합친	-11899
▁해성	-11900
▁했던	-11901
▁허덕	-11902
▁헌법	-11903
▁헌혈	-11904
▁혈액	-11905
▁환급	-11906
▁후속	-11907
▁후폭	-11908
▁휘청	-11909
감독원	-11910
개사의	-11911
건전성	-11912
곳으로	-11913
공구를	-11914
국장급	-11915
규모는	-11916
균형표	-11917
김성훈	-11918
김유진	-11919
김춘성	-11920
김훈남	-11921
나라는	-11922
네이션	-11923
농가를	-11924
달라고	-11925
담당관	-11926
대에서	-11927
데이션	-11928
도적인	-11929
라즈마	-11930
랜스포	-11931
레이터	-11932
레지던	-11933
력으로	-11934
롱웨어	-11935
르퀴즈	-11936
리버리	-11937
리식품	-11938
만대를	-11939
모델명	-11940
박범준	-11941
박세정	-11942
박혜림	-11943
보이는	-11944
보험은	-11945
브이엠	-11946
사무소	-11947
사항을	-11948
생명은	-11949
설명회	-11950
센터에	-11951
소에서	-11952
수출입	-11953
순이익	-11954
스페이	-11955
시장은	-11956
약으로	-11957
업무를	-11958
업체는	-11959
엑스포	-11960
월물로	-11961
월물을	-11962
월패드	-11963
위워크	-11964
유니온	-11965
이사장	-11966
인들의	-11967
잇츠온	-11968
자구안	-11969
재단이	-11970
절차를	-11971
조사에	-11972
지수와	-11973
지역의	-11974
지윅스	-11975
쳤다고	-11976
카드를	-11977
컴퓨팅	-11978
크리트	-11979
태양광	-11980
트리피	-11981
특징주	-11982
패스트	-11983
팰리세	-11984
피씨엘	-11985
하세요	-11986
한지숙	-11987
했다면	-11988
화장품	-11989
활동을	-11990
회사가	-11991
히면서	-11992
(+10	-11993
(+15	-11994
(16:	-11995
,200	-11996
,900	-11997
025%	-11998
110)	-11999
1800	-12000
3%),	-12001
4300	-12002
4900	-12003
61%,	-12004
6600	-12005
79%)	-12006
8%),	-12007
9%),	-12008
9100	-12009
9200	-12010
AVER	-12011
CCSI	-12012
Priv	-12013
anot	-12014
view	-12015
▁101	-12016
▁131	-12017
▁135	-12018
▁141	-12019
▁146	-12020
▁168	-12021
▁181	-12022
▁225	-12023
▁260	-12024
▁301	-12025
▁318	-12026
▁32%	-12027
▁340	-12028
▁354	-12029
▁39%	-12030
▁3~4	-12031
▁468	-12032
▁478	-12033
▁494	-12034
▁50(	-12035
▁51%	-12036
▁520	-12037
▁53(	-12038
▁531	-12039
▁620	-12040
▁645	-12041
▁695	-12042
▁708	-12043
▁712	-12044
▁76%	-12045
▁79%	-12046
▁821	-12047
▁855	-12048
▁86%	-12049
▁899	-12050
▁BBQ	-12051
▁Fin	-12052
▁GDP	-12053
▁III	-12054
▁IoT	-12055
▁LED	-12056
▁SNS	-12057
▁SSG	-12058
▁bot	-12059
▁the	-12060
▁가격도	-12061
▁가구와	-12062
▁감소해	-12063
▁강우권	-12064
▁강하게	-12065
▁개발자	-12066
▁개선과	-12067
▁개장가	-12068
▁개최된	-12069
▁거래액	-12070
▁거래한	-12071
▁거리를	-12072
▁거리에	-12073
▁결정한	-12074
▁계산한	-12075
▁계약의	-12076
▁계획이	-12077
▁고공행	-12078
▁곳으로	-12079
▁과감한	-12080
▁과정은	-12081
▁과정의	-12082
▁관악구	-12083
▁구매에	-12084
▁국가의	-12085
▁국면에	-12086
▁국세청	-12087
▁권준욱	-12088
▁권현수	-12089
▁규모도	-12090
▁규제에	-12091
▁극심한	-12092
▁급속히	-12093
▁기관인	-12094
▁기술로	-12095
▁기술은	-12096
▁기흥점	-12097
▁김흥순	-12098
▁꿈꾸는	-12099
▁나오는	-12100
▁내면서	-12101
▁넷마블	-12102
▁노동력	-12103
▁논의가	-12104
▁단계적	-12105
▁당국이	-12106
▁대금을	-12107
▁대신해	-12108
▁대응할	-12109
▁대치동	-12110
▁대표의	-12111
▁떨어져	-12112
▁떨어졌	-12113
▁떨어질	-12114
▁뛰어들	-12115
▁라이더	-12116
▁라이언	-12117
▁루테인	-12118
▁리바트	-12119
▁리포트	-12120
▁마감한	-12121
▁마련된	-12122
▁마련한	-12123
▁만년필	-12124
▁말이다	-12125
▁맘편한	-12126
▁맞이한	-12127
▁매입한	-12128
▁매장은	-12129
▁면세품	-12130
▁모으고	-12131
▁모으는	-12132
▁몰리는	-12133
▁무약정	-12134
▁문제로	-12135
▁문제원	-12136
▁물품을	-12137
▁반등을	-12138
▁반등할	-12139
▁반포동	-12140
▁발굴을	-12141
▁발전소	-12142
▁발표된	-12143
▁발행한	-12144
▁방법과	-12145
▁방송된	-12146
▁방안에	-12147
▁배재훈	-12148
▁법인을	-12149
▁보잉이	-12150
▁본회의	-12151
▁부문에	-12152
▁부산시	-12153
▁부지를	-12154
▁부진에	-12155
▁분기와	-12156
▁분담을	-12157
▁분양권	-12158
▁불안한	-12159
▁불어나	-12160
▁불황이	-12161
▁빙그레	-12162
▁사건을	-12163
▁사들여	-12164
▁사업부	-12165
▁사우스	-12166
▁사전에	-12167
▁사태와	-12168
▁산업에	-12169
▁상승률	-12170
▁상장된	-12171
▁생계에	-12172
▁생기는	-12173
▁생산기	-12174
▁생산에	-12175
▁설명회	-12176
▁설치된	-12177
▁성과가	-12178
▁성명을	-12179
▁세계로	-12180
▁세계에	-12181
▁소득은	-12182
▁소비와	-12183
▁소식을	-12184
▁손소독	-12185
▁수주를	-12186
▁수출을	-12187
▁수치로	-12188
▁쉐라톤	-12189
▁스니커	-12190
▁시급한	-12191
▁시세조	-12192
▁시작할	-12193
▁시작해	-12194
▁신개념	-12195
▁신상품	-12196
▁신청이	-12197
▁악화된	-12198
▁악화에	-12199
▁안전의	-12200
▁앞다퉈	-12201
▁애플은	-12202
▁양문형	-12203
▁어디서	-12204
▁억제해	-12205
▁업종의	-12206
▁업체의	-12207
▁여행을	-12208
▁연예인	-12209
▁연평균	-12210
▁영업에	-12211
▁오상헌	-12212
▁온인주	-12213
▁올리브	-12214
▁완료를	-12215
▁외국계	-12216
▁요소를	-12217
▁우려도	-12218
▁우아한	-12219
▁운전자	-12220
▁유치해	-12221
▁유현석	-12222
▁윤호영	-12223
▁음식을	-12224
▁의뢰해	-12225
▁의장은	-12226
▁이강준	-12227
▁이틀째	-12228
▁인도의	-12229
▁인재를	-12230
▁인체에	-12231
▁인플루	-12232
▁임동욱	-12233
▁입국을	-12234
▁입찰에	-12235
▁입학식	-12236
▁자급제	-12237
▁자체가	-12238
▁잠원동	-12239
▁재개된	-12240
▁전국민	-12241
▁전환을	-12242
▁절차가	-12243
▁정도가	-12244
▁제휴해	-12245
▁조선사	-12246
▁조성을	-12247
▁조업일	-12248
▁조현준	-12249
▁주문이	-12250
▁주에는	-12251
▁준비에	-12252
▁준비한	-12253
▁중거리	-12254
▁중단을	-12255
▁중장년	-12256
▁증시도	-12257
▁지원은	-12258
▁진단이	-12259
▁창업자	-12260
▁채권을	-12261
▁채용은	-12262
▁청량리	-12263
▁청약접	-12264
▁초고속	-12265
▁초부터	-12266
▁촉진을	-12267
▁총회를	-12268
▁최대인	-12269
▁추세다	-12270
▁추정치	-12271
▁추첨을	-12272
▁출범을	-12273
▁출시에	-12274
▁충격은	-12275
▁취득을	-12276
▁취지다	-12277
▁치열한	-12278
▁캐피탈	-12279
▁컨트롤	-12280
▁케이스	-12281
▁케이프	-12282
▁켜졌다	-12283
▁콜라보	-12284
▁탄탄한	-12285
▁통관한	-12286
▁특화된	-12287
▁판로를	-12288
▁팔았다	-12289
▁피치는	-12290
▁한국판	-12291
▁함께한	-12292
▁합격한	-12293
▁항공화	-12294
▁항생제	-12295
▁해외로	-12296
▁행위를	-12297
▁행장은	-12298
▁현안에	-12299
▁혐의로	-12300
▁협의에	-12301
▁혜택도	-12302
▁확산될	-12303
▁활발한	-12304
▁회복이	-12305
▁회장에	-12306
▁효과로	-12307
개발사업	-12308
공장에서	-12309
관리인증	-12310
금융연수	-12311
기술개발	-12312
노인인력	-12313
농협은행	-12314
대학교육	-12315
데이터를	-12316
들로부터	-12317
레버리지	-12318
레오시드	-12319
리버파크	-12320
면역진단	-12321
부동산세	-12322
삼성증권	-12323
스크포스	-12324
스타일샵	-12325
신용보증	-12326
어라운드	-12327
억달러로	-12328
억원보다	-12329
에너지는	-12330
연결기준	-12331
월말까지	-12332
유가증권	-12333
유입사례	-12334
이노텍은	-12335
자원관리	-12336
장관회의	-12337
저축은행	-12338
종목으로	-12339
진흥원이	-12340
컴퍼니는	-12341
탄바이오	-12342
통화기금	-12343
투데이에	-12344
투자운용	-12345
파이낸스	-12346
판매가격	-12347
패션위크	-12348
퍼런스를	-12349
협의회가	-12350
):50(	-12351
1200)	-12352
3,000	-12353
▁025%	-12354
▁103%	-12355
▁181%	-12356
▁227%	-12357
▁246%	-12358
▁2500	-12359
▁3447	-12360
▁469%	-12361
▁668%	-12362
▁PLCC	-12363
▁가능성도	-12364
▁가능하며	-12365
▁간담회에	-12366
▁간편결제	-12367
▁감소세가	-12368
▁감소하는	-12369
▁개연성이	-12370
▁개정안은	-12371
▁거래정지	-12372
▁결정됐다	-12373
▁경영정보	-12374
▁경쟁입찰	-12375
▁고기능성	-12376
▁고배당주	-12377
▁공급망이	-12378
▁공장들이	-12379
▁관련주가	-12380
▁관세청이	-12381
▁괴리율이	-12382
▁구축했다	-12383
▁국면에서	-12384
▁국무총리	-12385
▁국민들의	-12386
▁국제회의	-12387
▁국토부는	-12388
▁극복하고	-12389
▁금융거래	-12390
▁금융정책	-12391
▁금융조사	-12392
▁금융통화	-12393
▁기간통신	-12394
▁기대되는	-12395
▁기대치를	-12396
▁기아차는	-12397
▁납품업체	-12398
▁내달부터	-12399
▁논의했다	-12400
▁농촌진흥	-12401
▁늘었다는	-12402
▁동참했다	-12403
▁롯데월드	-12404
▁마련하고	-12405
▁마오타이	-12406
▁마케팅에	-12407
▁물류창고	-12408
▁반월지구	-12409
▁발생하고	-12410
▁베트남은	-12411
▁보험료를	-12412
▁부사장이	-12413
▁부상하고	-12414
▁부장판사	-12415
▁부회장의	-12416
▁불필요한	-12417
▁브랜드다	-12418
▁브렌트유	-12419
▁사용되는	-12420
▁삼성카드	-12421
▁상승률을	-12422
▁상승장을	-12423
▁상향했다	-12424
▁상회했다	-12425
▁서울시에	-12426
▁선언했다	-12427
▁선제대응	-12428
▁선택하는	-12429
▁선행스팬	-12430
▁성장으로	-12431
▁성장하고	-12432
▁소형가전	-12433
▁손해보험	-12434
▁수익성을	-12435
▁순매수에	-12436
▁순이익을	-12437
▁순환변동	-12438
▁스타벅스	-12439
▁스테이크	-12440
▁시리즈를	-12441
▁시세보다	-12442
▁식약처가	-12443
▁식약처는	-12444
▁실거래가	-12445
▁실적이다	-12446
▁싸이토젠	-12447
▁아파트는	-12448
▁안전하게	-12449
▁앞으로는	-12450
▁액세서리	-12451
▁언제까지	-12452
▁업체들도	-12453
▁업체들은	-12454
▁연구결과	-12455
▁열었다고	-12456
▁올라섰다	-12457
▁우리은행	-12458
▁위기극복	-12459
▁유도무기	-12460
▁유도하고	-12461
▁유동성을	-12462
▁유럽에서	-12463
▁의결했다	-12464
▁이들에게	-12465
▁이뤄졌다	-12466
▁이브자리	-12467
▁이어지며	-12468
▁이용률이	-12469
▁이자이익	-12470
▁인성정보	-12471
▁인천공장	-12472
▁인허가를	-12473
▁일부개정	-12474
▁임대료가	-12475
▁임대료를	-12476
▁자료사진	-12477
▁자회사로	-12478
▁재정관리	-12479
▁전망치는	-12480
▁전문가가	-12481
▁전문가의	-12482
▁점유율을	-12483
▁정부세종	-12484
▁정부지원	-12485
▁젠트리피	-12486
▁조성한다	-12487
▁주민등록	-12488
▁주식회사	-12489
▁주장이다	-12490
▁주최하는	-12491
▁줄이면서	-12492
▁중요성이	-12493
▁중이라고	-12494
▁중저가폰	-12495
▁증가세가	-12496
▁증가하는	-12497
▁증권업계	-12498
▁증정한다	-12499
▁지역별로	-12500
▁지역아동	-12501
▁지적했다	-12502
▁직원들과	-12503
▁직원들의	-12504
▁진행됐다	-12505
▁진행되며	-12506
▁찾아가는	-12507
▁채권단과	-12508
▁채권단이	-12509
▁출자사업	-12510
▁카테고리	-12511
▁타깃으로	-12512
▁탑재했다	-12513
▁투자자문	-12514
▁판매되는	-12515
▁플라스틱	-12516
▁플랫폼의	-12517
▁필요하다	-12518
▁하더라도	-12519
▁하이테크	-12520
▁한국서부	-12521
▁한국장학	-12522
▁할부금융	-12523
▁합리적인	-12524
▁현대해상	-12525
▁확보하고	-12526
▁확보했다	-12527
▁확정됐다	-12528
▁환경경영	-12529
▁활성화에	-12530
▁활용하는	-12531
▁회원들이	-12532
금융감독원	-12533
로켓프레시	-12534
무풍에어컨	-12535
천리자전거	-12536
팰리세이드	-12537
하이닉스는	-12538
현대백화점	-12539
(043%)	-12540
(044%)	-12541
▁-48%(	-12542
▁339%,	-12543
▁Index	-12544
▁경제성장률	-12545
▁경제위기를	-12546
▁고객상담실	-12547
▁공격적으로	-12548
▁공동주택의	-12549
▁구성원들과	-12550
▁구조조정을	-12551
▁국가유공자	-12552
▁금융당국의	-12553
▁금융당국이	-12554
▁금융시장에	-12555
▁기념촬영을	-12556
▁기대된다고	-12557
▁농협은행은	-12558
▁도입한다고	-12559
▁돌입한다고	-12560
▁동구바이오	-12561
▁디자인파크	-12562
▁롯데쇼핑은	-12563
▁롯데쇼핑이	-12564
▁마련했다고	-12565
▁만트럭버스	-12566
▁모빌리티를	-12567
▁바이러스성	-12568
▁반등장에서	-12569
▁반포아파트	-12570
▁받아들었다	-12571
▁분양한다고	-12572
▁불공정거래	-12573
▁비대면으로	-12574
▁삼성바이오	-12575
▁삼성카드는	-12576
▁상품권으로	-12577
▁상황이지만	-12578
▁서울디지털	-12579
▁쇼핑몰에서	-12580
▁순차적으로	-12581
▁시작하면서	-12582
▁아시아경제	-12583
▁아이디어를	-12584
▁양도소득세	-12585
▁어린이들을	-12586
▁에쓰오일은	-12587
▁영업손실은	-12588
▁원더톡스는	-12589
▁유통업계에	-12590
▁의결했다고	-12591
▁이사장에게	-12592
▁인센티브를	-12593
▁일목균형표	-12594
▁일회성요인	-12595
▁재택근무를	-12596
▁전기자동차	-12597
▁전세계적인	-12598
▁제니퍼룸은	-12599
▁제조업체인	-12600
▁중앙은행이	-12601
▁중앙은행인	-12602
▁지역사회의	-12603
▁취득했다고	-12604
▁판단에서다	-12605
▁폭발적으로	-12606
▁프로그램인	-12607
▁플랫폼이다	-12608
▁하나금융은	-12609
▁항공업계에	-12610
▁화상회의를	-12611
관리인증기준	-12612
대한항공카드	-12613
리버파크자이	-12614
발광다이오드	-12615
산업단지공단	-12616
에셋투자증권	-12617
지윅스튜디오	-12618
anotube	-12619
▁193125	-12620
▁경제성장률이	-12621
▁공시지원금을	-12622
▁국가통계국은	-12623
▁국제통화기금	-12624
▁기초생활보장	-12625
▁대회의실에서	-12626
▁더존비즈온은	-12627
▁두산중공업은	-12628
▁리얼투데이에	-12629
▁모두발언에서	-12630
▁부처님오신날	-12631
▁블룸버그통신	-12632
▁샌프란시스코	-12633
▁서울행정법원	-12634
▁세븐일레븐은	-12635
▁소상공인에게	-12636
▁스타모빌리티	-12637
▁신세계디에프	-12638
▁신용보증기금	-12639
▁엔터테인먼트	-12640
▁역외유입사례	-12641
▁영업이익률은	-12642
▁이코노미스트	-12643
▁정보통신기술	-12644
▁칠성사이다는	-12645
▁케이엠더블유	-12646
▁포스코에너지	-12647
▁포트폴리오를	-12648
▁한국건설산업	-12649
▁한국금융연수	-12650
▁한국대학교육	-12651
▁한국항공우주	-12652
▁해양수산부는	-12653
▁현대자동차와	-12654
보통주추가상장	-12655
▁Fintech	-12656
▁금융투자회사로	-12657
▁메이커스페이스	-12658
▁서부텍사스원유	-12659
▁석유수출국기구	-12660
▁신한금융그룹이	-12661
▁아모레퍼시픽은	-12662
▁정례브리핑에서	-12663
▁한국소비자원은	-12664
▁한국야쿠르트는	-12665
▁한국투자증권은	-12666
▁한국투자증권의	-12667
안전관리인증기준	-12668
▁긴급재난지원금은	-12669
▁비상경제회의에서	-12670
▁특별고용지원업종	-12671
▁한국산업단지공단	-12672
▁현대엔지니어링이	-12673
▁식품의약품안전처가	-12674
▁포스코인터내셔널은	-12675
)(	-12676
2'	-12677
EC	-12678
PP	-12679
SA	-12680
VE	-12681
VR	-12682
]"	-12683
av	-12684
hc	-12685
if	-12686
mm	-12687
ov	-12688
qu	-12689
sh	-12690
ty	-12691
up	-12692
~9	-12693
”(	-12694
▁t	-12695
▁α	-12696
▁↑	-12697
▁★	-12698
▁곽	-12699
▁꽤	-12700
▁넬	-12701
▁딸	-12702
▁떼	-12703
▁띈	-12704
▁빛	-12705
▁섬	-12706
▁숭	-12707
▁숲	-12708
▁쉴	-12709
▁싼	-12710
▁쌀	-12711
▁앤	-12712
▁옆	-12713
▁율	-12714
▁잉	-12715
▁잭	-12716
▁컵	-12717
▁턴	-12718
▁톱	-12719
▁팹	-12720
간에	-12721
간의	-12722
거돈	-12723
거진	-12724
건에	-12725
경력	-12726
경북	-12727
계절	-12728
고는	-12729
공룡	-12730
공황	-12731
교류	-12732
교실	-12733
구영	-12734
구직	-12735
군수	-12736
규격	-12737
규준	-12738
급락	-12739
기평	-12740
김지	-12741
김포	-12742
나타	-12743
남녀	-12744
네요	-12745
년새	-12746
년의	-12747
노선	-12748
녹스	-12749
놈펜	-12750
놓고	-12751
놓은	-12752
니엘	-12753
니타	-12754
당일	-12755
대구	-12756
대신	-12757
대와	-12758
더샵	-12759
덩이	-12760
데카	-12761
도상	-12762
동서	-12763
동은	-12764
동을	-12765
두기	-12766
두는	-12767
드라	-12768
땡큐	-12769
랑벨	-12770
러코	-12771
레스	-12772
렌피	-12773
렐라	-12774
력은	-12775
령을	-12776
로랑	-12777
로로	-12778
로스	-12779
료는	-12780
르기	-12781
르다	-12782
르크	-12783
리더	-12784
리로	-12785
리크	-12786
리프	-12787
링룸	-12788
만갑	-12789
만을	-12790
만족	-12791
많은	-12792
메르	-12793
모듈	-12794
모씨	-12795
목재	-12796
몰은	-12797
미니	-12798
미사	-12799
미셀	-12800
미팅	-12801
미힐	-12802
바스	-12803
배정	-12804
백전	-12805
버리	-12806
보수	-12807
보합	-12808
복을	-12809
봉을	-12810
비드	-12811
비로	-12812
비타	-12813
사옥	-12814
산이	-12815
상현	-12816
생물	-12817
서민	-12818
선미	-12819
선스	-12820
세기	-12821
속기	-12822
수지	-12823
수협	-12824
슈퍼	-12825
스부	-12826
스톤	-12827
스팩	-12828
슬립	-12829
승계	-12830
시로	-12831
시피	-12832
시회	-12833
신화	-12834
아산	-12835
안심	-12836
액과	-12837
액도	-12838
어야	-12839
어치	-12840
얼셀	-12841
업법	-12842
업소	-12843
에르	-12844
여년	-12845
여성	-12846
영훈	-12847
오버	-12848
용준	-12849
용지	-12850
용진	-12851
움이	-12852
원격	-12853
원투	-12854
월동	-12855
월한	-12856
위의	-12857
위즈	-12858
유발	-12859
으니	-12860
으론	-12861
을까	-12862
의원	-12863
이동	-12864
이브	-12865
이장	-12866
익은	-12867
일본	-12868
일시	-12869
자녀	-12870
잡족	-12871
재구	-12872
전달	-12873
전스	-12874
점인	-12875
정동	-12876
정수	-12877
제작	-12878
제휴	-12879
젤리	-12880
조업	-12881
종인	-12882
주심	-12883
중부	-12884
줘야	-12885
지면	-12886
지속	-12887
지식	-12888
지침	-12889
진형	-12890
짜에	-12891
차에	-12892
척기	-12893
청사	-12894
청취	-12895
체크	-12896
초기	-12897
초반	-12898
추천	-12899
출판	-12900
충전	-12901
측은	-12902
측이	-12903
층은	-12904
층을	-12905
치면	-12906
카롱	-12907
카우	-12908
카운	-12909
콜라	-12910
콜린	-12911
큐랩	-12912
클린	-12913
키는	-12914
탄올	-12915
태범	-12916
택을	-12917
택지	-12918
테오	-12919
토탈	-12920
투셀	-12921
특구	-12922
티슈	-12923
팀은	-12924
파생	-12925
패널	-12926
페라	-12927
평판	-12928
포터	-12929
프티	-12930
피거	-12931
한샘	-12932
항에	-12933
해주	-12934
현진	-12935
호실	-12936
화도	-12937
화용	-12938
확대	-12939
확진	-12940
활을	-12941
휴업	-12942
(27	-12943
(44	-12944
(45	-12945
131	-12946
172	-12947
277	-12948
290	-12949
47(	-12950
5%,	-12951
890	-12952
95%	-12953
BBB	-12954
BBN	-12955
GWh	-12956
ICE	-12957
IPS	-12958
IST	-12959
KIC	-12960
LCD	-12961
Pro	-12962
are	-12963
der	-12964
rap	-12965
ter	-12966
~12	-12967
~15	-12968
▁'4	-12969
▁-6	-12970
▁2%	-12971
▁2)	-12972
▁AP	-12973
▁BC	-12974
▁EN	-12975
▁FO	-12976
▁NE	-12977
▁RT	-12978
▁Sy	-12979
▁["	-12980
▁“5	-12981
▁가산	-12982
▁가할	-12983
▁각광	-12984
▁감자	-12985
▁감정	-12986
▁강등	-12987
▁강사	-12988
▁갖는	-12989
▁개방	-12990
▁개점	-12991
▁객실	-12992
▁거품	-12993
▁걸릴	-12994
▁것으	-12995
▁견조	-12996
▁경록	-12997
▁계룡	-12998
▁고갈	-12999
▁고속	-13000
▁고유	-13001
▁골라	-13002
▁공휴	-13003
▁과열	-13004
▁광진	-13005
▁교재	-13006
▁구슬	-13007
▁군용	-13008
▁규정	-13009
▁그친	-13010
▁기지	-13011
▁김근	-13012
▁꽃을	-13013
▁나간	-13014
▁나은	-13015
▁나흘	-13016
▁났다	-13017
▁내야	-13018
▁노란	-13019
▁노원	-13020
▁농진	-13021
▁높여	-13022
▁눈물	-13023
▁뉴클	-13024
▁느낄	-13025
▁다름	-13026
▁닥스	-13027
▁담고	-13028
▁담합	-13029
▁대선	-13030
▁대손	-13031
▁대안	-13032
▁더한	-13033
▁덕은	-13034
▁덮밥	-13035
▁도와	-13036
▁동북	-13037
▁두기	-13038
▁드리	-13039
▁드릴	-13040
▁들이	-13041
▁디아	-13042
▁따로	-13043
▁뜻의	-13044
▁띈다	-13045
▁마을	-13046
▁마진	-13047
▁마크	-13048
▁만성	-13049
▁맥주	-13050
▁먹고	-13051
▁명확	-13052
▁무관	-13053
▁무단	-13054
▁물러	-13055
▁민트	-13056
▁믿고	-13057
▁밀크	-13058
▁밑돌	-13059
▁반전	-13060
▁발달	-13061
▁발병	-13062
▁발빠	-13063
▁발을	-13064
▁밝혀	-13065
▁방과	-13066
▁배민	-13067
▁배정	-13068
▁배포	-13069
▁백상	-13070
▁밸브	-13071
▁벅셔	-13072
▁벌써	-13073
▁법원	-13074
▁벼랑	-13075
▁보강	-13076
▁보관	-13077
▁볼티	-13078
▁볼프	-13079
▁봄을	-13080
▁부결	-13081
▁부원	-13082
▁부평	-13083
▁분당	-13084
▁분배	-13085
▁분자	-13086
▁불고	-13087
▁불구	-13088
▁불스	-13089
▁불이	-13090
▁빨간	-13091
▁빨라	-13092
▁삶의	-13093
▁상상	-13094
▁상실	-13095
▁상징	-13096
▁생애	-13097
▁서서	-13098
▁선두	-13099
▁선적	-13100
▁성별	-13101
▁성암	-13102
▁세련	-13103
▁세상	-13104
▁세정	-13105
▁소요	-13106
▁소장	-13107
▁소화	-13108
▁손님	-13109
▁수를	-13110
▁수리	-13111
▁수업	-13112
▁수영	-13113
▁숭실	-13114
▁쉽고	-13115
▁시내	-13116
▁시에	-13117
▁시청	-13118
▁시화	-13119
▁식기	-13120
▁신조	-13121
▁신중	-13122
▁신탁	-13123
▁실속	-13124
▁심의	-13125
▁압승	-13126
▁앰플	-13127
▁약한	-13128
▁양팡	-13129
▁얼굴	-13130
▁엘리	-13131
▁여지	-13132
▁열릴	-13133
▁예탁	-13134
▁오가	-13135
▁오래	-13136
▁오렌	-13137
▁오류	-13138
▁온실	-13139
▁와디	-13140
▁와중	-13141
▁완공	-13142
▁왔다	-13143
▁왕고	-13144
▁요동	-13145
▁원의	-13146
▁월풀	-13147
▁위례	-13148
▁은마	-13149
▁응시	-13150
▁응찰	-13151
▁의심	-13152
▁이끈	-13153
▁이룬	-13154
▁이현	-13155
▁익산	-13156
▁인산	-13157
▁인형	-13158
▁일신	-13159
▁입을	-13160
▁입지	-13161
▁자가	-13162
▁자원	-13163
▁잔여	-13164
▁장위	-13165
▁장인	-13166
▁장치	-13167
▁전산	-13168
▁전수	-13169
▁전업	-13170
▁전역	-13171
▁점진	-13172
▁정몽	-13173
▁정문	-13174
▁좋다	-13175
▁주의	-13176
▁주행	-13177
▁줄기	-13178
▁줄인	-13179
▁중동	-13180
▁즉시	-13181
▁증축	-13182
▁지성	-13183
▁지점	-13184
▁진짜	-13185
▁집콕	-13186
▁집합	-13187
▁차기	-13188
▁참치	-13189
▁창구	-13190
▁찾고	-13191
▁찾기	-13192
▁천궁	-13193
▁체내	-13194
▁초등	-13195
▁초보	-13196
▁초입	-13197
▁추이	-13198
▁출석	-13199
▁캡슐	-13200
▁크다	-13201
▁클린	-13202
▁퇴근	-13203
▁트위	-13204
▁특강	-13205
▁특급	-13206
▁특집	-13207
▁팀장	-13208
▁팔린	-13209
▁패스	-13210
▁펄어	-13211
▁포드	-13212
▁포럼	-13213
▁포스	-13214
▁포항	-13215
▁풍성	-13216
▁피복	-13217
▁필식	-13218
▁하다	-13219
▁한밭	-13220
▁할까	-13221
▁합류	-13222
▁행렬	-13223
▁향해	-13224
▁홍삼	-13225
▁화폐	-13226
▁확신	-13227
▁환산	-13228
▁환아	-13229
▁휩싸	-13230
▁휴가	-13231
▁휴면	-13232
▁힘들	-13233
경쟁력	-13234
고양시	-13235
공장에	-13236
공학부	-13237
국으로	-13238
글라스	-13239
금융과	-13240
기간을	-13241
기업은	-13242
기정통	-13243
넥스원	-13244
농수산	-13245
단법인	-13246
대학원	-13247
도지사	-13248
동나래	-13249
동영상	-13250
되거나	-13251
됩니다	-13252
들나라	-13253
랑풍선	-13254
래미안	-13255
레니얼	-13256
렌피딕	-13257
렸지만	-13258
리기에	-13259
리스트	-13260
만원씩	-13261
만원이	-13262
명이고	-13263
모로드	-13264
문재인	-13265
물품의	-13266
박람회	-13267
베이터	-13268
보험이	-13269
부지법	-13270
부펀드	-13271
분까지	-13272
분야의	-13273
비주얼	-13274
사다리	-13275
산업부	-13276
산업체	-13277
상황을	-13278
생로랑	-13279
샵에서	-13280
서동일	-13281
세라티	-13282
손실을	-13283
수수료	-13284
수요를	-13285
스와프	-13286
스페셜	-13287
시몬스	-13288
시장치	-13289
시키기	-13290
신보험	-13291
실트론	-13292
안기금	-13293
았다는	-13294
앞으로	-13295
앤티디	-13296
에피스	-13297
여명을	-13298
여명의	-13299
역량을	-13300
연료전	-13301
오면서	-13302
외국인	-13303
용보험	-13304
워크넷	-13305
월대비	-13306
월보다	-13307
위기에	-13308
위메프	-13309
의정부	-13310
이었던	-13311
이진용	-13312
이트진	-13313
이티브	-13314
이혜미	-13315
일동안	-13316
자이는	-13317
적이다	-13318
정부의	-13319
정책을	-13320
제연어	-13321
제주산	-13322
제철소	-13323
지난달	-13324
초년생	-13325
층으로	-13326
크푸르	-13327
클럽은	-13328
클리닉	-13329
테슬라	-13330
텔리안	-13331
틸콜린	-13332
파운드	-13333
펀드가	-13334
퓨얼셀	-13335
프렌즈	-13336
하반기	-13337
허가를	-13338
허재구	-13339
형제의	-13340
홍남기	-13341
화하고	-13342
회사와	-13343
흐름이	-13344
(+40	-13345
(033	-13346
(058	-13347
(416	-13348
000)	-13349
11-2	-13350
1157	-13351
19%)	-13352
1984	-13353
20%)	-13354
20)=	-13355
2100	-13356
2369	-13357
25%)	-13358
2700	-13359
3600	-13360
4600	-13361
4633	-13362
47%)	-13363
490)	-13364
5%),	-13365
51%)	-13366
59%)	-13367
68%)	-13368
7%),	-13369
8200	-13370
8266	-13371
9858	-13372
Plus	-13373
SPEC	-13374
edit	-13375
form	-13376
icar	-13377
ream	-13378
▁01%	-13379
▁105	-13380
▁116	-13381
▁136	-13382
▁157	-13383
▁16%	-13384
▁166	-13385
▁194	-13386
▁199	-13387
▁2,3	-13388
▁205	-13389
▁214	-13390
▁221	-13391
▁222	-13392
▁288	-13393
▁290	-13394
▁363	-13395
▁41%	-13396
▁428	-13397
▁450	-13398
▁467	-13399
▁48%	-13400
▁486	-13401
▁510	-13402
▁52(	-13403
▁580	-13404
▁59(	-13405
▁619	-13406
▁707	-13407
▁71%	-13408
▁81%	-13409
▁835	-13410
▁Air	-13411
▁All	-13412
▁BAB	-13413
▁CGV	-13414
▁HTS	-13415
▁NHN	-13416
▁OTT	-13417
▁bhc	-13418
▁jay	-13419
▁가동이	-13420
▁가입이	-13421
▁가족과	-13422
▁가지고	-13423
▁각국이	-13424
▁감소가	-13425
▁감소에	-13426
▁감소와	-13427
▁강화된	-13428
▁개인들	-13429
▁거래는	-13430
▁거래된	-13431
▁거리가	-13432
▁건강에	-13433
▁건물은	-13434
▁건설에	-13435
▁건수는	-13436
▁검찰은	-13437
▁경향이	-13438
▁고려한	-13439
▁고로에	-13440
▁고민이	-13441
▁고성장	-13442
▁공간에	-13443
▁공간을	-13444
▁공급될	-13445
▁공략을	-13446
▁공릉역	-13447
▁공모를	-13448
▁과제로	-13449
▁관광객	-13450
▁광역시	-13451
▁교역이	-13452
▁구성한	-13453
▁구원투	-13454
▁구현해	-13455
▁국고채	-13456
▁국산화	-13457
▁국토부	-13458
▁권광석	-13459
▁권태혁	-13460
▁규모인	-13461
▁규제와	-13462
▁극복할	-13463
▁급감해	-13464
▁급락에	-13465
▁기반을	-13466
▁기부를	-13467
▁기성훈	-13468
▁기술의	-13469
▁기조가	-13470
▁김봉현	-13471
▁김세관	-13472
▁김은령	-13473
▁김현일	-13474
▁꼽히던	-13475
▁나눔카	-13476
▁나란히	-13477
▁나이스	-13478
▁낙폭을	-13479
▁날짜에	-13480
▁내년에	-13481
▁내장된	-13482
▁넷째주	-13483
▁노사가	-13484
▁놓였다	-13485
▁늘리는	-13486
▁다수의	-13487
▁단지로	-13488
▁담았다	-13489
▁답했다	-13490
▁대공황	-13491
▁대상이	-13492
▁대응에	-13493
▁대타협	-13494
▁대학의	-13495
▁덴마크	-13496
▁돌입한	-13497
▁동작구	-13498
▁돼지고	-13499
▁두번째	-13500
▁듣는다	-13501
▁디앤피	-13502
▁떠난다	-13503
▁뚜렷한	-13504
▁뛰어든	-13505
▁뜨거운	-13506
▁라인을	-13507
▁랩지노	-13508
▁롤러코	-13509
▁리테일	-13510
▁마련을	-13511
▁막대한	-13512
▁만든다	-13513
▁매물로	-13514
▁매입해	-13515
▁매출의	-13516
▁메이크	-13517
▁면역력	-13518
▁명품을	-13519
▁모두가	-13520
▁모습이	-13521
▁모집을	-13522
▁몰렸다	-13523
▁못난이	-13524
▁못하면	-13525
▁못했던	-13526
▁무료로	-13527
▁문화를	-13528
▁미공개	-13529
▁미래차	-13530
▁미치고	-13531
▁바꾸는	-13532
▁바이어	-13533
▁반등이	-13534
▁반영될	-13535
▁받았던	-13536
▁발굴해	-13537
▁발표가	-13538
▁발행은	-13539
▁배달료	-13540
▁배당금	-13541
▁백신을	-13542
▁범위를	-13543
▁보냈다	-13544
▁보잉은	-13545
▁보험료	-13546
▁보험은	-13547
▁부스를	-13548
▁분비를	-13549
▁분야로	-13550
▁브라질	-13551
▁빠져나	-13552
▁사람은	-13553
▁사명을	-13554
▁사실이	-13555
▁사업인	-13556
▁사용을	-13557
▁사용자	-13558
▁사장을	-13559
▁사회의	-13560
▁삼성동	-13561
▁상승해	-13562
▁상태다	-13563
▁색상은	-13564
▁색상을	-13565
▁생활에	-13566
▁샤르자	-13567
▁서버와	-13568
▁서지혜	-13569
▁선물로	-13570
▁선지급	-13571
▁설립을	-13572
▁성과급	-13573
▁성과와	-13574
▁성능과	-13575
▁성장할	-13576
▁세대를	-13577
▁세대의	-13578
▁소비는	-13579
▁소비의	-13580
▁소재를	-13581
▁수소연	-13582
▁수업을	-13583
▁수입은	-13584
▁수입이	-13585
▁수혜가	-13586
▁시니어	-13587
▁시장인	-13588
▁시행한	-13589
▁시흥시	-13590
▁식물성	-13591
▁신동호	-13592
▁신산업	-13593
▁심리가	-13594
▁심사를	-13595
▁쏘나타	-13596
▁아메리	-13597
▁아우디	-13598
▁아이돌	-13599
▁아주대	-13600
▁안에서	-13601
▁알뜰주	-13602
▁알아야	-13603
▁앞당기	-13604
▁앞세운	-13605
▁앱에서	-13606
▁약정을	-13607
▁에센스	-13608
▁에스엠	-13609
▁엔투셀	-13610
▁여력이	-13611
▁여부와	-13612
▁연계해	-13613
▁연구소	-13614
▁영상을	-13615
▁영업점	-13616
▁영향은	-13617
▁예비역	-13618
▁예산이	-13619
▁완화에	-13620
▁완화해	-13621
▁외출을	-13622
▁우려해	-13623
▁우미린	-13624
▁원활한	-13625
▁위기는	-13626
▁위기로	-13627
▁위치를	-13628
▁위해서	-13629
▁유니콘	-13630
▁유망한	-13631
▁유영호	-13632
▁유인호	-13633
▁육성을	-13634
▁을지로	-13635
▁응모한	-13636
▁의장이	-13637
▁의혹이	-13638
▁이내로	-13639
▁이동을	-13640
▁이들을	-13641
▁이목이	-13642
▁이상규	-13643
▁이서현	-13644
▁이소은	-13645
▁이야기	-13646
▁이주호	-13647
▁이항영	-13648
▁이후로	-13649
▁이후에	-13650
▁이후의	-13651
▁인건비	-13652
▁인기다	-13653
▁일부를	-13654
▁일상화	-13655
▁일용직	-13656
▁일하는	-13657
▁있어도	-13658
▁자금은	-13659
▁자리잡	-13660
▁작업을	-13661
▁잔액은	-13662
▁장례식	-13663
▁재개될	-13664
▁재원을	-13665
▁재정적	-13666
▁적응증	-13667
▁전문관	-13668
▁전부터	-13669
▁전통의	-13670
▁전하는	-13671
▁전형을	-13672
▁점포를	-13673
▁접목해	-13674
▁접수를	-13675
▁정도다	-13676
▁정리해	-13677
▁정찬수	-13678
▁정책과	-13679
▁정책의	-13680
▁정하고	-13681
▁정현진	-13682
▁정확히	-13683
▁제네시	-13684
▁제휴를	-13685
▁조사에	-13686
▁조성물	-13687
▁조정이	-13688
▁종가는	-13689
▁주거용	-13690
▁주의가	-13691
▁주자는	-13692
▁주주로	-13693
▁준비를	-13694
▁중국과	-13695
▁중국산	-13696
▁중단한	-13697
▁증가가	-13698
▁증설에	-13699
▁지급에	-13700
▁지능형	-13701
▁지점을	-13702
▁지키기	-13703
▁직원을	-13704
▁직원의	-13705
▁질문에	-13706
▁집단민	-13707
▁차량이	-13708
▁참고로	-13709
▁참여해	-13710
▁창업판	-13711
▁창원시	-13712
▁채널인	-13713
▁철저한	-13714
▁청년을	-13715
▁청약에	-13716
▁체결한	-13717
▁초소형	-13718
▁최대를	-13719
▁최대한	-13720
▁최태범	-13721
▁추진에	-13722
▁출발해	-13723
▁취득한	-13724
▁캘리포	-13725
▁컴퓨팅	-13726
▁코스메	-13727
▁쿠팡과	-13728
▁타미힐	-13729
▁탁월한	-13730
▁태평양	-13731
▁테크윙	-13732
▁통합한	-13733
▁투자처	-13734
▁투자할	-13735
▁특성상	-13736
▁판단이	-13737
▁판매된	-13738
▁팹리스	-13739
▁편의를	-13740
▁편입을	-13741
▁폐업한	-13742
▁포괄적	-13743
▁폭락한	-13744
▁프놈펜	-13745
▁프로틴	-13746
▁플랜트	-13747
▁피아트	-13748
▁하나다	-13749
▁하늘을	-13750
▁한걸음	-13751
▁한국수	-13752
▁한국에	-13753
▁한국이	-13754
▁한국프	-13755
▁한동안	-13756
▁한산한	-13757
▁한컴은	-13758
▁핫라인	-13759
▁항공권	-13760
▁항공유	-13761
▁해외에	-13762
▁햄버거	-13763
▁협업을	-13764
▁협의를	-13765
▁형제간	-13766
▁형태의	-13767
▁홍대입	-13768
▁화제다	-13769
▁회복한	-13770
▁후보로	-13771
▁휴스턴	-13772
▁휴업에	-13773
개선계획	-13774
겠습니다	-13775
관련기사	-13776
기업은행	-13777
당일배송	-13778
디바이스	-13779
라이슬러	-13780
라이언스	-13781
레이션을	-13782
롯데지주	-13783
마을버스	-13784
무역투자	-13785
바구니를	-13786
부문에서	-13787
사랑카드	-13788
상장회사	-13789
스마트폰	-13790
스부르크	-13791
스타항공	-13792
아산병원	-13793
아카데미	-13794
암호화폐	-13795
연료전지	-13796
오프라인	-13797
원더톡스	-13798
원선에서	-13799
이노텍이	-13800
전문인력	-13801
정적으로	-13802
중부발전	-13803
지상조업	-13804
진흥원은	-13805
청사에서	-13806
크푸르트	-13807
평균금리	-13808
포인트를	-13809
푸드빌이	-13810
플러스는	-13811
해지면서	-13812
헬로비전	-13813
화훼농가	-13814
회계기준	-13815
(0519	-13816
):47(	-13817
6570)	-13818
6890)	-13819
KODEX	-13820
▁013%	-13821
▁092%	-13822
▁1,89	-13823
▁1023	-13824
▁108%	-13825
▁1132	-13826
▁119%	-13827
▁1217	-13828
▁1347	-13829
▁1700	-13830
▁1710	-13831
▁1996	-13832
▁2006	-13833
▁209%	-13834
▁217%	-13835
▁2902	-13836
▁353%	-13837
▁3864	-13838
▁452%	-13839
▁5182	-13840
▁561%	-13841
▁879%	-13842
▁KCGI	-13843
▁OLED	-13844
▁chmt	-13845
▁개발담당	-13846
▁개별기준	-13847
▁개학으로	-13848
▁거래참여	-13849
▁건강식품	-13850
▁격전지로	-13851
▁견인했다	-13852
▁경기전망	-13853
▁경상남도	-13854
▁경영난을	-13855
▁경제지표	-13856
▁경제협력	-13857
▁계열사가	-13858
▁고려하면	-13859
▁고속도로	-13860
▁고시했다	-13861
▁공개하고	-13862
▁공공부문	-13863
▁공기청정	-13864
▁공정위는	-13865
▁공항버스	-13866
▁광주은행	-13867
▁구매관리	-13868
▁국무회의	-13869
▁군수품의	-13870
▁글렌피딕	-13871
▁급등세를	-13872
▁기대감도	-13873
▁기대하고	-13874
▁기대하는	-13875
▁기술수출	-13876
▁기술지원	-13877
▁기지개를	-13878
▁기획재정	-13879
▁기흥구에	-13880
▁깊어지고	-13881
▁내부통제	-13882
▁네오위즈	-13883
▁노동절을	-13884
▁늘어난다	-13885
▁늘었다고	-13886
▁대대적인	-13887
▁대부분을	-13888
▁대응하고	-13889
▁대응하는	-13890
▁대장지구	-13891
▁도입한다	-13892
▁돌아왔다	-13893
▁동대문구	-13894
▁동아에스	-13895
▁동종목은	-13896
▁두산그룹	-13897
▁들어가는	-13898
▁딜리버리	-13899
▁라이선스	-13900
▁롯데캐슬	-13901
▁리노공업	-13902
▁리쇼어링	-13903
▁맞으면서	-13904
▁모델들이	-13905
▁목소리를	-13906
▁무역지수	-13907
▁문화체육	-13908
▁민간경력	-13909
▁받는다고	-13910
▁받았다고	-13911
▁방안으로	-13912
▁벅셔해서	-13913
▁베스트샵	-13914
▁벤처투자	-13915
▁변동성을	-13916
▁보이면서	-13917
▁부보예금	-13918
▁부산시는	-13919
▁부엌가구	-13920
▁부정적인	-13921
▁분기보다	-13922
▁분석됐다	-13923
▁불가능한	-13924
▁브랜드와	-13925
▁사관학교	-13926
▁사내이사	-13927
▁사람들의	-13928
▁산업분야	-13929
▁살아있는	-13930
▁상관없이	-13931
▁상승폭을	-13932
▁색상으로	-13933
▁서비스의	-13934
▁선도하는	-13935
▁선물하기	-13936
▁선정하는	-13937
▁선행조건	-13938
▁설명하고	-13939
▁성장률을	-13940
▁세운상가	-13941
▁세전이익	-13942
▁소마젠은	-13943
▁소비심리	-13944
▁소비자의	-13945
▁속출하고	-13946
▁수단으로	-13947
▁수사하는	-13948
▁수소경제	-13949
▁수수료를	-13950
▁수용하고	-13951
▁쉐보레가	-13952
▁슈퍼마켓	-13953
▁스킨케어	-13954
▁시장감시	-13955
▁시장에도	-13956
▁신경전달	-13957
▁신용도가	-13958
▁신주인수	-13959
▁실적에도	-13960
▁쌍용차는	-13961
▁알고리즘	-13962
▁야심차게	-13963
▁어려움이	-13964
▁업무제휴	-13965
▁엇갈렸다	-13966
▁연구진이	-13967
▁연휴기간	-13968
▁예금금리	-13969
▁예년보다	-13970
▁예상되기	-13971
▁오디오북	-13972
▁오픈했다	-13973
▁온라인을	-13974
▁왕고구마	-13975
▁운영사업	-13976
▁운영사인	-13977
▁운용하는	-13978
▁움직임에	-13979
▁워킹스루	-13980
▁유지하기	-13981
▁유효기간	-13982
▁의견청취	-13983
▁의미한다	-13984
▁이뤄지고	-13985
▁이벤트에	-13986
▁인정받아	-13987
▁인컴자산	-13988
▁인터넷업	-13989
▁일반물자	-13990
▁일본은행	-13991
▁일상생활	-13992
▁자금난에	-13993
▁자동차는	-13994
▁자산유동	-13995
▁자유롭게	-13996
▁재건축해	-13997
▁저장탱크	-13998
▁적용된다	-13999
▁전광판에	-14000
▁전담하는	-14001
▁전망되는	-14002
▁전문가로	-14003
▁전시장은	-14004
▁제기된다	-14005
▁제어한다	-14006
▁제조업의	-14007
▁제조장비	-14008
▁조선부문	-14009
▁종합보험	-14010
▁주가지수	-14011
▁주력산업	-14012
▁주어지는	-14013
▁주춤했던	-14014
▁주택도시	-14015
▁준비했다	-14016
▁중단됐다	-14017
▁중증치매	-14018
▁지급하기	-14019
▁지니뮤직	-14020
▁지방행정	-14021
▁지역발생	-14022
▁지역사회	-14023
▁직원들은	-14024
▁착수했다	-14025
▁책임지는	-14026
▁청약에서	-14027
▁최고가는	-14028
▁최근에는	-14029
▁최저가는	-14030
▁추종하는	-14031
▁추출물을	-14032
▁출고가는	-14033
▁출시됐다	-14034
▁출시하는	-14035
▁카드승인	-14036
▁카카오가	-14037
▁코스닥이	-14038
▁콜센터는	-14039
▁크라우드	-14040
▁타임쉐어	-14041
▁탄산음료	-14042
▁테라타워	-14043
▁테스트를	-14044
▁토지거래	-14045
▁퇴직연금	-14046
▁투자상품	-14047
▁투자유치	-14048
▁투자하고	-14049
▁투자한다	-14050
▁트렌드가	-14051
▁특례보증	-14052
▁판매된다	-14053
▁펄어비스	-14054
▁평가위원	-14055
▁포함됐다	-14056
▁프로세서	-14057
▁프로야구	-14058
▁피앤티디	-14059
▁하락하며	-14060
▁한자릿수	-14061
▁한진그룹	-14062
▁할인가에	-14063
▁함께하는	-14064
▁합의했다	-14065
▁해서웨이	-14066
▁해소하기	-14067
▁현장에서	-14068
▁현재까지	-14069
▁현지시간	-14070
▁확보하기	-14071
▁확정했다	-14072
▁효성그룹	-14073
▁훈제연어	-14074
과학기술원	-14075
금융지주의	-14076
금융투자는	-14077
네트웍스가	-14078
동나래구역	-14079
들휴브레인	-14080
라이프케어	-14081
리어에어컨	-14082
머티리얼즈	-14083
모로드스쿨	-14084
박스코리아	-14085
부동산정보	-14086
산업생산은	-14087
삼성전자가	-14088
스페셜데이	-14089
억원이었다	-14090
에너지공단	-14091
에이프로젠	-14092
인터내셔날	-14093
터미널에서	-14094
테크노파크	-14095
테크놀로지	-14096
AFPBBN	-14097
Untact	-14098
▁138%,	-14099
▁2839%	-14100
▁561%,	-14101
▁KAIST	-14102
▁가시화되고	-14103
▁강남역에서	-14104
▁계열사들이	-14105
▁공급한다고	-14106
▁공시가격에	-14107
▁공유오피스	-14108
▁금융상품을	-14109
▁금융지원을	-14110
▁기관투자가	-14111
▁기대된다는	-14112
▁기록했다며	-14113
▁길어지면서	-14114
▁높이겠다는	-14115
▁달성한다는	-14116
▁달아오르고	-14117
▁대유행으로	-14118
▁디지털프라	-14119
▁롤러코스터	-14120
▁린데그룹과	-14121
▁마련한다고	-14122
▁무역협회장	-14123
▁발간했다고	-14124
▁방탄소년단	-14125
▁배달용보험	-14126
▁변경한다고	-14127
▁보험업계에	-14128
▁불확실성에	-14129
▁비이자이익	-14130
▁비트코인은	-14131
▁사회초년생	-14132
▁삼성물산과	-14133
▁서울반도체	-14134
▁선방했다는	-14135
▁선임했다고	-14136
▁성장사다리	-14137
▁소셜커머스	-14138
▁스마트폰을	-14139
▁시가총액이	-14140
▁신용유의자	-14141
▁아세틸콜린	-14142
▁아파트값은	-14143
▁아파트분양	-14144
▁암호동아리	-14145
▁업그레이드	-14146
▁에쓰오일이	-14147
▁에코마케팅	-14148
▁엔진비주얼	-14149
▁엘비세미콘	-14150
▁영업이익도	-14151
▁완료했다고	-14152
▁우체국쇼핑	-14153
▁운수창고업	-14154
▁유지하기로	-14155
▁유치했다고	-14156
▁이동통신사	-14157
▁이사회에서	-14158
▁인천연료전	-14159
▁입주물량이	-14160
▁자발적으로	-14161
▁재건축사업	-14162
▁재난지원금	-14163
▁재설계했다	-14164
▁전문가들의	-14165
▁전체적으로	-14166
▁접어들면서	-14167
▁제일기획은	-14168
▁조달청으로	-14169
▁줄어들면서	-14170
▁증권업계에	-14171
▁지급하기로	-14172
▁지식재산권	-14173
▁지원하기로	-14174
▁최소화하고	-14175
▁최소화하기	-14176
▁충전공구를	-14177
▁케이뱅크의	-14178
▁타미힐피거	-14179
▁탄력적으로	-14180
▁태스크포스	-14181
▁통과했다고	-14182
▁티브로드의	-14183
▁팰리세이드	-14184
▁포스코건설	-14185
▁포스코경영	-14186
▁프로젝트는	-14187
▁하락했다고	-14188
▁하반기에는	-14189
▁한국타이어	-14190
▁해서웨이는	-14191
▁현대제철이	-14192
▁현대해상은	-14193
▁협력하기로	-14194
▁호텔로봇은	-14195
▁화훼농가를	-14196
낙성벤처밸리	-14197
디스플레이는	-14198
무역투자진흥	-14199
식품유통공사	-14200
이노베이션이	-14201
▁jayful	-14202
▁가중평균금리	-14203
▁금융위원회가	-14204
▁금융정책결정	-14205
▁기초자산으로	-14206
▁뉴클레오시드	-14207
▁라이더유니온	-14208
▁메모리반도체	-14209
▁멕아이씨에스	-14210
▁방위사업청은	-14211
▁볼프스부르크	-14212
▁부동산업계에	-14213
▁삼천리자전거	-14214
▁서울아산병원	-14215
▁서울패션위크	-14216
▁소비자들에게	-14217
▁소상공인들이	-14218
▁소프트웨어업	-14219
▁수출입은행이	-14220
▁순매도하였다	-14221
▁어플리케이션	-14222
▁온라인쇼핑몰	-14223
▁우리바이오는	-14224
▁워싱턴포스트	-14225
▁유사투자자문	-14226
▁임직원들에게	-14227
▁입찰제안서를	-14228
▁장기화되면서	-14229
▁재난취약계층	-14230
▁정례회의에서	-14231
▁주주총회에서	-14232
▁창업보육센터	-14233
▁창업지원펀드	-14234
▁카카오뱅크는	-14235
▁카카오페이와	-14236
▁프로그램이다	-14237
▁하이투자증권	-14238
▁한국감정원의	-14239
▁한국상장회사	-14240
▁한국서부발전	-14241
▁항공지상조업	-14242
▁현대건설기계	-14243
▁현대백화점과	-14244
▁현대자동차의	-14245
▁현대차그룹에	-14246
상생플러스펀드	-14247
(058110)	-14248
▁경기도경제과학	-14249
▁딜리버리히어로	-14250
▁문화체육관광부	-14251
▁블룸버그통신에	-14252
▁스튜디오드래곤	-14253
▁아시아나항공에	-14254
▁여신금융협회가	-14255
▁전용면적별로는	-14256
▁젠트리피케이션	-14257
▁코스닥시장에서	-14258
▁테슬라코리아가	-14259
▁파이낸셜타임스	-14260
▁포스코에너지는	-14261
▁한국무역협회는	-14262
▁한국성장금융은	-14263
AFPBBNews	-14264
▁Nanotube	-14265
▁고용유지지원금을	-14266
▁디자인기자코로나	-14267
▁사우디아라비아의	-14268
▁서울주택도시공사	-14269
▁엔진비주얼웨이브	-14270
▁이엠케이네트웍스	-14271
▁인피니트헬스케어	-14272
▁전자공시시스템에	-14273
▁플래그십스토어를	-14274
농수산식품유통공사	-14275
▁미래에셋자산운용에	-14276
▁웨스틴조선호텔에서	-14277
▁전국경제인연합회는	-14278
▁중소기업유통센터와	-14279
▁코리아에셋투자증권	-14280
탄소정보공개프로젝트	-14281
heraldcorpc	-14282
▁식품의약품안전처로부터	-14283
)"	-14284
)*	-14285
,0	-14286
,7	-14287
34	-14288
@"	-14289
DM	-14290
EV	-14291
IK	-14292
KA	-14293
KO	-14294
RP	-14295
RT	-14296
SL	-14297
St	-14298
YP	-14299
]4	-14300
]‘	-14301
ak	-14302
bp	-14303
cm	-14304
ho	-14305
ia	-14306
ms	-14307
na	-14308
nd	-14309
pt	-14310
uc	-14311
uf	-14312
▁l	-14313
▁굵	-14314
▁깍	-14315
▁깎	-14316
▁늪	-14317
▁닐	-14318
▁덧	-14319
▁덩	-14320
▁델	-14321
▁듀	-14322
▁랠	-14323
▁렉	-14324
▁록	-14325
▁밖	-14326
▁밟	-14327
▁뷰	-14328
▁섞	-14329
▁웅	-14330
▁첨	-14331
▁쿼	-14332
▁털	-14333
▁팩	-14334
▁팽	-14335
▁헬	-14336
▁흩	-14337
가르	-14338
간체	-14339
감과	-14340
개에	-14341
개학	-14342
건과	-14343
게뜨	-14344
겨진	-14345
경을	-14346
관과	-14347
관인	-14348
관장	-14349
광가	-14350
광역	-14351
광채	-14352
국방	-14353
권형	-14354
그라	-14355
그루	-14356
금의	-14357
금일	-14358
기반	-14359
기연	-14360
기존	-14361
긴다	-14362
김빛	-14363
김성	-14364
김용	-14365
끌이	-14366
난영	-14367
내며	-14368
노멀	-14369
농업	-14370
늦게	-14371
니는	-14372
다른	-14373
닥칠	-14374
단독	-14375
단의	-14376
단이	-14377
단할	-14378
담배	-14379
당한	-14380
대혈	-14381
덱스	-14382
도별	-14383
동부	-14384
돼야	-14385
두운	-14386
드레	-14387
라매	-14388
라엘	-14389
라잇	-14390
라잡	-14391
래방	-14392
래버	-14393
래식	-14394
량에	-14395
럭처	-14396
레디	-14397
렉터	-14398
령기	-14399
루미	-14400
루잉	-14401
르미	-14402
리단	-14403
리도	-14404
리뷰	-14405
리의	-14406
림동	-14407
링과	-14408
링클	-14409
마포	-14410
만은	-14411
말로	-14412
망에	-14413
맞춤	-14414
맥스	-14415
먹는	-14416
먼스	-14417
모빌	-14418
몰트	-14419
무상	-14420
미진	-14421
미한	-14422
밀러	-14423
반환	-14424
발을	-14425
발한	-14426
배우	-14427
버터	-14428
번에	-14429
변호	-14430
병환	-14431
보드	-14432
보라	-14433
보에	-14434
보엠	-14435
보전	-14436
봇은	-14437
봇을	-14438
봉진	-14439
부다	-14440
부담	-14441
부부	-14442
부서	-14443
분할	-14444
비의	-14445
비통	-14446
사모	-14447
사원	-14448
산화	-14449
상규	-14450
새롬	-14451
선강	-14452
선택	-14453
설록	-14454
세연	-14455
세운	-14456
숙박	-14457
슈머	-14458
시흥	-14459
식의	-14460
실태	-14461
쎄를	-14462
쓰고	-14463
씨티	-14464
아래	-14465
아요	-14466
악의	-14467
악한	-14468
안방	-14469
알콜	-14470
암제	-14471
앞에	-14472
야크	-14473
업의	-14474
여당	-14475
여명	-14476
여전	-14477
연을	-14478
연히	-14479
영재	-14480
예탁	-14481
오던	-14482
오픈	-14483
옴므	-14484
옵션	-14485
요타	-14486
용을	-14487
우의	-14488
우치	-14489
워진	-14490
웍스	-14491
원인	-14492
원주	-14493
월께	-14494
월이	-14495
유상	-14496
윤철	-14497
을지	-14498
음이	-14499
응을	-14500
의무	-14501
이텍	-14502
인규	-14503
인수	-14504
일째	-14505
자민	-14506
자한	-14507
작은	-14508
적성	-14509
정도	-14510
정비	-14511
정태	-14512
정표	-14513
정혁	-14514
조금	-14515
조로	-14516
조에	-14517
종은	-14518
주민	-14519
주요	-14520
중개	-14521
중형	-14522
지동	-14523
차별	-14524
차입	-14525
채를	-14526
천동	-14527
추는	-14528
취급	-14529
취득	-14530
커리	-14531
커스	-14532
코와	-14533
콜릿	-14534
퀀텀	-14535
키움	-14536
타늄	-14537
터리	-14538
텍의	-14539
토익	-14540
투스	-14541
틀리	-14542
티엠	-14543
파인	-14544
페어	-14545
평형	-14546
폴리	-14547
품목	-14548
프론	-14549
하긴	-14550
한은	-14551
한의	-14552
한진	-14553
할지	-14554
항균	-14555
해지	-14556
행복	-14557
행사	-14558
향군	-14559
향을	-14560
허가	-14561
현금	-14562
협상	-14563
형을	-14564
혜숙	-14565
호기	-14566
호로	-14567
혼란	-14568
화상	-14569
화한	-14570
환을	-14571
환입	-14572
회담	-14573
효성	-14574
효원	-14575
(28	-14576
(34	-14577
(50	-14578
(60	-14579
(80	-14580
10-	-14581
133	-14582
155	-14583
184	-14584
20'	-14585
213	-14586
214	-14587
29/	-14588
30%	-14589
304	-14590
305	-14591
337	-14592
45%	-14593
46%	-14594
46(	-14595
49(	-14596
499	-14597
520	-14598
590	-14599
698	-14600
704	-14601
833	-14602
900	-14603
99%	-14604
CNT	-14605
DMC	-14606
FTA	-14607
KSS	-14608
MIS	-14609
MTV	-14610
PBR	-14611
SNS	-14612
SOC	-14613
Tra	-14614
UAM	-14615
age	-14616
aps	-14617
ech	-14618
ger	-14619
onl	-14620
orl	-14621
~19	-14622
▁-2	-14623
▁1)	-14624
▁AS	-14625
▁Cl	-14626
▁IF	-14627
▁MP	-14628
▁QV	-14629
▁ST	-14630
▁Sh	-14631
▁UV	-14632
▁in	-14633
▁of	-14634
▁가축	-14635
▁각별	-14636
▁갈등	-14637
▁갑부	-14638
▁강경	-14639
▁개강	-14640
▁거두	-14641
▁거둘	-14642
▁건대	-14643
▁건을	-14644
▁것인	-14645
▁겹쳐	-14646
▁고교	-14647
▁고도	-14648
▁고른	-14649
▁공실	-14650
▁과일	-14651
▁교사	-14652
▁교원	-14653
▁국비	-14654
▁그래	-14655
▁그려	-14656
▁극장	-14657
▁금값	-14658
▁금속	-14659
▁금투	-14660
▁기기	-14661
▁기른	-14662
▁긴장	-14663
▁김모	-14664
▁꺼내	-14665
▁끝판	-14666
▁나가	-14667
▁남부	-14668
▁내걸	-14669
▁내내	-14670
▁내륙	-14671
▁넓혀	-14672
▁네덜	-14673
▁노조	-14674
▁노출	-14675
▁놀이	-14676
▁높일	-14677
▁늘리	-14678
▁늦춰	-14679
▁닐슨	-14680
▁단축	-14681
▁달인	-14682
▁달차	-14683
▁당면	-14684
▁대내	-14685
▁대박	-14686
▁대여	-14687
▁덧붙	-14688
▁독서	-14689
▁독자	-14690
▁독특	-14691
▁돌봄	-14692
▁동생	-14693
▁돼지	-14694
▁뒤흔	-14695
▁듣고	-14696
▁등극	-14697
▁등촌	-14698
▁때만	-14699
▁똑같	-14700
▁띄게	-14701
▁래디	-14702
▁레더	-14703
▁롱패	-14704
▁루이	-14705
▁리터	-14706
▁마비	-14707
▁마힌	-14708
▁막걸	-14709
▁막힌	-14710
▁만회	-14711
▁말이	-14712
▁매체	-14713
▁머신	-14714
▁면치	-14715
▁무산	-14716
▁무슨	-14717
▁민자	-14718
▁밀어	-14719
▁바꿀	-14720
▁바나	-14721
▁박스	-14722
▁박용	-14723
▁발동	-14724
▁발휘	-14725
▁배제	-14726
▁백악	-14727
▁범위	-14728
▁벗어	-14729
▁보랭	-14730
▁보일	-14731
▁볶음	-14732
▁본다	-14733
▁볼빅	-14734
▁부드	-14735
▁부천	-14736
▁북구	-14737
▁북부	-14738
▁분류	-14739
▁분사	-14740
▁브라	-14741
▁빈폴	-14742
▁빚고	-14743
▁사각	-14744
▁사문	-14745
▁사은	-14746
▁사임	-14747
▁사퇴	-14748
▁살림	-14749
▁석가	-14750
▁석탄	-14751
▁세무	-14752
▁세아	-14753
▁세제	-14754
▁셀렉	-14755
▁셰프	-14756
▁소중	-14757
▁소통	-14758
▁손꼽	-14759
▁손익	-14760
▁수렴	-14761
▁수술	-14762
▁수천	-14763
▁스미	-14764
▁승소	-14765
▁승용	-14766
▁시의	-14767
▁식사	-14768
▁신분	-14769
▁신상	-14770
▁실감	-14771
▁실라	-14772
▁실망	-14773
▁실전	-14774
▁쌓아	-14775
▁아끼	-14776
▁아버	-14777
▁아쉬	-14778
▁안녕	-14779
▁안도	-14780
▁안돼	-14781
▁안양	-14782
▁않게	-14783
▁압구	-14784
▁앞선	-14785
▁앞장	-14786
▁애로	-14787
▁약정	-14788
▁어제	-14789
▁없애	-14790
▁에듀	-14791
▁에미	-14792
▁엔비	-14793
▁엠디	-14794
▁여겨	-14795
▁여기	-14796
▁여부	-14797
▁역전	-14798
▁연관	-14799
▁연상	-14800
▁연회	-14801
▁열지	-14802
▁영문	-14803
▁영입	-14804
▁영종	-14805
▁예견	-14806
▁오산	-14807
▁용지	-14808
▁원에	-14809
▁원조	-14810
▁월드	-14811
▁월별	-14812
▁위크	-14813
▁유관	-14814
▁유래	-14815
▁육군	-14816
▁윤곽	-14817
▁윤활	-14818
▁의욕	-14819
▁의족	-14820
▁이때	-14821
▁이론	-14822
▁이색	-14823
▁이수	-14824
▁이스	-14825
▁이윤	-14826
▁인큐	-14827
▁일간	-14828
▁임용	-14829
▁잇단	-14830
▁자주	-14831
▁작동	-14832
▁잡은	-14833
▁재도	-14834
▁저가	-14835
▁저택	-14836
▁저해	-14837
▁적재	-14838
▁전과	-14839
▁전부	-14840
▁점심	-14841
▁정교	-14842
▁정당	-14843
▁정의	-14844
▁정진	-14845
▁정체	-14846
▁정통	-14847
▁정희	-14848
▁조립	-14849
▁조작	-14850
▁좌우	-14851
▁주기	-14852
▁준수	-14853
▁준위	-14854
▁줄을	-14855
▁줄이	-14856
▁중후	-14857
▁즐기	-14858
▁증여	-14859
▁증진	-14860
▁증폭	-14861
▁지갑	-14862
▁지침	-14863
▁지향	-14864
▁짓는	-14865
▁짧은	-14866
▁찍은	-14867
▁착안	-14868
▁창조	-14869
▁책을	-14870
▁책정	-14871
▁철도	-14872
▁청문	-14873
▁체납	-14874
▁체어	-14875
▁체제	-14876
▁초대	-14877
▁초래	-14878
▁추산	-14879
▁출입	-14880
▁취재	-14881
▁침대	-14882
▁카고	-14883
▁캐모	-14884
▁쿠쿠	-14885
▁키울	-14886
▁키친	-14887
▁탐험	-14888
▁태경	-14889
▁통관	-14890
▁특장	-14891
▁특판	-14892
▁팔아	-14893
▁평판	-14894
▁폐점	-14895
▁포레	-14896
▁푸른	-14897
▁피할	-14898
▁픽업	-14899
▁핑크	-14900
▁하네	-14901
▁한데	-14902
▁한섬	-14903
▁항만	-14904
▁해명	-14905
▁해임	-14906
▁현인	-14907
▁현직	-14908
▁형사	-14909
▁호흡	-14910
▁효능	-14911
▁후임	-14912
▁흡착	-14913
▁흥국	-14914
▁힐링	-14915
가구다	-14916
가르드	-14917
가운데	-14918
강승연	-14919
개월째	-14920
경영을	-14921
계열사	-14922
계층의	-14923
곳이다	-14924
공시를	-14925
공장은	-14926
과대학	-14927
구조물	-14928
규모가	-14929
금융에	-14930
기아차	-14931
기회가	-14932
김빛나	-14933
나기자	-14934
년대는	-14935
년에도	-14936
년에서	-14937
능력을	-14938
달러로	-14939
당국이	-14940
대란이	-14941
동향에	-14942
되는데	-14943
되지만	-14944
드뱅크	-14945
들이다	-14946
라윈드	-14947
라잇브	-14948
러스트	-14949
레이트	-14950
렌터카	-14951
로보틱	-14952
리니지	-14953
리더십	-14954
리언스	-14955
리프레	-14956
마켓은	-14957
마하의	-14958
만선을	-14959
만위안	-14960
매거진	-14961
매물이	-14962
물질이	-14963
물질인	-14964
바이트	-14965
박경담	-14966
방송의	-14967
버결제	-14968
베이비	-14969
베이스	-14970
베트남	-14971
보엠이	-14972
분기를	-14973
분기와	-14974
브리지	-14975
비비고	-14976
사업단	-14977
사업화	-14978
사태로	-14979
삽시다	-14980
새로운	-14981
서십을	-14982
서울형	-14983
서포트	-14984
선물인	-14985
선택권	-14986
섰다고	-14987
세까지	-14988
세대를	-14989
세아이	-14990
세일즈	-14991
세척기	-14992
수당의	-14993
수익률	-14994
수익은	-14995
스터디	-14996
스토어	-14997
스프레	-14998
시밀러	-14999
시설의	-15000
시했다	-15001
신탁의	-15002
심리를	-15003
씨준생	-15004
아모레	-15005
안정을	-15006
업계도	-15007
업체를	-15008
엑스코	-15009
였다는	-15010
영양식	-15011
왔지만	-15012
용으로	-15013
용품을	-15014
웍스가	-15015
원까지	-15016
유가는	-15017
유로화	-15018
이라면	-15019
이어폰	-15020
이익률	-15021
이해준	-15022
일간의	-15023
일부로	-15024
적령기	-15025
정경수	-15026
정책에	-15027
정태일	-15028
정혁수	-15029
제안을	-15030
제한법	-15031
제한폭	-15032
조치로	-15033
중기부	-15034
지환급	-15035
집콕족	-15036
차이나	-15037
책임자	-15038
최악의	-15039
충전소	-15040
치료제	-15041
코디악	-15042
코람코	-15043
크리에	-15044
테스트	-15045
판데믹	-15046
페르미	-15047
편의점	-15048
평가는	-15049
포조선	-15050
하우징	-15051
함영훈	-15052
항에서	-15053
해달라	-15054
호텔은	-15055
홍봉진	-15056
화하는	-15057
환율을	-15058
효과가	-15059
(+19	-15060
(+29	-15061
(-10	-15062
(005	-15063
(012	-15064
(035	-15065
(090	-15066
(250	-15067
11%)	-15068
1200	-15069
160)	-15070
1600	-15071
22%)	-15072
2245	-15073
230)	-15074
30%)	-15075
3648	-15076
38%)	-15077
4200	-15078
4572	-15079
4800	-15080
5094	-15081
5200	-15082
65%)	-15083
690)	-15084
720)	-15085
7800	-15086
8800	-15087
9300	-15088
SIAM	-15089
abel	-15090
ment	-15091
ones	-15092
▁05%	-15093
▁1,6	-15094
▁104	-15095
▁137	-15096
▁138	-15097
▁151	-15098
▁152	-15099
▁154	-15100
▁167	-15101
▁169	-15102
▁187	-15103
▁191	-15104
▁2,8	-15105
▁203	-15106
▁207	-15107
▁208	-15108
▁216	-15109
▁233	-15110
▁249	-15111
▁259	-15112
▁29%	-15113
▁306	-15114
▁313	-15115
▁330	-15116
▁333	-15117
▁335	-15118
▁348	-15119
▁362	-15120
▁37%	-15121
▁382	-15122
▁392	-15123
▁417	-15124
▁47%	-15125
▁474	-15126
▁491	-15127
▁5,6	-15128
▁51(	-15129
▁529	-15130
▁53%	-15131
▁54(	-15132
▁578	-15133
▁5~6	-15134
▁64%	-15135
▁672	-15136
▁72%	-15137
▁727	-15138
▁84%	-15139
▁85%	-15140
▁87%	-15141
▁883	-15142
▁91%	-15143
▁92%	-15144
▁929	-15145
▁93%	-15146
▁ADT	-15147
▁CAC	-15148
▁ENM	-15149
▁GMP	-15150
▁IMF	-15151
▁JYP	-15152
▁KRX	-15153
▁OCI	-15154
▁ODM	-15155
▁SBA	-15156
▁SBI	-15157
▁han	-15158
▁가동률	-15159
▁가성비	-15160
▁가지로	-15161
▁갈아치	-15162
▁감사의	-15163
▁감소는	-15164
▁강남역	-15165
▁강하늘	-15166
▁개인용	-15167
▁갤러리	-15168
▁건강을	-15169
▁건설사	-15170
▁걸맞은	-15171
▁검사를	-15172
▁검찰에	-15173
▁검찰이	-15174
▁것처럼	-15175
▁겨냥해	-15176
▁격리해	-15177
▁겪었다	-15178
▁결정된	-15179
▁결제를	-15180
▁결제수	-15181
▁경상북	-15182
▁경영진	-15183
▁경우가	-15184
▁경쟁사	-15185
▁경험이	-15186
▁계기가	-15187
▁계약금	-15188
▁계약은	-15189
▁계열의	-15190
▁고령화	-15191
▁고사장	-15192
▁고수익	-15193
▁고통분	-15194
▁곳이다	-15195
▁공급을	-15196
▁공급할	-15197
▁공효진	-15198
▁교수가	-15199
▁교육은	-15200
▁구강모	-15201
▁구글의	-15202
▁구독자	-15203
▁구매가	-15204
▁구매를	-15205
▁구축한	-15206
▁구현모	-15207
▁국가위	-15208
▁국민의	-15209
▁국채를	-15210
▁국회를	-15211
▁규모에	-15212
▁규제로	-15213
▁그룹은	-15214
▁그룹이	-15215
▁근육의	-15216
▁급반등	-15217
▁기능과	-15218
▁기반한	-15219
▁기부는	-15220
▁기부에	-15221
▁기자와	-15222
▁기존에	-15223
▁기프트	-15224
▁기획전	-15225
▁김난영	-15226
▁김도영	-15227
▁김승한	-15228
▁김인채	-15229
▁김지산	-15230
▁깍두기	-15231
▁깨끗한	-15232
▁꼽았다	-15233
▁꽃다발	-15234
▁나쁘지	-15235
▁나서야	-15236
▁나주석	-15237
▁낮아진	-15238
▁내구성	-15239
▁내렸다	-15240
▁내용에	-15241
▁네오플	-15242
▁노동자	-15243
▁노란색	-15244
▁노리는	-15245
▁논란에	-15246
▁농기계	-15247
▁농식품	-15248
▁높아질	-15249
▁눈덩이	-15250
▁뉴타운	-15251
▁느끼는	-15252
▁늘리고	-15253
▁다음날	-15254
▁다자녀	-15255
▁달러에	-15256
▁달러화	-15257
▁담겼다	-15258
▁대구시	-15259
▁대법관	-15260
▁대전환	-15261
▁대출로	-15262
▁대해선	-15263
▁대혼란	-15264
▁더블유	-15265
▁도미노	-15266
▁도심형	-15267
▁도요타	-15268
▁도움이	-15269
▁뒤늦게	-15270
▁등록을	-15271
▁떨어지	-15272
▁뜻이다	-15273
▁래미안	-15274
▁레미콘	-15275
▁레저상	-15276
▁리브온	-15277
▁리콜을	-15278
▁만기가	-15279
▁많다는	-15280
▁맞물려	-15281
▁매장에	-15282
▁매장이	-15283
▁모두를	-15284
▁못지않	-15285
▁무디스	-15286
▁무순위	-15287
▁문구를	-15288
▁문의가	-15289
▁물티슈	-15290
▁미쳤다	-15291
▁미치지	-15292
▁민간용	-15293
▁바꾸고	-15294
▁박선강	-15295
▁박세연	-15296
▁박정호	-15297
▁박혜숙	-15298
▁반등에	-15299
▁받도록	-15300
▁발표할	-15301
▁발행할	-15302
▁밝히지	-15303
▁방법을	-15304
▁방송인	-15305
▁방식과	-15306
▁백상엽	-15307
▁번째다	-15308
▁베이비	-15309
▁벤틀리	-15310
▁별도로	-15311
▁보성녹	-15312
▁보이던	-15313
▁보호를	-15314
▁복잡한	-15315
▁본인의	-15316
▁부지에	-15317
▁분당구	-15318
▁분야를	-15319
▁분양할	-15320
▁불렸던	-15321
▁불리며	-15322
▁불만이	-15323
▁비규제	-15324
▁비빔밥	-15325
▁비상이	-15326
▁비용이	-15327
▁빅히트	-15328
▁빗썸에	-15329
▁사들이	-15330
▁사람들	-15331
▁사랑의	-15332
▁사업주	-15333
▁사용이	-15334
▁사장과	-15335
▁사흘째	-15336
▁산업과	-15337
▁산업은	-15338
▁산은과	-15339
▁산하기	-15340
▁상권을	-15341
▁상승과	-15342
▁상품군	-15343
▁생각해	-15344
▁생맥주	-15345
▁생산의	-15346
▁생존을	-15347
▁서서히	-15348
▁서울고	-15349
▁서울은	-15350
▁서울을	-15351
▁선발된	-15352
▁선임에	-15353
▁성북구	-15354
▁성장과	-15355
▁세금을	-15356
▁손명수	-15357
▁손병환	-15358
▁손으로	-15359
▁손해를	-15360
▁송구영	-15361
▁쇼핑을	-15362
▁수량이	-15363
▁수상작	-15364
▁수입통	-15365
▁수출도	-15366
▁수출액	-15367
▁수출의	-15368
▁스프링	-15369
▁시기가	-15370
▁시세가	-15371
▁시장과	-15372
▁시제품	-15373
▁시중에	-15374
▁신도시	-15375
▁신설을	-15376
▁신창환	-15377
▁실업자	-15378
▁씨젠은	-15379
▁아세안	-15380
▁아이언	-15381
▁악재가	-15382
▁안랩은	-15383
▁안전성	-15384
▁않아도	-15385
▁약국에	-15386
▁양극화	-15387
▁양도세	-15388
▁어두운	-15389
▁업체로	-15390
▁업황이	-15391
▁엇갈린	-15392
▁에브리	-15393
▁엔봇은	-15394
▁여지윤	-15395
▁역사상	-15396
▁연결된	-15397
▁연계형	-15398
▁연구원	-15399
▁연달아	-15400
▁연도별	-15401
▁연매출	-15402
▁연세대	-15403
▁열기는	-15404
▁영업이	-15405
▁예단할	-15406
▁예상한	-15407
▁예정돼	-15408
▁오가닉	-15409
▁오설록	-15410
▁올라와	-15411
▁와이즈	-15412
▁와인을	-15413
▁외에도	-15414
▁요플레	-15415
▁운영해	-15416
▁운용사	-15417
▁워라밸	-15418
▁원유를	-15419
▁위아래	-15420
▁위축될	-15421
▁위축에	-15422
▁유기농	-15423
▁유승관	-15424
▁유아동	-15425
▁유용한	-15426
▁유입된	-15427
▁유치에	-15428
▁윤자민	-15429
▁윤종규	-15430
▁은행에	-15431
▁은행의	-15432
▁음성인	-15433
▁의미가	-15434
▁이동이	-15435
▁이렇다	-15436
▁이르는	-15437
▁이번달	-15438
▁이상된	-15439
▁이어온	-15440
▁이정환	-15441
▁이주완	-15442
▁이진규	-15443
▁이진욱	-15444
▁이천시	-15445
▁인수한	-15446
▁인수해	-15447
▁인하를	-15448
▁일본과	-15449
▁일상에	-15450
▁일시적	-15451
▁일임형	-15452
▁임대차	-15453
▁입사를	-15454
▁입주를	-15455
▁잇따른	-15456
▁자가격	-15457
▁자릿수	-15458
▁자영업	-15459
▁자체를	-15460
▁장수명	-15461
▁장초반	-15462
▁장효원	-15463
▁재개를	-15464
▁재개에	-15465
▁재개할	-15466
▁재계에	-15467
▁재무적	-15468
▁재사용	-15469
▁재확산	-15470
▁저자극	-15471
▁저점을	-15472
▁저조한	-15473
▁적용된	-15474
▁전년도	-15475
▁전략에	-15476
▁전력을	-15477
▁전반에	-15478
▁전자동	-15479
▁전환할	-15480
▁전환해	-15481
▁점검을	-15482
▁접촉을	-15483
▁정기섭	-15484
▁정무경	-15485
▁정보가	-15486
▁정용진	-15487
▁정지된	-15488
▁정책이	-15489
▁제목의	-15490
▁제시한	-15491
▁제작한	-15492
▁젝시오	-15493
▁조건과	-15494
▁조영제	-15495
▁조절에	-15496
▁조정한	-15497
▁졸업식	-15498
▁주문을	-15499
▁주식과	-15500
▁주식의	-15501
▁줄였다	-15502
▁중에서	-15503
▁즉석조	-15504
▁증권맨	-15505
▁증시를	-15506
▁지금은	-15507
▁지나치	-15508
▁지수의	-15509
▁지원한	-15510
▁차량에	-15511
▁창고에	-15512
▁창출을	-15513
▁철학을	-15514
▁체험형	-15515
▁초까지	-15516
▁초콜릿	-15517
▁총력을	-15518
▁촬영을	-15519
▁최고가	-15520
▁최동현	-15521
▁최석환	-15522
▁추이를	-15523
▁추진을	-15524
▁출시할	-15525
▁출신인	-15526
▁출연해	-15527
▁출자를	-15528
▁출자해	-15529
▁취득의	-15530
▁치료비	-15531
▁카드를	-15532
▁캠핑카	-15533
▁커스터	-15534
▁컬래버	-15535
▁콤팩트	-15536
▁쿠팡의	-15537
▁클럽에	-15538
▁클로이	-15539
▁타격은	-15540
▁텍사스	-15541
▁투자도	-15542
▁특례법	-15543
▁특유의	-15544
▁특허를	-15545
▁티타늄	-15546
▁파리바	-15547
▁파미셀	-15548
▁파악할	-15549
▁파우치	-15550
▁판권을	-15551
▁판매도	-15552
▁팩토리	-15553
▁편성해	-15554
▁편집숍	-15555
▁펼쳐질	-15556
▁폐쇄로	-15557
▁포부를	-15558
▁품목은	-15559
▁품목의	-15560
▁품질을	-15561
▁프로세	-15562
▁프리즘	-15563
▁한국공	-15564
▁할인을	-15565
▁함안군	-15566
▁함유한	-15567
▁해임을	-15568
▁행보를	-15569
▁허가가	-15570
▁허브로	-15571
▁현재의	-15572
▁현황을	-15573
▁협약은	-15574
▁호가든	-15575
▁호응을	-15576
▁홈파티	-15577
▁화소의	-15578
▁화재가	-15579
▁화제가	-15580
▁확실히	-15581
▁확인한	-15582
▁확장을	-15583
▁환경부	-15584
▁회사를	-15585
▁회원권	-15586
▁회장과	-15587
▁후에도	-15588
가격공시	-15589
개사에만	-15590
고속도로	-15591
고용정보	-15592
규격인증	-15593
금융거래	-15594
기간산업	-15595
넥실리스	-15596
동부제철	-15597
라젠이텍	-15598
력원자력	-15599
만달러의	-15600
명이라고	-15601
받았다고	-15602
변경상장	-15603
복지재단	-15604
본부장과	-15605
블록체인	-15606
생명보험	-15607
생활방역	-15608
서비스인	-15609
서울시가	-15610
세대에게	-15611
소비자가	-15612
스타시티	-15613
스타트업	-15614
스트럭처	-15615
시스템은	-15616
연구원에	-15617
연합회가	-15618
은행에서	-15619
이라면서	-15620
이오니어	-15621
이자마진	-15622
인공지능	-15623
일까지로	-15624
자율주행	-15625
자이언트	-15626
재무구조	-15627
저장장치	-15628
정책과장	-15629
제조협회	-15630
주택가격	-15631
처리장치	-15632
클라우드	-15633
플라스틱	-15634
한국사이	-15635
항만공사	-15636
해외주식	-15637
홈플러스	-15638
(0000	-15639
(2228	-15640
):46(	-15641
):49(	-15642
300]]	-15643
3010-	-15644
6,000	-15645
KOTRA	-15646
actur	-15647
~2019	-15648
▁(02)	-15649
▁043%	-15650
▁075%	-15651
▁101%	-15652
▁1071	-15653
▁1100	-15654
▁126%	-15655
▁1278	-15656
▁1297	-15657
▁1306	-15658
▁1387	-15659
▁1400	-15660
▁1447	-15661
▁1940	-15662
▁1962	-15663
▁1981	-15664
▁1998	-15665
▁2001	-15666
▁2003	-15667
▁2005	-15668
▁204%	-15669
▁2052	-15670
▁2700	-15671
▁291%	-15672
▁299%	-15673
▁321%	-15674
▁3223	-15675
▁3387	-15676
▁339%	-15677
▁433%	-15678
▁4800	-15679
▁5005	-15680
▁598%	-15681
▁6812	-15682
▁7370	-15683
▁8900	-15684
▁938%	-15685
▁Card	-15686
▁FOMC	-15687
▁Gold	-15688
▁HSBC	-15689
▁가전제품	-15690
▁가정에서	-15691
▁가중되고	-15692
▁가파르게	-15693
▁감지된다	-15694
▁개미들이	-15695
▁개발하고	-15696
▁개발했다	-15697
▁개최한다	-15698
▁건설사업	-15699
▁격려하고	-15700
▁결정하는	-15701
▁경기관광	-15702
▁경기회복	-15703
▁경영전략	-15704
▁경영전문	-15705
▁경영현황	-15706
▁경쟁률은	-15707
▁경제상황	-15708
▁경제충격	-15709
▁계약서를	-15710
▁고객만족	-15711
▁고공행진	-15712
▁고급호텔	-15713
▁고매동에	-15714
▁골드포레	-15715
▁공간복지	-15716
▁공공구매	-15717
▁공급된다	-15718
▁공영쇼핑	-15719
▁공유하고	-15720
▁공인회계	-15721
▁공장에서	-15722
▁관리처분	-15723
▁관점에서	-15724
▁괴리율로	-15725
▁교통사고	-15726
▁구인구직	-15727
▁구입하고	-15728
▁국가정보	-15729
▁국면으로	-15730
▁국민들은	-15731
▁국민들이	-15732
▁국유재산	-15733
▁국제과학	-15734
▁국책과제	-15735
▁규제자유	-15736
▁그러면서	-15737
▁금융당국	-15738
▁금융위는	-15739
▁급락했다	-15740
▁급증으로	-15741
▁기관으로	-15742
▁기금운용	-15743
▁기다리고	-15744
▁기업들에	-15745
▁기업분석	-15746
▁기업시민	-15747
▁기존보다	-15748
▁기존에는	-15749
▁기초연금	-15750
▁나노튜브	-15751
▁나타내는	-15752
▁내놓으며	-15753
▁내륙노선	-15754
▁내용으로	-15755
▁넘어서며	-15756
▁노동부는	-15757
▁높아졌다	-15758
▁높아지는	-15759
▁다운로드	-15760
▁닫으면서	-15761
▁대부분은	-15762
▁대부분이	-15763
▁대안으로	-15764
▁대주주인	-15765
▁대출금리	-15766
▁대표되는	-15767
▁덕은지구	-15768
▁덧붙였다	-15769
▁도약하자	-15770
▁도입하는	-15771
▁동월보다	-15772
▁동일하게	-15773
▁돼지고기	-15774
▁둔곡지구	-15775
▁등록금은	-15776
▁디자인과	-15777
▁떨어졌던	-15778
▁라가르드	-15779
▁락앤락이	-15780
▁래핑도어	-15781
▁랜드마크	-15782
▁롯데정밀	-15783
▁루이비통	-15784
▁리뉴얼을	-15785
▁리빙파워	-15786
▁마사지볼	-15787
▁마쳤다고	-15788
▁마케팅을	-15789
▁마켓통합	-15790
▁막히면서	-15791
▁만성질환	-15792
▁매출액을	-15793
▁면세점업	-15794
▁모범규준	-15795
▁모범사례	-15796
▁무너지고	-15797
▁무엇보다	-15798
▁무항생제	-15799
▁미니스톱	-15800
▁미니언즈	-15801
▁미혼남녀	-15802
▁민간택지	-15803
▁민생경제	-15804
▁반도건설	-15805
▁반도체와	-15806
▁반영됐다	-15807
▁반영했다	-15808
▁반포자이	-15809
▁방사광가	-15810
▁배당금이	-15811
▁밸류체인	-15812
▁벌어졌다	-15813
▁법인세를	-15814
▁벗어나지	-15815
▁베이커리	-15816
▁베트남의	-15817
▁벤처펀드	-15818
▁변동성에	-15819
▁변동했다	-15820
▁보건의료	-15821
▁보인다고	-15822
▁보험사의	-15823
▁보험업법	-15824
▁보험회사	-15825
▁본격화된	-15826
▁본격화한	-15827
▁부동산이	-15828
▁부산지역	-15829
▁부실채권	-15830
▁분산투자	-15831
▁분석업체	-15832
▁분석하고	-15833
▁분석하며	-15834
▁분양하는	-15835
▁분위기가	-15836
▁불가피한	-15837
▁불어넣기	-15838
▁불편함을	-15839
▁브랜드별	-15840
▁비상경영	-15841
▁사망자가	-15842
▁사업구조	-15843
▁사업비를	-15844
▁사이에서	-15845
▁산업대상	-15846
▁살펴보고	-15847
▁상장폐지	-15848
▁상태에서	-15849
▁상품에는	-15850
▁생각하는	-15851
▁생산공장	-15852
▁생생하게	-15853
▁서울시의	-15854
▁서초구에	-15855
▁선방했다	-15856
▁설명회를	-15857
▁성공하면	-15858
▁성장세가	-15859
▁소개했다	-15860
▁소득공제	-15861
▁소마젠이	-15862
▁솔루션을	-15863
▁수의계약	-15864
▁수출물량	-15865
▁수출하는	-15866
▁순손실은	-15867
▁순위에서	-15868
▁스니커즈	-15869
▁스탠다드	-15870
▁시너지를	-15871
▁시달리고	-15872
▁시리즈의	-15873
▁시민들의	-15874
▁시행하는	-15875
▁신규채용	-15876
▁신성장동	-15877
▁신축공사	-15878
▁실라키스	-15879
▁실업급여	-15880
▁실질적인	-15881
▁실행하는	-15882
▁싱글몰트	-15883
▁아메리칸	-15884
▁아우르네	-15885
▁아이오닉	-15886
▁아이티엠	-15887
▁아이파크	-15888
▁악화됐다	-15889
▁않는다는	-15890
▁않으면서	-15891
▁알뜰주유	-15892
▁알파벳이	-15893
▁양적완화	-15894
▁어디서나	-15895
▁어린이를	-15896
▁어린이집	-15897
▁에듀테크	-15898
▁엔비디아	-15899
▁역배열을	-15900
▁연구기관	-15901
▁연기했다	-15902
▁연합뉴스	-15903
▁영남지역	-15904
▁예상되고	-15905
▁예약판매	-15906
▁오늘부터	-15907
▁오리온은	-15908
▁오픈하고	-15909
▁온실가스	-15910
▁올리브영	-15911
▁올스페이	-15912
▁요구하고	-15913
▁우세하다	-15914
▁우주부품	-15915
▁운전자가	-15916
▁웹세미나	-15917
▁위기대응	-15918
▁위기에도	-15919
▁위축되는	-15920
▁유지하는	-15921
▁유통업종	-15922
▁유틸리티	-15923
▁육성하기	-15924
▁의미하는	-15925
▁의사결정	-15926
▁의정부시	-15927
▁이뤄진다	-15928
▁이마트가	-15929
▁이스라엘	-15930
▁이어가며	-15931
▁이어질지	-15932
▁이용하면	-15933
▁이익창출	-15934
▁인도에서	-15935
▁인사말을	-15936
▁인수하는	-15937
▁인수하며	-15938
▁인수한다	-15939
▁인천검단	-15940
▁일원에서	-15941
▁입주자격	-15942
▁있다사진	-15943
▁자금난을	-15944
▁자동차를	-15945
▁자산매각	-15946
▁자유로운	-15947
▁작용하고	-15948
▁장례식장	-15949
▁재판부는	-15950
▁저렴하게	-15951
▁전개하는	-15952
▁전기요금	-15953
▁전문투자	-15954
▁전세기를	-15955
▁전시장을	-15956
▁전역에서	-15957
▁전통적인	-15958
▁전해졌다	-15959
▁정리했다	-15960
▁정무수석	-15961
▁제조기업	-15962
▁제조하는	-15963
▁제품에서	-15964
▁조달시장	-15965
▁조세특례	-15966
▁주관으로	-15967
▁주도하는	-15968
▁주목하라	-15969
▁주목해야	-15970
▁주민들이	-15971
▁주상복합	-15972
▁주재하고	-15973
▁중단하고	-15974
▁중단했다	-15975
▁증가세를	-15976
▁증가율은	-15977
▁증가율이	-15978
▁증권사를	-15979
▁증권회사	-15980
▁지난해와	-15981
▁지드래곤	-15982
▁지분율은	-15983
▁지원대책	-15984
▁지원으로	-15985
▁참여자를	-15986
▁창업자금	-15987
▁창업자인	-15988
▁채무보증	-15989
▁채무상환	-15990
▁채용시험	-15991
▁천연가스	-15992
▁첨단의료	-15993
▁청년들을	-15994
▁청라국제	-15995
▁추가됐다	-15996
▁추진된다	-15997
▁출발했던	-15998
▁측면에서	-15999
▁카카오톡	-16000
▁캐모마일	-16001
▁커졌다는	-16002
▁컨퍼런스	-16003
▁코로나로	-16004
▁코세어는	-16005
▁콘크리트	-16006
▁트위터에	-16007
▁특별공급	-16008
▁특별대책	-16009
▁특별할인	-16010
▁특허권을	-16011
▁파악됐다	-16012
▁파인애플	-16013
▁판결했다	-16014
▁판단했다	-16015
▁판매량을	-16016
▁편성했다	-16017
▁평가하는	-16018
▁폭락했다	-16019
▁푸르지오	-16020
▁필수인력	-16021
▁하락폭을	-16022
▁하락폭이	-16023
▁하반기에	-16024
▁한국석유	-16025
▁한국시간	-16026
▁한국외식	-16027
▁한국인의	-16028
▁한국철도	-16029
▁한정으로	-16030
▁한화토탈	-16031
▁합격자를	-16032
▁항공권을	-16033
▁항공화물	-16034
▁해결하기	-16035
▁해결하는	-16036
▁해석된다	-16037
▁해외건설	-16038
▁해외선물	-16039
▁행사에는	-16040
▁혁신수요	-16041
▁혁신적인	-16042
▁현대리바	-16043
▁형식으로	-16044
▁호반써밋	-16045
▁혼조세를	-16046
▁화상상담	-16047
▁확대되고	-16048
▁확인하고	-16049
▁확인했다	-16050
▁환기유니	-16051
기업은행의	-16052
농협은행과	-16053
대학교병원	-16054
두산중공업	-16055
라잇브루잉	-16056
리식품으로	-16057
마포하우징	-16058
매수선택권	-16059
보겠습니다	-16060
사업본부는	-16061
사이언스는	-16062
산업은행법	-16063
삼성전자와	-16064
선물인버스	-16065
수소엑스포	-16066
신한나기자	-16067
억원이라고	-16068
연구소에서	-16069
올리브영은	-16070
위원회에서	-16071
자원관리실	-16072
정표시장치	-16073
제일제당은	-16074
황금올리브	-16075
(013%)	-16076
(179%)	-16077
(221%)	-16078
(255%)	-16079
untact	-16080
▁'2022	-16081
▁1,200	-16082
▁1101%	-16083
▁19~25	-16084
▁2019'	-16085
▁2020’	-16086
▁299%,	-16087
▁53231	-16088
▁59~10	-16089
▁62203	-16090
▁Brand	-16091
▁COVID	-16092
▁Label	-16093
▁NAVER	-16094
▁hanna	-16095
▁거리두기로	-16096
▁게티이미지	-16097
▁경진대회는	-16098
▁고용대란이	-16099
▁공동브랜드	-16100
▁광주은행은	-16101
▁구성원들을	-16102
▁구축했다고	-16103
▁국가공무원	-16104
▁국무회의를	-16105
▁국제유가의	-16106
▁국제회의업	-16107
▁금융시장이	-16108
▁금융위기가	-16109
▁기자재업계	-16110
▁기저효과로	-16111
▁기준금리가	-16112
▁기준환율을	-16113
▁네트워크를	-16114
▁뉴발란스와	-16115
▁다가오면서	-16116
▁다우지수는	-16117
▁대림산업은	-16118
▁대우건설과	-16119
▁대표적으로	-16120
▁대학일자리	-16121
▁대한민국의	-16122
▁대한항공의	-16123
▁두산밥캣의	-16124
▁두산퓨얼셀	-16125
▁매일경제와	-16126
▁매칭플랫폼	-16127
▁메디톡스의	-16128
▁모바일뱅킹	-16129
▁모터매거진	-16130
▁무선이어폰	-16131
▁민간경력자	-16132
▁바이오산업	-16133
▁방사선관리	-16134
▁벤처캐피털	-16135
▁보건복지부	-16136
▁복지기관에	-16137
▁본격화되고	-16138
▁부본부장은	-16139
▁불확실성은	-16140
▁브리핑에서	-16141
▁사무실에서	-16142
▁산하기관인	-16143
▁새마을금고	-16144
▁서울시교육	-16145
▁설문조사를	-16146
▁성공했다고	-16147
▁성인영양식	-16148
▁소비자들은	-16149
▁소비자에게	-16150
▁소상공인은	-16151
▁소상공인이	-16152
▁소프트뱅크	-16153
▁솔루션이다	-16154
▁스타트업에	-16155
▁스타트업을	-16156
▁스텝다운형	-16157
▁스폰서십을	-16158
▁시장에서도	-16159
▁식기세척기	-16160
▁신세계그룹	-16161
▁신용카드인	-16162
▁아이디어로	-16163
▁아이오케이	-16164
▁안방보험은	-16165
▁안정적으로	-16166
▁업종별로는	-16167
▁에너지센터	-16168
▁여의도에서	-16169
▁연구위원이	-16170
▁영업적자를	-16171
▁오픈한다고	-16172
▁오피스텔이	-16173
▁우리나라가	-16174
▁은마아파트	-16175
▁의료기기는	-16176
▁이스타항공	-16177
▁인도자동차	-16178
▁인증기관인	-16179
▁일관제철소	-16180
▁일반물자류	-16181
▁자동차대출	-16182
▁자본시장법	-16183
▁자연스럽게	-16184
▁장애인연금	-16185
▁재건축조합	-16186
▁적용한다고	-16187
▁전달했다고	-16188
▁전문가들이	-16189
▁전문인력을	-16190
▁점유율에서	-16191
▁정유업계가	-16192
▁제니퍼룸의	-16193
▁주식시장에	-16194
▁주식시장을	-16195
▁주식시장의	-16196
▁주식시장이	-16197
▁주택재개발	-16198
▁중견기업의	-16199
▁중앙은행의	-16200
▁증가했으나	-16201
▁증설한다고	-16202
▁지속가능한	-16203
▁지역에서는	-16204
▁직거래장터	-16205
▁집중적으로	-16206
▁집중충전소	-16207
▁창업기업을	-16208
▁청년들에게	-16209
▁청호나이스	-16210
▁체감경기가	-16211
▁출범한다고	-16212
▁취소되면서	-16213
▁치열해지고	-16214
▁카드사들이	-16215
▁카메라모듈	-16216
▁커넥티비티	-16217
▁컨테이너선	-16218
▁턴어라운드	-16219
▁통화스와프	-16220
▁투자의견을	-16221
▁투자주체는	-16222
▁특수고용직	-16223
▁파리바게뜨	-16224
▁파산법원에	-16225
▁패러다임이	-16226
▁패스트푸드	-16227
▁프놈펜상업	-16228
▁피치솔루션	-16229
▁하락하면서	-16230
▁한국수출입	-16231
▁한국은행과	-16232
▁할인행사를	-16233
▁항공업계가	-16234
▁헤럴드경제	-16235
▁현대건설에	-16236
▁현대건설이	-16237
▁현대로보틱	-16238
▁현대카드와	-16239
▁협약식에는	-16240
▁호반건설이	-16241
▁홍대입구역	-16242
▁확대하기로	-16243
▁효과적으로	-16244
▁효성그룹이	-16245
▁효율적으로	-16246
부동산정보광	-16247
비즈니스벨트	-16248
상장지수증권	-16249
상장지수채권	-16250
시장진흥공단	-16251
탄소정보공개	-16252
프레시포인트	-16253
했습니다금일	-16254
(-004%)	-16255
ufactur	-16256
▁0~025%	-16257
▁192277	-16258
▁194756	-16259
▁202004	-16260
▁Credit	-16261
▁건대스타시티	-16262
▁고용노동부에	-16263
▁고용노동부의	-16264
▁공공임대주택	-16265
▁국제업무단지	-16266
▁금융권에서는	-16267
▁금융서비스를	-16268
▁금융업업종의	-16269
▁금융위원회와	-16270
▁기아자동차가	-16271
▁누적수익률은	-16272
▁뉴욕증시에서	-16273
▁다세대주택의	-16274
▁다중면역진단	-16275
▁대신파이낸스	-16276
▁도시개발사업	-16277
▁동아에스티는	-16278
▁디자인스킨과	-16279
▁레저상해보험	-16280
▁렘데시비르의	-16281
▁롯데마트에서	-16282
▁마이너스이고	-16283
▁메리츠증권의	-16284
▁보툴리눔톡신	-16285
▁사업보고서를	-16286
▁삼성복지재단	-16287
▁삼성자산운용	-16288
▁수소연료전지	-16289
▁수요예측에서	-16290
▁수익형부동산	-16291
▁신용평가회사	-16292
▁아세틸콜린의	-16293
▁얼어붙으면서	-16294
▁오상헬스케어	-16295
▁외국인투자자	-16296
▁원동나래구역	-16297
▁유가증권시장	-16298
▁은행연합회는	-16299
▁자녀장려금을	-16300
▁재난지원금을	-16301
▁전거래일보다	-16302
▁전년동월대비	-16303
▁전문기업으로	-16304
▁정부서울청사	-16305
▁종합부동산세	-16306
▁중소기업들이	-16307
▁중소기업에게	-16308
▁중소기업제품	-16309
▁출발했습니다	-16310
▁컬래버레이션	-16311
▁토픽스지수는	-16312
▁투자자들에게	-16313
▁포스코건설은	-16314
▁프랑크푸르트	-16315
▁프로탄바이오	-16316
▁한국감정원이	-16317
▁한국거래소는	-16318
▁한국고용정보	-16319
▁한국산업기술	-16320
▁한국신용정보	-16321
▁한국중견기업	-16322
▁한화투자증권	-16323
▁행정안전부의	-16324
▁현대자동차는	-16325
▁황금연휴에도	-16326
노인인력개발원	-16327
녹십자엠에스는	-16328
디바이스솔루션	-16329
쎄를라잇브루잉	-16330
인베스트먼트가	-16331
중소벤처기업부	-16332
트레이딩시스템	-16333
한국사이버결제	-16334
현대산업개발이	-16335
(051910)	-16336
(066570)	-16337
▁Preview	-16338
▁fnRASSI	-16339
▁감시대상국에서	-16340
▁개인투자자들이	-16341
▁기간통신사업을	-16342
▁긴급사용승인을	-16343
▁대한적십자사는	-16344
▁동구바이오제약	-16345
▁리빙파워센터는	-16346
▁멀티테크노밸리	-16347
▁무역안보정책관	-16348
▁미래에셋대우가	-16349
▁서울신라호텔은	-16350
▁수원사업장에서	-16351
▁신경전달물질인	-16352
▁신세계디에프에	-16353
▁아모레퍼시픽의	-16354
▁아모레퍼시픽이	-16355
▁아이티엠반도체	-16356
▁이베이코리아가	-16357
▁인프라스트럭처	-16358
▁인허가데이터를	-16359
▁자산유동화증권	-16360
▁재개발정비사업	-16361
▁조세특례제한법	-16362
▁최종품평회에서	-16363
▁프로바이오틱스	-16364
▁한국수력원자력	-16365
▁공정거래위원회가	-16366
▁두산인프라코어와	-16367
▁마감했습니다금일	-16368
▁삼성바이오에피스	-16369
▁서울부동산정보광	-16370
▁신동탄포레자이는	-16371
▁안방보험으로부터	-16372
▁예비타당성조사를	-16373
▁인터넷전문은행인	-16374
▁중소기업중앙회가	-16375
▁즉석조리식품으로	-16376
▁카카오페이증권의	-16377
▁코람코자산운용이	-16378
▁키다리스튜디오는	-16379
▁통상교섭본부장은	-16380
▁폭스바겐코리아가	-16381
▁한국소비자포럼이	-16382
바이오사이언스에서	-16383
ufacturing	-16384
▁니혼게이자이신문은	-16385
▁빅히트엔터테인먼트	-16386
▁서울디지털산업단지	-16387
▁식품의약품안전처에	-16388
▁인도자동차제조협회	-16389
▁중앙방역대책본부는	-16390
▁국제과학비즈니스벨트	-16391
▁대신파이낸스센터에서	-16392
▁상온물류서비스센터를	-16393
▁소상공인시장진흥공단	-16394
▁카카오엔터프라이즈와	-16395
▁한국건설산업연구원은	-16396
미래에셋상생플러스펀드	-16397
▁한국농수산식품유통공사	-16398
!’	-16399
"'	-16400
"[	-16401
'/	-16402
']	-16403
-4	-16404
3'	-16405
3’	-16406
9,	-16407
:0	-16408
>△	-16409
?’	-16410
AL	-16411
BD	-16412
BO	-16413
Bu	-16414
DW	-16415
EA	-16416
EZ	-16417
Fn	-16418
GA	-16419
GT	-16420
HC	-16421
HI	-16422
KL	-16423
LO	-16424
Li	-16425
MD	-16426
NN	-16427
PM	-16428
PU	-16429
Ph	-16430
QV	-16431
UT	-16432
VS	-16433
WM	-16434
WP	-16435
YC	-16436
](	-16437
bs	-16438
ci	-16439
em	-16440
ez	-16441
pe	-16442
pp	-16443
sp	-16444
xc	-16445
~2	-16446
ᄋᄋ	-16447
▁Y	-16448
▁v	-16449
▁–	-16450
▁■	-16451
▁●	-16452
▁〈	-16453
▁갓	-16454
▁궁	-16455
▁깔	-16456
▁꼼	-16457
▁끓	-16458
▁낭	-16459
▁딱	-16460
▁랭	-16461
▁립	-16462
▁맑	-16463
▁멜	-16464
▁뽐	-16465
▁샀	-16466
▁씹	-16467
▁얇	-16468
▁옛	-16469
▁옳	-16470
▁옴	-16471
▁왔	-16472
▁윌	-16473
▁좁	-16474
▁짐	-16475
▁짙	-16476
▁짜	-16477
▁쪼	-16478
▁춘	-16479
▁칸	-16480
▁튼	-16481
▁팜	-16482
▁펌	-16483
▁펭	-16484
▁핵	-16485
重慶	-16486
가맹	-16487
가수	-16488
가칭	-16489
간다	-16490
간접	-16491
강도	-16492
검색	-16493
검증	-16494
결혼	-16495
계양	-16496
계정	-16497
고기	-16498
고려	-16499
골목	-16500
곳과	-16501
공계	-16502
공고	-16503
구로	-16504
구석	-16505
구의	-16506
구인	-16507
군의	-16508
권은	-16509
권자	-16510
규정	-16511
그널	-16512
그러	-16513
금지	-16514
금호	-16515
급매	-16516
기지	-16517
기회	-16518
길과	-16519
김병	-16520
김치	-16521
꾸라	-16522
꿈의	-16523
끈한	-16524
나마	-16525
난을	-16526
남미	-16527
남방	-16528
남춘	-16529
낸스	-16530
넷은	-16531
년말	-16532
년제	-16533
년차	-16534
노수	-16535
농촌	-16536
니까	-16537
닉스	-16538
다이	-16539
다즈	-16540
단과	-16541
단절	-16542
담대	-16543
당초	-16544
대별	-16545
대성	-16546
더벨	-16547
돌밥	-16548
동남	-16549
동명	-16550
동석	-16551
동의	-16552
두리	-16553
두에	-16554
드대	-16555
드시	-16556
디션	-16557
디스	-16558
딜러	-16559
라거	-16560
라반	-16561
라운	-16562
랩의	-16563
량과	-16564
러닝	-16565
러블	-16566
럼을	-16567
레모	-16568
레트	-16569
렬한	-16570
렸고	-16571
령안	-16572
령이	-16573
로도	-16574
루페	-16575
리큘	-16576
리퍼	-16577
림이	-16578
립앤	-16579
릿고	-16580
마는	-16581
마스	-16582
매실	-16583
메드	-16584
메딕	-16585
면을	-16586
명당	-16587
명령	-16588
문의	-16589
문자	-16590
물품	-16591
뮤즈	-16592
므로	-16593
민규	-16594
민정	-16595
밀한	-16596
바꿈	-16597
바디	-16598
바람	-16599
바로	-16600
바지	-16601
받침	-16602
발효	-16603
방에	-16604
방울	-16605
범죄	-16606
법무	-16607
베스	-16608
변성	-16609
별도	-16610
보를	-16611
본다	-16612
봉사	-16613
북부	-16614
분과	-16615
블리	-16616
비리	-16617
비시	-16618
비텍	-16619
빨리	-16620
삭한	-16621
산연	-16622
삼현	-16623
생계	-16624
서에	-16625
서영	-16626
설을	-16627
설턴	-16628
성균	-16629
성원	-16630
세진	-16631
센타	-16632
소각	-16633
속초	-16634
손보	-16635
승조	-16636
시대	-16637
식과	-16638
신애	-16639
신약	-16640
실험	-16641
써니	-16642
씨로	-16643
씨를	-16644
아우	-16645
아울	-16646
액화	-16647
어난	-16648
어민	-16649
어업	-16650
어져	-16651
언론	-16652
에요	-16653
에코	-16654
엔드	-16655
엔셜	-16656
엔지	-16657
엘리	-16658
여자	-16659
역은	-16660
연이	-16661
연한	-16662
열현	-16663
영어	-16664
영종	-16665
예고	-16666
예를	-16667
오염	-16668
오전	-16669
오토	-16670
오티	-16671
온스	-16672
요구	-16673
우미	-16674
우에	-16675
월엔	-16676
웨더	-16677
위권	-16678
윤정	-16679
의자	-16680
의학	-16681
이니	-16682
이의	-16683
이홍	-16684
인도	-16685
인명	-16686
일대	-16687
일드	-16688
일지	-16689
임러	-16690
있게	-16691
있어	-16692
자닌	-16693
장수	-16694
장위	-16695
장인	-16696
재개	-16697
재권	-16698
재를	-16699
재택	-16700
재편	-16701
저작	-16702
저트	-16703
전재	-16704
정원	-16705
정화	-16706
제출	-16707
조절	-16708
조트	-16709
종원	-16710
주군	-16711
준필	-16712
중립	-16713
즈와	-16714
증상	-16715
지트	-16716
직무	-16717
직접	-16718
집중	-16719
집행	-16720
찌개	-16721
처에	-16722
천군	-16723
천점	-16724
철우	-16725
철을	-16726
청주	-16727
촉진	-16728
총액	-16729
충남	-16730
층이	-16731
치가	-16732
카스	-16733
컴업	-16734
코르	-16735
쿠팡	-16736
쿠폰	-16737
큐브	-16738
크와	-16739
키고	-16740
킴스	-16741
탄신	-16742
탔다	-16743
태양	-16744
텍터	-16745
토록	-16746
트릴	-16747
트에	-16748
특가	-16749
특화	-16750
티드	-16751
팀을	-16752
팅크	-16753
파를	-16754
판을	-16755
팬톤	-16756
편이	-16757
포인	-16758
폴디	-16759
표시	-16760
필름	-16761
하남	-16762
하니	-16763
하듯	-16764
하에	-16765
함과	-16766
함께	-16767
합의	-16768
헤시	-16769
현실	-16770
현한	-16771
혈병	-16772
혈압	-16773
혔고	-16774
형의	-16775
형인	-16776
화권	-16777
황이	-16778
회관	-16779
회차	-16780
효조	-16781
희망	-16782
(0)	-16783
(21	-16784
(37	-16785
(52	-16786
(59	-16787
(63	-16788
(86	-16789
)’,	-16790
-10	-16791
123	-16792
125	-16793
140	-16794
141	-16795
193	-16796
209	-16797
210	-16798
24%	-16799
245	-16800
278	-16801
296	-16802
325	-16803
339	-16804
41(	-16805
455	-16806
48(	-16807
494	-16808
51(	-16809
580	-16810
632	-16811
650	-16812
793	-16813
841	-16814
866	-16815
872	-16816
AAD	-16817
ABS	-16818
ASP	-16819
BTS	-16820
FnC	-16821
HUG	-16822
ITs	-16823
KAI	-16824
KPS	-16825
LNG	-16826
NIM	-16827
PCR	-16828
SCM	-16829
Sig	-16830
UNI	-16831
aeb	-16832
ank	-16833
ced	-16834
eun	-16835
fnn	-16836
igh	-16837
ill	-16838
inq	-16839
lex	-16840
msd	-16841
nal	-16842
osi	-16843
ost	-16844
tic	-16845
ude	-16846
vel	-16847
~34	-16848
~50	-16849
▁AR	-16850
▁Au	-16851
▁CE	-16852
▁IC	-16853
▁IN	-16854
▁JT	-16855
▁PB	-16856
▁Pr	-16857
▁QD	-16858
▁QR	-16859
▁TS	-16860
▁sd	-16861
▁가다	-16862
▁가해	-16863
▁각오	-16864
▁각인	-16865
▁감원	-16866
▁강다	-16867
▁갖출	-16868
▁갖춰	-16869
▁같아	-16870
▁개관	-16871
▁개통	-16872
▁객원	-16873
▁검은	-16874
▁겨우	-16875
▁격인	-16876
▁겪을	-16877
▁결심	-16878
▁경계	-16879
▁경색	-16880
▁고소	-16881
▁고조	-16882
▁골퍼	-16883
▁곳도	-16884
▁공방	-16885
▁공연	-16886
▁공터	-16887
▁공통	-16888
▁과감	-16889
▁교내	-16890
▁구분	-16891
▁구이	-16892
▁군은	-16893
▁그것	-16894
▁그램	-16895
▁그칠	-16896
▁근린	-16897
▁근절	-16898
▁금고	-16899
▁기고	-16900
▁기재	-16901
▁기피	-16902
▁김규	-16903
▁김기	-16904
▁김병	-16905
▁깊어	-16906
▁깊은	-16907
▁깊이	-16908
▁끊겨	-16909
▁끼고	-16910
▁난임	-16911
▁남녀	-16912
▁남을	-16913
▁내보	-16914
▁내실	-16915
▁내정	-16916
▁냉각	-16917
▁냉장	-16918
▁넘고	-16919
▁넘긴	-16920
▁넣은	-16921
▁논쟁	-16922
▁농심	-16923
▁높고	-16924
▁누수	-16925
▁눈을	-16926
▁느껴	-16927
▁다방	-16928
▁닥터	-16929
▁달래	-16930
▁달여	-16931
▁달해	-16932
▁답변	-16933
▁당진	-16934
▁대행	-16935
▁더벨	-16936
▁덕성	-16937
▁덕양	-16938
▁덮친	-16939
▁도달	-16940
▁도마	-16941
▁독거	-16942
▁독보	-16943
▁돌고	-16944
▁동국	-16945
▁동전	-16946
▁동화	-16947
▁됐던	-16948
▁두달	-16949
▁등락	-16950
▁등산	-16951
▁디미	-16952
▁땅콩	-16953
▁뜻을	-16954
▁레벨	-16955
▁로또	-16956
▁로보	-16957
▁마디	-16958
▁마땅	-16959
▁마시	-16960
▁막아	-16961
▁막혀	-16962
▁만한	-16963
▁많고	-16964
▁많지	-16965
▁말라	-16966
▁말씀	-16967
▁맞대	-16968
▁매진	-16969
▁맺은	-16970
▁머니	-16971
▁머무	-16972
▁먹여	-16973
▁멈추	-16974
▁모나	-16975
▁모던	-16976
▁모르	-16977
▁모토	-16978
▁목요	-16979
▁몸값	-16980
▁몸집	-16981
▁무렵	-16982
▁무색	-16983
▁묶은	-16984
▁문래	-16985
▁묻는	-16986
▁물품	-16987
▁뭉칫	-16988
▁미사	-16989
▁미쓰	-16990
▁민사	-16991
▁민족	-16992
▁바꾼	-16993
▁바다	-16994
▁박나	-16995
▁박람	-16996
▁박주	-16997
▁반대	-16998
▁반박	-16999
▁반품	-17000
▁발돋	-17001
▁밟고	-17002
▁방학	-17003
▁버밍	-17004
▁버티	-17005
▁법규	-17006
▁벤치	-17007
▁변수	-17008
▁보태	-17009
▁보탬	-17010
▁복원	-17011
▁부스	-17012
▁분주	-17013
▁불붙	-17014
▁브루	-17015
▁비축	-17016
▁비켜	-17017
▁빼돌	-17018
▁뽑아	-17019
▁사드	-17020
▁사채	-17021
▁삼아	-17022
▁삼영	-17023
▁상쇄	-17024
▁상은	-17025
▁상표	-17026
▁새싹	-17027
▁생겼	-17028
▁생긴	-17029
▁생닭	-17030
▁생오	-17031
▁서대	-17032
▁선별	-17033
▁섰다	-17034
▁성격	-17035
▁성주	-17036
▁세워	-17037
▁세포	-17038
▁섹터	-17039
▁소자	-17040
▁손보	-17041
▁손에	-17042
▁수두	-17043
▁수백	-17044
▁수순	-17045
▁수제	-17046
▁수탁	-17047
▁순익	-17048
▁순항	-17049
▁술집	-17050
▁쉬운	-17051
▁슬로	-17052
▁승차	-17053
▁시상	-17054
▁시음	-17055
▁식감	-17056
▁식초	-17057
▁식탁	-17058
▁신림	-17059
▁신체	-17060
▁실효	-17061
▁심상	-17062
▁쌓은	-17063
▁쌓인	-17064
▁썼다	-17065
▁씽큐	-17066
▁아르	-17067
▁아름	-17068
▁아쿠	-17069
▁안건	-17070
▁안성	-17071
▁앞을	-17072
▁앱의	-17073
▁야놀	-17074
▁양분	-17075
▁양육	-17076
▁어떨	-17077
▁어울	-17078
▁억눌	-17079
▁얻은	-17080
▁엄선	-17081
▁에센	-17082
▁에프	-17083
▁여가	-17084
▁연쇄	-17085
▁열을	-17086
▁열풍	-17087
▁예민	-17088
▁오너	-17089
▁오를	-17090
▁오염	-17091
▁오일	-17092
▁오지	-17093
▁옥죄	-17094
▁온열	-17095
▁올레	-17096
▁옮긴	-17097
▁완도	-17098
▁외관	-17099
▁왼쪽	-17100
▁욕실	-17101
▁용수	-17102
▁우드	-17103
▁우든	-17104
▁워크	-17105
▁원익	-17106
▁원주	-17107
▁원화	-17108
▁위주	-17109
▁위태	-17110
▁유경	-17111
▁유급	-17112
▁유병	-17113
▁유혹	-17114
▁음원	-17115
▁의왕	-17116
▁이경	-17117
▁이계	-17118
▁이력	-17119
▁이차	-17120
▁이천	-17121
▁이태	-17122
▁인적	-17123
▁인프	-17124
▁일손	-17125
▁입법	-17126
▁입출	-17127
▁잠시	-17128
▁장려	-17129
▁장식	-17130
▁장어	-17131
▁장외	-17132
▁장착	-17133
▁장터	-17134
▁장현	-17135
▁재가	-17136
▁재미	-17137
▁재발	-17138
▁재외	-17139
▁적게	-17140
▁적시	-17141
▁적어	-17142
▁적을	-17143
▁적이	-17144
▁적절	-17145
▁전인	-17146
▁전입	-17147
▁전투	-17148
▁점점	-17149
▁접사	-17150
▁정점	-17151
▁제넨	-17152
▁제언	-17153
▁제정	-17154
▁조명	-17155
▁종부	-17156
▁종소	-17157
▁좋지	-17158
▁주부	-17159
▁주저	-17160
▁주총	-17161
▁줄일	-17162
▁중과	-17163
▁중형	-17164
▁즉각	-17165
▁증명	-17166
▁지위	-17167
▁직관	-17168
▁직행	-17169
▁진산	-17170
▁진주	-17171
▁차근	-17172
▁차돌	-17173
▁차장	-17174
▁찬성	-17175
▁창동	-17176
▁처벌	-17177
▁청사	-17178
▁총회	-17179
▁최다	-17180
▁최성	-17181
▁최진	-17182
▁추대	-17183
▁축산	-17184
▁출사	-17185
▁출혈	-17186
▁충당	-17187
▁충청	-17188
▁치를	-17189
▁침구	-17190
▁카셰	-17191
▁커졌	-17192
▁컨버	-17193
▁코디	-17194
▁코웰	-17195
▁쿠캣	-17196
▁쿼드	-17197
▁키워	-17198
▁타인	-17199
▁탑승	-17200
▁털어	-17201
▁파는	-17202
▁파손	-17203
▁퍼포	-17204
▁펌텍	-17205
▁펩타	-17206
▁포리	-17207
▁포브	-17208
▁폭탄	-17209
▁품격	-17210
▁풍력	-17211
▁피로	-17212
▁필지	-17213
▁한꺼	-17214
▁한독	-17215
▁한울	-17216
▁한전	-17217
▁합산	-17218
▁항상	-17219
▁행동	-17220
▁향한	-17221
▁허리	-17222
▁헬스	-17223
▁협상	-17224
▁호남	-17225
▁호전	-17226
▁홍성	-17227
▁환불	-17228
▁환전	-17229
▁활력	-17230
▁후원	-17231
▁휴림	-17232
강진형	-17233
개소가	-17234
개월분	-17235
거하고	-17236
건수가	-17237
건수는	-17238
경영에	-17239
고위험	-17240
공사와	-17241
공사의	-17242
공업우	-17243
관계를	-17244
관리에	-17245
규제를	-17246
금리는	-17247
금액의	-17248
기간도	-17249
기구인	-17250
기획실	-17251
김용범	-17252
김지헌	-17253
냈다고	-17254
년간의	-17255
년여간	-17256
노동력	-17257
노래방	-17258
노비타	-17259
노수윤	-17260
뉴타운	-17261
닷컴은	-17262
대기술	-17263
더불어	-17264
덱스터	-17265
된다는	-17266
된다면	-17267
들제약	-17268
디케이	-17269
랫동안	-17270
레미콘	-17271
레이더	-17272
레이팅	-17273
르나스	-17274
리어드	-17275
리케이	-17276
마데카	-17277
만가구	-17278
만명에	-17279
만원인	-17280
만이다	-17281
만큼만	-17282
맞춤형	-17283
메리츠	-17284
면적은	-17285
명이며	-17286
모델로	-17287
문에서	-17288
미공개	-17289
미사일	-17290
바이옴	-17291
박선미	-17292
박스를	-17293
박재석	-17294
박준환	-17295
방대본	-17296
법인의	-17297
변호사	-17298
병원에	-17299
보다도	-17300
보장을	-17301
본부에	-17302
부문이	-17303
부산시	-17304
부스를	-17305
부유식	-17306
부터는	-17307
분기의	-17308
사업비	-17309
사장비	-17310
사태를	-17311
사한다	-17312
상업자	-17313
생태계	-17314
생활을	-17315
서에는	-17316
서정식	-17317
성과를	-17318
세니타	-17319
세라믹	-17320
세운맵	-17321
센서스	-17322
소비가	-17323
손익이	-17324
수도권	-17325
수산물	-17326
스티지	-17327
시그널	-17328
시설은	-17329
시장과	-17330
시키고	-17331
식약처	-17332
식에서	-17333
신동주	-17334
실리콘	-17335
심사를	-17336
십자는	-17337
씨엔에	-17338
아난티	-17339
아세미	-17340
아울렛	-17341
았으나	-17342
앤에스	-17343
양문형	-17344
어스와	-17345
억원은	-17346
억캔을	-17347
업계와	-17348
업소의	-17349
업체와	-17350
었는데	-17351
에서의	-17352
엠코와	-17353
여전사	-17354
여종을	-17355
옌타이	-17356
오늘의	-17357
오다가	-17358
와이즈	-17359
요소를	-17360
우리가	-17361
워주는	-17362
웍스의	-17363
월드는	-17364
유가가	-17365
유공자	-17366
유동성	-17367
유로에	-17368
유보라	-17369
유업은	-17370
융합형	-17371
으로의	-17372
은행권	-17373
이베이	-17374
이스는	-17375
이홍석	-17376
인들이	-17377
인에게	-17378
인으로	-17379
인포에	-17380
일에도	-17381
임성균	-17382
자들과	-17383
자리는	-17384
자조금	-17385
자지수	-17386
재교육	-17387
절벽에	-17388
정관장	-17389
종이다	-17390
주들이	-17391
주만에	-17392
중간체	-17393
증권이	-17394
지금은	-17395
지면적	-17396
지사가	-17397
지사는	-17398
지수를	-17399
지수의	-17400
지역용	-17401
차산업	-17402
참좋은	-17403
체계가	-17404
체계를	-17405
케미컬	-17406
코트라	-17407
타운홀	-17408
태평양	-17409
통합당	-17410
트렌드	-17411
티아이	-17412
판에서	-17413
팔래스	-17414
패턴을	-17415
팬데믹	-17416
평가를	-17417
평가사	-17418
포레나	-17419
포스코	-17420
포터즈	-17421
폴리텍	-17422
품으로	-17423
플란트	-17424
피자가	-17425
하려고	-17426
하려면	-17427
한다면	-17428
할만한	-17429
항암제	-17430
해상도	-17431
혁명의	-17432
홈카페	-17433
홍성원	-17434
환경에	-17435
환경이	-17436
회사채	-17437
회째를	-17438
휘발유	-17439
휴직을	-17440
(+20	-17441
(+22	-17442
(+23	-17443
(+44	-17444
(-09	-17445
(-12	-17446
(009	-17447
(010	-17448
(013	-17449
(070	-17450
(115	-17451
(118	-17452
(13:	-17453
(214	-17454
(240	-17455
(298	-17456
,400	-17457
1300	-17458
1309	-17459
15%)	-17460
1700	-17461
2900	-17462
3800	-17463
3975	-17464
45%)	-17465
450)	-17466
4886	-17467
5300	-17468
590)	-17469
5900	-17470
5925	-17471
60),	-17472
71%)	-17473
7200	-17474
81%)	-17475
8500	-17476
95%)	-17477
LTRO	-17478
OLED	-17479
OSCO	-17480
Prop	-17481
STAR	-17482
Shop	-17483
acti	-17484
ange	-17485
bell	-17486
echn	-17487
hoto	-17488
ness	-17489
urne	-17490
▁"10	-17491
▁-13	-17492
▁02-	-17493
▁103	-17494
▁113	-17495
▁126	-17496
▁132	-17497
▁148	-17498
▁165	-17499
▁178	-17500
▁184	-17501
▁1~3	-17502
▁2,0	-17503
▁202	-17504
▁210	-17505
▁228	-17506
▁237	-17507
▁24,	-17508
▁257	-17509
▁262	-17510
▁296	-17511
▁3,0	-17512
▁325	-17513
▁343	-17514
▁370	-17515
▁373	-17516
▁396	-17517
▁411	-17518
▁416	-17519
▁457	-17520
▁465	-17521
▁49(	-17522
▁530	-17523
▁538	-17524
▁540	-17525
▁594	-17526
▁643	-17527
▁661	-17528
▁705	-17529
▁740	-17530
▁743	-17531
▁746	-17532
▁765	-17533
▁78%	-17534
▁795	-17535
▁901	-17536
▁925	-17537
▁948	-17538
▁965	-17539
▁97%	-17540
▁ABS	-17541
▁BBB	-17542
▁BSI	-17543
▁CNS	-17544
▁CRO	-17545
▁DNA	-17546
▁EBS	-17547
▁ESG	-17548
▁LCC	-17549
▁Oil	-17550
▁RBC	-17551
▁RPA	-17552
▁USO	-17553
▁for	-17554
▁goo	-17555
▁‘18	-17556
▁가격과	-17557
▁가리지	-17558
▁가하고	-17559
▁간단한	-17560
▁감안한	-17561
▁강남점	-17562
▁강도는	-17563
▁강서구	-17564
▁강화할	-17565
▁갖추고	-17566
▁갖췄다	-17567
▁개념을	-17568
▁개발로	-17569
▁개선될	-17570
▁개장과	-17571
▁개장해	-17572
▁개척에	-17573
▁거대한	-17574
▁거두고	-17575
▁걸렸다	-17576
▁격차가	-17577
▁결제한	-17578
▁경력직	-17579
▁경로를	-17580
▁경상남	-17581
▁경제와	-17582
▁경찰청	-17583
▁경험을	-17584
▁계속될	-17585
▁계약에	-17586
▁계약이	-17587
▁계좌를	-17588
▁계획에	-17589
▁고객들	-17590
▁고고도	-17591
▁고구마	-17592
▁고령자	-17593
▁고혈압	-17594
▁곡선을	-17595
▁공모전	-17596
▁공모한	-17597
▁공시된	-17598
▁공시에	-17599
▁공시한	-17600
▁공정한	-17601
▁과천시	-17602
▁관람객	-17603
▁관리할	-17604
▁관심과	-17605
▁관측도	-17606
▁광고는	-17607
▁교체할	-17608
▁구입한	-17609
▁규정은	-17610
▁그래픽	-17611
▁그레이	-17612
▁근무를	-17613
▁근접출	-17614
▁금값이	-17615
▁금리로	-17616
▁금리인	-17617
▁금액의	-17618
▁금투협	-17619
▁급부상	-17620
▁기대는	-17621
▁기대에	-17622
▁기대치	-17623
▁기대할	-17624
▁기록했	-17625
▁기름을	-17626
▁기미를	-17627
▁기업가	-17628
▁기준에	-17629
▁기준의	-17630
▁기흥구	-17631
▁김성남	-17632
▁김세웅	-17633
▁김지찬	-17634
▁김지훈	-17635
▁김현준	-17636
▁꾀하고	-17637
▁끌어모	-17638
▁나만의	-17639
▁나서며	-17640
▁나타났	-17641
▁나타냈	-17642
▁남짓한	-17643
▁내놓는	-17644
▁내놓았	-17645
▁내리는	-17646
▁내세운	-17647
▁내세워	-17648
▁내외의	-17649
▁노동규	-17650
▁노선에	-17651
▁높다고	-17652
▁높았다	-17653
▁누리는	-17654
▁늘리기	-17655
▁다각화	-17656
▁다르게	-17657
▁다목적	-17658
▁다음과	-17659
▁다임러	-17660
▁다주택	-17661
▁닫았다	-17662
▁달성한	-17663
▁달성할	-17664
▁달성해	-17665
▁대구역	-17666
▁대내외	-17667
▁대상에	-17668
▁대상자	-17669
▁대응해	-17670
▁대장균	-17671
▁대전이	-17672
▁대학이	-17673
▁대화를	-17674
▁대화면	-17675
▁도입이	-17676
▁동기와	-17677
▁동백전	-17678
▁동북권	-17679
▁동생인	-17680
▁되살아	-17681
▁두기가	-17682
▁두산은	-17683
▁뒷받침	-17684
▁들어갈	-17685
▁들어온	-17686
▁들었다	-17687
▁디렉터	-17688
▁디저트	-17689
▁따라서	-17690
▁뜻으로	-17691
▁뜻하는	-17692
▁라운드	-17693
▁라틴어	-17694
▁런던에	-17695
▁레시피	-17696
▁렉서스	-17697
▁로드맵	-17698
▁록다운	-17699
▁리더십	-17700
▁리스트	-17701
▁리터당	-17702
▁릴리프	-17703
▁마시는	-17704
▁마진콜	-17705
▁마켓컬	-17706
▁마포구	-17707
▁만났다	-17708
▁만들기	-17709
▁많게는	-17710
▁맡았다	-17711
▁매도에	-17712
▁매매대	-17713
▁매물이	-17714
▁매수로	-17715
▁매수와	-17716
▁매장의	-17717
▁매장인	-17718
▁매출도	-17719
▁메뉴로	-17720
▁메시지	-17721
▁메자닌	-17722
▁무인매	-17723
▁무증상	-17724
▁문화업	-17725
▁물가가	-17726
▁미래를	-17727
▁미래형	-17728
▁미생물	-17729
▁미스터	-17730
▁미용실	-17731
▁민감한	-17732
▁바뀌고	-17733
▁바람을	-17734
▁바람직	-17735
▁바삭한	-17736
▁바텍이	-17737
▁박남춘	-17738
▁박새롬	-17739
▁박수현	-17740
▁박준희	-17741
▁밖으로	-17742
▁반영돼	-17743
▁발사체	-17744
▁발언을	-17745
▁발전을	-17746
▁발표에	-17747
▁발행이	-17748
▁방대본	-17749
▁방사성	-17750
▁방식이	-17751
▁방식인	-17752
▁방안이	-17753
▁방역을	-17754
▁방침을	-17755
▁배성수	-17756
▁번째로	-17757
▁벌어진	-17758
▁베이지	-17759
▁베일을	-17760
▁변동이	-17761
▁변수가	-17762
▁변화는	-17763
▁변화된	-17764
▁별도의	-17765
▁보너스	-17766
▁보도에	-17767
▁보라매	-17768
▁보여줬	-17769
▁보톡스	-17770
▁보험에	-17771
▁복수의	-17772
▁볶음밥	-17773
▁본사가	-17774
▁부분의	-17775
▁부실을	-17776
▁부업을	-17777
▁부유식	-17778
▁부처가	-17779
▁분기별	-17780
▁분석과	-17781
▁분석에	-17782
▁분야는	-17783
▁분쟁에	-17784
▁불러온	-17785
▁브레인	-17786
▁비덴트	-17787
▁비은행	-17788
▁비즈니	-17789
▁비행체	-17790
▁빅테크	-17791
▁빙자한	-17792
▁빠르고	-17793
▁사라질	-17794
▁사람도	-17795
▁사랑을	-17796
▁사로잡	-17797
▁사망자	-17798
▁사태는	-17799
▁사흘간	-17800
▁산업부	-17801
▁살리고	-17802
▁살림살	-17803
▁살아날	-17804
▁상당수	-17805
▁상당한	-17806
▁상당히	-17807
▁상승이	-17808
▁상승할	-17809
▁상용차	-17810
▁상품인	-17811
▁상품죽	-17812
▁상한제	-17813
▁상회한	-17814
▁생각에	-17815
▁생각을	-17816
▁생산자	-17817
▁생산할	-17818
▁서울동	-17819
▁서한을	-17820
▁선도할	-17821
▁선언한	-17822
▁선택할	-17823
▁세련된	-17824
▁세미나	-17825
▁세이브	-17826
▁세이프	-17827
▁소비에	-17828
▁소속사	-17829
▁손상을	-17830
▁송하늘	-17831
▁수많은	-17832
▁수억원	-17833
▁수요는	-17834
▁수주전	-17835
▁수차례	-17836
▁수출할	-17837
▁순영업	-17838
▁순위가	-17839
▁순으로	-17840
▁숨통을	-17841
▁스스로	-17842
▁스티커	-17843
▁스페코	-17844
▁슬립앤	-17845
▁시민이	-17846
▁시설로	-17847
▁시작될	-17848
▁시장도	-17849
▁시코르	-17850
▁식사를	-17851
▁신모델	-17852
▁신재생	-17853
▁신청은	-17854
▁신청한	-17855
▁실질적	-17856
▁실태를	-17857
▁쌍방울	-17858
▁쓰이는	-17859
▁씨준생	-17860
▁아버지	-17861
▁아이비	-17862
▁아이스	-17863
▁아직도	-17864
▁악영향	-17865
▁악화를	-17866
▁안산시	-17867
▁안효조	-17868
▁않다는	-17869
▁알뜰폰	-17870
▁알루미	-17871
▁암울한	-17872
▁압구정	-17873
▁앞에서	-17874
▁애플과	-17875
▁양국이	-17876
▁양방향	-17877
▁양질의	-17878
▁언제든	-17879
▁얻었다	-17880
▁엄청난	-17881
▁업계도	-17882
▁업데이	-17883
▁업체와	-17884
▁에디션	-17885
▁에비에	-17886
▁엔화는	-17887
▁엠디뮨	-17888
▁엠브라	-17889
▁여름을	-17890
▁여부가	-17891
▁여수시	-17892
▁여야는	-17893
▁역부족	-17894
▁역사를	-17895
▁역성장	-17896
▁역으로	-17897
▁연결성	-17898
▁연휴에	-17899
▁열악한	-17900
▁영역을	-17901
▁영향력	-17902
▁예년에	-17903
▁예정일	-17904
▁오거돈	-17905
▁오메가	-17906
▁온누리	-17907
▁온택트	-17908
▁올웨더	-17909
▁올인원	-17910
▁올해만	-17911
▁올해와	-17912
▁올해의	-17913
▁옮기고	-17914
▁완전한	-17915
▁외교부	-17916
▁요구가	-17917
▁요소로	-17918
▁우상향	-17919
▁우선주	-17920
▁운영사	-17921
▁운전할	-17922
▁원금을	-17923
▁원리금	-17924
▁원산지	-17925
▁원스톱	-17926
▁원승연	-17927
▁원자재	-17928
▁원재료	-17929
▁원칙을	-17930
▁월요일	-17931
▁웨스턴	-17932
▁위원은	-17933
▁위협이	-17934
▁윈스는	-17935
▁유동균	-17936
▁유입이	-17937
▁유효한	-17938
▁윤열현	-17939
▁윤일지	-17940
▁의견은	-17941
▁의류업	-17942
▁의무를	-17943
▁의수를	-17944
▁이것은	-17945
▁이권형	-17946
▁이날은	-17947
▁이내에	-17948
▁이동훈	-17949
▁이뤄낸	-17950
▁이뤘다	-17951
▁이상은	-17952
▁이어폰	-17953
▁이외에	-17954
▁이익은	-17955
▁이자를	-17956
▁이재은	-17957
▁이처럼	-17958
▁이철우	-17959
▁이하의	-17960
▁이행을	-17961
▁이현주	-17962
▁이후를	-17963
▁익숙한	-17964
▁인기는	-17965
▁인수가	-17966
▁인증제	-17967
▁일대가	-17968
▁일본이	-17969
▁일요일	-17970
▁일원화	-17971
▁일으킨	-17972
▁일정에	-17973
▁임기를	-17974
▁입구에	-17975
▁입었다	-17976
▁입장이	-17977
▁입점한	-17978
▁입지를	-17979
▁있는지	-17980
▁있어야	-17981
▁자격증	-17982
▁자리에	-17983
▁자취를	-17984
▁자치구	-17985
▁작성한	-17986
▁작용할	-17987
▁장비를	-17988
▁장세를	-17989
▁장시간	-17990
▁장인상	-17991
▁장준필	-17992
▁재계와	-17993
▁재고가	-17994
▁재현한	-17995
▁재확인	-17996
▁저장고	-17997
▁저평가	-17998
▁저희가	-17999
▁전략과	-18000
▁전제로	-18001
▁절감과	-18002
▁절감을	-18003
▁절반을	-18004
▁접어든	-18005
▁정책은	-18006
▁정한결	-18007
▁정확한	-18008
▁제기된	-18009
▁제너럴	-18010
▁제주의	-18011
▁제치고	-18012
▁제한이	-18013
▁조성에	-18014
▁조성할	-18015
▁조성훈	-18016
▁조현아	-18017
▁좋아질	-18018
▁주장에	-18019
▁주체는	-18020
▁주택형	-18021
▁준중형	-18022
▁줄었기	-18023
▁줄이는	-18024
▁중국은	-18025
▁중에는	-18026
▁중위험	-18027
▁증설을	-18028
▁증설이	-18029
▁지급한	-18030
▁지급할	-18031
▁지붕은	-18032
▁지수도	-18033
▁지원책	-18034
▁지재권	-18035
▁지점에	-18036
▁지주사	-18037
▁지표를	-18038
▁직원은	-18039
▁집중해	-18040
▁집회를	-18041
▁쪼그라	-18042
▁찍었다	-18043
▁차트를	-18044
▁참여자	-18045
▁참좋은	-18046
▁채권과	-18047
▁처리한	-18048
▁천호점	-18049
▁첫번째	-18050
▁청년의	-18051
▁체어맨	-18052
▁총재는	-18053
▁최고층	-18054
▁최대다	-18055
▁최동수	-18056
▁최초다	-18057
▁추세가	-18058
▁추출물	-18059
▁출고된	-18060
▁출생연	-18061
▁출시는	-18062
▁출퇴근	-18063
▁충격과	-18064
▁취업자	-18065
▁취지에	-18066
▁치과용	-18067
▁치료에	-18068
▁칠서면	-18069
▁침체를	-18070
▁카드로	-18071
▁커리큘	-18072
▁콘셉트	-18073
▁콜라겐	-18074
▁클래식	-18075
▁클럽은	-18076
▁클럽을	-18077
▁타임딜	-18078
▁탈바꿈	-18079
▁토대로	-18080
▁통계가	-18081
▁통계에	-18082
▁통로로	-18083
▁통해서	-18084
▁특가전	-18085
▁특징은	-18086
▁티셔츠	-18087
▁파일럿	-18088
▁판단해	-18089
▁판데믹	-18090
▁펀드는	-18091
▁포부다	-18092
▁포함돼	-18093
▁표시해	-18094
▁표준화	-18095
▁표출된	-18096
▁품목별	-18097
▁품종을	-18098
▁프라임	-18099
▁피의자	-18100
▁피하기	-18101
▁필요로	-18102
▁필요에	-18103
▁하겠다	-18104
▁하나가	-18105
▁하는데	-18106
▁하락과	-18107
▁하락은	-18108
▁하소연	-18109
▁한도가	-18110
▁한숨을	-18111
▁한시적	-18112
▁한자리	-18113
▁할인과	-18114
▁함유해	-18115
▁합병을	-18116
▁합성어	-18117
▁해제를	-18118
▁핵심은	-18119
▁행사다	-18120
▁행사인	-18121
▁향상을	-18122
▁향하는	-18123
▁현금성	-18124
▁현금이	-18125
▁현대미	-18126
▁현재는	-18127
▁혐의를	-18128
▁협업한	-18129
▁혜택은	-18130
▁홍보와	-18131
▁화요일	-18132
▁화웨이	-18133
▁확대가	-18134
▁확대될	-18135
▁확산의	-18136
▁확산한	-18137
▁확장에	-18138
▁확정해	-18139
▁활동에	-18140
▁회사다	-18141
▁회원이	-18142
▁회의에	-18143
▁휴식을	-18144
▁휴온스	-18145
▁휴테크	-18146
▁흑자를	-18147
▁희망퇴	-18148
▁히어로	-18149
건전성을	-18150
경기전망	-18151
경영정보	-18152
고무벨트	-18153
고용노동	-18154
공공지원	-18155
교육원은	-18156
교통지역	-18157
그린수소	-18158
근로자의	-18159
기술협력	-18160
기정통부	-18161
기후변화	-18162
깜짝실적	-18163
넥스원은	-18164
년대부터	-18165
년여만에	-18166
노동조합	-18167
니케이션	-18168
대책회의	-18169
들에게는	-18170
루페인트	-18171
르노삼성	-18172
마이송금	-18173
마이써니	-18174
마진거래	-18175
만달러로	-18176
매출액은	-18177
모델들이	-18178
모태펀드	-18179
바이오팜	-18180
방식으로	-18181
방어체계	-18182
보복소비	-18183
보엠이씨	-18184
보증공사	-18185
브레이크	-18186
비상경제	-18187
사업단은	-18188
산업협회	-18189
상품권을	-18190
상호변경	-18191
생태계를	-18192
서영건설	-18193
수적으로	-18194
슬기로운	-18195
시간부터	-18196
시킨다는	-18197
신도시에	-18198
아임레디	-18199
암호포럼	-18200
연구소에	-18201
오마하의	-18202
오피스텔	-18203
월물에서	-18204
월부터는	-18205
위안이고	-18206
위원회와	-18207
입생로랑	-18208
자문센터	-18209
저작권자	-18210
전문기업	-18211
전용면적	-18212
제로페이	-18213
졌습니다	-18214
주식회사	-18215
진단키트	-18216
첨단소재	-18217
컨센서스	-18218
팅크웨어	-18219
파운드에	-18220
폭스바겐	-18221
플라즈마	-18222
플레이션	-18223
하겠다며	-18224
하우스를	-18225
한국은행	-18226
해각서를	-18227
헤시라스	-18228
현대건설	-18229
현대제철	-18230
협상대상	-18231
협의회는	-18232
(0030	-18233
(0326	-18234
(1099	-18235
):41(	-18236
):48(	-18237
):51(	-18238
10155	-18239
2,000	-18240
30%),	-18241
4,000	-18242
63%),	-18243
Hicar	-18244
REITs	-18245
THAAD	-18246
aebae	-18247
aymsd	-18248
eunmo	-18249
hange	-18250
▁001%	-18251
▁007%	-18252
▁014%	-18253
▁015%	-18254
▁019%	-18255
▁106%	-18256
▁1380	-18257
▁1383	-18258
▁140%	-18259
▁1509	-18260
▁151%	-18261
▁1810	-18262
▁1836	-18263
▁197%	-18264
▁200,	-18265
▁2262	-18266
▁2378	-18267
▁2600	-18268
▁264%	-18269
▁282%	-18270
▁2882	-18271
▁3078	-18272
▁331%	-18273
▁334%	-18274
▁3499	-18275
▁363%	-18276
▁3820	-18277
▁411%	-18278
▁419%	-18279
[...]
