[PAD]
[UNK]
[CLS]
[SEP]
[MASK]
##기
##2
##1
##이
으로
##전
##대
##지
했다
코로
코로나
##있
##[
에서
##수
19
##주
##3
##사
##기자
##상
##한
##중
##가
##코로나
##신
경제
##시
##최
00
##등
##매
##있다
##'
##5
##공
##위
##제
억원
##지난
##보
##‘
##국
##인
##4
하는
##밝
이다
혔다
##오
##것
##정
##밝혔다
##서
분기
##감
##연
##개
하고
##유
##자
##29
##따
##거
##영
한다
투자
##나
##부
##현
바이
##28
##27
##소
금융
##6
##경
##올
##분
데이
##선
러스
##고
##확
##차
##모
##증
##미
시아
##비
##일
##하
##아
##발
##실
##동
##조
##20
바이러스
19)
##최근
##관
##마
투데이
머니
까지
머니투데이
이익
염증
##순
##거래
아시아
##통
##내
르면
##구
##다
##매출
##한국
아시아경제
##코로나바이러스
##것으로
##신종
##따르면
##대비
부터
기업
##기업
했다고
20
##영업
##상승
##국내
##종
##단
##투자
##금융
##있는
##외
은행
##업
##서울
##올해
됐다
##◆
##성
##7
산업
##세
##진
##재
면서
##8
##순매
##출
삼성
##반
##여
##회
##차트
##해
##스
##위해
##기준
##분석
000
##감염증
##강
##예
##-
##시장
##판
##만
##특
##기록
##증가
##"
##추
##우
##김
##9
증권
##전년
##장
##지원
##계
##삼성
##규
##달
##방
비스
사진
만원
##생
국인
한다고
##영업이익
##10
##원
##지난해
##그
##30
%)
##감소
##늘
##사업
##어
##외국인
##결
들이
##같
##코
##적
##높
##주가
##집
랜드
전자
##실적
지만
##기간
##기관
보다
##개인
##안
시장
##미국
##공시
##당
##의
##같은
된다
럴드
헤럴드
헤럴드경제
라인
하기
##위한
##대한
##S
##판매
##및
##통해
##순매수
##프
##나타
##브
##사태
##도
었다
##불
##경제
##규모
##정부
##급
##서비스
##종목
##현대
##단기
##받
주를
##운
억원으로
##이번
##K
##각
사업
##0
##건
##현재
##무
글로
글로벌
##발표
##채
##포
났다
##직
##이어
##줄
##L
##평
##전일
##맞
##브랜드
##출시
##돌
##경기
##본
##온
##전망
##글로벌
##총
##열
##이후
이라
##전문
##더
##두
##확산
##진행
적으로
##대표
##최대
##동기
##입
카드
##청
##고객
##19
##소비
적인
들의
롯데
항공
##산업
##12
##배
그룹
##제품
##역
co
##문
##에
##나타났다
##활
스트
##/
##제공
##화
마트
##중소
##공시했다
##박
##매출액
##11
##대상
##취
##주요
만주를
##삼성전자
##코스
##대해
##이상
##하락
다고
운데
일부터
동차
##때
##디
##체
##가운데
##수출
##P
##골
억원을
##참
지수
##연결
##양
거래
이고
에도
##약
##온라인
에게
##“
##알
##임
##C
##않
##교
시간
0)
##관련
##여파
##앞
##이날
##세계
##지역
##중국
##파
대비
##확대
##리
##LG
일까지
##물
##매매
##해외
##(
##성장
에는
##등을
세를
다는
##호
##설
##초
##13
##가장
##롯데
크로
##15
조원
센터
##노
지원
##후
##오는
##저
##201
니다
##상품
회사
감염증
##없
지고
##늘어
##말
라이
##들
##주체
##금
##충
##A
##변
파트
펀드
##협
##당기
##바
##새
##개발
##공급
##SK
##코로나바이러스감염증
##창
(1
##과
##운영
업계
##당기순
위원
##카
##수요
##행
##보면
%,
##필
되는
##생산
##시작
##어려
업체
동산
##영향
##집계
##60
##프로
##지난달
##전국
##피
##할
##따른
인트
하며
##종목의
만원으로
(0
##모습
##플
##손
##돌파
리아
##순매도
##연속
##완
##선정
##함
##뉴
##투자자
##당기순이익
##작
개월
레이
##각각
##오전
건설
배열
벤처
##기준으로
##크
##중기
동향
되고
##기록했다
5%
##여파로
##커
##기술
3%
기준
주택
##경영
##상장
##식
##영업이익이
##목
##편
##메
매수
##업계
##회사
##아파트
##2020
들은
회의
##신용
##16
##주식
##주체별
본부
##가능
##들어
##집계됐다
##14
##한달
##넘
##속
##처
##환
##수준
1%
##간
##24
##위기
##단기간
##결과
##예상
##골든
가구
그래
스크
했고
현지
##가격
25
##G
케이
보험
제공
크로스
6%
장이
##구매
##사태로
##I
##폭
7%
##골든크로스
on
##면
사를
하게
##다음
##부동산
##애
달러
쇼핑
았다
현지시간
8%
##기대
##따라
##100
##농
##또
##아이
##담
상공
그래프
2%
##우리
30
포인트
##미래
##발생
자가
##함께
##매출액은
##코스피
평선
흐름
##이평선
가격
장은
al
약을
50
##타
하면서
##매매동향
##요
금을
사는
##참여
##고용
뉴스
부는
##본격
##추가
##자동차
##선보
##이용
##평균
##상황
##최고
원에
##스마트
##겪
위원회
도체
스템
##주택
기관
페이
지는
##17
##오른
##항공
##전년동
움을
##매물
##업체
상공인
##주가가
##대상으로
##점
##정배열
4%
to
비중
##만에
력을
##국제
##다양
(+
##채용
##살
졌다
##전년동기
##중소기업
자산
##거래비중
##업무
##보이고
##소상공인
##광
##유통
##증시
9%
##B
##등의
##비중
##연구
가를
##많
##형
##분양
##패
기술
##이는
세대
위기
##때문
##증가한
er
개발
정보
케어
##창업
##체결
##다양한
0%
##기존
##반면
##누
##사용
##하나
##긴
##못
##관심
##대량
##만들
##유지
##사진
##예정
##인한
##매물대
리는
##대응
바이오
##▲
##△
가는
##강화
##절
왔다
카오
##두산
벤처기업
##휴
##연결기준
##추진
),
##E
원은
테크
하면
##사회
##매출은
##정부가
리고
정부
##18
##26
##결정
##모두
##제조
##합
장을
##보유
##근
##효
비율
##있어
##특히
##규모의
70
##신규
관리
세계
##필요
##어려움을
##오후
##한달을
##큰
량이
##매수
##빠
##치
랫폼
##명
자를
투자증권
##월
에셋
##흐름
이라는
##심
##준
19(
##22
##전년동기대비
##컨
##인천
##지급
##하고
##기관은
##혜
##목표
##선물
##외국인이
##검
백화
벤트
성이
백화점
이라고
##발표한
##권
자는
코리아
##당기순이익은
(2
##계획
##긴급
##원유
##줄어
##차트에서
##영업이익은
si
##홈
성을
이사
치를
##대출
##우려
##은행
##했다
##이벤트
스는
연구
##1,
##부문
##전략
##크게
##감소한
##드
##높은
##마이
사진제공
##첫
##계약
##전환
##발표했다
기를
##법
##잠
##뉴욕
##지속
에서는
14
대면
지털
서울
자리
##열린
##지수
##평가
자동차
##산
##티
협회
##작년
금리
##기획
##이동
##카카오
##극
너스
##경쟁
##분야
##허
였다
통신
##자산
서비스
2020
##모습이다
)’
자인
##개선
##할인
##회복
데이터
##200
##플랫폼
##서비스를
##기록했다고
##접
##황
들을
##조사
##증권
##처음
##확인
##M
대로
지주
##가구
##이달
하기로
##반도체
CO
##데
##홍
공사
운용
자원
화를
##25
##강남
##장관
되면서
10
##신한
##늘어난
ID
##보험
##소비자
##감소했다
지를
혁신
##국가
##인수
com
##안정
##상승한
##비교
##수익
##전기
##최초
##로
반기
%),
##거리
##나선
##맞아
##시간
##일본
15
ae
##용
주연
뱅크
##04
##스타
##실적을
인다
일간
##관계
##것이다
ER
으며
##주목
##다음달
12
하지
VID
##규제
##마련
##스마트폰
##활용
##있다는
)'
##송
##KT
##높아
##마감
##혜택
섰다
##가입
##교육
ro
##N
로운
베이
##코스닥
##미래에셋
kr
공업
제품
침체
한국
회를
##내용
##중이다
##증가했다
손실
asi
정의
##것이
##공공
##관리
##개인이
COVID
규모
리지
안을
학교
##GS
##실시
##유가
##중소벤처기업
40
##공개
##식품
에서도
##D
##트
바일
##발행
##프리
했지만
cokr
##오주연
asiae
(-
라는
업종
위를
##모델
##업종
asiaecokr
##남
##키
##공동
##면세
##보고
##생활
##포함
##토
그램
도록
##23
##기반
##전체
##충격
##마스크
##품
사가
이며
이트
(00
##50
##이민
##거래일
너지
하다
##적용
##중앙
18
22
##떨
##수주
##호텔
##확보
##낮
##레
##악
##시행
##형성
##때문이다
##외국인과
##삼성전자는
##향
세가
##신청
##특별
##활성
은행은
-19)
##차트의
##민
계약
통상
##KB
##계열
##방식
##사람
거래소
##사회적
78
##뚫
##투
화학
100
##구성
##떨어
##하는
##승
##건설
##위축
##일부
##장기
##정책
습니다
통상자원
스코
페인
##21
##가는
##높다
##뚫고
##자금
##전용
##종합
##청년
##뒤
식품
##경우
##적자
##중심
##채권
선까지
##비중이
TI
##H
들도
##무역
##유럽
##인도
억원의
##만들고
44
약품
의견
했던
##국민
##진단
대출
린이
상품
플러스
##단기간에
유가
이는
전환
##카드
##편의
지수는
##거래량
##나왔다
경영
##게
##언
실적
##건강
중공업
##현대차
일선까지
##골든크로스를
TN
별로
원이
##나온
##경기도
##모바일
##버
##캠
##테
명을
##급감
##모집
##애플
##이에
##중단
##디자인
45
프로
##33
##상태
##정보
어지고
하겠
##누적
48
##윤
서는
##겪고
##늘었다
##새로운
13
공개
공시
기자
대표
사의
##일반
은행이
##관심이
##순매수했다
##육
##흑
기가
안전
액은
WTI
##인해
65
ti
솔루
##등에
##등이
##케이
##시스템
##전문가
##힘
교통
##극복
##비상
##조달
지면서
##PER
##업계에
##줄어든
##상승세를
##영향으로
##산업통상자원
##날
##캐
##탄
갤럭
이나
쳤다
her
##인터
##전날
##비대면
##일자리
##마이너스
28
##독
##블
감독
매도
성장
소득
지역
평가
##40
##다시
##도입
##세종
##확진
an
##삼
률이
제로
주식
##구축
##동안
##알려
##조성
##펀드
##혁신
##캠페인
##하지만
택트
##이루
##추세
갤럭시
사에서
29
##네
##폐
스가
으나
##반영
##쇼핑
증권은
rp
##V
대책
200
##부산
##잠정
##기관이
##디지털
##쿠
생활
서를
##진행한다고
##T
##곳
년간
미엄
활동
ald
업계에
##거래가
##거리두
##어린이
##갖
두고
##대형
##청약
##한편
##해당
##협력
##대규모
##상승세
herald
33
##F
##복
##클
단지
##매도
##매장
##현금
##흐름은
원을
corp
##프로그램
##확산으로
##증가했다고
heraldcorp
27
59
CC
기로
##상향
##우수
##이루어지고
는다
산물
주는
항이
##것은
##완화
##기획재
##나온다
60
##군
##표
트업
환경
##to
##공장
##대학
솔루션
입니다
지원금
DP
##찾
##성공
##의료
##침체
들에게
증권부
##수요가
##엔
리를
부가
신종
하이
##다만
##아니
##역대
##준비
월부터
##나선다
##서울시
##선에서
##앞두고
##발생했다
##막
##태
잔량
##국토
##이사
##환경
##줄었다
자산운용
##금융감독
68
SE
대우
리가
##진출
##집중
##기업의
매수비율
##2018
##toto
##체결했다고
24
##=
##몰
##음
면적
##됐다
##500
##가정의
##개인의
##업무협
##순매수했고
##totoro
BR
##돕
동안
렸다
아이
이하
전문
판매
##내놓
##오프
##재개
##제외
금융그룹
##바이러스
##외국인은
23
##백
등급
젝트
##더욱
##데이터
##매출이
##프리미엄
un
해야
##개최
##사상
##적극
##말했다
##자회사
##스타트업
##앱
##측
교육
널리
도시
방송
점을
진흥
텔레
##사전
##재무
##취업
##순이익
##시장에
##특이사
##확인할
##특이사항이
##뛰
##얼
##기능
##직접
##흑자
회에서
##정부의
##종목에
##개인들도
80
ar
##축
테일
##최종
##통계
텔레콤
##등으로
##보인다
##m
##눈
기에
율이
제약
##달러
##열고
##지하
##직원
##황금
##대해서
##비교해
##있도록
##2019
##영업손실
in
##번
##석
량을
르게
스를
안정
율은
프라
##반등
##설명
##악화
##조정
tion
##사업을
##이민우
##전망이다
heraldcorpcom
17
도가
명이
자이
재난
##이같
##이를
##종가
##회장
##효과
업종은
투자자
##혜택을
##급락
##인공
##중인
##애널리
##지원을
##중심으로
건축
도를
리츠
마켓
법인
시설
자금
##개정
##비해
##안전
##전월
##PBR
##규모로
세업종은
##전문기업
##기획재정부
69
##베
##울
동성
연휴
퍼런
##NH
##비롯
시스템
플레이
##아시아
##신용카드
73
##북
##잇
기는
대를
액이
지가
피스
핵심
##된다
라이브
##목표주
##포스코
##활성화
ation
49
AI
격탄
기간
부문
##공식
##달성
##받은
##지분
##한다
분기에
5000
##거래를
##신제품
##장기화
##하반기
##홈페이
##것이라는
21
43
##질
##콘
라고
사인
스타
었고
케팅
##31
##가동
##없는
##에이
##재고
##최저
##최근에
##편의점
##공시가격
##금융위기
##이평선이
##거래비중은
##걸
##풀
시에
정책
키트
##AI
##많은
##모든
##문제
##연휴
##제출
##상태로
##최초로
##투자의견
##논
##될
##빅
##착
##항
청은
현대
##35
##만큼
##수입
##취득
##피해
구하고
시장의
##나섰다
##인터넷
##직격탄
시장에서
##수준으로
##삼성전자가
##애널리스트
46
도로
헬스
##결제
##분기
##오픈
##주주
##상품을
##있다고
##하락한
##국토교통
##대한항공
##출시한다고
PO
만에
보면
음을
조선
지니
하여
##소재
##주관
##Val
##바이오
##재건축
금융투자
##정배열로
##견
##꾸
머스
사에
프트
##돌아
##수도
##타격
대학교
##그리고
##영업익
##전망이
##잡
##학
권을
냈다
서다
##55
##부진
##자본
만원을
,000
##본격화
##지수는
대책본부
##'2020
(3
le
##별
##씨
##천
국민
생산
이노
지능
##내달
##대신
##뛰어
##변경
##설립
##여전
##이뤄
##인증
퍼런스
##금융권
##면세점
##사태가
##Valu
##오프라인
##산업통상자원부
11
63
##돈
##팔
료를
이드
##70
##겪는
##관한
##근로
##급등
##하루
##회사채
##계획이다
##중소벤처기업부
)=
##와
##철
거나
나라
로드
장품
푸드
##광고
##구조
##나오
##대우
##물론
##반포
##부담
##서초
##일정
##전자
##지정
##통한
##핵심
##회의
리테일
##투자자들의
84
##U
량은
자로
##앞서
##제한
선으로
##기대감
##마쳤다
##시장의
##우려가
##처음으로
51
##격
##덕
##둔
##벌
가전
들과
리티
홀딩
##받아
##배터
##의견
##정상
##티몬
로부터
##있지만
##상장지수
##시장에서
##예정이다
##직격탄을
##감소했다고
##머니투데이
'(
55
ed
##라
##친
공장
션을
시가
시는
170
##[[
##소득
##자구
의약품
##시장이
스플레이
##선정됐다
##진단키트
##황금연휴
##응
노동
대에
업을
처럼
##급격
##급증
##단지
##담은
##임대
##있게
건설은
##기업개
##백화점
##1000
##국제유가
##운영하는
##프로젝트
##미래에셋대우
##Valuation
90
TF
##끌
##되
##받을
##방송
##일봉
##출범
으로는
##대표는
##모습은
##아니라
##기업개요
##불구하고
##제공하는
##순매도했다
',
EO
스의
어링
##기사
##넘어
##받고
##방문
##상당
만달러
원으로
##그동안
##전기차
##필요한
퍼런스콜
##마감했다
MA
도는
보증
워크
확실
##고려
##매각
##출발
조원을
커머스
##정부는
##코스피는
il
##▷
##밀
대상
데믹
률은
리에
수가
주주
지에
oon
##내린
##지표
건설이
한다는
##불확실
##화장품
##긴급재난
##방식으로
##인공지능
##진행한다
77
93
건을
구역
돌파
리스
모레
무역
일에
종목
평균
##가전
##각종
##과정
##변화
##사이
##수급
##않은
##입주
##참석
##폭락
었지만
##마케팅
##빠르게
##역배열
##제품을
헬스케어
##관계자는
##이벤트를
##추세선으로
##O
##꼽
##놓
계층
디오
만주
발표
연합
차를
600
##CJ
##거뒀
##돕기
##매입
##상대
##이미
##이전
##인기
##전달
##최소
##솔루션
1)
##▶
##갈
기금
생명
선을
업자
조사
퍼시
회가
500
##2,
##것을
##구간
##나서
##또한
##수치
2000
##WTI
##것이란
##아이폰
##확산에
##순매수를
##‘2020
##순매도했고
EX
SI
##떠
##팬
경기
기획
디어
이자
제를
종합
중앙
##공모
##변동
##임직
##통과
##판단
##가능한
##기관도
##에너지
##이같이
##이마트
##거리두기
##수주공시
##실적발표
53
##겸
##좋
되며
##대전
##동반
##사실
##여행
##차지
##치료
##패션
##향후
퍼시픽
170@
##메리츠
##moon
##상향돌파
##두산중공업
47
##볼
과학
년도
률을
매출
었던
지구
품을
호텔
##39
##80
##99
##가족
##개별
##살펴
##승인
##이유
##있을
버리지
##영향을
##증시가
##코리아
금융지주
##출시했다고
##현대자동차
##머니투데이방송
LS
##탑
부를
율을
##67
##간담
##늘고
##문화
##방역
##신동
##위치
##조선
##조치
##지방
##쿠팡
##한경
그룹이
이었다
##20%
##30%
##가격이
##계약을
##고객을
##선보인
##신세계
##실적이
##아모레
31
or
##책
먼트
물산
보고
원유
튜브
##52
##대부
##문을
##배달
##성과
##우선
##운송
##울산
##이익
##자동
##주거
##탄소
##품목
##활동
사이트
자들이
회의를
##기사는
##투자를
##공공기관
##업무협약을
BC
##촉
##콜
##퍼
고용
구조
대한
뷰티
사스
상장
소비
엑스
##49
##공정
##국회
##도시
##위험
##잇따
##조합
##지적
##통신
##한정
원에서
텍사스
##대기업
##매수우
##서초구
##주가는
##커지고
##프로모
##집계됐다고
##한국거래소
ew
##R
##냉
##먼
결제
드는
발전
수를
스터
식을
웨이
인터
자의
조정
협력
##36
##달을
##맞춤
##사장
##손실
##통합
##화상
디지털
명으로
반도체
프로젠
##늘어나
##보고서
##상반기
##시장을
##언택트
##오피스
##아모레퍼시픽
):
##끝
##암
##액
리어
민국
분양
상을
소연
수익
신용
주년
텐츠
##기초
##노동
##보도
##중구
장에서
##300
##내용을
##전일대비
(4
##◇
##먹
##희
가고
계획
기능
니스
르고
리즈
부에
선물
원의
웨어
화된
##그룹
##맞은
##운용
##주문
##현실
년까지
약계층
억달러
카드는
##대부분
##한달간
위원회는
##연구원은
26
86
87
##엘
가지
##59
##기아
##라인
##물류
##민간
##부품
##석유
##자체
##재정
##제기
은행과
##10%
##금융투자
##지원하기
##지원하는
LG
##은
이어
총리
취재
타워
##대구
##또는
##법인
##상환
##한진
라이프
부동산
실적을
##계열사
##미국의
##증권사
##친환경
##2017
##삼성물산
##예상된다
##출시했다
##하락했다
##홈페이지
##컨퍼런스콜
(5
##봄
공급
국이
네트
롭게
비를
제도
청이
테이
통령
파원
##34
##가까
##건물
##공적
##절반
##제작
##행정
그룹은
남취재
억원에
##배터리
##유동성
남취재본부
16
##웃
공단
됐던
사회
순위
시티
에스
연금
오일
월물
유행
창업
청장
치는
해양
##IB
##간편
##공유
##넘게
##받는
##불가
##없이
##중요
비대면
연구소
##ETN
##갤럭시
##시리즈
##여전히
##자금을
##회장이
##유지했다
IC
SK
단체
방역
사이
수요
시스
십자
재단
트남
##43
##계좌
##관세
##기념
##보다
##비용
##소형
##얼어
##역시
##제시
##투입
##행사
##힘입
베스트
브로드
업계가
홀딩스
2019
##대통령
으로부터
##레버리지
##상황에서
##이동통신
의약품안전
##에이프로젠
~3
##움
##풍
내고
모델
정은
제한
종을
지난
트리
##53
##광주
##금리
##넘는
##담당
##등급
##등록
##요구
##인턴
##인하
으면서
포스트
했으나
##기록한
##대유행
##받았다
##알려져
##제조업
##특파원
##한다는
##힘입어
##개인투자자
의약품안전처
67
IT
##]
개를
남기
명의
유의
이기
일을
조합
트를
파크
하우
##경험
##근무
##내수
##대책
##매년
##벤처
##상위
##서부
##협약
거래일
그룹의
에너지
프라이
했으며
##120
##더욱이
##사태에
##채권단
##팬데믹
##회장은
코리아는
##비상경제
##신용등급
##전용면적
OD
##J
기기
디아
반포
버스
IPO
##TV
##금액
##낮은
##다른
##성적
##연방
##움직
##의미
##지식
##케어
##협업
##회원
월까지
100,
##관심을
##등에서
##보유한
##수도권
##위기를
##인프라
##전세계
##거래량이
##드라이브
##매수우위
##우리나라
##체결했다
##흑자전환
##카카오뱅크
##긴급재난지원금
58
’(
##납
##봉
##야
##잘
기사
분야
성과
시험
지상
포츠
합계
%)=
##(※
##검토
##그러
##독일
##먼저
##발전
##보급
##소식
##소폭
##연기
##완료
##중견
##직장
##취소
##측은
##탑재
##허가
(%)=
6000
##뉴욕증
##동시에
##임직원
##장관이
매도비율
매수잔량
잔량합계
지니어링
하겠다는
*100,
##거래량은
##국내에서
##살펴보면
##상승했다
##강세업종은
##식품의약품안전처
ST
UV
en
##워
##잔
##탓
갔다
개사
되지
렌드
력이
마이
임을
주의
(-0
##38
##대폭
##많이
##사모
##않고
##자리
##전장
##키움
##합병
베이션
점으로
##50%
##IBK
##국내외
##맞춤형
##수출입
##위축된
##포인트
##2000
##본격적인
##기사입니다
39
##<
##머
국의
닷컴
복지
슬라
신문
첨단
프레
##골프
##내년
##부족
##시험
##역할
##영국
##의결
##종사
##채널
##현지
전자가
##강남구
##동종목
##베트남
##얼어붙
##위기에
##이번에
##가능성이
##루
계에
금은
라우
받고
사장
성에
세다
세로
안에
엔터
캐피
19’
##58
##84
##CN
##감염
##농협
##돌입
##매일
##생각
##소개
##예비
##이런
##주도
##하이
##한화
년부터
언택트
화학은
##새롭게
##수치다
##타격을
조선해양
회의에서
##100%
##개별주택
##기업들의
##기업들이
##대표이사
##동기보다
##선보인다
##투자자는
##거래비중이
99
AS
TV
##길
##쉽
##쌍
는데
랐다
리트
사와
스와
어컨
영선
이스
이터
전지
하자
회는
20)
##구입
##기부
##기흥
##논의
##선택
##소송
##외환
##이하
##입찰
##장을
##제도
##제로
##출자
##풀이
##개인은
##급격히
##분석이
##불리는
##앞으로
##위치한
##2008
##기업공개
##순이익은
##풀이된다
엔지니어링
##국제유가가
값이
고객
기구
농협
부와
사로
씨는
##37
##갖춘
##단독
##단일
##사례
##시민
##양호
##유진
##음식
##있고
##주력
##패키
##확정
금액은
서울청
전자는
튜디오
하이닉
해보험
##비롯해
##쇼핑몰
##어려운
##적자를
##제품은
##한국의
프라이즈
##수준이다
##순매도한
##어린이날
##지원한다
##확진자가
##목표주가는
CB
DB
MC
re
##Q
##W
##슈
##탈
##페
##혼
감도
계를
구가
다운
대의
리바
용품
인력
임대
점수
주구
준비
##당일
##당초
##배당
##수는
##실업
##전경
##플래
금융은
비사업
빌리티
은행의
##경제가
##고객이
##분위기
##사업은
##삼성전
##상황이
##종목은
##줄어들
##폭으로
##홍남기
##확진자
유플러스
코리아가
텍사스산
##금융권에
##설명했다
##시작했다
##아시아나
##취약계층
##활성화를
이노베이션
##디스플레이
##실시한다고
##정부서울청
##한국은행이
61
64
##된
##둘
##셀
##쏠
##즐
##펼
감정
거리
금이
대가
린다
변화
유지
이상
주가
진다
체인
ETN
##32
##88
##그는
##동향
##맞춰
##방침
##베이
##설치
##수혜
##실물
##없다
##인력
##자신
##재택
##저축
##정기
##초반
##특허
##허용
겠다는
라우드
센터는
시장이
이라며
했음을
흐름을
##규모는
##내용의
##만들어
##수출이
##영향이
##주가의
##주체로
정보통신
NY
OU
##넷
##벗
##핀
##휘
건강
대학
분석
성은
수료
운드
융합
저가
차관
탄소
히려
##가맹
##감사
##로봇
##선방
##시설
##연장
##올라
##유치
##이끌
##일상
##제약
##차별
##피부
##한샘
##해결
레이션
브랜드
연구원
우위를
지수가
##규모가
##달하는
##박영선
##오히려
##이동우
##장관은
##차세대
##트렌드
##행사를
##결정했다
##공동주택
##늘어났다
##보도했다
##사진제공
##안정적인
##오피스텔
투자증권은
##참여했음을
##호남취재본부
##컨퍼런스콜에서
79
##낙
##낸
##맺
##싱
##쓰
로보
센서
수기
수소
수출
아주
였던
왼쪽
용차
장의
재인
점에
제철
치고
프리
(10
##65
##기본
##수가
##신설
##연계
##예산
##유망
##유명
##이른
##이재
##제주
##주재
##진정
##축소
##희망
롯데온
4000
##150
##나오고
##늘었고
##방안을
##성장을
##시작한
##실적은
##활용한
##고객에게
##기준금리
##동종목의
##빅데이터
##한국감정
##롯데백화점
##매도우위를
)]
DA
PE
ac
##색
##압
##캔
대는
렉트
마다
으면
전략
전을
중에
티브
협의
##IT
##경남
##공간
##단위
##보건
##상가
##설계
##손잡
##수원
##시세
##안방
##알파
##육성
##이들
##자료
##자율
##재난
##전남
##정유
##찾아
##첨단
##파트
개월간
네트웍
케이션
3000
##그러나
##농산물
##때문에
##원하는
##이상의
##잇따라
##차트상
##테슬라
##포함한
##대한민국
##서비스업
##유가증권
##이어지는
##종합점수
##상승흐름을
##선정됐다고
BA
DI
MM
##렌
##빌
가스
나고
이낸
인의
최근
효과
2%)
##00
##93
##PD
##le
##개장
##계속
##국무
##김지
##동일
##만든
##백신
##사우
##완성
##이탈
##전세
##전통
##제휴
##증정
##최악
##최적
##판교
##표시
##하향
##효율
소프트
점에서
하다는
7000
##기업을
##대표가
##떨어진
##보였다
##않았다
##고용노동
##기록하고
##속에서도
##순매수한
##조사됐다
##아시아나항공
##애널리스트는
35
36
98
ED
th
##뜻
##르
구를
독제
로는
리오
리핑
만명
메라
박스
사랑
상증
설팅
어나
예산
우리
중소
체결
퍼니
프앤
ETF
##01
##1%
##3,
##64
##가치
##경북
##과학
##교보
##국산
##김영
##다소
##배송
##보장
##부회
##사무
##세탁
##수상
##에스
##외부
##인재
##자사
##저렴
##전면
##점포
##통화
##한시
별로는
억원이
페이스
##개정안
##극복을
##기업이
##매출을
##비중은
##스포츠
##유통업
##중저가
##출시한
##파트너
##현실화
지원금을
##건강기능
##경기침체
##기간보다
##기반으로
##판매하는
##약세업종은
##한국거래소에
75
76
81
NK
##겨
##겹
##꽃
##빙
##쇼
##숙
데시
되면
미지
업무
와의
인당
인이
주로
코스
파워
yun
##63
##고급
##공략
##국면
##기회
##내놨
##보여
##보통
##선제
##소유
##시범
##시승
##실제
##않는
##입점
##절차
##접수
##참가
##취임
##특화
마스크
했다는
후변화
ODEX
##CDP
##개발한
##공급망
##급감한
##비롯한
##성적표
##올해는
##마이크로
##분석의견
##사모펀드
##해외주식
##모집한다고
##정부서울청사에서
71
IB
##얻
민영
스토
유율
윤모
인증
장고
주행
폭이
##89
##관광
##꾸준
##끌어
##다우
##메디
##상담
##송파
##예약
##전반
##제안
##채무
##추천
##통상
##휴대
매출액
사회적
시장에
아파트
주년을
캐피탈
##매출과
##보급형
##유상증
계약체결
##구조조정
##단일판매
##업무협약
##장기화로
##한국경제
##선보인다고
##상장지수펀드
74
95
is
te
##e
##난
##멈
##빚
##엄
공정
밸리
병원
불어
상이
세권
였고
의도
의료
일은
있는
장비
재된
전력
점은
정적
제는
제표
ews
##41
##45
##54
##90
##92
##가정
##달리
##당시
##데다
##모양
##보증
##복합
##성북
##어떤
##오늘
##입국
##장중
##주장
##질병
##차질
##판로
노삼성
뉴스국
사들이
사업을
실에서
##가까이
##내놓은
##무역수
##손잡고
##수수료
##코엑스
##활용해
브로드밴
서비스업
##2016
##거래되고
##선보이는
##시작으로
##전망된다
##중앙방역
##판매량이
##지난해보다
디지털뉴스국
##건강기능식품
##상장지수증권
##중앙방역대책본부
88
94
DC
##녹
##딜
##빨
##뿐
결합
국내
깜짝
들에
렉스
미래
벨벳
비르
수는
신한
언스
연계
원장
월에
이즈
자와
제조
조건
조달
집단
컴퓨
테인
트는
ᆞ공급
##51
##강조
##교통
##반려
##번째
##서버
##선도
##선호
##수소
##신선
##않아
##연간
##요금
##이름
##조직
##증설
##충전
##프랑
증권의
해주는
##실시간
##콘텐츠
데시비르
위원회가
##5000
##가능하다
##개인들은
##거뒀다고
##기간산업
##상승하여
##상장주식
##예상보다
##현대차는
매출액대비
##결정했다고
ᆞ공급계약체결
##단일판매ᆞ공급계약체결
##넥
##붙
##씽
##터
가가
개국
국제
대본
대형
되기
배송
상업
성도
수록
스루
업이
위안
유통
점검
(+0
300
CCP
##5,
##가계
##관측
##담보
##리빙
##명동
##별도
##보호
##뷰티
##상회
##심각
##없어
##여신
##이틀
##일제
##조기
##최신
##클럽
##특례
##특징
##홍보
경영자
만원에
총생산
8000
##분석한
##상대로
##저소득
##적자로
##추가로
##판매를
##핀테크
##환율은
##회사는
##3000
##것이라고
##공개했다
##과학기술
##벤처기업
##분석이다
##신용평가
##자구안을
##제조업체
##중견기업
##국내총생산
##달성했다고
##국토교통부는
##중앙대책본부
코로나바이러스
2,
ON
SJ
TE
UY
am
##c
##닫
##답
##락
##맥
##웹
과의
라스
름돈
분을
씨엘
안타
어스
자에
점이
주공
지로
케아
하려
해외
화폐
휘선
GDP
##81
##거쳐
##과거
##김유
##둔화
##물량
##사들
##상한
##세부
##스탠
##시중
##신고
##아직
##양성
##예금
##이내
##있기
##자녀
##전북
구청장
세계적
스름돈
스마트
원이다
이미지
테리어
하거나
##BNK
##CEO
##개발에
##결과를
##기아차
##미국과
##불가피
##사업에
##소비가
##실시한
##여의도
##의약품
##제출한
##중국의
##최소화
##카메라
인사이트
하겠다고
##2022
##경제위기
##기대된다
##기후변화
##생활가전
##안방보험
##이벤트는
##지원사업
렘데시비르
##본격적으로
##상장주식수
##소상공인을
62
##러
##빈
##흡
가능
가치
겼다
경정
공항
구는
대전
리기
메이
방은
봤다
설계
세에
스바
시키
안보
어를
올해
유진
입금
채권
하던
합병
회계
60)
LCC
han
##48
##개요
##구직
##김도
##네이
##높음
##단계
##덕분
##드러
##라이
##배럴
##봉쇄
##분쟁
##성능
##신속
##예방
##원격
##이렇
##인허
##일대
##정도
##중점
##집행
##차량
##착수
##편입
네시아
시장을
하다고
1000
##70%
##게재된
##내놨다
##리스크
##말까지
##부총리
##사장은
##양호한
##운영을
##이른바
##저금리
##전분기
##지난주
##지원이
##직장인
##치료제
##항공기
##했다고
##협약을
분기에는
손해보험
인베스트
##기대감이
##들어서는
##모빌리티
##보고서를
##이어지고
##이탈리아
##있습니다
##전날보다
##코스피가
##키움증권
##한경로보
금융그룹은
##금융감독원
##돌파했다고
##프로그램을
##프로모션을
##현대백화점
##━
##니
##존
##택
##퇴
##획
가량
과장
나노
라도
로에
리브
리한
릭터
보는
상환
신라
았던
에이
재무
전형
종철
패스
포트
114
CEO
##02
##1~
##5%
##가량
##고민
##뉴딜
##두고
##마켓
##만나
##맞이
##바로
##발굴
##방법
##방향
##배우
##부분
##선언
##아닌
##안내
##액화
##여러
##유일
##이정
##이행
##정례
##주방
##주차
##진입
##창출
##책임
##항목
##해소
##휴업
계약을
상거래
스바겐
##ELS
##경영권
##공시를
##구성원
##금융업
##기능을
##더불어
##배럴당
##사실상
##업무를
##역할을
##이어질
##일제히
##전망을
##종사자
##주식을
##진행한
##캐릭터
##판매가
사진기사
##2009
##2015
##공급계약
##돌파했다
##르노삼성
##본사에서
##연구개발
##인테리어
##전장보다
##전환했다
##증가하고
##진행하는
##케이뱅크
##투자은행
##헬스케어
##KODEX
##단기적으로
##삼성전자와
##자본시장의
##잠정실적을
##미래에셋자산운용
32
72
89
FP
IS
PA
el
fn
ic
ol
##값
##앵
결과
대문
동에
미를
블록
수준
심리
앤락
에선
원과
월말
재산
전망
정을
주간
칠성
톡스
포레
00)
30)
70)
##건전
##내부
##모아
##바탕
##부장
##빠른
##상무
##소속
##손소
##원료
##이슈
##인근
##자이
##점검
##주민
##준공
##체험
##파생
##필수
##합격
##회계
가이드
만원의
센터를
심리가
일자리
자이너
하겠다
ACCP
##600
##BUY
##가격에
##거래소
##문재인
##사업체
##소프트
##유안타
##유튜브
##의정부
##조사한
##충격이
##확대를
관리본부
##구간에서
##매출액이
##생산하는
##선보였다
##제공한다
##주목받고
##코스닥은
##불확실성이
##수주공시를
##최고경영자
38
85
RE
es
ir
’,
##글
##느
##닛
##범
##쌓
##쏟
##옥
감을
근무
르는
버그
벤츠
여행
음료
의를
인은
인을
장관
지며
회에
회와
225
##62
##DB
##개학
##교체
##기조
##김현
##놓고
##다이
##달간
##돈을
##되는
##막기
##방사
##방안
##살균
##상생
##시가
##아마
##앞둔
##용인
##원금
##유효
##의류
##임상
##중순
##지금
##촉진
##충족
##카페
##형태
##화재
##화학
##활발
##효성
산업이
었다고
일렉트
자에게
정부가
즈니스
홈쇼핑
9000
##250
##ETF
##관련해
##기관과
##기관의
##기록해
##기술을
##기업은
##롯데온
##못하고
##문제가
##상당의
##선정된
##성윤모
##속에서
##시간이
##완성차
##있으며
##컨설팅
##플래그
##공정거래
##금융지원
##나타냈다
##디자이너
##떨어졌다
##마련됐다
##목표주가
##상대방은
##유통업체
##지식산업
##진행된다
##추가경정
##클라우드
디스플레이
##거래비중을
##인도네시아
##금융감독원에
##과학기술정보통신
TS
]]
##≪
##돼
##멤
##몸
##싶
개미
국가
내셔
니티
대응
동구
만큼
물을
사용
수산
염병
오는
워드
준영
타임
통화
플릭
MOU
##'1
##76
##79
##가상
##거의
##꾸러
##냈다
##높이
##둘러
##북미
##블룸
##비슷
##스루
##앞당
##연준
##유예
##유입
##이래
##주는
##주와
##중고
##청구
##추정
##특수
##혜안
가격은
겠다고
달러에
리면서
자들의
제약은
##HDC
##경영난
##규모다
##기업에
##냉장고
##모델로
##모델을
##박소연
##선정을
##에프앤
##올랐다
##월스트
##인도분
##임대료
##주이다
##지원에
##채용을
##휴대폰
분기부터
##CNBC
##경쟁력을
##나타내고
##대형마트
##성공했다
##연방준비
##제품이다
##투자자의
##계약금액은
##비교해보면
##월스트리트
##판매한다고
마켓인사이트
##방송서비스업
##하나금융투자
##한경로보뉴스
"]
2)
97
AM
CE
FO
ay
it
ur
##X
##몇
##억
##컬
그니
길을
되어
로봇
메프
비용
사무
상식
앤드
월드
은모
자료
재희
저널
중국
촬영
층에
치로
텍은
팩토
폭을
할만
해진
1%)
1%,
19%
19'
WSJ
##03
##57
##75
##강원
##개편
##거주
##건축
##고양
##구현
##김용
##낮아
##도심
##리츠
##메이
##면접
##무기
##발간
##빠진
##산하
##상호
##설비
##안에
##앵커
##에쓰
##월간
##위탁
##이기
##이자
##임시
##정식
##좋은
##치열
##해양
##획득
기업의
이지만
인터넷
인프라
푸어스
##280
##let
##계기로
##고객은
##구은모
##권재희
##규모를
##미디어
##발생한
##보이며
##상장사
##수준을
##시그니
##어려움
##운송업
##은행권
##전망치
##정상화
##증시는
##최악의
##컨센서
##투자해
##패키지
##확산을
##흐름을
리케이션
리테일은
인터내셔
임대주택
타워에서
테인먼트
##2012
##2014
##기업으로
##높아지고
##대우건설
##롯데쇼핑
##롯데지주
##모집한다
##바탕으로
##분석했다
##블룸버그
##알려졌다
##에쓰오일
##이어가고
##지속가능
##처음이다
##최고치를
##판매한다
##프로모션
##플래그십
##'2019
##HACCP
##공시가격이
##카카오페이
##한시적으로
인베스트먼트
##에프앤가이드
##연방준비제도
##질병관리본부
##월스트리트저널
##산업통상자원부는
96
NH
###
##k
##귀
##끊
##뜨
##멀
가에
규제
금액
내는
년에
만개
메틱
비아
생을
섬유
신탁
영상
영업
웠다
위는
장과
전거
주당
주인
진단
클럽
포럼
힐스
(19
5%)
LED
##4,
##44
##감안
##남은
##내려
##노트
##대거
##대체
##동참
##면역
##모으
##무료
##버핏
##선행
##설문
##수석
##시각
##쏟아
##아울
##열어
##오름
##유로
##인정
##일환
##접어
##주변
##주유
##지배
##직전
##초기
##파악
##한도
곳에서
됐다고
상품권
업계의
중이다
컴퓨터
##25%
##SUV
##거뒀다
##결과다
##구간에
##그랜드
##기회를
##꾸준히
##넷플릭
##대출을
##들어간
##락앤락
##받는다
##사전예
##수준의
##신반포
##쌍용차
##업종에
##움직임
##의견을
##이렇게
##자동화
##종목이
##충격을
##티몬이
##파이낸
##포함해
##한정수
연구원은
자동차가
##경제활동
##고용유지
##뉴욕상업
##마스크를
##유지하고
##의료기기
##이어왔다
##전망했다
##정보기술
##제공하고
##중앙은행
##지급하는
##캠페인을
##판매하고
##폭스바겐
금융그룹이
##디자인기자
##단기적으로는
##당기순이익이
##유진투자증권
##추가경정예산
(6
-1
FT
km
zw
##Z
##깊
##론
##핫
가율
경쟁
구에
기계
다가
떻게
리며
마의
만의
문을
배당
번째
변동
사람
소를
어로
없이
연결
인지
자치
종민
지환
채석
체계
패턴
행정
황을
10)
##78
##LH
##각국
##강력
##검찰
##경신
##고가
##구체
##금감
##김은
##끌고
##나노
##뉴스
##동원
##동월
##론칭
##리스
##마지
##멤버
##못한
##미니
##바닥
##보이
##보인
##불안
##사내
##생명
##선발
##신약
##심화
##씽크
##않았
##업황
##유동
##이로
##있던
##제일
##조건
##지상
##캐시
##탓에
##태국
##하기
##한컴
##현장
만명을
만원대
소비자
틸리티
##13%
##80%
##MBA
##가격을
##결과에
##경제의
##공장을
##관련된
##김도윤
##단지는
##대응을
##동대문
##목표로
##방지를
##보유량
##사업이
##생산이
##시장은
##어려워
##여파가
##우수한
##이기민
##인기를
##전략을
##전략적
##조사를
##줄었고
##추세상
##티몬은
##포스트
##프랑스
##피씨엘
##한진주
##행사는
미래에셋
삼성전자
일렉트릭
파워센터
퍼레이션
##국민연금
##기록하며
##돌아섰다
##스튜디오
##시스템을
##액화수소
##위해서다
##이날부터
##자율주행
##추진한다
##하락세를
##letzw
##소상공인의
##전문가들은
##추진한다고
##금융위원회는
##지식산업센터
##추세상으로는
##한국조선해양
##뉴욕상업거래소
GB
PI
im
##b
##s
##괴
##긍
##맛
##맡
##익
##즉
##징
##흔
개동
고를
골프
관광
구매
근당
더블
도어
리얼
명은
무리
세미
약처
양광
왕국
인데
인천
재현
존스
주신
지표
타운
태원
2%,
##(5
##56
##61
##82
##85
##[(
##개시
##견인
##국채
##김대
##김철
##꼽히
##논란
##눈에
##다가
##명품
##벌어
##부양
##부채
##성남
##수행
##신임
##여수
##위안
##입사
##자연
##전해
##종로
##타임
##파산
##편성
##폐쇄
##품평
##학생
##향상
##화물
##화보
##화훼
##확장
가구로
공사는
지난해
진흥원
카드가
카카오
컴퍼니
협회에
힐스테
##22%
##경제적
##구성된
##기업인
##대비해
##대상은
##러시아
##마지막
##문채석
##벗어나
##분양에
##사례가
##사업의
##상품은
##상하이
##성장성
##시가총
##씽크풀
##아마존
##업계가
##이민하
##적자가
##전시장
##정보를
##제외한
##주요국
##주주총
##지적이
##효과가
센터에서
전문금융
정보공개
정비사업
텔레콤은
티이미지
##금융상품
##다우존스
##대응하기
##롯데마트
##방침이다
##변동성이
##산업활동
##서비스가
##시그니처
##실물경제
##온라인몰
##요구하는
##적자전환
##주목된다
##통계청이
##한국무역
##현대제철
브로드밴드
##거래일보다
##관계자들이
##상대적으로
##투자자들이
##황금연휴를
##순매도했지만
##한국경제신문
##한국투자증권
##letzwin
##신종코로나바이러스
=1
BS
CA
GS
NG
iv
op
##띄
##병
##샤
##죽
##찍
##폴
규직
기도
니퍼
됨에
러운
문숙
물질
보호
부산
부의
비가
상담
수의
우수
유입
일이
자유
제안
조한
채용
탱크
톡신
해서
4%)
40)
##46
##공기
##교역
##네오
##네트
##메뉴
##박종
##부처
##비트
##살아
##수용
##신축
##악재
##암호
##약국
##언제
##얼마
##연말
##용산
##육류
##자유
##적정
##주말
##통보
##판결
녹십자
니퍼룸
배문숙
보다는
에어컨
울왕국
(1~3
##1,9
##26%
##IPO
##가격은
##개발을
##경기가
##구매한
##구매할
##금융당
##기록할
##김영주
##노트북
##눈길을
##매장을
##물량이
##비교적
##사람이
##사태를
##사태의
##세탁기
##소식에
##어떻게
##이같은
##인터뷰
##인허가
##있었다
##자산이
##전했다
##점유율
##조준영
##집에서
##효과를
리테일이
전문은행
프로젝트
(0059
##2013
##거래량의
##과정에서
##금융회사
##매장에서
##있어서다
##저축은행
##충격으로
##행정안전
힐스테이트
##공적마스크
##국토교통부
##중점적으로
##투자의견은
##현대중공업
엔터프라이즈
,9
PC
RO
ea
##h
##갑
##꿈
##던
##쉐
##앰
##펫
감이
나는
나무
넥스
년대
더드
도에
되자
모터
무원
뱅킹
버이
변경
보니
부장
부지
분의
붕괴
사채
상의
수입
어가
장치
제이
지의
집자
통계
항을
해영
화의
효진
(20
Fed
SDI
##47
##66
##GC
##가중
##가진
##개척
##검증
##경상
##골드
##공고
##국세
##그렇
##깜짝
##노후
##당첨
##동결
##되고
##목적
##바꾸
##받았
##상권
##색상
##선임
##선전
##속속
##숙박
##쉽게
##스토
##아동
##알아
##영상
##유도
##이승
##일시
##자카
##장비
##차이
##철강
##체크
##커피
##크림
##타이
##협의
##후보
뉴시스
아이폰
업체인
차이즈
편집자
프리카
협회가
##40%
##MTN
##가입자
##경쟁력
##고객의
##국내에
##권해영
##기간에
##김민영
##김철현
##나서고
##네이버
##닛케이
##대상을
##들어서
##맞았다
##모습을
##분석을
##분양을
##비슷한
##송파구
##수산물
##수익성
##순손실
##시대에
##약세를
##역량을
##연휴를
##이상을
##장관과
##절차를
##정부와
##제대로
##조유진
##진행된
##최적화
##퍼스트
##한다고
##항공사
##확보에
하이닉스
##4000
##강조했다
##금융지주
##기술개발
##네트워크
##무역안보
##서비스다
##손소독제
##수익률이
##스탠더드
##아이디어
##영업익은
##오름세를
##이어갔다
##이커머스
##일환으로
##적극적인
##전거래일
##주목할만
##줄었지만
##최대주주
##파생결합
##파이낸셜
##홈플러스
##확대하고
증권거래소
##두산그룹이
##시작한다고
##영업손실이
##전자상거래
##서부텍사스산
##현대일렉트릭
##중소벤처기업부는
37
PS
as
de
ml
us
##까
##넓
##넣
##능
##졸
가동
걱정
겠다
경원
계현
고가
곳이
공간
관련
국은
국장
년여
두산
라젠
모리
박준
밖에
받을
비고
수당
스티
약국
어는
위에
유니
이프
인공
장려
졌던
진행
췄다
치킨
캄보
트로
플래
하락
해온
했기
혜윤
황금
(15
9%,
CDP
MEX
PEC
the
##42
##73
##86
##가속
##가지
##거듭
##고성
##공인
##기하
##내다
##떠오
##마트
##만기
##무선
##받게
##붕괴
##블랙
##속에
##씨젠
##아웃
##않을
##연체
##외신
##외출
##요청
##웃돌
##인식
##입은
##자격
##작성
##장애
##전시
##정리
##정순
##지나
##처분
##추경
##특정
##프랜
##함안
##행복
가격이
고가를
년만에
료전지
셧다운
여명이
올리브
의약국
증가율
테크노
학개미
합니다
화학이
##1~2
##계획을
##기념해
##기존의
##뛰어넘
##못하는
##사장이
##설립된
##소송을
##심재현
##애플이
##업종이
##에어컨
##자금이
##전염병
##정혜윤
##종가를
##종근당
##중고차
##지역의
##최고의
##침체된
##판매할
##평가를
##피해를
##확산이
과학기술
나노튜브
산업개발
아주경제
자치단체
캄보디아
NYMEX
##감소했고
##거래일을
##관세청은
##넷플릭스
##뉴욕증시
##데이터를
##동기대비
##상황이다
##순이익이
##시작한다
##신선식품
##전국에서
##전년대비
##제품으로
##지역에서
##지원하고
##투자하는
##특징이다
##한국전력
앤드푸어스
주신고가를
##롯데홀딩스
##삼성전자의
##어린이날을
##엘타워에서
##중소기업을
##매출액증가율
##신한금융투자
##주목할만하다
##뉴욕증권거래소
##카카오엔터프라이즈
##단일판매ᆞ공급계약체결을
ch
ne
oo
~4
##美
##런
##릴
##링
##숨
##슬
##캡
##켜
##큐
##푸
##헌
강남
개의
경희
균형
급여
니아
달아
담당
미국
부품
소재
수원
스키
슬기
심사
아가
역시
요일
우고
위험
이란
이치
점의
중인
즈는
진대
차량
착한
챌린
함에
화에
FDA
act
ing
##-0
##05
##87
##JB
##KC
##가시
##검사
##결혼
##고령
##관내
##괴리
##구글
##구미
##그간
##누구
##도내
##도안
##동아
##라임
##메르
##무상
##무인
##미세
##복지
##상업
##실무
##언론
##예측
##외국
##외식
##의무
##의사
##일주
##재배
##적발
##절감
##청와
##초과
##총선
##충북
##커뮤
##타입
##택배
##포장
##품질
##하늘
##할부
기관인
더라도
됐지만
마의자
버이날
센티브
스타일
자들은
플랫폼
하였다
hank
##130
##15%
##90%
##강세를
##강화에
##경쟁이
##그쳤다
##근로자
##기업과
##김용범
##내에서
##대주주
##뛰어난
##마무리
##비트코
##셀트리
##손실을
##신동빈
##실적에
##역세권
##웃도는
##위메프
##유가가
##이로써
##이민지
##이유로
##중대본
##지역에
##콜센터
##하나로
##활동을
개월만에
상공회의
했습니다
##공급하는
##금융정보
##나선다고
##나타나고
##보유하고
##브랜드로
##비교하면
##삼성전기
##상승률이
##서비스는
##얼어붙은
##올해부터
##이사회를
##자회사인
##재택근무
##전망치를
##전문업체
##제니퍼룸
##지속적인
##지역경제
##진행하고
##출발했다
##해외시장
인터내셔널
코퍼레이션
ewscom
##소프트웨어
##식품의약국
##온라인으로
##프랜차이즈
##여신전문금융
##탄소나노튜브
##현대자동차가
2(
IM
LF
MR
aj
ap
##듣
##래
##밸
##엇
##침
##컸
##팀
##혐
##흥
게이
관은
금속
너무
다리
데스
도와
링턴
마저
매일
민수
법원
사태
서치
선일
속보
신청
십을
없는
영호
자본
장기
정기
정밀
주차
창환
천시
크셔
키로
플란
혜민
휴직
힌다
8%,
90)
AFP
RAS
##09
##8,
##97
##FT
##In
##갖고
##결산
##고시
##관악
##김건
##김주
##내고
##대용
##목소
##미러
##발맞
##밝힌
##벨벳
##본사
##본인
##부모
##부실
##부합
##북한
##블록
##사랑
##새벽
##성우
##세대
##소셜
##시공
##식당
##아우
##엇갈
##여름
##오르
##완판
##원을
##이야
##이은
##인상
##자발
##잠실
##제거
##주로
##지출
##집단
##추락
##출연
##출하
##토지
##편리
##풍부
##한계
##해서
##호주
##화성
격적인
기술을
백종민
보고서
비케어
서경원
세트를
식으로
신도시
차관은
총리는
테크놀
폴리오
하도록
하지만
회사인
##112
##19)
##805
##감소할
##강세다
##개선을
##경제에
##금리를
##금액을
##급락한
##기간을
##기대를
##김지희
##끌어올
##노하우
##늘면서
##도움을
##미국에
##발생할
##변동성
##보유세
##부담을
##성과를
##시장조
##식약처
##양사는
##없었다
##요금제
##이르면
##이용할
##인수를
##자카르
##저렴한
##정도로
##조치를
##조합원
##지수가
##캐시백
##평가가
##평가다
##필요할
##현상이
##확대에
동학개미
억원이다
유틸리티
프로그램
RASSI
##간담회를
##거스름돈
##동반성장
##마련했다
##매출액과
##부문에서
##성적표를
##업체들이
##유상증자
##자본시장
##재무제표
##제시했다
##차별화된
##텍사스산
상공회의소
시장위원회
##1,000
##간담회에서
##개최한다고
##늘어났다는
fnRASSI
##드라이브스루
##산업활동동향
##시스템반도체
##인터넷전문은행
##스탠더드앤드푸어스
AR
MI
TC
VC
ge
os
ot
tv
##끈
##땅
##린
걸이
곳을
기다
동훈
로를
리버
문화
받는
받아
발언
번가
분간
사례
석유
선에
성훈
세종
세희
스에
승인
씨가
았고
요인
용해
운동
운영
월을
윤영
윤주
이던
이번
종의
주얼
지자
지하
출연
텍이
특별
펀딩
호흡
(24
400
Oil
arb
##07
##6,
##68
##7,
##77
##CU
##SD
##가공
##가파
##걱정
##걸쳐
##경력
##너무
##대외
##대중
##도전
##드론
##레이
##맞는
##매우
##매주
##바이
##별세
##불과
##불황
##사고
##사망
##생계
##서류
##속한
##수립
##신입
##어느
##에드
##에디
##연령
##영위
##영화
##예고
##의혹
##이지
##인구
##인사
##일회
##작용
##전개
##정지
##제네
##제이
##주최
##지연
##차단
##창원
##처리
##체감
##충남
##충칭
##캔들
##키즈
##편집
##폐업
##포트
##한번
##한솔
##현행
##현황
##흡수
가정의
개사를
국제공
김휘선
까지는
들었다
등이다
레이딩
롭테크
반전형
사업체
스러운
일이다
치면서
하려는
하였고
한국판
(000
gcom
##123
##공개한
##관계자
##구축을
##급증한
##기간은
##기반의
##기하영
##김건우
##김대섭
##꼽힌다
##나서는
##더케이
##도시락
##드라이
##로이터
##만이다
##박종일
##박지환
##발표를
##버크셔
##분야의
##브리핑
##사들인
##선결제
##셧다운
##시공사
##시작된
##신동주
##신사업
##아너스
##안정준
##연면적
##열었다
##이사장
##이상이
##이용해
##이케아
##인력을
##재개발
##종로구
##중소형
##증가로
##참석한
##크리에
##탓이다
##판매량
##황윤주
##회장의
산업단지
연합뉴스
arbon
##178%
##계열사인
##계좌입금
##구매하는
##넘어섰다
##단독주택
##대통령이
##대학경제
##매수세가
##무역협회
##발표하고
##부총리는
##분야에서
##셀트리온
##아프리카
##안마의자
##어버이날
##예상되는
##이베스트
##전년보다
##전문인력
##제로페이
##조선업계
##주식시장
##창업지원
##추진하는
##캔들패턴
##캠페인은
##평가했다
##현금으로
##확산세가
평균지수는
##공시가격을
##소비자들이
##지속적으로
##포트폴리오
##한국감정원
엔터테인먼트
티이미지뱅크
현대산업개발
hankyun
##애플리케이션
##한국무역협회
공개시장위원회
(005930)
##미래에셋대우는
##한국경제신문과
##유가증권시장에서
##중소벤처기업부가
##포스코인터내셔널
hankyungcom
4,
52
DS
KT
MS
MW
OT
SS
##놀
##듯
##뚜
##럭
##멕
##벼
##벽
##텐
##헤
가정
가포
간담
공제
광호
김현
년을
단계
도서
됐고
라워
라질
물량
물류
반떼
반써
상승
상황
석용
선옥
세트
션은
식량
아동
억엔
역을
우선
이오
인턴
자율
장에
전용
점과
제가
제일
즈를
진을
처분
친다
카이
켰다
토지
트가
특례
페셜
학생
호점
효주
(13
50)
7%)
##74
##83
##96
##‘3
##가로
##강한
##같이
##공포
##기가
##나올
##넥슨
##노인
##대면
##도로
##들여
##딜러
##마포
##멀티
##무디
##미만
##바람
##보조
##보합
##선불
##소매
##쇼크
##스킨
##시도
##앱을
##어렵
##연금
##연다
##올렸
##운수
##원활
##위원
##유니
##육박
##이와
##자문
##저장
##적립
##전력
##조세
##주간
##주당
##주류
##지주
##집값
##천연
##초고
##출신
##폐지
##피치
##학교
##힘을
가포르
권혜민
농산물
모델링
모바일
반써밋
사무엘
사이다
산업은
세데스
쇼핑몰
스테이
억원과
억원대
업종의
에서다
오피스
온라인
이상배
조사를
종으로
프레시
해지고
회사로
ajun
##11%
##110
##145
##17%
##193
##247
##43%
##650
##KDB
##LTE
##가맹점
##강력한
##강화를
##경제부
##공급이
##그대로
##기능이
##단위로
##동향을
##들어선
##마음을
##메모리
##박효주
##발행을
##방윤영
##베이징
##변화를
##부담이
##분석해
##성동구
##세계적
##애플의
##업계는
##예상을
##오정은
##용인시
##이광호
##이랜드
##이승진
##이어가
##이중에
##제품이
##조감도
##조달청
##청와대
##탑재한
##피해가
##한진칼
##허가를
네트웍스
대한민국
보증기금
사업본부
사이언스
생활건강
인프라코
중소기업
진흥공단
테크놀로
편집자주
##2030
##8000
##간편하게
##개정안을
##거래됐다
##교보생명
##근로자의
##금융기관
##김사무엘
##늘었지만
##담당하는
##리모델링
##면세품을
##모두발언
##미국에서
##브랜드를
##석유화학
##싱가포르
##에드링턴
##여파에도
##유비케어
##인수합병
##인프라를
##자카르타
##재무구조
##정비사업
##증가했고
##차원에서
##참여하는
##창업기업
##체크카드
##캄보디아
##커뮤니티
##커지면서
##컨센서스
##한국성장
##한국은행
##현대카드
##확대한다
사랑상품권
종합지수는
##기준금리를
##대우건설은
##두산그룹은
##렘데시비르
##마이너스를
##영업이익을
##자동차보험
##지원한다고
##코엑스에서
##홈페이지를
##확산되면서
##당기순이익도
게티이미지뱅크
##산업통상자원부와
BI
RA
kg
ul
wi
##꺼
##덜
##엠
##젊
개로
개선
관계
구안
긴급
년이
디에
라마
라면
라임
러한
레인
리눔
리온
릿수
마을
만여
미널
박경
법에
보경
브리
상가
세서
세요
소가
시지
실사
아라
액을
우영
유공
자력
전체
주관
줄이
진이
창고
책을
청약
쿠르
타이
통을
트라
풍이
한달
해도
(03
(04
(05
(25
252
sed
##"2
##06
##72
##개설
##건조
##교수
##구인
##구청
##극대
##급식
##김태
##날을
##납품
##내세
##농촌
##동남
##등은
##럭셔
##만족
##무엇
##발언
##법조
##보잉
##부사
##불어
##블루
##빙수
##산유
##생생
##생필
##성분
##세운
##시대
##시흥
##신혼
##실직
##실질
##심리
##연일
##올린
##외화
##요인
##윤석
##은퇴
##의존
##이의
##일별
##재산
##적금
##젊은
##점을
##접목
##정확
##조짐
##직면
##찾은
##챌린
##청소
##체계
##추첨
##출고
##커넥
##테마
##파월
##폭발
##필기
##하면
##한은
##합의
가구가
기자본
도시의
배이다
사들은
사업은
스템임
음에도
장으로
저금리
적십자
졌다는
조감도
조원이
충성도
콘텐츠
팩토리
해졌다
호흡기
NYSE
##140
##314
##888
##HMM
##SDJ
##강민수
##건전성
##결과가
##경진대
##고석용
##골프존
##김보경
##내놓고
##농가를
##높아진
##당분간
##때마다
##리서치
##모양새
##무제한
##발맞춰
##변화에
##사업장
##사용할
##산업계
##상황을
##속도를
##송선옥
##수밖에
##수출은
##시상식
##실거래
##쏠리고
##쏠린다
##아이템
##안정적
##업체인
##없다는
##여부를
##영업을
##우경희
##이들은
##이번주
##일평균
##재테크
##정인지
##제품의
##주목을
##충격에
##태양광
##테스트
##필요가
##회사가
##회사의
국민은행
바이오는
서비스를
최근한달
풍에어컨
##1200
##2025
##금융시장
##급감했다
##늘어나는
##브랜드가
##브랜드의
##비즈니스
##사람들이
##산업은행
##상품으로
##서울시가
##시민들이
##신제품을
##실시한다
##이용하는
##인센티브
##인턴기자
##자산관리
##제공하기
##직원들이
##통화정책
##판매량은
##한경닷컴
칠성사이다
##고객충성도
##대한적십자
##메리츠증권
##세계적으로
##소상공인과
##시행한다고
##코스닥시장
##개인투자자의
##두산인프라코
##시장조사업체
##하나금융지주
##마이크로소프트
##산업평균지수는
##현대엔지니어링
정보공개프로젝트
##여신전문금융회사
ajunewscom
(8
02
83
BB
jp
##d
##덮
##빼
##뿌
##옮
##짓
##탐
##혹
##히
가의
감사
건이
건전
년형
농가
니어
담보
당금
데다
람코
랜트
레븐
리빙
마젠
마크
만이
몬스
발란
발유
방안
보장
복합
븐일
생제
서부
세포
센트
소의
스로
스쿨
시청
오롱
위가
유럽
유로
인가
저축
주거
즈니
집콕
청년
축산
틱스
품의
하라
할인
함을
현우
화가
활용
회복
회전
(+2
(06
4%,
6%)
6%,
jpg
~30
##"1
##91
##95
##PC
##개포
##겨냥
##결합
##경고
##과제
##농림
##니혼
##담긴
##대장
##도는
##두드
##등과
##랜드
##마사
##많아
##멈춰
##면제
##문경
##민생
##바뀌
##박미
##발급
##방지
##불편
##빌딩
##사흘
##새로
##선박
##소독
##소액
##소진
##송금
##수단
##슈퍼
##스피
##신경
##심사
##안팎
##알고
##연봉
##영구
##오상
##우량
##우미
##원가
##유료
##융합
##응답
##이주
##이중
##임금
##자매
##작업
##재편
##전에
##절벽
##접근
##조현
##졸업
##주상
##주춤
##즐길
##집을
##착용
##채굴
##추구
##추출
##출생
##충분
##토마
##패널
##하위
##학습
##해도
##호조
##홍콩
##환율
##휴게
가구에
계획을
기간은
니스톱
라비아
마케팅
메이션
브리핑
빌리지
산업을
산업의
시부터
야쿠르
월에는
유선일
임종철
지수도
태펀드
툴리눔
항공사
FOMC
hyun
##133
##195
##400
##75%
##800
##KIC
##hwi
##개발해
##골자로
##공기청
##관리를
##교육과
##극대화
##급등한
##기술력
##김효진
##높았고
##늘어날
##대용량
##도이치
##라이프
##매수에
##먹거리
##박차를
##분야에
##비비고
##비율이
##빠졌다
##사이버
##사이트
##소비를
##시대를
##심각한
##여기에
##여파에
##연다고
##이들이
##이러한
##인용해
##일대에
##일회성
##있었던
##자료에
##접어들
##정수기
##정순식
##줄이고
##중국에
##중요한
##최신혜
##출시된
##커넥티
##투자가
##투자에
##판매한
##프라이
##하면서
##협약에
##혜택과
게이자이
국제공항
븐일레븐
신용평가
원유선물
자유구역
코스메틱
##가상자산
##경신했다
##고용안정
##대표적인
##디자인을
##매일경제
##보건복지
##분석된다
##불확실성
##비상식량
##사업으로
##사업이다
##사태에도
##삼성증권
##생명보험
##선보이고
##선정하고
##시가총액
##시중은행
##신용유의
##예상치를
##오스템임
##운영하고
##적정수준
##전달했다
##전월보다
##주가연계
##주관하는
##주택시장
##지난해에
##차지했다
##출시된다
##출시한다
##특례수입
##희망하는
농협은행은
유플러스는
##거리두기가
##금융위원회
##기아자동차
##당기순손실
##메르세데스
##비교해보니
##삼성물산이
##삼성중공업
##서프라이즈
##신한은행이
##아파트값이
##이어지면서
##중소기업의
##하반기부터
##한국은행은
##hwijpg
##금융감독원이
##기간산업안정
##니혼게이자이
##두산중공업의
##금융투자업계에
##긴급재난지원금을
##서부텍사스산원유
CI
GM
IG
IN
KB
LH
UA
ig
##r
##꼭
##끼
##밤
##삶
##샌
##셈
##얘
##왕
##욜
##웨
##퀀
간편
결연
결정
공학
나다
난다
난티
네이
니터
단은
동물
등이
등포
리콘
망고
목적
몬드
볼케
서더
소시
시켜
어닝
오늘
울산
의가
인원
자격
자형
정지
주와
지급
지다
질환
처리
터카
판에
펭수
학렬
해각
화는
(+3
(+4
-19
ELS
HMR
SUV
ail
##'3
##(0
##-4
##GM
##IM
##‘1
##‘4
##건의
##게임
##격리
##견본
##결국
##경찰
##계절
##구경
##국방
##그린
##기금
##기여
##김포
##나라
##낙찰
##달라
##담배
##당부
##더블
##돕는
##동구
##뚜렷
##리콜
##마찬
##모범
##모터
##발인
##방위
##본부
##부엌
##불러
##비타
##사옥
##상온
##서민
##소외
##수면
##시급
##시는
##신차
##실행
##싱글
##아세
##안산
##앞세
##약속
##양도
##억제
##에코
##역량
##우대
##워런
##유승
##유턴
##인명
##자기
##자안
##적은
##접속
##정시
##조언
##차례
##최장
##쿠션
##퀀트
##특성
##폭이
##표준
##플립
##피자
##한미
##한우
##함유
##혐의
가스업
관학교
급휴직
기업인
룸에서
리바트
블록에
사들의
소득세
슬기나
시까지
신세계
아몬드
업체의
역에서
영업자
원자력
자회사
정부는
조원대
조원에
커볼케
타이어
터미널
협력팀
##114
##161
##24%
##369
##44%
##견조한
##경제를
##고려해
##고성능
##관리에
##관측이
##교육을
##규제가
##극복과
##기록을
##김유리
##꼽히는
##내국인
##높이고
##동영상
##둘러싼
##드라마
##라이브
##럭셔리
##리스펙
##릴레이
##만드는
##매매가
##못했다
##미치는
##박미주
##반려견
##방문해
##법인세
##벽걸이
##사우디
##상황에
##성남시
##성장률
##소득이
##소마젠
##수입차
##시간을
##아반떼
##알파벳
##올렸다
##와이드
##용산구
##의미다
##이름을
##이학렬
##일원에
##자신의
##재가동
##전보다
##점에서
##주재로
##줄줄이
##증가에
##지분을
##지원할
##차관은
##케이크
##토마토
##통계를
##파운드
##페이스
##풍부한
##플렉스
##한국형
##협업해
기관으로
대한항공
만원에서
스페이스
심리지수
재무제표
중앙은행
하면서도
호텔에서
##1900
##2021
##거래량을
##견본주택
##경기도는
##경제성장
##공시대상
##기업경기
##내다봤다
##달성했다
##대신증권
##락앤락은
##마찬가지
##매매회전
##매수세에
##모양새다
##보툴리눔
##서울시는
##선정했다
##세계적인
##소비자가
##신청하면
##올렸다고
##외국인의
##원유선물
##인천공항
##자매결연
##자산운용
##재무분석
##전환사채
##정보통신
##제안했다
##제출했다
##조슬기나
##조정했다
##지급한다
##티브로드
##페이스북
##편의성을
##해외에서
##현대건설
##호텔로봇
##회의에서
디아라비아
Carbon
##‘2019
##거래중이다
##경제부총리
##무역수지가
##소비자들의
##시장에서는
##신용카드를
##업계에서는
##유안타증권
##전기가스업
##중기협력팀
##크리에이터
경제자유구역
산업통상자원
중소벤처기업
##당기순이익을
##연결재무제표
##오스템임플란
##비상식량세트를
##스포츠유틸리티
##에프앤가이드에
##이베스트투자증권
##연방공개시장위원회
(9
AV
GF
SG
ct
ey
oT
##*
##객
##닥
##밑
##셰
##솔
##술
##싸
##쓸
##좀
건의
검사
공원
과제
관을
기고
기본
뉴얼
다시
등록
람회
럼프
로의
리그
마진
머티
멘토
무기
무는
문형
미아
밀리
받은
번지
법을
보통
비에
비즈
산한
상우
스킨
스탁
시도
시복
시킬
신동
애플
얀마
여개
오른
위크
음식
이승
이지
익이
일리
있다
재가
재료
전기
전이
제당
제주
지도
지분
지사
짜리
친상
카페
코노
티는
티지
팩트
해상
혜선
호선
화로
회장
(-1
706
81@
##98
##MC
##US
##감산
##개념
##거론
##고통
##공룡
##공사
##국책
##규격
##급여
##기타
##남아
##대림
##더해
##도약
##돌려
##동서
##등장
##렌털
##리더
##리브
##린데
##마음
##마친
##매칭
##몰린
##못해
##무려
##미뤄
##바꿔
##박광
##법률
##벤츠
##보낼
##본점
##분산
##상용
##생존
##신발
##신영
##앰배
##야심
##양산
##양천
##여객
##연초
##오랜
##완구
##완전
##웨스
##위협
##유성
##이진
##임원
##입학
##재생
##전사
##전지
##전형
##전화
##정무
##정수
##조업
##조인
##주고
##중간
##지켜
##직후
##질문
##차종
##창사
##처한
##촬영
##출근
##코란
##타깃
##탄력
##투기
##퍼스
##폐렴
##하한
##합성
##항균
##해제
##행보
##환기
##흔들
광역시
김현민
남부지
년보다
사업에
사업이
센터가
속도로
업계는
이면서
정적인
중개사
중앙회
푸드빌
플래닛
##117
##122
##144
##180
##34%
##35%
##Pro
##kim
##△84
##가까운
##가시화
##가입할
##각국의
##감소로
##공략에
##관련한
##국회의
##규제를
##금리가
##금액은
##기간이
##기능성
##김은별
##김주현
##높이는
##누구나
##머스크
##메이커
##멤버십
##미분양
##미세먼
##반영해
##변화가
##보였고
##보이는
##부문의
##불가능
##사실을
##산업의
##상품권
##상품에
##선물을
##선정해
##수요를
##시너지
##시장점
##신라젠
##아니다
##아울러
##양성을
##어려울
##얼마나
##업체가
##영등포
##영업적
##예정인
##올해도
##위기가
##위주로
##윤석헌
##이들의
##이미지
##이용에
##이정혁
##이창환
##일정이
##있을지
##자금난
##자료를
##자산을
##자전거
##전망도
##절차에
##정규직
##제공할
##주유소
##증시에
##진행할
##집계한
##참여한
##책임을
##쿠팡은
##타격이
##트럼프
##하락이
##한국과
##한도를
##합니다
##형태로
동향조사
마이크로
만원까지
머티리얼
산업은행
상장지수
신라호텔
왼쪽부터
주택공사
축산식품
탄소경영
텔레콤과
(2418
##2011
##2023
##243%
##276%
##343%
##개정안이
##개포주공
##고용보험
##구성됐다
##국회에서
##그랜드볼
##금융생활
##기가지니
##기초자산
##꾸러미를
##늘어나고
##당부했다
##대해서는
##덕분이다
##동커볼케
##뛰어넘는
##발생하는
##본회의를
##사용하지
##사전점검
##상승하며
##상품이다
##서울에서
##설명이다
##성장률이
##아웃도어
##아파트를
##앰배서더
##영향이다
##우수기업
##웃돌았다
##일반분양
##전월대비
##전통시장
##제일기획
##증정하는
##참석했다
##청년인턴
##특별고용
##포함되어
##플랫폼을
##합병법인
##호실적을
sedail
##20204
##늘어나면서
##다이아몬드
##대우건설이
##벤처캐피탈
##보고서에서
##영업손실을
##정례브리핑
##콘퍼런스콜
##한국소비자
##한국야쿠르
이노베이션은
토지주택공사
##금융정보업체
##매매회전율이
##메리츠증권은
##신세계백화점
##코스피지수가
##흑자전환했다
(241820)
##kimhyun
##계좌입금서비스
##고용유지지원금
##더케이손해보험
##미래에셋대우를
##상하이종합지수는
-2
42
82
AA
NS
Wh
et
##&
##곤
##곧
##깨
##냈
##벤
##빗
##윈
##좌
##챙
##펜
##퓨
가입
강욱
거운
걸음
계열
곳에
공공
공구
관한
근로
기만
꼬북
남도
냐는
년과
노인
니지
단기
대공
되던
디락
래스
러다
렸던
료품
명에
명한
문호
미는
믹스
방식
방향
번호
범석
보령
보자
빌딩
뿐만
상권
스닥
스럽
스백
시의
신규
실장
양대
엠에
완화
월과
유아
장터
전쟁
정상
주기
지오
차는
총괄
총장
추경
측면
커피
튜버
트럭
판사
패션
필드
한화
혁명
현재
현황
홀로
화순
(29
3%)
ISA
and
##9,
##CO
##KG
##KR
##SH
##가득
##개미
##건립
##것과
##것도
##격려
##결의
##과도
##과잉
##구독
##기다
##기울
##나눠
##나주
##단백
##단행
##대리
##더존
##독점
##돈이
##동시
##레저
##로고
##맺고
##몰려
##방어
##밸류
##부상
##빠져
##삼선
##서영
##설정
##섬유
##손을
##수사
##시즌
##신뢰
##실태
##씨티
##않다
##없을
##에어
##엑스
##엔씨
##엔진
##영동
##영세
##유기
##유사
##이해
##작은
##전담
##전쟁
##제롬
##제반
##종료
##중반
##찾는
##커질
##컬렉
##컸다
##콘셉
##트랙
##평소
##폭의
##해야
##형제
건으로
관에서
금융의
금융이
기업이
기획재
꼬북칩
대출을
등학교
디자인
라인드
립니다
만명이
명에게
민주당
박준규
본부장
비즈온
사미아
사업부
사업의
소시엄
스토랑
실리스
아이씨
었으나
이기범
이케아
전환도
조원의
지현우
코노미
탄포레
테이너
통신에
하고자
했는데
회사의
4%),
6400
OTRA
tact
##108
##270
##57%
##68%
##LIG
##LNG
##SKC
##가구는
##가능성
##가능해
##가속화
##가치를
##간담회
##감염병
##강남권
##권화순
##금보령
##급격한
##김소연
##김휘선
##나타나
##대출이
##대표를
##동기간
##두나무
##맞이해
##목표를
##미얀마
##박광범
##반영한
##방식을
##벌이고
##보이스
##보통주
##본사를
##부문은
##부진한
##비중을
##사업화
##상품이
##서울대
##선제적
##성북천
##속도로
##손실이
##수석부
##수요에
##수익률
##수익을
##승인을
##신혼부
##안정화
##업종을
##예산을
##위스키
##유전자
##의지를
##이베이
##이용이
##이용한
##이전에
##임종철
##있다며
##자발적
##장시복
##전기로
##전망은
##전세기
##정책을
##제공해
##제도를
##제품인
##조강욱
##조인경
##주인공
##주택의
##중심의
##증가할
##증시의
##지급을
##진출을
##차민영
##참여할
##청약홈
##초대형
##최태원
##충분히
##카드는
##케어젠
##투시도
##패밀리
##펼친다
##폴더블
##할인된
##했지만
##혁신을
##협력을
##확대해
##환경을
##후분양
기업집단
대표이사
분기까지
분기에도
시스템에
실사지수
연합회는
위원회의
일까지다
취약계층
홀딩스는
##1500
##고객들을
##구성된다
##기업집단
##대부분의
##대비하기
##대상이다
##들어갔다
##들어선다
##라인업을
##롯데그룹
##방위사업
##보여주는
##분양한다
##브랜드인
##블라인드
##상승세가
##상한가를
##생활용품
##성북구가
##수급측면
##신제품은
##씽크풀이
##영동대로
##영위하는
##오픈마켓
##위해서는
##유일하게
##일대에서
##일자리가
##저소득층
##제주항공
##증시에서
##지금까지
##진출한다
##진행되는
##채권단에
##초저금리
##해양수산
##호텔신라
##회복세를
자산운용이
카카오뱅크
##공급계약을
##높아지면서
##뉴욕증시는
##대한항공이
##더존비즈온
##사전예약을
##삼선전환도
##삼성전기는
##소비심리가
##스타투데이
##우리농산물
##운영한다고
##인공호흡기
##중소기업에
##증가했지만
##지급한다고
##프리빌리지
##현대제철은
##금융감독원은
##더불어민주당
##롯데백화점은
##리빙파워센터
##유안타증권은
##인천국제공항
##적자전환했다
##지방자치단체
##코스피지수는
##파생결합증권
##포스코건설이
##그랜드볼룸에서
##대한상공회의소
##사우디아라비아
##성우엔지니어링
##소비자동향조사
##자매결연도시의
##니혼게이자이신문
##스포츠유틸리티차량
##식품의약품안전처는
-3
1,
41
AC
CD
CJ
Sh
TO
ek
ub
~7
##:
##g
##p
##갚
##갤
##곡
##꺾
##든
##랩
##묶
##빕
##뽑
##쉬
##옵
##잃
##훈
##훌
감한
개가
개인
경진
고도
고에
공헌
권에
규어
그린
극복
길이
나눔
네오
능력
담을
대란
됐기
드래
들로
로키
리안
리핀
만장
맞이
매매
면세
민족
밥캣
벨트
보건
보레
보조
부진
분해
성연
세라
센스
아리
어진
엄식
영경
예측
우는
위로
이를
일반
일임
자체
종이
준다
준생
진공
책임
철도
치매
케미
트롤
평양
픽스
하나
항만
현길
호연
(01
0)=
409
BSI
PEF
ard
for
ure
##6%
##7%
##71
##8%
##감시
##강도
##검색
##것에
##고윤
##골목
##곳에
##곳이
##공업
##광명
##구리
##군수
##그런
##금지
##기저
##김종
##납부
##농업
##놓인
##뉴질
##늘려
##대치
##더마
##동박
##뒤를
##떠올
##런던
##레드
##메시
##멘토
##명의
##모듈
##모색
##목동
##미리
##바운
##반복
##밝혔
##밝히
##본업
##비행
##산은
##산학
##세전
##세트
##센터
##소녀
##송도
##수의
##순차
##스낵
##스크
##스트
##안심
##어디
##언급
##연동
##연예
##올랐
##요즘
##용역
##우주
##의장
##의한
##이영
##인건
##인민
##잠재
##장수
##정비
##좋아
##지구
##지키
##직무
##집에
##차입
##착공
##청라
##측면
##치솟
##타고
##테라
##테크
##폭증
##푸드
##하우
##하지
##하회
##한글
##한창
##합작
##해석
##해운
##해지
##현상
##혹은
가격을
가구를
가정신
경제인
공사가
공장을
그룹과
드래곤
디락스
라스틱
레이드
문호남
분기는
선에서
성연진
센터와
양전환
역세권
웨이브
의민족
이노텍
이마트
일에는
자금을
최우영
투자가
투자를
파이낸
퍼니싱
하는데
해왔다
행사를
협회와
환율은
(014
150)
onam
##163
##189
##190
##67%
##679
##BMW
##Fed
##IMM
##mun
##△59
##갈수록
##강화한
##건설업
##고배당
##고점의
##과정을
##긍정적
##기술이
##기준을
##김유경
##노동절
##높이기
##뉴발란
##다가구
##단백질
##단지가
##대단지
##대표와
##대표적
##덕분에
##도약을
##동일한
##때까지
##또다시
##리뉴얼
##마사지
##모니터
##모집에
##문화가
##반영된
##반지하
##발간한
##베스트
##봄맞이
##부문이
##부사장
##부원장
##사업자
##산업이
##살리기
##상환을
##생필품
##서울의
##성장한
##셈이다
##소식이
##쇼크로
##쉐보레
##스타벅
##스테이
##신속한
##실제로
##아이오
##악화가
##알려진
##앞당겨
##양천구
##예정이
##오현길
##원장은
##원호연
##유엄식
##유전체
##유튜버
##이번이
##이어간
##이익이
##이재윤
##이틀간
##인버스
##인스타
##인증을
##일본의
##임혜선
##입장을
##있는데
##있으나
##자구안
##자사주
##저점과
##적용한
##적용해
##정부에
##조건을
##주관한
##주재한
##즐기는
##직거래
##진경진
##차원의
##차이인
##창업을
##취하고
##침체가
##캐나다
##캐주얼
##커졌다
##커지는
##케이엠
##코오롱
##특별한
##패러다
##퍼스널
##펀드를
##펀드의
##플래닝
##하락을
##한정판
##행사에
##협력사
##확대로
##확보를
##환경이
##활력을
##회복될
##흐름이
거스름돈
공정거래
기본소득
드라이브
마이너스
변동률을
본부장은
본부장이
분기보다
억원에서
오일뱅크
제일제당
하이마트
호반써밋
##1930
##2010
##7000
##가계대출
##건설분야
##검토하고
##겨울왕국
##경제단체
##공동으로
##구체적인
##국가유공
##급격하게
##기술력을
##기자간담
##긴급사용
##까사미아
##나오면서
##뉴질랜드
##당일배송
##대비하고
##대통령은
##대표하는
##두산밥캣
##드러났다
##들어간다
##메디톡스
##보고서에
##보장하는
##보통사람
##사용하는
##사전예약
##상무부는
##상승으로
##선호하는
##성장했다
##세계에서
##시작됐다
##시작된다
##신한지주
##아파트가
##아파트값
##애플망고
##외환시장
##의료정밀
##이번에는
##자동으로
##전문위원
##제기됐다
##제로금리
##제외하면
##조성된다
##진행되고
##차지하는
##최대치를
##추락했다
##치료제로
##컨소시엄
##통과했다
##투자자별
##폴더블폰
##프롭테크
##하락으로
##해당하는
##확인됐다
##회사채를
네트웍스는
##20200
##3147%
##거래소에서
##공급계약에
##대신증권은
##대한항공과
##마이너스로
##선정했다고
##순매수하며
##신한은행은
##엔씨소프트
##취약계층을
##코스닥에서
##파트너십을
##한국자동차
##현대건설은
sedaily
##농림축산식품
##당기순손실은
##영남취재본부
##유럽중앙은행
##주가변동률을
##특별고용지원
##munonam
##수급측면으로는
##콘퍼런스콜에서
##한국조선해양은
##기업경기실사지수
##셀트리온헬스케어
##한국토지주택공사
(7
2@
57
66
AB
CS
EU
IL
ab
om
~5
~6
##굳
##년
##롤
##류
##망
##찬
##혈
개정
건희
게임
결을
국에
기정
끄는
널드
니커
다면
동일
드카
렌탈
려면
력과
로서
마하
매김
매체
면에
미안
버거
보유
보육
보텔
부양
사고
상보
세는
슬러
승연
시민
시킨
앤피
어의
었기
예정
외선
요금
월은
이엔
일까
자동
장한
재는
절벽
절차
주름
중견
지배
지점
직원
진출
체는
체육
최고
출이
츠는
치료
칼텍
타입
통합
패드
퍼스
표를
품평
피싱
하늘
항영
호나
홍삼
확인
150
7%,
80)
904
ECB
ICT
ate
ect
~20
##-1
##3%
##BB
##DS
##II
##XT
##가수
##가스
##감지
##감축
##고정
##국립
##근접
##나누
##나눔
##나빠
##나설
##낮춰
##내에
##내외
##노사
##농가
##다각
##도민
##둔곡
##등도
##뜨겁
##링컨
##맞게
##매달
##명이
##무너
##문턱
##물동
##박형
##발탁
##발효
##배출
##보는
##보안
##보였
##부과
##불거
##불법
##비영
##비율
##빚을
##빨리
##산출
##선을
##선점
##선진
##세일
##수십
##수정
##순환
##시황
##신흥
##실내
##쌍용
##아주
##애니
##양적
##엄격
##여당
##연내
##열려
##영남
##운동
##원칙
##위반
##위생
##유리
##유해
##은평
##응모
##응원
##이제
##일괄
##일으
##자치
##전보
##전원
##전주
##점유
##주어
##중위
##직업
##착한
##첫째
##취급
##치과
##커진
##콜라
##탱크
##톡신
##페어
##펼쳐
##평택
##한때
##해남
##현물
##혼조
##확충
##회전
##훌쩍
##흥행
##힘든
개발원
개사에
경기도
공사에
그룹에
금속업
기금을
기업에
다리스
라운드
만으로
모터스
박경훈
부문의
사업장
사이클
서울시
스럽게
스크림
안정적
양영경
에게는
엠케이
자릿수
자전거
장려금
졌지만
주주총
창업자
카이라
투자의
하우스
협력을
협회는
화증권
(044
2%),
4500
9900
##'20
##107
##128
##266
##295
##305
##31%
##42%
##65%
##700
##753
##BGF
##ECB
##UAM
##가구가
##가동을
##강화해
##개최한
##거래대
##공개된
##공기업
##과제를
##관련주
##구경민
##그룹의
##기회로
##김현정
##나타날
##내용이
##넘어선
##노보텔
##뉴스룸
##다세대
##던졌다
##도널드
##등이다
##라인업
##말부터
##매수를
##모델이
##물량을
##보내는
##보험사
##부정적
##부회장
##분양이
##사람을
##사무실
##산업용
##상승에
##상장을
##선물은
##선방한
##성능을
##세계를
##소독제
##소재로
##스페셜
##시설을
##시행령
##어워드
##업계의
##열린다
##영유아
##오르고
##오리온
##올해로
##유명한
##음식점
##이용자
##인기가
##일정을
##잇달아
##자리를
##작업이
##재활용
##저유가
##전국의
##전년비
##전망에
##조치다
##조치로
##조합에
##주제로
##지자체
##차질이
##참여를
##채용에
##챌린지
##청약을
##최초의
##출시를
##컴퓨터
##크리스
##타이슨
##통계청
##투입해
##판매처
##피부를
##하나의
##하우버
##한솔제
##협력해
##화이트
##확산과
##회복에
##회사로
##회의를
##휘발유
과컴퓨터
긴급재난
드립니다
매일경제
모빌리티
보고서를
비즈니스
업계에서
위원회를
자율공시
주관사로
투자일임
투자자문
##1,93
##221%
##가능성을
##감소폭이
##감소하고
##감안하면
##강화하는
##고객들의
##곳곳에서
##국회의원
##금융교육
##금융그룹
##기업들은
##기업평가
##대비로는
##레스토랑
##모태펀드
##바운스백
##반포주공
##발행액은
##보험계약
##본인인증
##분위기다
##블록체인
##사회공헌
##서비스인
##서울시와
##서울지역
##소개하고
##소녀주의
##소비자를
##수요예측
##수익성이
##순손실을
##실업수당
##어려움에
##연구위원
##예상했다
##욜디락스
##원격의료
##일반적인
##자기자본
##자리매김
##자영업자
##전략이다
##조기상환
##종목으로
##주목하고
##주식거래
##주주제안
##준비하는
##지식재산
##지역화폐
##지원금을
##집에서도
##차지하며
##참여율을
##청약홈에
##최저치로
##최저치를
##최종품평
##추구하는
##취업준비
##친환경차
##카카오는
##컨테이너
##편리하게
##필기시험
##해외여행
##해외투자
##홈퍼니싱
##확진자는
##흡수합병
박경훈기자
하이닉스가
##거스름돈을
##고객들에게
##고용노동부
##공인중개사
##기업가정신
##디자인스킨
##목표주가를
##미래에셋은
##삼성물산은
##삼성증권은
##상황에서도
##선제적으로
##세븐일레븐
##수출입은행
##시장점유율
##애니메이션
##전국경제인
##증가하면서
##착수했다고
##키움증권은
##필요하다고
##흑자전환에
다리스튜디오
동학개미운동
리빙파워센터
##대우조선해양
##서울신라호텔
##재난기본소득
##파이낸셜타임
바이오사이언스
##개별주택가격은
##두나무투자일임
##삼성디스플레이
##소비자심리지수
##하나금융투자는
sedailycom
##과학기술정보통신부
##미래에셋자산운용은
AN
CP
OL
PF
RS
SB
ce
cl
ob
~1
##걷
##낼
##뒷
##롱
##묻
##뭉
##밥
##섹
##짧
##칠
##케
##튀
##펄
##폰
##휩
객이
검단
경봇
계가
계와
고은
과정
교섭
구니
구마
균관
나가
나인
남동
논현
눈에
달라
동욱
등을
래픽
레오
려는
려한
로버
마일
만간
매장
맥주
물자
미콘
보기
보안
산은
상생
상선
상태
서도
서류
선애
성남
성분
성의
셀러
소로
소한
수도
순환
실을
심한
싱턴
아너
아오
암호
액의
언트
에어
영향
예금
오고
오프
우주
월의
유식
이슬
이영
인승
인치
일과
일러
잡을
재생
재용
재해
전화
조치
좋은
주에
준환
지대
지던
지방
차가
창현
채널
청에
체국
체에
추가
출된
취업
치지
터가
트론
팀장
파이
프란
플립
해운
해준
현수
형제
혜원
화와
(14
(2,
(22
780
PER
ell
ent
new
riv
##"5
##'5
##08
##69
##94
##CT
##KF
##ch
##so
##가리
##가져
##간단
##감독
##감면
##강북
##거점
##겹친
##경매
##경품
##고위
##곳은
##과천
##교촌
##구는
##국적
##금호
##급속
##길어
##김세
##김형
##끝에
##내는
##늘린
##달할
##당뇨
##당선
##대다
##대대
##대명
##되지
##들고
##따르
##로드
##매월
##면적
##못할
##반납
##반도
##반응
##방산
##배경
##배치
##번에
##법정
##보상
##보수
##보완
##복귀
##부여
##비정
##뿌리
##사라
##사명
##산정
##삼일
##생태
##세금
##손쉽
##손해
##순천
##스위
##식물
##실현
##싶은
##씨는
##아산
##알뜰
##야외
##양재
##열람
##영어
##영역
##와인
##용품
##운항
##원고
##유력
##유용
##유행
##윤종
##음료
##의뢰
##이대
##이브
##이외
##인지
##일단
##임차
##입증
##자국
##자랑
##적응
##적합
##전혀
##전후
##정관
##정면
##정한
##제고
##제너
##조금
##조지
##조회
##존재
##진화
##질적
##청량
##추종
##측에
##캡처
##코나
##티볼
##표현
##한강
##한일
##호반
##혼란
##확실
##환자
과장급
라이언
리바바
리지널
리포트
마켓과
면서다
미디어
민동훈
받는다
센트럴
스티벌
스포츠
시켰다
시키는
실적은
어린이
업계를
월에도
웨이가
이승환
자들을
제약이
제조업
졌다고
지에서
카드의
펀드는
함으로
해각서
했다가
현대차
협의회
13%)
2277
2500
OPEC
PLCC
clos
ject
open
tech
##03%
##1,3
##106
##115
##119
##129
##211
##215
##241
##251
##28%
##2~3
##33%
##344
##412
##415
##45%
##49%
##Dis
##FTA
##가구를
##가입한
##가치가
##가파른
##개발이
##개선이
##거래에
##건강한
##건수가
##경기를
##경영에
##고양시
##구조를
##그만큼
##금액이
##기대가
##꾸러미
##나스닥
##넘어서
##늘렸다
##달한다
##대책을
##돌아선
##됐다고
##등급인
##마아라
##마치고
##매도한
##맺었다
##물량은
##박계현
##반준환
##방향을
##보였던
##부모님
##부친상
##분양가
##비영리
##비타민
##사업비
##사진은
##상승을
##상업자
##상품의
##성공한
##수익형
##수자원
##스카이
##시기를
##신기술
##신청을
##실리콘
##아경봇
##아난티
##아울렛
##않는다
##앱으로
##연준은
##열렸다
##예상치
##오디오
##우수연
##우체국
##운송에
##운영에
##위기의
##위워크
##유명희
##유지할
##은행과
##이건희
##이끄는
##이상인
##이선애
##이영민
##이유는
##이제는
##자구노
##자사의
##재설계
##전환한
##정책에
##조짐을
##주상돈
##줄면서
##중장기
##중진공
##증가해
##증권가
##지수를
##지역은
##지역을
##지정된
##지하철
##직원이
##집값이
##차별화
##차질을
##참석해
##채용이
##청소년
##체제로
##초유의
##취업을
##침체에
##케이블
##코람코
##토픽스
##품목을
##플러스
##필리핀
##하나인
##한고은
##한국미
##한눈에
##한샘은
##확보한
##환율이
겨울왕국
국제도시
담보대출
물인터넷
보조기구
업체들이
점검회의
중견기업
##-48%
##017%
##1980
##1990
##211%
##KCFT
##QLED
##가격으로
##강화하고
##개인들의
##개최하고
##거래액이
##경기도가
##경기부양
##경영대학
##급감으로
##급등했다
##기업은행
##돌입했다
##두산솔루
##롯데칠성
##마감됐다
##메시지를
##면세점이
##모니터링
##목소리가
##법조계에
##별도기준
##상승세다
##상온물류
##서울특별
##성장세를
##신용대출
##아니냐는
##알리바바
##연말까지
##영향에도
##운영자금
##움직임을
##위안화의
##유료방송
##음식료품
##이엠케이
##입찰제안
##자금조달
##자회사를
##작년보다
##전자공시
##조달청은
##조사결과
##주도하고
##주주총회
##주택가격
##증권사의
##지적이다
##집중되고
##참여하지
##체결하고
##최적화된
##추진하고
##출범한다
##케어푸드
##케이스를
##코아시아
##통상교섭
##패러다임
##페스티벌
##협업으로
##확산되고
##확산에도
##회복했다
##휴게음식
금융그룹의
기획재정부
사업장에서
카이라이프
회의실에서
##계획이라고
##금융시장의
##다음달부터
##디지털금융
##마찬가지로
##복합쇼핑몰
##본회의에서
##비대면고객
##산업은행과
##서비스센터
##서울남부지
##소녀주의보
##신용등급이
##아이스크림
##예비창업자
##우리나라의
##인스타그램
##인터뷰에서
##일본은행은
##적극적으로
##중소기업과
##지난해부터
##진단키트를
##칠성사이다
##투자자들은
##현대카드는
##활성화하기
라이프플래닛
브로드밴드는
조선호텔에서
closure
##기술보증기금
##대표주관사로
##대한적십자사
##두산중공업에
##순매수하였고
##주가연계증권
##주관기관으로
##첨단보조기구
##파이낸셜뉴스
##한국미니스톱
##현대오일뱅크
##Project
##개인투자자들의
##중소벤처기업의
##현대일렉트릭은
##기간산업안정기금
##아모레퍼시픽그룹은
##Disclosure
##과학기술정보통신부는
##탄소정보공개프로젝트
##신종코로나바이러스감염증
,3
3)
3,
56
8,
DR
MH
aT
##j
##겁
##뛴
##맘
##믿
##숫
##엑
##융
##을
##쪽
##컴
##톡
##펴
##햇
각을
개장
곳의
공동
관이
구본
국상
권과
규석
그레
남에
넥신
년생
놈앤
누리
다음
당성
동전
두로
라며
량의
력에
리포
만대
머지
메리
멘텀
뮤직
박세
발된
배달
봐야
브이
블루
생태
석환
설명
성수
소송
소에
소형
스톱
스포
승의
시코
식이
아암
아연
아직
안이
어도
억을
에만
여객
연도
우며
월중
웨덴
위인
유동
이면
이토
인재
인호
일로
일웅
자재
장씩
정식
주고
주문
중기
즈의
지노
차로
창출
채은
철영
카데
퀘어
퀴즈
크림
태화
터에
토막
퇴근
투어
특수
플루
화문
화정
활성
(16
115
203
309
689
800
Mir
art
ekb
mer
old
ood
~10
##Cr
##LF
##SE
##간식
##갈아
##갑작
##강타
##갤러
##거부
##검단
##고수
##고형
##공영
##공항
##구제
##국외
##그의
##근거
##금강
##김정
##꿈꾸
##나섰
##내장
##넘은
##녹색
##다날
##단체
##당사
##대기
##대화
##덕에
##도쿄
##동래
##되살
##로켓
##루크
##만날
##많다
##맞고
##모여
##모은
##밀려
##받기
##발견
##보내
##보성
##분할
##비싼
##뿐만
##사로
##사막
##사원
##산림
##삼양
##서구
##성인
##세입
##수확
##쉽지
##슈즈
##스케
##스태
##승진
##시사
##시티
##실천
##안랩
##압박
##어플
##여성
##연합
##영양
##예능
##예외
##오락
##원더
##웹툰
##유아
##유한
##음악
##이강
##이노
##이연
##이종
##일원
##일이
##일일
##입성
##자제
##잡고
##장례
##재판
##전동
##조절
##줄고
##줄여
##중에
##증발
##증액
##지붕
##징검
##채소
##청정
##청주
##최동
##축적
##취약
##치킨
##친구
##큐브
##타운
##탄생
##탄탄
##통제
##파운
##파인
##페이
##평생
##폐기
##포털
##푸르
##하방
##혼자
##홀로
##홍대
##화면
##화제
##환매
##회수
##휘센
간편식
공장의
구에서
기업을
김대우
더블유
됐으며
드팩토
라이트
르면서
만개를
만명의
명이다
모비스
물량이
민상식
받았다
발전소
발전은
방안을
본부는
사이언
사진을
상장관
성정보
수료를
스트림
시설이
았다고
았지만
양대근
업으로
업체가
업체로
었으며
연합회
오쇼핑
위에서
이어서
이영규
이익은
이토젠
자산이
재단과
전자산
전자의
정책관
제품을
주체는
지원을
차관이
차세대
채상우
친환경
캐피털
코스피
트리밍
판매를
프란시
하기도
핵융합
홍태화
화이트
(-00
(003
3252
4100
6%),
610)
##02%
##102
##14%
##153
##160
##19%
##322
##360
##550
##56%
##609
##74%
##760
##89%
##CNN
##FCA
##FDA
##가구의
##강원도
##겁니다
##경계현
##경영을
##계좌로
##고용을
##공장의
##괴리율
##구직자
##구채은
##그런데
##금융사
##기업어
##기회가
##김성은
##김정은
##꼬북칩
##나들이
##나머지
##나아가
##높였다
##달했다
##담보로
##대법원
##데일리
##도입을
##되면서
##등록된
##디즈니
##렌터카
##롯데가
##메뉴를
##명동의
##모양의
##모으기
##무기한
##무인기
##문제는
##물건을
##부양책
##부족한
##부진이
##부처님
##사용한
##산업을
##산유국
##상품과
##생산을
##생산한
##성균관
##소규모
##소비심
##손쉽게
##송화정
##수익이
##수준에
##스웨덴
##시세차
##신청할
##안건을
##안전한
##안정을
##알파돔
##업체에
##엔지니
##여부에
##여전사
##열기가
##오늘장
##와중에
##완료한
##우려로
##우려에
##웨스틴
##웹세미
##유로존
##유승목
##의료기
##이슈를
##이었다
##이지스
##이태원
##일주일
##임철영
##있으면
##장세희
##저비용
##전환에
##정일웅
##제넥신
##조달을
##조만간
##조치가
##주주연
##주차장
##중국이
##중단된
##지대공
##지속될
##지역별
##지역이
##지영호
##지원금
##지원해
##차량을
##채권형
##청호나
##체감경
##체로키
##최선을
##추진할
##축산물
##출발한
##출범한
##쿠팡이
##타이어
##투자는
##판결이
##플레이
##하락에
##하락해
##한규석
##한라는
##행사가
##현금을
##화려한
##화성시
##확보해
##활기를
##활동이
##황국상
##흑자로
경제과학
국민카드
기업으로
네트워크
도시공사
보고서에
생명과학
식품유통
신용정보
업무단지
연구소는
이자이익
지배지분
트레이딩
황금연휴
회계법인
##113%
##161%
##174%
##2007
##2365
##253%
##813%
##999%
##open
##soco
##가입자가
##가입하는
##강화하기
##강화한다
##같은기간
##개최했다
##겹치면서
##경쟁률을
##경진대회
##고객들이
##공격적인
##공급되는
##공급한다
##국가통계
##극복하기
##급증하고
##기업들을
##기저효과
##기점으로
##기초지수
##기획전을
##긴급대출
##누적수익
##다가오는
##대기업의
##대외경제
##맺었다고
##몰리면서
##반려동물
##발언하고
##배터리를
##부산시가
##부회장이
##불가피할
##비상교육
##산학협력
##삼성닷컴
##상품권을
##새벽배송
##선불카드
##성장지원
##수익률을
##스마트홈
##스킨푸드
##스타필드
##스트리밍
##시장으로
##시장조사
##신한은행
##실시했다
##씽크풀과
##아파트에
##업계에서
##에디션을
##엑스레이
##연료전지
##예금보험
##오리지널
##완료하고
##요청했다
##운영한다
##움직임이
##육박하는
##의약품업
##이마트는
##이상으로
##이후에도
##일자리를
##임상시험
##임직원이
##잇따르고
##적용한다
##제외하고
##종근당은
##주방가전
##중국에서
##중순부터
##증가율을
##지속되고
##채권단은
##채권시장
##코스메틱
##통상장관
##투자전략
##트렌드에
##파운드리
##품평회가
##프라이빗
##하락세가
##해당한다
##해외진출
##행복주택
##혁신성장
##화상으로
##확대된다
금융지주가
녹십자엠에
산업은행과
스마트뱅킹
아이씨에스
유플러스가
테크노밸리
투자증권의
하락반전형
##20~30
##leekb
##가맹점에서
##개최했다고
##견본주택을
##글로벌기업
##급락하면서
##기록했지만
##뉴욕증시가
##동남아시아
##떨어지면서
##로이터통신
##매수우위를
##모두발언을
##무풍에어컨
##보이스피싱
##삼성증권의
##신동탄포레
##신용등급을
##실시간으로
##실적발표를
##안방보험이
##예정이라고
##온라인쇼핑
##의료정밀업
##인수하기로
##임직원에게
##자구노력을
##정기주주총
##증권사들이
##지원사업은
##직원들에게
##진출한다고
##채용한다고
##취업준비생
##커넥티드카
##프로그램은
##획득했다고
##힐스테이트
미래에셋대우
##롯데하이마트
##무역협회장이
##서울남부지검
##순매수하였다
##주택담보대출
##중소기업유통
##카카오뱅크가
##홈페이지에서
긴급재난지원금
##기업평가사이트
##삼성엔지니어링
##상온물류서비스
##유진투자증권은
##파이낸셜뉴스의
##흑자전환했다고
##공정거래위원회는
##산업통상자원부가
##산업통상자원부에
##인천경제자유구역
"(
7,
92
AX
CN
DT
GI
GV
IF
JB
OC
OS
SH
TH
XM
ll
##>
##i
##○
##中
##늦
##덴
##센
##써
##쏘
##쓴
##염
##옷
##왜
##젠
##칼
##캘
##틀
##펀
##핑
##횡
가공
가족
갱신
거주
게는
경남
고양
골든
곳은
과는
광다
광석
군은
군이
글라
급제
기호
난이
년단
니저
니트
다발
돈을
동나
동반
드가
드림
드에
든한
들어
들휴
디악
라밸
렌트
로가
로명
론을
만한
망을
매물
메디
면역
모든
목을
목인
바트
발생
배로
부로
부처
불이
비전
사법
사상
사전
사항
상에
상위
상호
서면
설비
세의
세중
셔츠
송금
쇼크
수석
시다
시드
시와
신날
심의
아야
앤씨
어서
억캔
연수
열에
예비
와는
용직
원더
원태
윈드
육성
은상
이가
이용
익을
인과
인용
인포
입국
입찰
자문
자연
장학
재석
저장
전에
정이
젝시
조차
준호
증시
지기
지인
지지
지혜
직을
진은
차게
차례
차트
참여
천연
청과
촉을
최대
추고
춘성
춘희
츠온
치며
캘란
캡슐
태형
테라
편한
푸르
프렌
플레
한을
한희
호를
호에
호의
확산
히고
히트
(11
(30
002
180
182
250
3%,
50%
686
9%)
DLF
UAE
ark
ess
lee
nex
ror
##'0
##3~
##4%
##IP
##OK
##tv
##가게
##같다
##계양
##고무
##곳을
##공격
##구도
##군사
##군에
##군포
##귀재
##균형
##그럼
##끈다
##나와
##남성
##내림
##노력
##노르
##단순
##달에
##담아
##대란
##대변
##도서
##동작
##동행
##되면
##마늘
##마일
##만의
##목재
##몰아
##문구
##물질
##미간
##미칠
##밀집
##바라
##박사
##반월
##발사
##발송
##발주
##버킷
##변호
##병행
##볼보
##봤다
##부대
##비자
##빌려
##빕스
##빗썸
##사는
##살때
##살려
##상시
##상조
##상주
##서로
##선포
##성수
##세슘
##셰일
##수혈
##스텝
##스티
##스프
##시추
##실패
##실험
##쓰고
##알짜
##양태
##어닝
##얻고
##엄청
##엔젤
##여는
##연수
##연출
##옥션
##완벽
##외교
##외에
##운전
##운행
##유형
##윤호
##인물
##인텔
##일각
##일목
##일을
##입금
##입력
##입장
##장난
##장세
##재료
##전례
##전방
##전복
##전속
##전액
##정찬
##정회
##제어
##제재
##종이
##종전
##주화
##중개
##중증
##중지
##즉석
##지도
##지웰
##진로
##차를
##천호
##체질
##출장
##커버
##컨셉
##코세
##탄산
##탈출
##태광
##토익
##토핑
##퇴직
##특가
##파일
##파주
##팔때
##포지
##프레
##한류
##한층
##합리
##현아
##호가
##호소
##호재
##화소
##휴무
##휴직
##흑석
가구의
경제가
관광부
구본혁
기관에
기능성
기업과
기자가
김창현
년에는
년으로
도서관
들휴브
만건을
면세점
명에서
바구니
법원에
부문은
부정적
브리드
비세미
비율은
사업자
사회의
상이다
생명이
생산은
세서리
쇼어링
스에서
실적이
에서만
위원장
이오드
인력을
일자로
재단은
전문가
정보를
제약의
주택의
증시는
창업사
청에서
카데미
캠퍼스
컨설팅
케어는
트리스
티스트
틱스는
플라워
플랜트
하라고
학년도
항생제
활동에
활동이
(221
17%)
1900
3300
43%)
4473
AIST
ilis
orea
rand
##12%
##125
##179
##21%
##220
##230
##240
##272
##283
##36%
##55(
##6-1
##848
##KCC
##PMI
##SPC
##감소를
##개선에
##개시될
##개인과
##개척을
##건물을
##겨냥한
##경쟁률
##경쟁을
##경제는
##고형광
##공급과
##공장이
##광화문
##구입할
##국회는
##금감원
##기간과
##기조를
##김태인
##남겼다
##내용은
##노력을
##능력을
##다하고
##대다수
##대비한
##대학생
##돌파한
##두드러
##들어가
##등급을
##뜨겁다
##마련에
##마스터
##만트럭
##많았다
##말한다
##머무는
##멕시코
##면접을
##모델의
##모았다
##목표다
##문은상
##문제를
##미국이
##바닥을
##박형수
##반토막
##받아들
##발생해
##방문객
##법원에
##보이지
##부진을
##불어넣
##비용을
##비율은
##상장에
##상장폐
##생산과
##선보여
##선보일
##성수기
##성장동
##성적을
##세웠다
##소아암
##소유의
##속도가
##수량을
##수요와
##수준이
##스승의
##스크린
##스페인
##시대의
##시점을
##신논현
##신약은
##실적과
##안재용
##않으면
##양성희
##양재동
##얘기다
##엄격한
##업체는
##업체를
##없지만
##열리는
##열풍이
##예비타
##올리고
##올리는
##외신에
##울트라
##워싱턴
##원더톡
##위험이
##유럽과
##은행별
##의견이
##의결권
##의료진
##이대호
##이뤄진
##이어져
##인턴십
##인하와
##있을까
##작업에
##잡았다
##장애인
##전까지
##전략이
##전체의
##접수가
##제도다
##제약업
##제조사
##제품과
##조원태
##조정을
##주택은
##주택을
##주택이
##줄이기
##중국발
##중기부
##중대형
##증가율
##지놈앤
##지표가
##직면한
##촉발된
##총자산
##최대폭
##최우수
##추세를
##추진해
##출시해
##코란도
##통신사
##티구안
##판매에
##패스트
##펫케어
##편리한
##포함된
##플라워
##필두로
##하한가
##협약식
##홈쇼핑
##확대와
##확보할
##황준호
##회사에
##효성은
##희비가
건강보험
건설산업
달러이고
대학교가
대학교는
만원이다
맵플러스
비세미콘
아너시티
안정자금
었습니다
연구원이
올리브영
조원으로
추가상장
코리아에
탄소년단
텔레콤이
파트너스
팩토리원
프리미엄
하면서다
함으로써
했음에도
(0048
##159%
##1950
##2004
##315%
##6000
##9000
##가로주택
##감시대상
##강남대로
##계열사의
##고객상담
##고려아연
##관리하는
##교역조건
##그럼에도
##근무하는
##급락으로
##급증했다
##기념촬영
##기대감에
##기업결합
##기업어음
##내놓았다
##다이렉트
##대응으로
##대중교통
##도시락을
##둘러보고
##때문으로
##떠오르고
##리스크가
##마일리지
##매매거래
##메드팩토
##무급휴직
##무역수지
##미간주름
##보고서는
##보합세를
##본부장은
##분위기를
##브리핑을
##비트코인
##상승률은
##상회하는
##생산라인
##서비스로
##선물세트
##선보이며
##소송에서
##수출액이
##스텝다운
##스피리츠
##시행된다
##시행한다
##신고가를
##아파트의
##안전자산
##암호화폐
##양해각서
##어려워진
##업사이클
##업체들의
##여신금융
##영업익이
##외환위기
##우려된다
##위탁운용
##유럽연합
##이야기를
##이의신청
##이코노미
##입주자를
##자구안에
##적발됐다
##전문은행
##정상화를
##정수기를
##제기했다
##제시하지
##조건으로
##조지아주
##주장했다
##준비하고
##중단됐던
##중단사업
##지웰시티
##지정됐다
##진행했다
##집중하고
##징검다리
##참여했다
##창업보육
##청년들의
##출시하고
##테슬라의
##트랙라인
##트레이딩
##특수고용
##티볼리를
##파격적인
##패키지를
##평가에서
##포인트를
##한계기업
##한국에서
##한국항공
##해외유입
##현대상선
##협력사에
##확대됐다
##확대하는
광다이오드
국민카드가
국민카드는
기업은행은
상승반전형
시지사에서
신한부동산
프란시스코
Mirror
##감소했지만
##거리두기를
##검단신도시
##공기청정기
##공시가격은
##구조조정이
##국내에서는
##급감하면서
##대표이사가
##대한항공은
##로봇기자가
##롯데지주는
##빅데이터를
##시작했다고
##신선식품을
##신용평가사
##신한은행과
##신한카드는
##예상된다고
##오픈했다고
##유상증자를
##유통업계가
##음식료품업
##제조업체로
##중소기업이
##지속되면서
##지역경제를
##최대주주인
##투자심리가
##프로바이오
##필요하다는
##현대리바트
##확대한다고
##확산하면서
##활성화하고
브로드밴드와
주택도시공사
창업사관학교
nexilis
##국무회의에서
##국토교통부에
##기획재정부는
##라임자산운용
##롯데칠성음료
##삼일회계법인
##서영아너시티
##쌍용자동차가
##영구임대주택
##외환시장에서
##중소기업중앙
##컨퍼런스콜을
##플래그십스토
##한국위원회가
##한글과컴퓨터
산업통상자원부
##기자간담회에서
##르노삼성자동차
##오스템임플란트
##키다리스튜디오
##가로주택정비사업
##서울특별시지사에서
##중소벤처기업진흥공단
AT
BT
CM
LE
LT
NA
NI
at
ha
mo
ow
ra
##o
##’
##굴
##균
##꽁
##꾀
##를
##벅
##뵨
##붐
##욕
##읍
##읽
##층
##틈
##펩
##픽
##핸
##햄
##흘
##힐
경수
계의
계좌
고로
고리
골드
관실
교역
구성
기아
김명
끗한
끼는
나갈
나미
나요
내기
년째
느냐
더기
도그
라즈
락을
란다
란드
란히
랍에
렀다
로켓
룩스
르네
르몬
르자
마블
마자
매입
메가
명수
목이
박범
발행
방지
백신
밴드
보가
보복
볶음
부제
분에
브라
블릿
비는
비상
사자
상사
상향
성비
소은
수로
수한
스파
씨엔
씬파
아트
앤티
야구
약정
어요
언즈
업은
엔봇
엔젤
엔진
여신
연율
연준
영국
영양
예선
온유
요한
우기
울한
원동
원혁
위축
유망
유치
이체
일업
재훈
저우
제연
종과
주방
주시
중심
줬다
직한
진영
착순
천리
청구
추진
충돌
치엘
치의
캠프
클리
키스
키친
토핑
톡히
통장
통제
트와
팀이
페코
포스
표준
풍선
프린
피자
학과
학기
학적
한경
한이
함이
합성
해질
했을
험생
현석
현정
혜림
홍조
화훼
회견
회생
히는
(09
(17
(18
(55
24,
45(
557
8%)
864
944
ASS
CAP
OIL
OLD
STR
ine
sis
~25
~84
##"3
##'2
##0%
##0~
##9%
##AA
##[4
##dw
##간의
##개의
##갱신
##거둔
##거친
##걸맞
##게이
##결성
##고기
##고사
##고전
##곤두
##공익
##과세
##관망
##광역
##국유
##그리
##근육
##기계
##기름
##길을
##김승
##김해
##꽁꽁
##끝나
##낙관
##납입
##낮춘
##내몰
##냉동
##넷째
##노바
##노선
##높인
##다수
##다운
##다중
##달콤
##당장
##덜어
##돕고
##드림
##떠나
##라틴
##런칭
##루미
##리얼
##리튬
##마오
##만년
##맛을
##맞물
##매경
##메가
##명예
##모임
##못지
##문의
##미친
##박정
##받지
##배상
##버는
##법적
##별로
##병원
##보낸
##보니
##복잡
##부동
##부보
##부서
##부지
##분리
##비빔
##비판
##상관
##상단
##상이
##서면
##세미
##소환
##속출
##손상
##수강
##수산
##승부
##시기
##시달
##시선
##시점
##시정
##신주
##실증
##쓰는
##아래
##안착
##앞다
##양국
##양극
##양대
##양파
##엔터
##여건
##여야
##연질
##예타
##올려
##우세
##우아
##우정
##원리
##원장
##월세
##위에
##유연
##육아
##의약
##이것
##익숙
##인피
##일명
##일임
##입고
##자극
##재차
##저희
##전무
##절대
##점이
##점차
##정밀
##주효
##죽은
##중장
##지능
##지목
##지인
##지프
##진료
##진작
##창립
##철저
##총력
##충돌
##치즈
##캐피
##캠핑
##코어
##코인
##크지
##터치
##토탈
##파격
##파견
##파라
##파킹
##패턴
##펭수
##편안
##포기
##포천
##폭을
##표면
##하며
##학원
##한방
##한숨
##후반
##후즈
##휴장
개국에
개사가
겠지만
공장이
국기구
국에서
그래픽
금액이
금으로
김명룡
김범석
너지를
대까지
동아리
됐으나
디에프
랍에미
레이크
렌트유
마을금
메이커
면서도
물량은
바이스
박로명
보통주
산업에
생산이
성벤처
성장을
소득이
수요가
스퀘어
스탁스
승인을
시설로
었다는
에이치
에프앤
였다고
오른쪽
오신날
웨이는
으로서
이태형
장비업
재개발
조합은
주인수
주차장
증시가
차전지
최고의
최원혁
충당금
케미칼
코스닥
콤팩트
크로젠
포럼이
필요한
한국형
한희라
해서다
회장이
히어로
(+13
(15:
1%),
1419
19'(
2793
3125
3200
4756
6500
7278
7300
8600
PASS
##-00
##1,0
##109
##121
##124
##134
##139
##143
##158
##162
##172
##175
##18%
##196
##212
##223
##287
##365
##378
##38%
##384
##404
##46%
##60%
##644
##648
##670
##73%
##95%
##AFP
##DAX
##DLS
##ICE
##KTB
##Key
##MOU
##Man
##Pre
##TBT
##가구당
##가구에
##가이드
##가졌다
##가처분
##간편식
##강기준
##강화와
##개선된
##거듭나
##건조기
##격전지
##경영자
##경험과
##계절적
##계좌에
##고부가
##공급에
##공무원
##공장은
##과도한
##관리가
##광고를
##국가공
##국내로
##국민이
##그린카
##급성장
##기자재
##꼽혔다
##꾸준한
##나가는
##나누고
##나타난
##낮췄다
##내놓을
##냈다고
##넘었다
##녹십자
##논란이
##논의를
##늘어났
##달아오
##대학교
##도입한
##도입해
##도현정
##동전을
##두산베
##든든한
##들여다
##때보다
##롯데몰
##리브엠
##매각과
##매니저
##맥캘란
##메디톡
##모멘텀
##몰리고
##무기명
##무조건
##문턱을
##문혜원
##박람회
##방문이
##방법은
##방사선
##방식의
##변경을
##보조금
##분석도
##분쟁이
##불이익
##브리지
##비상장
##비수기
##비율을
##사업과
##사용해
##사이에
##삼성과
##상무는
##상업용
##상장협
##상황은
##생산은
##서버용
##선구매
##선정돼
##선정한
##선착순
##설립한
##성공할
##성기호
##성장에
##성장이
##세계가
##소유자
##소유한
##수요도
##수출에
##수험생
##수혜를
##스태프
##스토어
##승용차
##시대가
##시몬스
##시험을
##식음료
##신성장
##앞세워
##야심작
##양태연
##어렵다
##언론에
##없어도
##연기를
##연봉을
##연이어
##예방을
##예정된
##오세중
##오프쇼
##완전히
##요건을
##우려를
##울산시
##원활히
##월평균
##위축과
##유성구
##유일한
##의미를
##이끌고
##이끌어
##이뤄질
##이사회
##이어갈
##이어진
##이유다
##이익을
##이재용
##이춘희
##인근에
##인천시
##임온유
##임홍조
##자산은
##자외선
##잔액이
##장난감
##재고를
##재규어
##재산세
##재학생
##전달할
##전문점
##전체를
##점이다
##접목한
##정세희
##정이슬
##제고를
##제안한
##제한된
##조금씩
##조사는
##종목을
##주장이
##중수익
##증가와
##진출한
##진행해
##집주인
##채널을
##처분을
##천예선
##체계를
##초점을
##최고급
##최우선
##충당금
##충칭과
##카드사
##컬렉션
##키워드
##태블릿
##톡톡히
##투자한
##펼치고
##평가해
##하락할
##학자금
##한국은
##핫도그
##해결할
##했으나
##행진을
##현상을
##호르몬
##화보를
##확대된
##확대할
##확산된
##활용할
##회복을
거래소의
그레이드
기업공개
기업들의
기업들이
만달러를
벤처투자
산업계에
소상공인
스코어가
스테이션
시스템을
신용등급
씬파일러
연구소가
위원회에
일부터는
자산관리
지원센터
지주회사
천연가스
투자신탁
한국전력
홈쇼핑은
(0053
):45(
ntact
##002%
##1122
##1209
##1377
##1646
##169%
##1751
##1920
##1960
##1997
##300%
##3376
##3~4%
##673%
##829%
##936%
##FTSE
##가능하게
##개발하는
##개인투자
##거주하는
##건강보험
##경영난에
##경제매체
##계열사를
##고용위기
##골프존은
##공공조달
##관계자를
##구매하고
##국세청은
##규제혁신
##금감원은
##금융보안
##급등하고
##긍정적인
##기업대출
##기자회견
##기초생활
##김포공항
##나서면서
##넥실리스
##노하우를
##대상에서
##돌입한다
##드라이버
##들어서만
##떠올랐다
##랜드로버
##마크로젠
##매도세를
##매매가격
##매매까지
##목적으로
##무디스는
##미세먼지
##발행액이
##백화점과
##부사장은
##부합하는
##부회장은
##비정규직
##빅스트림
##사업에서
##사업장의
##산업단지
##산업재해
##산업혁명
##새마을금
##서민금융
##서비스에
##서울시내
##서울행정
##설문조사
##성균관대
##수상했다
##수익률은
##수준까지
##수혜주로
##스케일업
##스토어를
##시범사업
##신용회복
##아랍에미
##않았지만
##에이치엘
##연질캡슐
##영등포구
##예정일은
##완판됐다
##외화대출
##요인으로
##운수창고
##의정부역
##이달부터
##이뤄지는
##이마트와
##이벤트로
##인도분은
##인명사전
##일주일에
##자기주식
##자녀장려
##장기화에
##적용되는
##전기로에
##전략으로
##전망됐다
##전문적인
##전반적인
##정책으로
##제거하는
##제기되고
##제네시스
##제한하는
##종목들의
##주관사로
##주문하면
##줄어들고
##중기부는
##지배구조
##지속되는
##지원대상
##참여한다
##창업자가
##청사진을
##코리아는
##키즈랜드
##탄소경영
##탄소섬유
##투자자를
##투자했다
##트렌드를
##파산보호
##판매되고
##편의점과
##포지션을
##품평회를
##플랫폼인
##하나은행
##한국산업
##한미약품
##현대렌탈
##현대차가
##협력업체
##호텔에서
##화훼농가
##확대하기
##확대했다
##회복되고
##효율적인
금융지주는
분기부터는
상생플러스
성벤처밸리
수출국기구
신용평가사
자산운용은
전자상거래
한국거래소
(014%)
newsis
##2,000
##3,000
##KOTRA
##Korea
##dwlee
##가정간편식
##거리두기에
##경기침체로
##경제단체장
##공공기관의
##관련업계에
##근로장려금
##기록하면서
##르노삼성차
##리서치센터
##무역수지는
##바이오헬스
##배달의민족
##본격화하고
##사물인터넷
##삼성전자에
##서부텍사스
##성공적으로
##수상했다고
##수석부원장
##알파돔시티
##예비타당성
##온라인에서
##우리은행은
##운수장비업
##위축되면서
##유비케어는
##인터넷은행
##임직원들이
##자카르타에
##전반적으로
##정례회의를
##제공한다고
##제출했다고
##조성한다고
##줄어들었다
##채권형펀드
##철강금속업
##컨센서스를
##특례수입을
##하이브리드
##한솔제지는
##허용한다고
##현대모비스
##홈페이지에
##홈페이지와
##홈플러스는
##황금연휴가
##휴게음식점
니트헬스케어
스카이라이프
##189706
##socool
##고용노동부가
##고용노동부는
##공적마스크를
##국토교통부가
##기후변화대응
##라이프스타일
##루미마이크로
##매입임대주택
##삼성중공업은
##순매도하였고
##신용유의자가
##아랍에미리트
##저비용항공사
##카카오뱅크와
##파생결합펀드
##한국감정원에
##행정안전부는
##현대차증권은
##금융감독원장이
##금융투자협회에
##도이치텔레콤과
##두산인프라코어
##미래에셋대우의
##에이프로젠제약
##한국자동차산업
##현대중공업지주
newsiscom
##공시대상기업집단
##교보라이프플래닛
##메리츠금융그룹은
##중소벤처기업부와
##신사업창업사관학교
-9
07
1'
5)
5,
AP
BL
CT
EM
FI
FX
IP
KI
MT
PL
Pl
TT
UG
US
iz
mt
oc
st
vi
~8
’)
##+
##겔
##낳
##돋
##됐
##똑
##벨
##봤
##삭
##습
##썼
##앉
##웰
##잦
##쟁
##탁
##팁
##횟
감소
감시
개념
개별
고무
고채
공유
공행
과와
관세
괄적
광고
교보
국토
기념
기의
길에
김훈
나스
내용
넥슨
년물
니얼
다드
동원
두부
뒀다
디앤
디프
딩을
라톤
려고
로이
론은
론의
료에
뤘다
리세
리즘
립을
마감
말을
망이
매각
면접
명과
모집
목동
미노
반등
방법
방어
배에
백을
법률
부상
부족
브로
비서
비트
비티
산을
산지
서구
서스
성우
세균
세일
소매
소스
수급
수주
수현
쉐어
스턴
스틸
스팬
실업
심을
심이
씨의
아임
안은
약한
양념
에너
에프
여대
여름
연료
영제
왔던
외식
용역
우권
워커
원료
월초
윅스
유기
이진
인구
인주
일물
일의
일인
일자
자극
자다
재정
전은
정에
조를
주류
준욱
중단
증명
지숙
지연
지출
진료
질의
징주
차원
채무
채와
천궁
추기
충격
취를
캐슬
캡스
타협
탑스
티몬
파가
파킹
파티
팔자
편의
폭은
피씨
피해
학을
한도
헬로
현동
혜미
호가
호는
회째
흥순
(+1
(-)
(02
(07
(12
(33
(40
109
22%
231
266
303
49)
50(
700
73%
771
IMF
IND
IoT
LTE
MDS
ack
ang
dex
ful
ity
per
ube
und
##De
##HS
##XM
##‘5
##강세
##강의
##개연
##건수
##경향
##고매
##고품
##공릉
##공무
##공부
##관람
##교환
##구강
##구로
##국화
##권고
##권태
##글을
##금통
##급변
##길이
##김봉
##김인
##김재
##끝난
##나쁘
##나왔
##날로
##날인
##남구
##남양
##남짓
##누릴
##다섯
##대두
##대법
##데이
##도래
##도모
##동부
##되찾
##둘째
##등교
##땅값
##때는
##뜨거
##래핑
##렌탈
##리노
##만난
##먹을
##메인
##명을
##몰고
##무게
##물가
##미용
##미혼
##민관
##바뀐
##박준
##반발
##버팀
##법무
##베팅
##변신
##부각
##부근
##불리
##붙은
##비덴
##비전
##사재
##샌드
##선고
##세단
##셀프
##소니
##속도
##수령
##수분
##수은
##순유
##스폰
##시원
##시절
##시현
##신형
##실습
##아침
##약세
##약화
##양사
##얻을
##역외
##연례
##열흘
##영원
##영통
##예전
##옵션
##와이
##용이
##용적
##워킹
##원인
##원천
##월급
##유례
##유의
##융자
##음성
##이겨
##이관
##이서
##이성
##이온
##인생
##인원
##인제
##인컴
##일관
##일론
##임명
##재원
##적지
##전광
##전량
##점은
##정산
##정착
##정치
##제목
##젝시
##조이
##종류
##종식
##주석
##준다
##증대
##지니
##지불
##지어
##지지
##지친
##징역
##찍을
##철회
##첫날
##체코
##촉구
##총괄
##축하
##출렁
##카테
##컬러
##쿠폰
##테스
##통장
##트럭
##티몰
##파급
##판촉
##펀딩
##포착
##품절
##필터
##하남
##한남
##한라
##한해
##합쳐
##합친
##해성
##했던
##허덕
##헌법
##헌혈
##혈액
##환급
##후속
##후폭
##휘청
감독원
개사의
건전성
곳으로
공구를
국장급
규모는
균형표
김성훈
김유진
김춘성
김훈남
나라는
네이션
농가를
달라고
담당관
대에서
데이션
도적인
라즈마
랜스포
레이터
레지던
력으로
롱웨어
르퀴즈
리버리
리식품
만대를
모델명
박범준
박세정
박혜림
보이는
보험은
브이엠
사무소
사항을
생명은
설명회
센터에
소에서
수출입
순이익
스페이
시장은
약으로
업무를
업체는
엑스포
월물로
월물을
월패드
위워크
유니온
이사장
인들의
잇츠온
자구안
재단이
절차를
조사에
지수와
지역의
지윅스
쳤다고
카드를
컴퓨팅
크리트
태양광
트리피
특징주
패스트
팰리세
피씨엘
하세요
한지숙
했다면
화장품
활동을
회사가
히면서
(+10
(+15
(16:
,200
,900
025%
110)
1800
3%),
4300
4900
61%,
6600
79%)
8%),
9%),
9100
9200
AVER
CCSI
Priv
anot
view
##101
##131
##135
##141
##146
##168
##181
##225
##260
##301
##318
##32%
##340
##354
##39%
##3~4
##468
##478
##494
##50(
##51%
##520
##53(
##531
##620
##645
##695
##708
##712
##76%
##79%
##821
##855
##86%
##899
##BBQ
##Fin
##GDP
##III
##IoT
##LED
##SNS
##SSG
##bot
##the
##가격도
##가구와
##감소해
##강우권
##강하게
##개발자
##개선과
##개장가
##개최된
##거래액
##거래한
##거리를
##거리에
##결정한
##계산한
##계약의
##계획이
##고공행
##곳으로
##과감한
##과정은
##과정의
##관악구
##구매에
##국가의
##국면에
##국세청
##권준욱
##권현수
##규모도
##규제에
##극심한
##급속히
##기관인
##기술로
##기술은
##기흥점
##김흥순
##꿈꾸는
##나오는
##내면서
##넷마블
##노동력
##논의가
##단계적
##당국이
##대금을
##대신해
##대응할
##대치동
##대표의
##떨어져
##떨어졌
##떨어질
##뛰어들
##라이더
##라이언
##루테인
##리바트
##리포트
##마감한
##마련된
##마련한
##만년필
##말이다
##맘편한
##맞이한
##매입한
##매장은
##면세품
##모으고
##모으는
##몰리는
##무약정
##문제로
##문제원
##물품을
##반등을
##반등할
##반포동
##발굴을
##발전소
##발표된
##발행한
##방법과
##방송된
##방안에
##배재훈
##법인을
##보잉이
##본회의
##부문에
##부산시
##부지를
##부진에
##분기와
##분담을
##분양권
##불안한
##불어나
##불황이
##빙그레
##사건을
##사들여
##사업부
##사우스
##사전에
##사태와
##산업에
##상승률
##상장된
##생계에
##생기는
##생산기
##생산에
##설명회
##설치된
##성과가
##성명을
##세계로
##세계에
##소득은
##소비와
##소식을
##손소독
##수주를
##수출을
##수치로
##쉐라톤
##스니커
##시급한
##시세조
##시작할
##시작해
##신개념
##신상품
##신청이
##악화된
##악화에
##안전의
##앞다퉈
##애플은
##양문형
##어디서
##억제해
##업종의
##업체의
##여행을
##연예인
##연평균
##영업에
##오상헌
##온인주
##올리브
##완료를
##외국계
##요소를
##우려도
##우아한
##운전자
##유치해
##유현석
##윤호영
##음식을
##의뢰해
##의장은
##이강준
##이틀째
##인도의
##인재를
##인체에
##인플루
##임동욱
##입국을
##입찰에
##입학식
##자급제
##자체가
##잠원동
##재개된
##전국민
##전환을
##절차가
##정도가
##제휴해
##조선사
##조성을
##조업일
##조현준
##주문이
##주에는
##준비에
##준비한
##중거리
##중단을
##중장년
##증시도
##지원은
##진단이
##창업자
##채권을
##채용은
##청량리
##청약접
##초고속
##초부터
##촉진을
##총회를
##최대인
##추세다
##추정치
##추첨을
##출범을
##출시에
##충격은
##취득을
##취지다
##치열한
##캐피탈
##컨트롤
##케이스
##케이프
##켜졌다
##콜라보
##탄탄한
##통관한
##특화된
##판로를
##팔았다
##피치는
##한국판
##함께한
##합격한
##항공화
##항생제
##해외로
##행위를
##행장은
##현안에
##혐의로
##협의에
##혜택도
##확산될
##활발한
##회복이
##회장에
##효과로
개발사업
공장에서
관리인증
금융연수
기술개발
노인인력
농협은행
대학교육
데이터를
들로부터
레버리지
레오시드
리버파크
면역진단
부동산세
삼성증권
스크포스
스타일샵
신용보증
어라운드
억달러로
억원보다
에너지는
연결기준
월말까지
유가증권
유입사례
이노텍은
자원관리
장관회의
저축은행
종목으로
진흥원이
컴퍼니는
탄바이오
통화기금
투데이에
투자운용
파이낸스
판매가격
패션위크
퍼런스를
협의회가
):50(
1200)
3,000
##025%
##103%
##181%
##227%
##246%
##2500
##3447
##469%
##668%
##PLCC
##가능성도
##가능하며
##간담회에
##간편결제
##감소세가
##감소하는
##개연성이
##개정안은
##거래정지
##결정됐다
##경영정보
##경쟁입찰
##고기능성
##고배당주
##공급망이
##공장들이
##관련주가
##관세청이
##괴리율이
##구축했다
##국면에서
##국무총리
##국민들의
##국제회의
##국토부는
##극복하고
##금융거래
##금융정책
##금융조사
##금융통화
##기간통신
##기대되는
##기대치를
##기아차는
##납품업체
##내달부터
##논의했다
##농촌진흥
##늘었다는
##동참했다
##롯데월드
##마련하고
##마오타이
##마케팅에
##물류창고
##반월지구
##발생하고
##베트남은
##보험료를
##부사장이
##부상하고
##부장판사
##부회장의
##불필요한
##브랜드다
##브렌트유
##사용되는
##삼성카드
##상승률을
##상승장을
##상향했다
##상회했다
##서울시에
##선언했다
##선제대응
##선택하는
##선행스팬
##성장으로
##성장하고
##소형가전
##손해보험
##수익성을
##순매수에
##순이익을
##순환변동
##스타벅스
##스테이크
##시리즈를
##시세보다
##식약처가
##식약처는
##실거래가
##실적이다
##싸이토젠
##아파트는
##안전하게
##앞으로는
##액세서리
##언제까지
##업체들도
##업체들은
##연구결과
##열었다고
##올라섰다
##우리은행
##위기극복
##유도무기
##유도하고
##유동성을
##유럽에서
##의결했다
##이들에게
##이뤄졌다
##이브자리
##이어지며
##이용률이
##이자이익
##인성정보
##인천공장
##인허가를
##일부개정
##임대료가
##임대료를
##자료사진
##자회사로
##재정관리
##전망치는
##전문가가
##전문가의
##점유율을
##정부세종
##정부지원
##젠트리피
##조성한다
##주민등록
##주식회사
##주장이다
##주최하는
##줄이면서
##중요성이
##중이라고
##중저가폰
##증가세가
##증가하는
##증권업계
##증정한다
##지역별로
##지역아동
##지적했다
##직원들과
##직원들의
##진행됐다
##진행되며
##찾아가는
##채권단과
##채권단이
##출자사업
##카테고리
##타깃으로
##탑재했다
##투자자문
##판매되는
##플라스틱
##플랫폼의
##필요하다
##하더라도
##하이테크
##한국서부
##한국장학
##할부금융
##합리적인
##현대해상
##확보하고
##확보했다
##확정됐다
##환경경영
##활성화에
##활용하는
##회원들이
금융감독원
로켓프레시
무풍에어컨
천리자전거
팰리세이드
하이닉스는
현대백화점
(043%)
(044%)
##-48%(
##339%,
##Index
##경제성장률
##경제위기를
##고객상담실
##공격적으로
##공동주택의
##구성원들과
##구조조정을
##국가유공자
##금융당국의
##금융당국이
##금융시장에
##기념촬영을
##기대된다고
##농협은행은
##도입한다고
##돌입한다고
##동구바이오
##디자인파크
##롯데쇼핑은
##롯데쇼핑이
##마련했다고
##만트럭버스
##모빌리티를
##바이러스성
##반등장에서
##반포아파트
##받아들었다
##분양한다고
##불공정거래
##비대면으로
##삼성바이오
##삼성카드는
##상품권으로
##상황이지만
##서울디지털
##쇼핑몰에서
##순차적으로
##시작하면서
##아시아경제
##아이디어를
##양도소득세
##어린이들을
##에쓰오일은
##영업손실은
##원더톡스는
##유통업계에
##의결했다고
##이사장에게
##인센티브를
##일목균형표
##일회성요인
##재택근무를
##전기자동차
##전세계적인
##제니퍼룸은
##제조업체인
##중앙은행이
##중앙은행인
##지역사회의
##취득했다고
##판단에서다
##폭발적으로
##프로그램인
##플랫폼이다
##하나금융은
##항공업계에
##화상회의를
관리인증기준
대한항공카드
리버파크자이
발광다이오드
산업단지공단
에셋투자증권
지윅스튜디오
anotube
##193125
##경제성장률이
##공시지원금을
##국가통계국은
##국제통화기금
##기초생활보장
##대회의실에서
##더존비즈온은
##두산중공업은
##리얼투데이에
##모두발언에서
##부처님오신날
##블룸버그통신
##샌프란시스코
##서울행정법원
##세븐일레븐은
##소상공인에게
##스타모빌리티
##신세계디에프
##신용보증기금
##엔터테인먼트
##역외유입사례
##영업이익률은
##이코노미스트
##정보통신기술
##칠성사이다는
##케이엠더블유
##포스코에너지
##포트폴리오를
##한국건설산업
##한국금융연수
##한국대학교육
##한국항공우주
##해양수산부는
##현대자동차와
보통주추가상장
##Fintech
##금융투자회사로
##메이커스페이스
##서부텍사스원유
##석유수출국기구
##신한금융그룹이
##아모레퍼시픽은
##정례브리핑에서
##한국소비자원은
##한국야쿠르트는
##한국투자증권은
##한국투자증권의
안전관리인증기준
##긴급재난지원금은
##비상경제회의에서
##특별고용지원업종
##한국산업단지공단
##현대엔지니어링이
##식품의약품안전처가
##포스코인터내셔널은
)(
2'
EC
PP
SA
VE
VR
]"
av
hc
if
mm
ov
qu
sh
ty
up
~9
”(
##t
##α
##↑
##★
##곽
##꽤
##넬
##딸
##떼
##띈
##빛
##섬
##숭
##숲
##쉴
##싼
##쌀
##앤
##옆
##율
##잉
##잭
##컵
##턴
##톱
##팹
간에
간의
거돈
거진
건에
경력
경북
계절
고는
공룡
공황
교류
교실
구영
구직
군수
규격
규준
급락
기평
김지
김포
나타
남녀
네요
년새
년의
노선
녹스
놈펜
놓고
놓은
니엘
니타
당일
대구
대신
대와
더샵
덩이
데카
도상
동서
동은
동을
두기
두는
드라
땡큐
랑벨
러코
레스
렌피
렐라
력은
령을
로랑
로로
로스
료는
르기
르다
르크
리더
리로
리크
리프
링룸
만갑
만을
만족
많은
메르
모듈
모씨
목재
몰은
미니
미사
미셀
미팅
미힐
바스
배정
백전
버리
보수
보합
복을
봉을
비드
비로
비타
사옥
산이
상현
생물
서민
선미
선스
세기
속기
수지
수협
슈퍼
스부
스톤
스팩
슬립
승계
시로
시피
시회
신화
아산
안심
액과
액도
어야
어치
얼셀
업법
업소
에르
여년
여성
영훈
오버
용준
용지
용진
움이
원격
원투
월동
월한
위의
위즈
유발
으니
으론
을까
의원
이동
이브
이장
익은
일본
일시
자녀
잡족
재구
전달
전스
점인
정동
정수
제작
제휴
젤리
조업
종인
주심
중부
줘야
지면
지속
지식
지침
진형
짜에
차에
척기
청사
청취
체크
초기
초반
추천
출판
충전
측은
측이
층은
층을
치면
카롱
카우
카운
콜라
콜린
큐랩
클린
키는
탄올
태범
택을
택지
테오
토탈
투셀
특구
티슈
팀은
파생
패널
페라
평판
포터
프티
피거
한샘
항에
해주
현진
호실
화도
화용
확대
확진
활을
휴업
(27
(44
(45
131
172
277
290
47(
5%,
890
95%
BBB
BBN
GWh
ICE
IPS
IST
KIC
LCD
Pro
are
der
rap
ter
~12
~15
##'4
##-6
##2%
##2)
##AP
##BC
##EN
##FO
##NE
##RT
##Sy
##["
##“5
##가산
##가할
##각광
##감자
##감정
##강등
##강사
##갖는
##개방
##개점
##객실
##거품
##걸릴
##것으
##견조
##경록
##계룡
##고갈
##고속
##고유
##골라
##공휴
##과열
##광진
##교재
##구슬
##군용
##규정
##그친
##기지
##김근
##꽃을
##나간
##나은
##나흘
##났다
##내야
##노란
##노원
##농진
##높여
##눈물
##뉴클
##느낄
##다름
##닥스
##담고
##담합
##대선
##대손
##대안
##더한
##덕은
##덮밥
##도와
##동북
##두기
##드리
##드릴
##들이
##디아
##따로
##뜻의
##띈다
##마을
##마진
##마크
##만성
##맥주
##먹고
##명확
##무관
##무단
##물러
##민트
##믿고
##밀크
##밑돌
##반전
##발달
##발병
##발빠
##발을
##밝혀
##방과
##배민
##배정
##배포
##백상
##밸브
##벅셔
##벌써
##법원
##벼랑
##보강
##보관
##볼티
##볼프
##봄을
##부결
##부원
##부평
##분당
##분배
##분자
##불고
##불구
##불스
##불이
##빨간
##빨라
##삶의
##상상
##상실
##상징
##생애
##서서
##선두
##선적
##성별
##성암
##세련
##세상
##세정
##소요
##소장
##소화
##손님
##수를
##수리
##수업
##수영
##숭실
##쉽고
##시내
##시에
##시청
##시화
##식기
##신조
##신중
##신탁
##실속
##심의
##압승
##앰플
##약한
##양팡
##얼굴
##엘리
##여지
##열릴
##예탁
##오가
##오래
##오렌
##오류
##온실
##와디
##와중
##완공
##왔다
##왕고
##요동
##원의
##월풀
##위례
##은마
##응시
##응찰
##의심
##이끈
##이룬
##이현
##익산
##인산
##인형
##일신
##입을
##입지
##자가
##자원
##잔여
##장위
##장인
##장치
##전산
##전수
##전업
##전역
##점진
##정몽
##정문
##좋다
##주의
##주행
##줄기
##줄인
##중동
##즉시
##증축
##지성
##지점
##진짜
##집콕
##집합
##차기
##참치
##창구
##찾고
##찾기
##천궁
##체내
##초등
##초보
##초입
##추이
##출석
##캡슐
##크다
##클린
##퇴근
##트위
##특강
##특급
##특집
##팀장
##팔린
##패스
##펄어
##포드
##포럼
##포스
##포항
##풍성
##피복
##필식
##하다
##한밭
##할까
##합류
##행렬
##향해
##홍삼
##화폐
##확신
##환산
##환아
##휩싸
##휴가
##휴면
##힘들
경쟁력
고양시
공장에
공학부
국으로
글라스
금융과
기간을
기업은
기정통
넥스원
농수산
단법인
대학원
도지사
동나래
동영상
되거나
됩니다
들나라
랑풍선
래미안
레니얼
렌피딕
렸지만
리기에
리스트
만원씩
만원이
명이고
모로드
문재인
물품의
박람회
베이터
보험이
부지법
부펀드
분까지
분야의
비주얼
사다리
산업부
산업체
상황을
생로랑
샵에서
서동일
세라티
손실을
수수료
수요를
스와프
스페셜
시몬스
시장치
시키기
신보험
실트론
안기금
았다는
앞으로
앤티디
에피스
여명을
여명의
역량을
연료전
오면서
외국인
용보험
워크넷
월대비
월보다
위기에
위메프
의정부
이었던
이진용
이트진
이티브
이혜미
일동안
자이는
적이다
정부의
정책을
제연어
제주산
제철소
지난달
초년생
층으로
크푸르
클럽은
클리닉
테슬라
텔리안
틸콜린
파운드
펀드가
퓨얼셀
프렌즈
하반기
허가를
허재구
형제의
홍남기
화하고
회사와
흐름이
(+40
(033
(058
(416
000)
11-2
1157
19%)
1984
20%)
20)=
2100
2369
25%)
2700
3600
4600
4633
47%)
490)
5%),
51%)
59%)
68%)
7%),
8200
8266
9858
Plus
SPEC
edit
form
icar
ream
##01%
##105
##116
##136
##157
##16%
##166
##194
##199
##2,3
##205
##214
##221
##222
##288
##290
##363
##41%
##428
##450
##467
##48%
##486
##510
##52(
##580
##59(
##619
##707
##71%
##81%
##835
##Air
##All
##BAB
##CGV
##HTS
##NHN
##OTT
##bhc
##jay
##가동이
##가입이
##가족과
##가지고
##각국이
##감소가
##감소에
##감소와
##강화된
##개인들
##거래는
##거래된
##거리가
##건강에
##건물은
##건설에
##건수는
##검찰은
##경향이
##고려한
##고로에
##고민이
##고성장
##공간에
##공간을
##공급될
##공략을
##공릉역
##공모를
##과제로
##관광객
##광역시
##교역이
##구성한
##구원투
##구현해
##국고채
##국산화
##국토부
##권광석
##권태혁
##규모인
##규제와
##극복할
##급감해
##급락에
##기반을
##기부를
##기성훈
##기술의
##기조가
##김봉현
##김세관
##김은령
##김현일
##꼽히던
##나눔카
##나란히
##나이스
##낙폭을
##날짜에
##내년에
##내장된
##넷째주
##노사가
##놓였다
##늘리는
##다수의
##단지로
##담았다
##답했다
##대공황
##대상이
##대응에
##대타협
##대학의
##덴마크
##돌입한
##동작구
##돼지고
##두번째
##듣는다
##디앤피
##떠난다
##뚜렷한
##뛰어든
##뜨거운
##라인을
##랩지노
##롤러코
##리테일
##마련을
##막대한
##만든다
##매물로
##매입해
##매출의
##메이크
##면역력
##명품을
##모두가
##모습이
##모집을
##몰렸다
##못난이
##못하면
##못했던
##무료로
##문화를
##미공개
##미래차
##미치고
##바꾸는
##바이어
##반등이
##반영될
##받았던
##발굴해
##발표가
##발행은
##배달료
##배당금
##백신을
##범위를
##보냈다
##보잉은
##보험료
##보험은
##부스를
##분비를
##분야로
##브라질
##빠져나
##사람은
##사명을
##사실이
##사업인
##사용을
##사용자
##사장을
##사회의
##삼성동
##상승해
##상태다
##색상은
##색상을
##생활에
##샤르자
##서버와
##서지혜
##선물로
##선지급
##설립을
##성과급
##성과와
##성능과
##성장할
##세대를
##세대의
##소비는
##소비의
##소재를
##수소연
##수업을
##수입은
##수입이
##수혜가
##시니어
##시장인
##시행한
##시흥시
##식물성
##신동호
##신산업
##심리가
##심사를
##쏘나타
##아메리
##아우디
##아이돌
##아주대
##안에서
##알뜰주
##알아야
##앞당기
##앞세운
##앱에서
##약정을
##에센스
##에스엠
##엔투셀
##여력이
##여부와
##연계해
##연구소
##영상을
##영업점
##영향은
##예비역
##예산이
##완화에
##완화해
##외출을
##우려해
##우미린
##원활한
##위기는
##위기로
##위치를
##위해서
##유니콘
##유망한
##유영호
##유인호
##육성을
##을지로
##응모한
##의장이
##의혹이
##이내로
##이동을
##이들을
##이목이
##이상규
##이서현
##이소은
##이야기
##이주호
##이항영
##이후로
##이후에
##이후의
##인건비
##인기다
##일부를
##일상화
##일용직
##일하는
##있어도
##자금은
##자리잡
##작업을
##잔액은
##장례식
##재개될
##재원을
##재정적
##적응증
##전문관
##전부터
##전통의
##전하는
##전형을
##점포를
##접목해
##접수를
##정도다
##정리해
##정찬수
##정책과
##정책의
##정하고
##정현진
##정확히
##제네시
##제휴를
##조사에
##조성물
##조정이
##종가는
##주거용
##주의가
##주자는
##주주로
##준비를
##중국과
##중국산
##중단한
##증가가
##증설에
##지급에
##지능형
##지점을
##지키기
##직원을
##직원의
##질문에
##집단민
##차량이
##참고로
##참여해
##창업판
##창원시
##채널인
##철저한
##청년을
##청약에
##체결한
##초소형
##최대를
##최대한
##최태범
##추진에
##출발해
##취득한
##캘리포
##컴퓨팅
##코스메
##쿠팡과
##타미힐
##탁월한
##태평양
##테크윙
##통합한
##투자처
##투자할
##특성상
##판단이
##판매된
##팹리스
##편의를
##편입을
##폐업한
##포괄적
##폭락한
##프놈펜
##프로틴
##플랜트
##피아트
##하나다
##하늘을
##한걸음
##한국수
##한국에
##한국이
##한국프
##한동안
##한산한
##한컴은
##핫라인
##항공권
##항공유
##해외에
##햄버거
##협업을
##협의를
##형제간
##형태의
##홍대입
##화제다
##회복한
##후보로
##휴스턴
##휴업에
개선계획
겠습니다
관련기사
기업은행
당일배송
디바이스
라이슬러
라이언스
레이션을
롯데지주
마을버스
무역투자
바구니를
부문에서
사랑카드
상장회사
스마트폰
스부르크
스타항공
아산병원
아카데미
암호화폐
연료전지
오프라인
원더톡스
원선에서
이노텍이
전문인력
정적으로
중부발전
지상조업
진흥원은
청사에서
크푸르트
평균금리
포인트를
푸드빌이
플러스는
해지면서
헬로비전
화훼농가
회계기준
(0519
):47(
6570)
6890)
KODEX
##013%
##092%
##1,89
##1023
##108%
##1132
##119%
##1217
##1347
##1700
##1710
##1996
##2006
##209%
##217%
##2902
##353%
##3864
##452%
##5182
##561%
##879%
##KCGI
##OLED
##chmt
##개발담당
##개별기준
##개학으로
##거래참여
##건강식품
##격전지로
##견인했다
##경기전망
##경상남도
##경영난을
##경제지표
##경제협력
##계열사가
##고려하면
##고속도로
##고시했다
##공개하고
##공공부문
##공기청정
##공정위는
##공항버스
##광주은행
##구매관리
##국무회의
##군수품의
##글렌피딕
##급등세를
##기대감도
##기대하고
##기대하는
##기술수출
##기술지원
##기지개를
##기획재정
##기흥구에
##깊어지고
##내부통제
##네오위즈
##노동절을
##늘어난다
##늘었다고
##대대적인
##대부분을
##대응하고
##대응하는
##대장지구
##도입한다
##돌아왔다
##동대문구
##동아에스
##동종목은
##두산그룹
##들어가는
##딜리버리
##라이선스
##롯데캐슬
##리노공업
##리쇼어링
##맞으면서
##모델들이
##목소리를
##무역지수
##문화체육
##민간경력
##받는다고
##받았다고
##방안으로
##벅셔해서
##베스트샵
##벤처투자
##변동성을
##보이면서
##부보예금
##부산시는
##부엌가구
##부정적인
##분기보다
##분석됐다
##불가능한
##브랜드와
##사관학교
##사내이사
##사람들의
##산업분야
##살아있는
##상관없이
##상승폭을
##색상으로
##서비스의
##선도하는
##선물하기
##선정하는
##선행조건
##설명하고
##성장률을
##세운상가
##세전이익
##소마젠은
##소비심리
##소비자의
##속출하고
##수단으로
##수사하는
##수소경제
##수수료를
##수용하고
##쉐보레가
##슈퍼마켓
##스킨케어
##시장감시
##시장에도
##신경전달
##신용도가
##신주인수
##실적에도
##쌍용차는
##알고리즘
##야심차게
##어려움이
##업무제휴
##엇갈렸다
##연구진이
##연휴기간
##예금금리
##예년보다
##예상되기
##오디오북
##오픈했다
##온라인을
##왕고구마
##운영사업
##운영사인
##운용하는
##움직임에
##워킹스루
##유지하기
##유효기간
##의견청취
##의미한다
##이뤄지고
##이벤트에
##인정받아
##인컴자산
##인터넷업
##일반물자
##일본은행
##일상생활
##자금난에
##자동차는
##자산유동
##자유롭게
##재건축해
##저장탱크
##적용된다
##전광판에
##전담하는
##전망되는
##전문가로
##전시장은
##제기된다
##제어한다
##제조업의
##제조장비
##조선부문
##종합보험
##주가지수
##주력산업
##주어지는
##주춤했던
##주택도시
##준비했다
##중단됐다
##중증치매
##지급하기
##지니뮤직
##지방행정
##지역발생
##지역사회
##직원들은
##착수했다
##책임지는
##청약에서
##최고가는
##최근에는
##최저가는
##추종하는
##추출물을
##출고가는
##출시됐다
##출시하는
##카드승인
##카카오가
##코스닥이
##콜센터는
##크라우드
##타임쉐어
##탄산음료
##테라타워
##테스트를
##토지거래
##퇴직연금
##투자상품
##투자유치
##투자하고
##투자한다
##트렌드가
##특례보증
##판매된다
##펄어비스
##평가위원
##포함됐다
##프로세서
##프로야구
##피앤티디
##하락하며
##한자릿수
##한진그룹
##할인가에
##함께하는
##합의했다
##해서웨이
##해소하기
##현장에서
##현재까지
##현지시간
##확보하기
##확정했다
##효성그룹
##훈제연어
과학기술원
금융지주의
금융투자는
네트웍스가
동나래구역
들휴브레인
라이프케어
리어에어컨
머티리얼즈
모로드스쿨
박스코리아
부동산정보
산업생산은
삼성전자가
스페셜데이
억원이었다
에너지공단
에이프로젠
인터내셔날
터미널에서
테크노파크
테크놀로지
AFPBBN
Untact
##138%,
##2839%
##561%,
##KAIST
##가시화되고
##강남역에서
##계열사들이
##공급한다고
##공시가격에
##공유오피스
##금융상품을
##금융지원을
##기관투자가
##기대된다는
##기록했다며
##길어지면서
##높이겠다는
##달성한다는
##달아오르고
##대유행으로
##디지털프라
##롤러코스터
##린데그룹과
##마련한다고
##무역협회장
##발간했다고
##방탄소년단
##배달용보험
##변경한다고
##보험업계에
##불확실성에
##비이자이익
##비트코인은
##사회초년생
##삼성물산과
##서울반도체
##선방했다는
##선임했다고
##성장사다리
##소셜커머스
##스마트폰을
##시가총액이
##신용유의자
##아세틸콜린
##아파트값은
##아파트분양
##암호동아리
##업그레이드
##에쓰오일이
##에코마케팅
##엔진비주얼
##엘비세미콘
##영업이익도
##완료했다고
##우체국쇼핑
##운수창고업
##유지하기로
##유치했다고
##이동통신사
##이사회에서
##인천연료전
##입주물량이
##자발적으로
##재건축사업
##재난지원금
##재설계했다
##전문가들의
##전체적으로
##접어들면서
##제일기획은
##조달청으로
##줄어들면서
##증권업계에
##지급하기로
##지식재산권
##지원하기로
##최소화하고
##최소화하기
##충전공구를
##케이뱅크의
##타미힐피거
##탄력적으로
##태스크포스
##통과했다고
##티브로드의
##팰리세이드
##포스코건설
##포스코경영
##프로젝트는
##하락했다고
##하반기에는
##한국타이어
##해서웨이는
##현대제철이
##현대해상은
##협력하기로
##호텔로봇은
##화훼농가를
낙성벤처밸리
디스플레이는
무역투자진흥
식품유통공사
이노베이션이
##jayful
##가중평균금리
##금융위원회가
##금융정책결정
##기초자산으로
##뉴클레오시드
##라이더유니온
##메모리반도체
##멕아이씨에스
##방위사업청은
##볼프스부르크
##부동산업계에
##삼천리자전거
##서울아산병원
##서울패션위크
##소비자들에게
##소상공인들이
##소프트웨어업
##수출입은행이
##순매도하였다
##어플리케이션
##온라인쇼핑몰
##우리바이오는
##워싱턴포스트
##유사투자자문
##임직원들에게
##입찰제안서를
##장기화되면서
##재난취약계층
##정례회의에서
##주주총회에서
##창업보육센터
##창업지원펀드
##카카오뱅크는
##카카오페이와
##프로그램이다
##하이투자증권
##한국감정원의
##한국상장회사
##한국서부발전
##항공지상조업
##현대건설기계
##현대백화점과
##현대자동차의
##현대차그룹에
상생플러스펀드
(058110)
##경기도경제과학
##딜리버리히어로
##문화체육관광부
##블룸버그통신에
##스튜디오드래곤
##아시아나항공에
##여신금융협회가
##전용면적별로는
##젠트리피케이션
##코스닥시장에서
##테슬라코리아가
##파이낸셜타임스
##포스코에너지는
##한국무역협회는
##한국성장금융은
AFPBBNews
##Nanotube
##고용유지지원금을
##디자인기자코로나
##사우디아라비아의
##서울주택도시공사
##엔진비주얼웨이브
##이엠케이네트웍스
##인피니트헬스케어
##전자공시시스템에
##플래그십스토어를
농수산식품유통공사
##미래에셋자산운용에
##웨스틴조선호텔에서
##전국경제인연합회는
##중소기업유통센터와
##코리아에셋투자증권
탄소정보공개프로젝트
heraldcorpc
##식품의약품안전처로부터
)"
)*
,0
,7
34
@"
DM
EV
IK
KA
KO
RP
RT
SL
St
YP
]4
]‘
ak
bp
cm
ho
ia
ms
na
nd
pt
uc
uf
##l
##굵
##깍
##깎
##늪
##닐
##덧
##덩
##델
##듀
##랠
##렉
##록
##밖
##밟
##뷰
##섞
##웅
##첨
##쿼
##털
##팩
##팽
##헬
##흩
가르
간체
감과
개에
개학
건과
게뜨
겨진
경을
관과
관인
관장
광가
광역
광채
국방
권형
그라
그루
금의
금일
기반
기연
기존
긴다
김빛
김성
김용
끌이
난영
내며
노멀
농업
늦게
니는
다른
닥칠
단독
단의
단이
단할
담배
당한
대혈
덱스
도별
동부
돼야
두운
드레
라매
라엘
라잇
라잡
래방
래버
래식
량에
럭처
레디
렉터
령기
루미
루잉
르미
리단
리도
리뷰
리의
림동
링과
링클
마포
만은
말로
망에
맞춤
맥스
먹는
먼스
모빌
몰트
무상
미진
미한
밀러
반환
발을
발한
배우
버터
번에
변호
병환
보드
보라
보에
보엠
보전
봇은
봇을
봉진
부다
부담
부부
부서
분할
비의
비통
사모
사원
산화
상규
새롬
선강
선택
설록
세연
세운
숙박
슈머
시흥
식의
실태
쎄를
쓰고
씨티
아래
아요
악의
악한
안방
알콜
암제
앞에
야크
업의
여당
여명
여전
연을
연히
영재
예탁
오던
오픈
옴므
옵션
요타
용을
우의
우치
워진
웍스
원인
원주
월께
월이
유상
윤철
을지
음이
응을
의무
이텍
인규
인수
일째
자민
자한
작은
적성
정도
정비
정태
정표
정혁
조금
조로
조에
종은
주민
주요
중개
중형
지동
차별
차입
채를
천동
추는
취급
취득
커리
커스
코와
콜릿
퀀텀
키움
타늄
터리
텍의
토익
투스
틀리
티엠
파인
페어
평형
폴리
품목
프론
하긴
한은
한의
한진
할지
항균
해지
행복
행사
향군
향을
허가
현금
협상
형을
혜숙
호기
호로
혼란
화상
화한
환을
환입
회담
효성
효원
(28
(34
(50
(60
(80
10-
133
155
184
20'
213
214
29/
30%
304
305
337
45%
46%
46(
49(
499
520
590
698
704
833
900
99%
CNT
DMC
FTA
KSS
MIS
MTV
PBR
SNS
SOC
Tra
UAM
age
aps
ech
ger
onl
orl
~19
##-2
##1)
##AS
##Cl
##IF
##MP
##QV
##ST
##Sh
##UV
##in
##of
##가축
##각별
##갈등
##갑부
##강경
##개강
##거두
##거둘
##건대
##건을
##것인
##겹쳐
##고교
##고도
##고른
##공실
##과일
##교사
##교원
##국비
##그래
##그려
##극장
##금값
##금속
##금투
##기기
##기른
##긴장
##김모
##꺼내
##끝판
##나가
##남부
##내걸
##내내
##내륙
##넓혀
##네덜
##노조
##노출
##놀이
##높일
##늘리
##늦춰
##닐슨
##단축
##달인
##달차
##당면
##대내
##대박
##대여
##덧붙
##독서
##독자
##독특
##돌봄
##동생
##돼지
##뒤흔
##듣고
##등극
##등촌
##때만
##똑같
##띄게
##래디
##레더
##롱패
##루이
##리터
##마비
##마힌
##막걸
##막힌
##만회
##말이
##매체
##머신
##면치
##무산
##무슨
##민자
##밀어
##바꿀
##바나
##박스
##박용
##발동
##발휘
##배제
##백악
##범위
##벗어
##보랭
##보일
##볶음
##본다
##볼빅
##부드
##부천
##북구
##북부
##분류
##분사
##브라
##빈폴
##빚고
##사각
##사문
##사은
##사임
##사퇴
##살림
##석가
##석탄
##세무
##세아
##세제
##셀렉
##셰프
##소중
##소통
##손꼽
##손익
##수렴
##수술
##수천
##스미
##승소
##승용
##시의
##식사
##신분
##신상
##실감
##실라
##실망
##실전
##쌓아
##아끼
##아버
##아쉬
##안녕
##안도
##안돼
##안양
##않게
##압구
##앞선
##앞장
##애로
##약정
##어제
##없애
##에듀
##에미
##엔비
##엠디
##여겨
##여기
##여부
##역전
##연관
##연상
##연회
##열지
##영문
##영입
##영종
##예견
##오산
##용지
##원에
##원조
##월드
##월별
##위크
##유관
##유래
##육군
##윤곽
##윤활
##의욕
##의족
##이때
##이론
##이색
##이수
##이스
##이윤
##인큐
##일간
##임용
##잇단
##자주
##작동
##잡은
##재도
##저가
##저택
##저해
##적재
##전과
##전부
##점심
##정교
##정당
##정의
##정진
##정체
##정통
##정희
##조립
##조작
##좌우
##주기
##준수
##준위
##줄을
##줄이
##중후
##즐기
##증여
##증진
##증폭
##지갑
##지침
##지향
##짓는
##짧은
##찍은
##착안
##창조
##책을
##책정
##철도
##청문
##체납
##체어
##체제
##초대
##초래
##추산
##출입
##취재
##침대
##카고
##캐모
##쿠쿠
##키울
##키친
##탐험
##태경
##통관
##특장
##특판
##팔아
##평판
##폐점
##포레
##푸른
##피할
##픽업
##핑크
##하네
##한데
##한섬
##항만
##해명
##해임
##현인
##현직
##형사
##호흡
##효능
##후임
##흡착
##흥국
##힐링
가구다
가르드
가운데
강승연
개월째
경영을
계열사
계층의
곳이다
공시를
공장은
과대학
구조물
규모가
금융에
기아차
기회가
김빛나
나기자
년대는
년에도
년에서
능력을
달러로
당국이
대란이
동향에
되는데
되지만
드뱅크
들이다
라윈드
라잇브
러스트
레이트
렌터카
로보틱
리니지
리더십
리언스
리프레
마켓은
마하의
만선을
만위안
매거진
매물이
물질이
물질인
바이트
박경담
방송의
버결제
베이비
베이스
베트남
보엠이
분기를
분기와
브리지
비비고
사업단
사업화
사태로
삽시다
새로운
서십을
서울형
서포트
선물인
선택권
섰다고
세까지
세대를
세아이
세일즈
세척기
수당의
수익률
수익은
스터디
스토어
스프레
시밀러
시설의
시했다
신탁의
심리를
씨준생
아모레
안정을
업계도
업체를
엑스코
였다는
영양식
왔지만
용으로
용품을
웍스가
원까지
유가는
유로화
이라면
이어폰
이익률
이해준
일간의
일부로
적령기
정경수
정책에
정태일
정혁수
제안을
제한법
제한폭
조치로
중기부
지환급
집콕족
차이나
책임자
최악의
충전소
치료제
코디악
코람코
크리에
테스트
판데믹
페르미
편의점
평가는
포조선
하우징
함영훈
항에서
해달라
호텔은
홍봉진
화하는
환율을
효과가
(+19
(+29
(-10
(005
(012
(035
(090
(250
11%)
1200
160)
1600
22%)
2245
230)
30%)
3648
38%)
4200
4572
4800
5094
5200
65%)
690)
720)
7800
8800
9300
SIAM
abel
ment
ones
##05%
##1,6
##104
##137
##138
##151
##152
##154
##167
##169
##187
##191
##2,8
##203
##207
##208
##216
##233
##249
##259
##29%
##306
##313
##330
##333
##335
##348
##362
##37%
##382
##392
##417
##47%
##474
##491
##5,6
##51(
##529
##53%
##54(
##578
##5~6
##64%
##672
##72%
##727
##84%
##85%
##87%
##883
##91%
##92%
##929
##93%
##ADT
##CAC
##ENM
##GMP
##IMF
##JYP
##KRX
##OCI
##ODM
##SBA
##SBI
##han
##가동률
##가성비
##가지로
##갈아치
##감사의
##감소는
##강남역
##강하늘
##개인용
##갤러리
##건강을
##건설사
##걸맞은
##검사를
##검찰에
##검찰이
##것처럼
##겨냥해
##격리해
##겪었다
##결정된
##결제를
##결제수
##경상북
##경영진
##경우가
##경쟁사
##경험이
##계기가
##계약금
##계약은
##계열의
##고령화
##고사장
##고수익
##고통분
##곳이다
##공급을
##공급할
##공효진
##교수가
##교육은
##구강모
##구글의
##구독자
##구매가
##구매를
##구축한
##구현모
##국가위
##국민의
##국채를
##국회를
##규모에
##규제로
##그룹은
##그룹이
##근육의
##급반등
##기능과
##기반한
##기부는
##기부에
##기자와
##기존에
##기프트
##기획전
##김난영
##김도영
##김승한
##김인채
##김지산
##깍두기
##깨끗한
##꼽았다
##꽃다발
##나쁘지
##나서야
##나주석
##낮아진
##내구성
##내렸다
##내용에
##네오플
##노동자
##노란색
##노리는
##논란에
##농기계
##농식품
##높아질
##눈덩이
##뉴타운
##느끼는
##늘리고
##다음날
##다자녀
##달러에
##달러화
##담겼다
##대구시
##대법관
##대전환
##대출로
##대해선
##대혼란
##더블유
##도미노
##도심형
##도요타
##도움이
##뒤늦게
##등록을
##떨어지
##뜻이다
##래미안
##레미콘
##레저상
##리브온
##리콜을
##만기가
##많다는
##맞물려
##매장에
##매장이
##모두를
##못지않
##무디스
##무순위
##문구를
##문의가
##물티슈
##미쳤다
##미치지
##민간용
##바꾸고
##박선강
##박세연
##박정호
##박혜숙
##반등에
##받도록
##발표할
##발행할
##밝히지
##방법을
##방송인
##방식과
##백상엽
##번째다
##베이비
##벤틀리
##별도로
##보성녹
##보이던
##보호를
##복잡한
##본인의
##부지에
##분당구
##분야를
##분양할
##불렸던
##불리며
##불만이
##비규제
##비빔밥
##비상이
##비용이
##빅히트
##빗썸에
##사들이
##사람들
##사랑의
##사업주
##사용이
##사장과
##사흘째
##산업과
##산업은
##산은과
##산하기
##상권을
##상승과
##상품군
##생각해
##생맥주
##생산의
##생존을
##서서히
##서울고
##서울은
##서울을
##선발된
##선임에
##성북구
##성장과
##세금을
##손명수
##손병환
##손으로
##손해를
##송구영
##쇼핑을
##수량이
##수상작
##수입통
##수출도
##수출액
##수출의
##스프링
##시기가
##시세가
##시장과
##시제품
##시중에
##신도시
##신설을
##신창환
##실업자
##씨젠은
##아세안
##아이언
##악재가
##안랩은
##안전성
##않아도
##약국에
##양극화
##양도세
##어두운
##업체로
##업황이
##엇갈린
##에브리
##엔봇은
##여지윤
##역사상
##연결된
##연계형
##연구원
##연달아
##연도별
##연매출
##연세대
##열기는
##영업이
##예단할
##예상한
##예정돼
##오가닉
##오설록
##올라와
##와이즈
##와인을
##외에도
##요플레
##운영해
##운용사
##워라밸
##원유를
##위아래
##위축될
##위축에
##유기농
##유승관
##유아동
##유용한
##유입된
##유치에
##윤자민
##윤종규
##은행에
##은행의
##음성인
##의미가
##이동이
##이렇다
##이르는
##이번달
##이상된
##이어온
##이정환
##이주완
##이진규
##이진욱
##이천시
##인수한
##인수해
##인하를
##일본과
##일상에
##일시적
##일임형
##임대차
##입사를
##입주를
##잇따른
##자가격
##자릿수
##자영업
##자체를
##장수명
##장초반
##장효원
##재개를
##재개에
##재개할
##재계에
##재무적
##재사용
##재확산
##저자극
##저점을
##저조한
##적용된
##전년도
##전략에
##전력을
##전반에
##전자동
##전환할
##전환해
##점검을
##접촉을
##정기섭
##정무경
##정보가
##정용진
##정지된
##정책이
##제목의
##제시한
##제작한
##젝시오
##조건과
##조영제
##조절에
##조정한
##졸업식
##주문을
##주식과
##주식의
##줄였다
##중에서
##즉석조
##증권맨
##증시를
##지금은
##지나치
##지수의
##지원한
##차량에
##창고에
##창출을
##철학을
##체험형
##초까지
##초콜릿
##총력을
##촬영을
##최고가
##최동현
##최석환
##추이를
##추진을
##출시할
##출신인
##출연해
##출자를
##출자해
##취득의
##치료비
##카드를
##캠핑카
##커스터
##컬래버
##콤팩트
##쿠팡의
##클럽에
##클로이
##타격은
##텍사스
##투자도
##특례법
##특유의
##특허를
##티타늄
##파리바
##파미셀
##파악할
##파우치
##판권을
##판매도
##팩토리
##편성해
##편집숍
##펼쳐질
##폐쇄로
##포부를
##품목은
##품목의
##품질을
##프로세
##프리즘
##한국공
##할인을
##함안군
##함유한
##해임을
##행보를
##허가가
##허브로
##현재의
##현황을
##협약은
##호가든
##호응을
##홈파티
##화소의
##화재가
##화제가
##확실히
##확인한
##확장을
##환경부
##회사를
##회원권
##회장과
##후에도
가격공시
개사에만
고속도로
고용정보
규격인증
금융거래
기간산업
넥실리스
동부제철
라젠이텍
력원자력
만달러의
명이라고
받았다고
변경상장
복지재단
본부장과
블록체인
생명보험
생활방역
서비스인
서울시가
세대에게
소비자가
스타시티
스타트업
스트럭처
시스템은
연구원에
연합회가
은행에서
이라면서
이오니어
이자마진
인공지능
일까지로
자율주행
자이언트
재무구조
저장장치
정책과장
제조협회
주택가격
처리장치
클라우드
플라스틱
한국사이
항만공사
해외주식
홈플러스
(0000
(2228
):46(
):49(
300]]
3010-
6,000
KOTRA
actur
~2019
##(02)
##043%
##075%
##101%
##1071
##1100
##126%
##1278
##1297
##1306
##1387
##1400
##1447
##1940
##1962
##1981
##1998
##2001
##2003
##2005
##204%
##2052
##2700
##291%
##299%
##321%
##3223
##3387
##339%
##433%
##4800
##5005
##598%
##6812
##7370
##8900
##938%
##Card
##FOMC
##Gold
##HSBC
##가전제품
##가정에서
##가중되고
##가파르게
##감지된다
##개미들이
##개발하고
##개발했다
##개최한다
##건설사업
##격려하고
##결정하는
##경기관광
##경기회복
##경영전략
##경영전문
##경영현황
##경쟁률은
##경제상황
##경제충격
##계약서를
##고객만족
##고공행진
##고급호텔
##고매동에
##골드포레
##공간복지
##공공구매
##공급된다
##공영쇼핑
##공유하고
##공인회계
##공장에서
##관리처분
##관점에서
##괴리율로
##교통사고
##구인구직
##구입하고
##국가정보
##국면으로
##국민들은
##국민들이
##국유재산
##국제과학
##국책과제
##규제자유
##그러면서
##금융당국
##금융위는
##급락했다
##급증으로
##기관으로
##기금운용
##기다리고
##기업들에
##기업분석
##기업시민
##기존보다
##기존에는
##기초연금
##나노튜브
##나타내는
##내놓으며
##내륙노선
##내용으로
##넘어서며
##노동부는
##높아졌다
##높아지는
##다운로드
##닫으면서
##대부분은
##대부분이
##대안으로
##대주주인
##대출금리
##대표되는
##덕은지구
##덧붙였다
##도약하자
##도입하는
##동월보다
##동일하게
##돼지고기
##둔곡지구
##등록금은
##디자인과
##떨어졌던
##라가르드
##락앤락이
##래핑도어
##랜드마크
##롯데정밀
##루이비통
##리뉴얼을
##리빙파워
##마사지볼
##마쳤다고
##마케팅을
##마켓통합
##막히면서
##만성질환
##매출액을
##면세점업
##모범규준
##모범사례
##무너지고
##무엇보다
##무항생제
##미니스톱
##미니언즈
##미혼남녀
##민간택지
##민생경제
##반도건설
##반도체와
##반영됐다
##반영했다
##반포자이
##방사광가
##배당금이
##밸류체인
##벌어졌다
##법인세를
##벗어나지
##베이커리
##베트남의
##벤처펀드
##변동성에
##변동했다
##보건의료
##보인다고
##보험사의
##보험업법
##보험회사
##본격화된
##본격화한
##부동산이
##부산지역
##부실채권
##분산투자
##분석업체
##분석하고
##분석하며
##분양하는
##분위기가
##불가피한
##불어넣기
##불편함을
##브랜드별
##비상경영
##사망자가
##사업구조
##사업비를
##사이에서
##산업대상
##살펴보고
##상장폐지
##상태에서
##상품에는
##생각하는
##생산공장
##생생하게
##서울시의
##서초구에
##선방했다
##설명회를
##성공하면
##성장세가
##소개했다
##소득공제
##소마젠이
##솔루션을
##수의계약
##수출물량
##수출하는
##순손실은
##순위에서
##스니커즈
##스탠다드
##시너지를
##시달리고
##시리즈의
##시민들의
##시행하는
##신규채용
##신성장동
##신축공사
##실라키스
##실업급여
##실질적인
##실행하는
##싱글몰트
##아메리칸
##아우르네
##아이오닉
##아이티엠
##아이파크
##악화됐다
##않는다는
##않으면서
##알뜰주유
##알파벳이
##양적완화
##어디서나
##어린이를
##어린이집
##에듀테크
##엔비디아
##역배열을
##연구기관
##연기했다
##연합뉴스
##영남지역
##예상되고
##예약판매
##오늘부터
##오리온은
##오픈하고
##온실가스
##올리브영
##올스페이
##요구하고
##우세하다
##우주부품
##운전자가
##웹세미나
##위기대응
##위기에도
##위축되는
##유지하는
##유통업종
##유틸리티
##육성하기
##의미하는
##의사결정
##의정부시
##이뤄진다
##이마트가
##이스라엘
##이어가며
##이어질지
##이용하면
##이익창출
##인도에서
##인사말을
##인수하는
##인수하며
##인수한다
##인천검단
##일원에서
##입주자격
##있다사진
##자금난을
##자동차를
##자산매각
##자유로운
##작용하고
##장례식장
##재판부는
##저렴하게
##전개하는
##전기요금
##전문투자
##전세기를
##전시장을
##전역에서
##전통적인
##전해졌다
##정리했다
##정무수석
##제조기업
##제조하는
##제품에서
##조달시장
##조세특례
##주관으로
##주도하는
##주목하라
##주목해야
##주민들이
##주상복합
##주재하고
##중단하고
##중단했다
##증가세를
##증가율은
##증가율이
##증권사를
##증권회사
##지난해와
##지드래곤
##지분율은
##지원대책
##지원으로
##참여자를
##창업자금
##창업자인
##채무보증
##채무상환
##채용시험
##천연가스
##첨단의료
##청년들을
##청라국제
##추가됐다
##추진된다
##출발했던
##측면에서
##카카오톡
##캐모마일
##커졌다는
##컨퍼런스
##코로나로
##코세어는
##콘크리트
##트위터에
##특별공급
##특별대책
##특별할인
##특허권을
##파악됐다
##파인애플
##판결했다
##판단했다
##판매량을
##편성했다
##평가하는
##폭락했다
##푸르지오
##필수인력
##하락폭을
##하락폭이
##하반기에
##한국석유
##한국시간
##한국외식
##한국인의
##한국철도
##한정으로
##한화토탈
##합격자를
##항공권을
##항공화물
##해결하기
##해결하는
##해석된다
##해외건설
##해외선물
##행사에는
##혁신수요
##혁신적인
##현대리바
##형식으로
##호반써밋
##혼조세를
##화상상담
##확대되고
##확인하고
##확인했다
##환기유니
기업은행의
농협은행과
대학교병원
두산중공업
라잇브루잉
리식품으로
마포하우징
매수선택권
보겠습니다
사업본부는
사이언스는
산업은행법
삼성전자와
선물인버스
수소엑스포
신한나기자
억원이라고
연구소에서
올리브영은
위원회에서
자원관리실
정표시장치
제일제당은
황금올리브
(013%)
(179%)
(221%)
(255%)
untact
##'2022
##1,200
##1101%
##19~25
##2019'
##2020’
##299%,
##53231
##59~10
##62203
##Brand
##COVID
##Label
##NAVER
##hanna
##거리두기로
##게티이미지
##경진대회는
##고용대란이
##공동브랜드
##광주은행은
##구성원들을
##구축했다고
##국가공무원
##국무회의를
##국제유가의
##국제회의업
##금융시장이
##금융위기가
##기자재업계
##기저효과로
##기준금리가
##기준환율을
##네트워크를
##뉴발란스와
##다가오면서
##다우지수는
##대림산업은
##대우건설과
##대표적으로
##대학일자리
##대한민국의
##대한항공의
##두산밥캣의
##두산퓨얼셀
##매일경제와
##매칭플랫폼
##메디톡스의
##모바일뱅킹
##모터매거진
##무선이어폰
##민간경력자
##바이오산업
##방사선관리
##벤처캐피털
##보건복지부
##복지기관에
##본격화되고
##부본부장은
##불확실성은
##브리핑에서
##사무실에서
##산하기관인
##새마을금고
##서울시교육
##설문조사를
##성공했다고
##성인영양식
##소비자들은
##소비자에게
##소상공인은
##소상공인이
##소프트뱅크
##솔루션이다
##스타트업에
##스타트업을
##스텝다운형
##스폰서십을
##시장에서도
##식기세척기
##신세계그룹
##신용카드인
##아이디어로
##아이오케이
##안방보험은
##안정적으로
##업종별로는
##에너지센터
##여의도에서
##연구위원이
##영업적자를
##오픈한다고
##오피스텔이
##우리나라가
##은마아파트
##의료기기는
##이스타항공
##인도자동차
##인증기관인
##일관제철소
##일반물자류
##자동차대출
##자본시장법
##자연스럽게
##장애인연금
##재건축조합
##적용한다고
##전달했다고
##전문가들이
##전문인력을
##점유율에서
##정유업계가
##제니퍼룸의
##주식시장에
##주식시장을
##주식시장의
##주식시장이
##주택재개발
##중견기업의
##중앙은행의
##증가했으나
##증설한다고
##지속가능한
##지역에서는
##직거래장터
##집중적으로
##집중충전소
##창업기업을
##청년들에게
##청호나이스
##체감경기가
##출범한다고
##취소되면서
##치열해지고
##카드사들이
##카메라모듈
##커넥티비티
##컨테이너선
##턴어라운드
##통화스와프
##투자의견을
##투자주체는
##특수고용직
##파리바게뜨
##파산법원에
##패러다임이
##패스트푸드
##프놈펜상업
##피치솔루션
##하락하면서
##한국수출입
##한국은행과
##할인행사를
##항공업계가
##헤럴드경제
##현대건설에
##현대건설이
##현대로보틱
##현대카드와
##협약식에는
##호반건설이
##홍대입구역
##확대하기로
##효과적으로
##효성그룹이
##효율적으로
부동산정보광
비즈니스벨트
상장지수증권
상장지수채권
시장진흥공단
탄소정보공개
프레시포인트
했습니다금일
(-004%)
ufactur
##0~025%
##192277
##194756
##202004
##Credit
##건대스타시티
##고용노동부에
##고용노동부의
##공공임대주택
##국제업무단지
##금융권에서는
##금융서비스를
##금융업업종의
##금융위원회와
##기아자동차가
##누적수익률은
##뉴욕증시에서
##다세대주택의
##다중면역진단
##대신파이낸스
##도시개발사업
##동아에스티는
##디자인스킨과
##레저상해보험
##렘데시비르의
##롯데마트에서
##마이너스이고
##메리츠증권의
##보툴리눔톡신
##사업보고서를
##삼성복지재단
##삼성자산운용
##수소연료전지
##수요예측에서
##수익형부동산
##신용평가회사
##아세틸콜린의
##얼어붙으면서
##오상헬스케어
##외국인투자자
##원동나래구역
##유가증권시장
##은행연합회는
##자녀장려금을
##재난지원금을
##전거래일보다
##전년동월대비
##전문기업으로
##정부서울청사
##종합부동산세
##중소기업들이
##중소기업에게
##중소기업제품
##출발했습니다
##컬래버레이션
##토픽스지수는
##투자자들에게
##포스코건설은
##프랑크푸르트
##프로탄바이오
##한국감정원이
##한국거래소는
##한국고용정보
##한국산업기술
##한국신용정보
##한국중견기업
##한화투자증권
##행정안전부의
##현대자동차는
##황금연휴에도
노인인력개발원
녹십자엠에스는
디바이스솔루션
쎄를라잇브루잉
인베스트먼트가
중소벤처기업부
트레이딩시스템
한국사이버결제
현대산업개발이
(051910)
(066570)
##Preview
##fnRASSI
##감시대상국에서
##개인투자자들이
##기간통신사업을
##긴급사용승인을
##대한적십자사는
##동구바이오제약
##리빙파워센터는
##멀티테크노밸리
##무역안보정책관
##미래에셋대우가
##서울신라호텔은
##수원사업장에서
##신경전달물질인
##신세계디에프에
##아모레퍼시픽의
##아모레퍼시픽이
##아이티엠반도체
##이베이코리아가
##인프라스트럭처
##인허가데이터를
##자산유동화증권
##재개발정비사업
##조세특례제한법
##최종품평회에서
##프로바이오틱스
##한국수력원자력
##공정거래위원회가
##두산인프라코어와
##마감했습니다금일
##삼성바이오에피스
##서울부동산정보광
##신동탄포레자이는
##안방보험으로부터
##예비타당성조사를
##인터넷전문은행인
##중소기업중앙회가
##즉석조리식품으로
##카카오페이증권의
##코람코자산운용이
##키다리스튜디오는
##통상교섭본부장은
##폭스바겐코리아가
##한국소비자포럼이
바이오사이언스에서
ufacturing
##니혼게이자이신문은
##빅히트엔터테인먼트
##서울디지털산업단지
##식품의약품안전처에
##인도자동차제조협회
##중앙방역대책본부는
##국제과학비즈니스벨트
##대신파이낸스센터에서
##상온물류서비스센터를
##소상공인시장진흥공단
##카카오엔터프라이즈와
##한국건설산업연구원은
미래에셋상생플러스펀드
##한국농수산식품유통공사
!’
"'
"[
'/
']
-4
3'
3’
9,
:0
>△
?’
AL
BD
BO
Bu
DW
EA
EZ
Fn
GA
GT
HC
HI
KL
LO
Li
MD
NN
PM
PU
Ph
QV
UT
VS
WM
WP
YC
](
bs
ci
em
ez
pe
pp
sp
xc
~2
ᄋᄋ
##Y
##v
##–
##■
##●
##〈
##갓
##궁
##깔
##꼼
##끓
##낭
##딱
##랭
##립
##맑
##멜
##뽐
##샀
##씹
##얇
##옛
##옳
##옴
##왔
##윌
##좁
##짐
##짙
##짜
##쪼
##춘
##칸
##튼
##팜
##펌
##펭
##핵
重慶
가맹
가수
가칭
간다
간접
강도
검색
검증
결혼
계양
계정
고기
고려
골목
곳과
공계
공고
구로
구석
구의
구인
군의
권은
권자
규정
그널
그러
금지
금호
급매
기지
기회
길과
김병
김치
꾸라
꿈의
끈한
나마
난을
남미
남방
남춘
낸스
넷은
년말
년제
년차
노수
농촌
니까
닉스
다이
다즈
단과
단절
담대
당초
대별
대성
더벨
돌밥
동남
동명
동석
동의
두리
두에
드대
드시
디션
디스
딜러
라거
라반
라운
랩의
량과
러닝
러블
럼을
레모
레트
렬한
렸고
령안
령이
로도
루페
리큘
리퍼
림이
립앤
릿고
마는
마스
매실
메드
메딕
면을
명당
명령
문의
문자
물품
뮤즈
므로
민규
민정
밀한
바꿈
바디
바람
바로
바지
받침
발효
방에
방울
범죄
법무
베스
변성
별도
보를
본다
봉사
북부
분과
블리
비리
비시
비텍
빨리
삭한
산연
삼현
생계
서에
서영
설을
설턴
성균
성원
세진
센타
소각
속초
손보
승조
시대
식과
신애
신약
실험
써니
씨로
씨를
아우
아울
액화
어난
어민
어업
어져
언론
에요
에코
엔드
엔셜
엔지
엘리
여자
역은
연이
연한
열현
영어
영종
예고
예를
오염
오전
오토
오티
온스
요구
우미
우에
월엔
웨더
위권
윤정
의자
의학
이니
이의
이홍
인도
인명
일대
일드
일지
임러
있게
있어
자닌
장수
장위
장인
재개
재권
재를
재택
재편
저작
저트
전재
정원
정화
제출
조절
조트
종원
주군
준필
중립
즈와
증상
지트
직무
직접
집중
집행
찌개
처에
천군
천점
철우
철을
청주
촉진
총액
충남
층이
치가
카스
컴업
코르
쿠팡
쿠폰
큐브
크와
키고
킴스
탄신
탔다
태양
텍터
토록
트릴
트에
특가
특화
티드
팀을
팅크
파를
판을
팬톤
편이
포인
폴디
표시
필름
하남
하니
하듯
하에
함과
함께
합의
헤시
현실
현한
혈병
혈압
혔고
형의
형인
화권
황이
회관
회차
효조
희망
(0)
(21
(37
(52
(59
(63
(86
)’,
-10
123
125
140
141
193
209
210
24%
245
278
296
325
339
41(
455
48(
494
51(
580
632
650
793
841
866
872
AAD
ABS
ASP
BTS
FnC
HUG
ITs
KAI
KPS
LNG
NIM
PCR
SCM
Sig
UNI
aeb
ank
ced
eun
fnn
igh
ill
inq
lex
msd
nal
osi
ost
tic
ude
vel
~34
~50
##AR
##Au
##CE
##IC
##IN
##JT
##PB
##Pr
##QD
##QR
##TS
##sd
##가다
##가해
##각오
##각인
##감원
##강다
##갖출
##갖춰
##같아
##개관
##개통
##객원
##검은
##겨우
##격인
##겪을
##결심
##경계
##경색
##고소
##고조
##골퍼
##곳도
##공방
##공연
##공터
##공통
##과감
##교내
##구분
##구이
##군은
##그것
##그램
##그칠
##근린
##근절
##금고
##기고
##기재
##기피
##김규
##김기
##김병
##깊어
##깊은
##깊이
##끊겨
##끼고
##난임
##남녀
##남을
##내보
##내실
##내정
##냉각
##냉장
##넘고
##넘긴
##넣은
##논쟁
##농심
##높고
##누수
##눈을
##느껴
##다방
##닥터
##달래
##달여
##달해
##답변
##당진
##대행
##더벨
##덕성
##덕양
##덮친
##도달
##도마
##독거
##독보
##돌고
##동국
##동전
##동화
##됐던
##두달
##등락
##등산
##디미
##땅콩
##뜻을
##레벨
##로또
##로보
##마디
##마땅
##마시
##막아
##막혀
##만한
##많고
##많지
##말라
##말씀
##맞대
##매진
##맺은
##머니
##머무
##먹여
##멈추
##모나
##모던
##모르
##모토
##목요
##몸값
##몸집
##무렵
##무색
##묶은
##문래
##묻는
##물품
##뭉칫
##미사
##미쓰
##민사
##민족
##바꾼
##바다
##박나
##박람
##박주
##반대
##반박
##반품
##발돋
##밟고
##방학
##버밍
##버티
##법규
##벤치
##변수
##보태
##보탬
##복원
##부스
##분주
##불붙
##브루
##비축
##비켜
##빼돌
##뽑아
##사드
##사채
##삼아
##삼영
##상쇄
##상은
##상표
##새싹
##생겼
##생긴
##생닭
##생오
##서대
##선별
##섰다
##성격
##성주
##세워
##세포
##섹터
##소자
##손보
##손에
##수두
##수백
##수순
##수제
##수탁
##순익
##순항
##술집
##쉬운
##슬로
##승차
##시상
##시음
##식감
##식초
##식탁
##신림
##신체
##실효
##심상
##쌓은
##쌓인
##썼다
##씽큐
##아르
##아름
##아쿠
##안건
##안성
##앞을
##앱의
##야놀
##양분
##양육
##어떨
##어울
##억눌
##얻은
##엄선
##에센
##에프
##여가
##연쇄
##열을
##열풍
##예민
##오너
##오를
##오염
##오일
##오지
##옥죄
##온열
##올레
##옮긴
##완도
##외관
##왼쪽
##욕실
##용수
##우드
##우든
##워크
##원익
##원주
##원화
##위주
##위태
##유경
##유급
##유병
##유혹
##음원
##의왕
##이경
##이계
##이력
##이차
##이천
##이태
##인적
##인프
##일손
##입법
##입출
##잠시
##장려
##장식
##장어
##장외
##장착
##장터
##장현
##재가
##재미
##재발
##재외
##적게
##적시
##적어
##적을
##적이
##적절
##전인
##전입
##전투
##점점
##접사
##정점
##제넨
##제언
##제정
##조명
##종부
##종소
##좋지
##주부
##주저
##주총
##줄일
##중과
##중형
##즉각
##증명
##지위
##직관
##직행
##진산
##진주
##차근
##차돌
##차장
##찬성
##창동
##처벌
##청사
##총회
##최다
##최성
##최진
##추대
##축산
##출사
##출혈
##충당
##충청
##치를
##침구
##카셰
##커졌
##컨버
##코디
##코웰
##쿠캣
##쿼드
##키워
##타인
##탑승
##털어
##파는
##파손
##퍼포
##펌텍
##펩타
##포리
##포브
##폭탄
##품격
##풍력
##피로
##필지
##한꺼
##한독
##한울
##한전
##합산
##항상
##행동
##향한
##허리
##헬스
##협상
##호남
##호전
##홍성
##환불
##환전
##활력
##후원
##휴림
강진형
개소가
개월분
거하고
건수가
건수는
경영에
고위험
공사와
공사의
공업우
관계를
관리에
규제를
금리는
금액의
기간도
기구인
기획실
김용범
김지헌
냈다고
년간의
년여간
노동력
노래방
노비타
노수윤
뉴타운
닷컴은
대기술
더불어
덱스터
된다는
된다면
들제약
디케이
랫동안
레미콘
레이더
레이팅
르나스
리어드
리케이
마데카
만가구
만명에
만원인
만이다
만큼만
맞춤형
메리츠
면적은
명이며
모델로
문에서
미공개
미사일
바이옴
박선미
박스를
박재석
박준환
방대본
법인의
변호사
병원에
보다도
보장을
본부에
부문이
부산시
부스를
부유식
부터는
분기의
사업비
사장비
사태를
사한다
상업자
생태계
생활을
서에는
서정식
성과를
세니타
세라믹
세운맵
센서스
소비가
손익이
수도권
수산물
스티지
시그널
시설은
시장과
시키고
식약처
식에서
신동주
실리콘
심사를
십자는
씨엔에
아난티
아세미
아울렛
았으나
앤에스
양문형
어스와
억원은
억캔을
업계와
업소의
업체와
었는데
에서의
엠코와
여전사
여종을
옌타이
오늘의
오다가
와이즈
요소를
우리가
워주는
웍스의
월드는
유가가
유공자
유동성
유로에
유보라
유업은
융합형
으로의
은행권
이베이
이스는
이홍석
인들이
인에게
인으로
인포에
일에도
임성균
자들과
자리는
자조금
자지수
재교육
절벽에
정관장
종이다
주들이
주만에
중간체
증권이
지금은
지면적
지사가
지사는
지수를
지수의
지역용
차산업
참좋은
체계가
체계를
케미컬
코트라
타운홀
태평양
통합당
트렌드
티아이
판에서
팔래스
패턴을
팬데믹
평가를
평가사
포레나
포스코
포터즈
폴리텍
품으로
플란트
피자가
하려고
하려면
한다면
할만한
항암제
해상도
혁명의
홈카페
홍성원
환경에
환경이
회사채
회째를
휘발유
휴직을
(+20
(+22
(+23
(+44
(-09
(-12
(009
(010
(013
(070
(115
(118
(13:
(214
(240
(298
,400
1300
1309
15%)
1700
2900
3800
3975
45%)
450)
4886
5300
590)
5900
5925
60),
71%)
7200
81%)
8500
95%)
LTRO
OLED
OSCO
Prop
STAR
Shop
acti
ange
bell
echn
hoto
ness
urne
##"10
##-13
##02-
##103
##113
##126
##132
##148
##165
##178
##184
##1~3
##2,0
##202
##210
##228
##237
##24,
##257
##262
##296
##3,0
##325
##343
##370
##373
##396
##411
##416
##457
##465
##49(
##530
##538
##540
##594
##643
##661
##705
##740
##743
##746
##765
##78%
##795
##901
##925
##948
##965
##97%
##ABS
##BBB
##BSI
##CNS
##CRO
##DNA
##EBS
##ESG
##LCC
##Oil
##RBC
##RPA
##USO
##for
##goo
##‘18
##가격과
##가리지
##가하고
##간단한
##감안한
##강남점
##강도는
##강서구
##강화할
##갖추고
##갖췄다
##개념을
##개발로
##개선될
##개장과
##개장해
##개척에
##거대한
##거두고
##걸렸다
##격차가
##결제한
##경력직
##경로를
##경상남
##경제와
##경찰청
##경험을
##계속될
##계약에
##계약이
##계좌를
##계획에
##고객들
##고고도
##고구마
##고령자
##고혈압
##곡선을
##공모전
##공모한
##공시된
##공시에
##공시한
##공정한
##과천시
##관람객
##관리할
##관심과
##관측도
##광고는
##교체할
##구입한
##규정은
##그래픽
##그레이
##근무를
##근접출
##금값이
##금리로
##금리인
##금액의
##금투협
##급부상
##기대는
##기대에
##기대치
##기대할
##기록했
##기름을
##기미를
##기업가
##기준에
##기준의
##기흥구
##김성남
##김세웅
##김지찬
##김지훈
##김현준
##꾀하고
##끌어모
##나만의
##나서며
##나타났
##나타냈
##남짓한
##내놓는
##내놓았
##내리는
##내세운
##내세워
##내외의
##노동규
##노선에
##높다고
##높았다
##누리는
##늘리기
##다각화
##다르게
##다목적
##다음과
##다임러
##다주택
##닫았다
##달성한
##달성할
##달성해
##대구역
##대내외
##대상에
##대상자
##대응해
##대장균
##대전이
##대학이
##대화를
##대화면
##도입이
##동기와
##동백전
##동북권
##동생인
##되살아
##두기가
##두산은
##뒷받침
##들어갈
##들어온
##들었다
##디렉터
##디저트
##따라서
##뜻으로
##뜻하는
##라운드
##라틴어
##런던에
##레시피
##렉서스
##로드맵
##록다운
##리더십
##리스트
##리터당
##릴리프
##마시는
##마진콜
##마켓컬
##마포구
##만났다
##만들기
##많게는
##맡았다
##매도에
##매매대
##매물이
##매수로
##매수와
##매장의
##매장인
##매출도
##메뉴로
##메시지
##메자닌
##무인매
##무증상
##문화업
##물가가
##미래를
##미래형
##미생물
##미스터
##미용실
##민감한
##바뀌고
##바람을
##바람직
##바삭한
##바텍이
##박남춘
##박새롬
##박수현
##박준희
##밖으로
##반영돼
##발사체
##발언을
##발전을
##발표에
##발행이
##방대본
##방사성
##방식이
##방식인
##방안이
##방역을
##방침을
##배성수
##번째로
##벌어진
##베이지
##베일을
##변동이
##변수가
##변화는
##변화된
##별도의
##보너스
##보도에
##보라매
##보여줬
##보톡스
##보험에
##복수의
##볶음밥
##본사가
##부분의
##부실을
##부업을
##부유식
##부처가
##분기별
##분석과
##분석에
##분야는
##분쟁에
##불러온
##브레인
##비덴트
##비은행
##비즈니
##비행체
##빅테크
##빙자한
##빠르고
##사라질
##사람도
##사랑을
##사로잡
##사망자
##사태는
##사흘간
##산업부
##살리고
##살림살
##살아날
##상당수
##상당한
##상당히
##상승이
##상승할
##상용차
##상품인
##상품죽
##상한제
##상회한
##생각에
##생각을
##생산자
##생산할
##서울동
##서한을
##선도할
##선언한
##선택할
##세련된
##세미나
##세이브
##세이프
##소비에
##소속사
##손상을
##송하늘
##수많은
##수억원
##수요는
##수주전
##수차례
##수출할
##순영업
##순위가
##순으로
##숨통을
##스스로
##스티커
##스페코
##슬립앤
##시민이
##시설로
##시작될
##시장도
##시코르
##식사를
##신모델
##신재생
##신청은
##신청한
##실질적
##실태를
##쌍방울
##쓰이는
##씨준생
##아버지
##아이비
##아이스
##아직도
##악영향
##악화를
##안산시
##안효조
##않다는
##알뜰폰
##알루미
##암울한
##압구정
##앞에서
##애플과
##양국이
##양방향
##양질의
##언제든
##얻었다
##엄청난
##업계도
##업데이
##업체와
##에디션
##에비에
##엔화는
##엠디뮨
##엠브라
##여름을
##여부가
##여수시
##여야는
##역부족
##역사를
##역성장
##역으로
##연결성
##연휴에
##열악한
##영역을
##영향력
##예년에
##예정일
##오거돈
##오메가
##온누리
##온택트
##올웨더
##올인원
##올해만
##올해와
##올해의
##옮기고
##완전한
##외교부
##요구가
##요소로
##우상향
##우선주
##운영사
##운전할
##원금을
##원리금
##원산지
##원스톱
##원승연
##원자재
##원재료
##원칙을
##월요일
##웨스턴
##위원은
##위협이
##윈스는
##유동균
##유입이
##유효한
##윤열현
##윤일지
##의견은
##의류업
##의무를
##의수를
##이것은
##이권형
##이날은
##이내에
##이동훈
##이뤄낸
##이뤘다
##이상은
##이어폰
##이외에
##이익은
##이자를
##이재은
##이처럼
##이철우
##이하의
##이행을
##이현주
##이후를
##익숙한
##인기는
##인수가
##인증제
##일대가
##일본이
##일요일
##일원화
##일으킨
##일정에
##임기를
##입구에
##입었다
##입장이
##입점한
##입지를
##있는지
##있어야
##자격증
##자리에
##자취를
##자치구
##작성한
##작용할
##장비를
##장세를
##장시간
##장인상
##장준필
##재계와
##재고가
##재현한
##재확인
##저장고
##저평가
##저희가
##전략과
##전제로
##절감과
##절감을
##절반을
##접어든
##정책은
##정한결
##정확한
##제기된
##제너럴
##제주의
##제치고
##제한이
##조성에
##조성할
##조성훈
##조현아
##좋아질
##주장에
##주체는
##주택형
##준중형
##줄었기
##줄이는
##중국은
##중에는
##중위험
##증설을
##증설이
##지급한
##지급할
##지붕은
##지수도
##지원책
##지재권
##지점에
##지주사
##지표를
##직원은
##집중해
##집회를
##쪼그라
##찍었다
##차트를
##참여자
##참좋은
##채권과
##처리한
##천호점
##첫번째
##청년의
##체어맨
##총재는
##최고층
##최대다
##최동수
##최초다
##추세가
##추출물
##출고된
##출생연
##출시는
##출퇴근
##충격과
##취업자
##취지에
##치과용
##치료에
##칠서면
##침체를
##카드로
##커리큘
##콘셉트
##콜라겐
##클래식
##클럽은
##클럽을
##타임딜
##탈바꿈
##토대로
##통계가
##통계에
##통로로
##통해서
##특가전
##특징은
##티셔츠
##파일럿
##판단해
##판데믹
##펀드는
##포부다
##포함돼
##표시해
##표준화
##표출된
##품목별
##품종을
##프라임
##피의자
##피하기
##필요로
##필요에
##하겠다
##하나가
##하는데
##하락과
##하락은
##하소연
##한도가
##한숨을
##한시적
##한자리
##할인과
##함유해
##합병을
##합성어
##해제를
##핵심은
##행사다
##행사인
##향상을
##향하는
##현금성
##현금이
##현대미
##현재는
##혐의를
##협업한
##혜택은
##홍보와
##화요일
##화웨이
##확대가
##확대될
##확산의
##확산한
##확장에
##확정해
##활동에
##회사다
##회원이
##회의에
##휴식을
##휴온스
##휴테크
##흑자를
##희망퇴
##히어로
건전성을
경기전망
경영정보
고무벨트
고용노동
공공지원
교육원은
교통지역
그린수소
근로자의
기술협력
기정통부
기후변화
깜짝실적
넥스원은
년대부터
년여만에
노동조합
니케이션
대책회의
들에게는
루페인트
르노삼성
마이송금
마이써니
마진거래
만달러로
매출액은
모델들이
모태펀드
바이오팜
방식으로
방어체계
보복소비
보엠이씨
보증공사
브레이크
비상경제
사업단은
산업협회
상품권을
상호변경
생태계를
서영건설
수적으로
슬기로운
시간부터
시킨다는
신도시에
아임레디
암호포럼
연구소에
오마하의
오피스텔
월물에서
월부터는
위안이고
위원회와
입생로랑
자문센터
저작권자
전문기업
전용면적
제로페이
졌습니다
주식회사
진단키트
첨단소재
컨센서스
팅크웨어
파운드에
폭스바겐
플라즈마
플레이션
하겠다며
하우스를
한국은행
해각서를
헤시라스
현대건설
현대제철
협상대상
협의회는
(0030
(0326
(1099
):41(
):48(
):51(
10155
2,000
30%),
4,000
63%),
Hicar
REITs
THAAD
aebae
aymsd
eunmo
hange
##001%
##007%
##014%
##015%
##019%
##106%
##1380
##1383
##140%
##1509
##151%
##1810
##1836
##197%
##200,
##2262
##2378
##2600
##264%
##282%
##2882
##3078
##331%
##334%
##3499
##363%
##3820
##411%
##419%
##678%
##7920
##8172
##857%
##9986
##CORE
##Keys
##OPEC
##USTR
##Wrap
##cinq
##‘100
##가능성에
##가능성은
##가동률이
##가동한다
##가상통화
##가입하면
##가정의달
##가졌다고
##각광받고
##감사부문
##감소세를
##강남호텔
##강다니엘
##개발됐다
##개발업체
##개선하고
##개장했다
##갤러리아
##건의서를
##건의했다
##건전성에
##겪으면서
##경고했다
##경기도민
##경기도에
##경력단절
##경영실적
##경제방송
##경제의지
##계양전기
##계열사로
##계획대로
##계획하고
##고전하고
##골목상권
##골프웨어
##공급과잉
##공급망을
##공유주방
##공유하는
##공터에서
##관세법인
##관악구는
##관측된다
##교육부와
##교촌치킨
##교통량은
##구매하기
##구성했다
##구입하면
##구제역은
##국가안보
##국민에게
##국부펀드
##국제시장
##규제특례
##근무환경
##금융권의
##금융안정
##급등세다
##기념으로
##기록이다
##기록하는
##기술력에
##기술혁신
##기업가치
##기업실적
##기업활동
##기획했다
##길리어드
##내국인과
##내년까지
##넘어서는
##넘으면서
##네덜란드
##넷마블은
##노랑풍선
##노르웨이
##노바렉스
##농진청은
##누적매출
##누적판매
##뉴발란스
##뉴욕타임
##늘어남에
##단지에서
##대량으로
##대응방안
##대책으로
##대치리에
##대학평가
##덮밥소스
##데이비드
##돌파하며
##동결했다
##동참하고
##됐습니다
##떨어지고
##랩지노믹
##레드벨벳
##렌터카를
##롯데온은
##롯데온의
##마르퀴즈
##마세라티
##마을버스
##마케팅이
##마힌드라
##만들어진
##매각했다
##매트리스
##맵플러스
##메디톡신
##면역력을
##모두에서
##목표가를
##못지않은
##무단전재
##문화요인
##미쓰비시
##민간임대
##바뀌었다
##바닥까지
##반도체를
##반등했다
##반영되는
##반전했다
##받아들일
##받았다는
##받으면서
##발전하는
##발표하는
##방송에서
##배드뱅크
##배터리에
##베트남에
##베트남이
##변경된다
##보였으며
##보조금을
##보험상품
##보호하기
##본격화될
##부동산에
##부문별로
##부장검사
##부합했다
##분석하여
##분자진단
##브랜드는
##블랙박스
##블랙야크
##비해서는
##빨간불이
##사내벤처
##사람에게
##사업권과
##사업부가
##사업자로
##사업장은
##사업장을
##사업총괄
##사태까지
##삼영이엔
##상가정보
##상단까지
##상생기금
##상승세로
##상승폭이
##상용화에
##상장예비
##상황으로
##샌드박스
##생계급여
##생산량이
##생산하고
##생오리고
##생필품을
##서류전형
##서버자동
##서울고법
##석가탄신
##선발한다
##선전성분
##선정되는
##선호도가
##설계했다
##성공적인
##성분으로
##성수기인
##성암빌딩
##성우테크
##성장률은
##성장하는
##성적표다
##센텔리안
##소비지출
##소셜벤처
##쇼핑몰의
##수용률은
##수준에서
##수출액은
##순매도를
##순유출이
##스마트화
##스페이스
##시세차익
##시스템이
##시장전망
##시정명령
##시행계획
##신규확진
##신청했다
##신혼부부
##실물경기
##실시하는
##실직자와
##심사에서
##아우르는
##아이들이
##아이파킹
##아파트다
##악재까지
##악화하고
##안전관리
##않았다고
##않았다는
##앞당겼다
##양상이다
##양성하기
##업무시설
##업종단체
##업종대비
##업종에서
##업체에서
##없습니다
##엇갈리고
##엘리니티
##역세권에
##연구팀이
##연속으로
##연수생을
##영원무역
##예민해진
##예정으로
##오가닉티
##오전부터
##올해에는
##완료되면
##외화자산
##왼쪽부터
##요구된다
##울산시는
##울트라콜
##위메프는
##위세아이
##위원장은
##위축되고
##유관기관
##유례없는
##유용하고
##유튜브를
##유한책임
##육류가공
##은행으로
##응답자의
##의료기관
##의정부동
##의존도가
##이동제한
##이랜드는
##이름으로
##이벤트도
##이사장은
##이사회와
##이어졌다
##이어진다
##이외에도
##이차보전
##이태원동
##인민은행
##인스탁스
##일러스트
##일상에서
##일자리에
##임대주택
##입주물량
##입증되면
##자가격리
##자동이체
##자동차나
##자동차용
##자리에서
##자산으로
##잠정실적
##장기대출
##재개된다
##재개한다
##재정증권
##재학생과
##저장량에
##적극행정
##적용했다
##전기분해
##전기차에
##전달식을
##전달하는
##전문가들
##전북은행
##전일보다
##전해수기
##전화번호
##전환됐다
##점검하고
##정책대출
##제도요인
##제품개발
##제품들을
##제품들이
##조달청장
##조사대상
##조성되는
##조성되며
##조언했다
##조정됐다
##종근당이
##종사하는
##종이목재
##종합관리
##주관기관
##주식투자
##주어진다
##주요산업
##주인공은
##주최하고
##주택산업
##준비하자
##줄었다고
##줄었다는
##중단으로
##중에서도
##지원받을
##지원책을
##지정학적
##지주회사
##지지부진
##집주인들
##집중됐다
##참가했다
##청년창업
##체로키와
##초입금을
##총회에서
##최근월물
##출근길에
##출사표를
##출시기념
##출시하며
##출시했고
##출하량이
##충격에서
##충족하는
##취업지원
##카네이션
##카메라와
##카셰어링
##캐릭터를
##컨버전스
##케이스는
##케이크로
##코란도와
##코로나가
##콜센터와
##태광산업
##통보받은
##통신장비
##투입한다
##투자자가
##트레이드
##트렌드로
##특별대출
##특장점을
##파급효과
##파트너십
##판단하고
##패션부문
##퍼포먼스
##폭락세로
##폭락세를
##하락하고
##하반기로
##하이일드
##하이트진
##학생들이
##한국주택
##한국토익
##한꺼번에
##할인하는
##할인한다
##합작회사
##항공업계
##해외금리
##해외조달
##허덕이고
##허용된다
##혁신금융
##현상으로
##협력사다
##협력사와
##화장품을
##확정하고
##활성화와
##효율성을
##후보물질
##후분양은
##휘청이고
##휴림로봇
경제연구원
국가유공자
국민은행은
금융위원회
등학교에서
라젠이텍스
롯데백화점
롯데홀딩스
배달의민족
산업진흥원
생활건강이
서프라이즈
세븐일레븐
손해보험은
스터디교육
스테이션은
전문의약품
진흥협회와
카카오은행
하겠습니다
(117%)
434572
Signal
##-045%
##1,930
##136%,
##1502%
##1585%
##1614%
##2020-
##2517%
##28814
##292%,
##5,000
##6,000
##63890
##Crude
##POSCO
##Value
##가격제한폭
##가능하도록
##가동한다고
##감소했으나
##갑작스러운
##강화한다고
##개인정보를
##거래대금은
##거래대금이
##거리두기의
##건설산업을
##건조지역용
##경제활동을
##계약기간은
##고시환율은
##고용보험법
##공공기관을
##공공기관이
##공공일자리
##공시했다고
##관련주들이
##관리시스템
##광주광역시
##교육과정의
##구원투수로
##구체적으로
##구축하기로
##국제유가는
##금융서비스
##금융위기를
##금융지원에
##금융플랫폼
##금융회사의
##금호타이어
##급증하면서
##기간산업에
##기록했으며
##기술력으로
##기술협력을
##꽃바구니를
##눈덩이처럼
##뉴욕증시의
##대기업집단
##대손충당금
##대한항공에
##도이치모터
##도입했다고
##동원산업은
##두드러졌다
##두산솔루스
##디미트리스
##디자인으로
##론칭한다고
##롯데그룹의
##롯데홈쇼핑
##리모델링을
##마찬가지다
##매각하기로
##매매주체는
##면세물품의
##면세업계의
##미래자동차
##미래통합당
##바이오기업
##바이오니아
##반도유보라
##반복적으로
##발탁했다고
##배송해주는
##벤처기업의
##본격화하는
##비상교육은
##비트코인이
##빅스트림은
##사전판매를
##사회적경제
##산업생산이
##산업은행법
##산업은행이
##삼성전자우
##삼성증권에
##상승했으며
##상황실에서
##생명보험사
##생산능력을
##생활패턴을
##샤르자에서
##서울디자인
##선행조건이
##세대융합형
##소독제품을
##소비심리는
##소상공인에
##수요예측에
##수요자들의
##수출한다고
##순이자마진
##스마트공장
##스크린골프
##스타트업이
##슬립앤슬립
##승인금액은
##시스템옴므
##시중은행이
##시행하기로
##식품업체의
##신설한다고
##신청했다고
##신혼부부와
##실거래가는
##실물경제가
##아산사업장
##아이들나라
##안녕하세요
##얼어붙었다
##에미레이트
##에비에이터
##엔지니어가
##엠브라에르
##여수공장에
##연기되면서
##영업실적을
##영업이익과
##영업적자가
##예정이어서
##예정이었던
##오픈마켓을
##온라인몰을
##우리나라는
##웹세미나는
##위해요소를
##유지한다고
##육아휴직을
##의약중간체
##이권형기자
##이어오다가
##이탈리아의
##인민은행은
##인컴자산에
##자동차산업
##자율주행차
##재무건전성
##재무구조를
##재생에너지
##재택근무와
##저장탱크의
##저축은행의
##적응증으로
##전략기획실
##전문업체로
##전문투자형
##전시장에서
##전염병으로
##정무수석이
##제공하고자
##제니퍼룸을
##제로금리를
##제일기획에
##제주항공은
##조달업무를
##조사결과를
##조지아주에
##종합소득세
##종합적으로
##주거안정을
##주식시장은
##주주총회를
##주차장에서
##증가했다는
##증권사들의
##지역상품권
##지원대상은
##지원받는다
##지원사업에
##참여했다고
##창업기업의
##최종적으로
##추진하기로
##취약계층의
##취업시장에
##캠페인이다
##컨퍼런스를
##코인노래방
##큐레이션을
##통화정책을
##투자수요가
##투자심리를
##투자자들을
##투자자에게
##투자전략을
##트랙라인에
##파운데이션
##파이오니어
##팬데믹으로
##폭스바겐은
##품평회에서
##프로그램에
##프로그램이
##프로모션은
##프로젝트에
##프리미엄을
##플랫폼으로
##한미약품은
##항공산업이
##해성그룹의
##해양수산부
##행복플러스
##혁신사업이
##현대엠코와
##현대차증권
##현대캐피탈
##현실화하고
##확정했다고
##환기유니트
##황금연휴에
##흑자전환한
금융투자운용
금융투자협회
기간산업안정
동영상서비스
라임자산운용
레지던스에서
사랑상품권은
원자력발전소
코로나지원금
테크놀로지가
투자자설명회
Private
##193409
##baebae
##감사보고서를
##감사보고서에
##개인투자자가
##고고도미사일
##공동주택용지
##국민건강보험
##국민연금기금
##국제회계기준
##규제자유특구
##금융시장에서
##금융투자기관
##금융투자업계
##기술개발사업
##기술지주회사
##기아자동차는
##기자회견에서
##기초자치단체
##기타서비스업
##네오플로부터
##녹색교통지역
##도시정비사업
##도안신도시에
##두산베어스와
##두산중공업이
##디지털프라자
##로이터통신이
##롯데백화점이
##마켓통합관리
##머니투데이가
##바이오솔루션
##바이오시밀러
##보험계약대출
##본격화되면서
##부동산인포에
##브레인콘텐츠
##사업체노동력
##산업연구원은
##서울동부지법
##선물거래소의
##성장지원펀드
##손소독제처럼
##수출입은행은
##순환변동치는
##시장조사기관
##신재생에너지
##아시아신탁의
##알려드립니다
##어려워지면서
##어린이들에게
##우리금융그룹
##우선협상대상
##위탁운용사로
##유지하겠다고
##융합전문인력
##이랜드월드는
##일부개정법률
##전세계적으로
##제너럴모터스
##조성하겠다는
##지놈앤컴퍼니
##창업판지수도
##카드승인실적
##카카오페이로
##캄보디아에서
##캐리어에어컨
##콜라보레이션
##타미힐피거와
##하이테크밸리
##한국벤처투자
##한국암호포럼
##한국프롭테크
##해외투자영업
##헬스케어펀드
##현대미포조선
##현대백화점은
##현대홈쇼핑은
경영정보시스템
네트워크서비스
리바트스타일샵
주식매수선택권
(001200)
(003490)
##thebell
##건강기능식품을
##공공임대주택의
##국가유공자에게
##국제시장환율은
##국제신용평가사
##미래에셋대우에
##삼성자산운용이
##선전성분지수는
##신동탄포레자이
##신한금융그룹은
##신한금융투자는
##신한금융투자의
##아모레퍼시픽에
##위지윅스튜디오
##유통업종에서만
##인천연료전지는
##인천테크노파크
##적자전환했다고
##중소기업중앙회
##지방자치단체가
##지역사랑상품권
##추가경정예산안
##케이프투자증권
##탄소나노튜브는
##투자자문서비스
##특례수입절차를
##하나금융지주는
##하나금융투자의
##한국무역협회와
##한국야쿠르트가
##한국자동차기자
##한국카카오은행
##한글과컴퓨터는
##한컴라이프케어
##해외주식투자를
##현대렌탈케어는
##현대로보틱스와
##현대백화점그룹
##현대자동차그룹
##화물터미널에서
aymsdream
##cinqange
##gooeunmo
##공정거래위원회에
##대한무역투자진흥
##대한상공회의소는
##더쎄를라잇브루잉
##두나무투자일임과
##롯데월드타워에서
##비상경제대책회의
##뿌리엔터테인먼트
##삼성엔지니어링은
##에이프로젠제약은
##오가닉티코스메틱
##인천국제공항에서
##장기대출프로그램
##재무구조개선계획
##주택도시보증공사
##통상교섭본부장이
##한국고용정보원에
##현대중공업그룹의
##현대중공업지주는
##기간산업안정기금을
##뉴욕증권거래소에서
##미래에셋금융그룹이
##웨스턴조선호텔에서
##주택재개발정비사업
##고고도미사일방어체계
##신사업창업사관학교를
##인천경제자유구역청은
##한국성장금융투자운용
##중소벤처기업진흥공단과
##Manufacturing
!”
++
+4
-7
-’
0>
1(
8-
=2
?"
?'
?”
@#
AE
AG
BG
BW
CX
EF
EN
FA
HD
HS
IY
In
KR
KS
MB
My
OP
PB
PG
RI
SM
TP
VD
]'
ao
ax
bo
ga
gg
mL
me
mg
nt
og
rb
ru
se
su
ww
yd
##`
##【
##故
##車
##韓
##곰
##괄
##굿
##꿰
##녀
##는
##둥
##램
##롭
##룩
##맴
##묵
##뭐
##므
##뱅
##삽
##샴
##싣
##앓
##째
##챗
##칩
##컷
##큼
##팍
##폼
##헛
##헝
가게
가로
가리
가며
가면
가복
감상
감은
감치
강사
강의
개편
개혁
거대
거절
건수
건위
경고
경방
경에
경찰
경험
경훈
계탕
고독
고한
공서
과원
관에
광열
광주
교부
교수
구망
구미
국과
국을
군에
군을
그는
글부
급적
기식
기와
기인
기타
길은
김태
끼를
끼리
나이
낙규
낸드
넬로
노총
농림
놓을
누신
뉜다
뉴에
뉴욕
는지
닝캄
다란
단을
단조
담동
당이
대길
대리
대미
대행
댄스
더니
더멘
덴셜
돈이
둘러
등기
등락
등은
디다
디야
똘똘
뜻한
라떼
라리
라클
라핏
래드
랩스
러지
러진
레드
려야
로템
로퍼
록뱀
론이
루트
르메
름한
리게
리얄
릭스
림픽
막이
만건
만톤
망의
매칭
명희
모작
몰을
무풍
문순
미가
미경
미의
미인
미켐
미터
민석
바퀴
바텍
박는
박질
반발
반선
반의
받던
발디
방산
방을
방크
배를
배민
버는
법상
법은
베드
베트
벽을
보단
보며
보존
보틀
본드
본지
볼트
부도
부른
부모
부즈
부하
북방
분은
분쟁
불을
브시
비디
비엔
비엘
비와
비자
비행
사동
사실
산의
살균
살을
삼역
삿돈
상상
상스
상영
상조
상한
새간
새로
색을
샤론
서로
서초
석류
선량
선릉
선정
성공
성능
성모
성실
성적
성희
세찬
송창
수사
수정
수제
수집
술탄
스빌
스틱
스피
슨홀
슬리
승원
시세
시안
시원
시태
시터
시트
시행
시황
신영
신항
실리
실히
심히
쏠한
쓰는
아들
아세
아웃
아잔
아픽
알리
애락
애로
앤뉴
약에
양적
언서
업과
여력
여분
여비
여파
연방
연장
영구
영수
예반
예진
올백
와도
와이
완판
외로
요건
요즘
용어
용인
운송
운이
운전
웅수
워터
원순
원심
웠던
위한
유도
유를
유한
율과
으름
은경
음원
이달
이재
이천
이현
익재
인에
인영
인출
인피
인회
일고
일부
일엔
일한
임상
입이
자드
작용
잔이
재에
재와
재판
적격
적으
적자
적정
전국
전북
전산
점화
접객
접촉
정민
정산
정청
제어
져야
조스
조직
조특
종결
종금
종속
주교
주도
주자
즈에
증가
지금
지스
지정
지티
진쎄
진씨
징계
창동
창조
창하
채가
채로
채의
챕터
처는
처음
천억
철강
청정
체험
쳤던
추행
출처
취소
층인
치와
치유
치즈
침내
침대
카뱅
캐디
커머
컨셉
컴퍼
코마
코인
코타
콘텐
쿠커
크론
키즈
타로
태경
택시
털을
통이
트랙
트롯
특고
특정
티컬
팅은
파주
판과
판콜
페로
페즈
편리
평생
평화
포시
포켓
품종
프팅
하위
하임
한과
한글
한우
한일
함량
합동
해보
해줄
행동
허란
현장
혈견
협동
협정
혜경
호박
호복
호적
호크
홀더
확충
회원
획득
훈수
흑자
(+5
(1,
(46
(64
(85
(89
(98
,28
-1(
00(
110
122
126
130
157
16)
166
171
18@
199
2(1
201
247
262
27%
280
281
299
31'
332
333
437
45)
450
473
490
570
6-3
65’
660
738
740
765
788
850
851
939
974
=0>
AAA
ARI
BNK
BOJ
CEI
CSI
CTC
CXO
Con
DGB
DLS
ESS
FIU
Fro
GVC
Gal
JBP
Job
KAS
KDI
KPM
MBA
Mas
Nuc
ODA
OEM
OOD
OVE
PAV
PIF
PIX
PMI
RBC
ROE
ROU
RPA
SDS
SPA
TEU
TSA
Whi
Wor
ace
alk
ary
ati
axy
est
ile
ink
ive
ock
ook
org
ron
ste
tor
zen
~24
~60
##-3
##3'
##4/
##Aw
##BI
##CB
##Co
##EU
##JP
##MS
##SM
##SP
##St
##Yo
##[0
##[1
##aT
##‘(
##‘0
##“1
##가늠
##가라
##가은
##각자
##각축
##간밤
##간접
##간판
##감기
##감일
##갑질
##강자
##강좌
##갖추
##개를
##거느
##거세
##거죠
##거침
##건과
##것만
##게시
##견제
##겹꽃
##경인
##경희
##계산
##고발
##고심
##곡류
##공제
##공중
##관건
##관여
##관점
##괄목
##교류
##구주
##군산
##군이
##권리
##권순
##권익
##권장
##그날
##그만
##그중
##금정
##기구
##기체
##기한
##김성
##김진
##김홍
##김훈
##까닭
##꺾인
##꿈의
##끊기
##나승
##나아
##날은
##남겨
##남북
##납세
##내가
##내놔
##내딛
##내리
##내비
##내주
##내지
##낸드
##냉온
##넓어
##넘을
##넘쳐
##넣어
##녀석
##높게
##누가
##누군
##눈높
##느낌
##닛산
##다룬
##다행
##단장
##단종
##달걀
##달린
##담기
##답답
##답을
##답한
##당당
##당한
##대동
##대로
##대조
##대처
##대파
##더벤
##덕산
##덕을
##던진
##던험
##데뷔
##델라
##도매
##도산
##독감
##독려
##독립
##돈은
##동력
##동의
##동탄
##되며
##되자
##될지
##두는
##둘레
##듀얼
##듣는
##딸기
##때가
##라온
##라운
##랩어
##레몬
##렌트
##로제
##로즈
##리딩
##리포
##마다
##마리
##마산
##마수
##막지
##만인
##많았
##맛이
##맞서
##맞지
##맞추
##맥을
##맥킨
##맴돌
##먼지
##멈춘
##멈출
##메쉬
##메탈
##멜라
##명목
##모차
##모험
##몸담
##못미
##무난
##문답
##물과
##물릴
##미루
##미룬
##미술
##미원
##미화
##믹스
##밀양
##바깥
##바꿨
##바짝
##바텍
##박성
##박순
##밖에
##반값
##반사
##발판
##방치
##방해
##배후
##번도
##베네
##변압
##변액
##보금
##보디
##보아
##보지
##복리
##복용
##봄철
##봉사
##부딪
##부착
##부추
##부탁
##분담
##분량
##분말
##불투
##붙어
##브로
##블러
##비결
##비관
##비프
##빌린
##빗그
##빠질
##빼고
##사건
##사글
##사료
##사면
##사수
##사스
##사연
##사외
##사정
##사지
##삭감
##산책
##산파
##살지
##삶을
##삼고
##삼광
##삼은
##삼표
##새삼
##생리
##생물
##생보
##샤오
##서북
##서한
##서해
##석달
##석류
##선거
##선명
##선사
##선수
##선이
##선풍
##설득
##성산
##세균
##세럼
##세액
##셔츠
##소강
##속초
##손자
##솔직
##송산
##송승
##수련
##수식
##수억
##수직
##수퍼
##숙명
##순간
##순방
##순식
##술을
##숨이
##슈피
##스펙
##스포
##승자
##승합
##시술
##시즈
##싣고
##실버
##실용
##싸움
##쌓여
##쓸어
##아나
##아닐
##아쉽
##아예
##아트
##악몽
##않기
##않던
##앞에
##액면
##액체
##야간
##얇은
##얘기
##어김
##어깨
##어둡
##어른
##어업
##업소
##없게
##엔화
##여느
##여타
##역사
##역삼
##연료
##연립
##연중
##옆에
##예술
##오브
##오창
##오토
##옥외
##올리
##용도
##용어
##우편
##웅진
##워낙
##원내
##원씩
##원자
##원전
##월가
##위로
##위조
##위촉
##유발
##유엔
##유저
##유죄
##의문
##의회
##이다
##이례
##이륙
##이메
##이식
##이젠
##이직
##이창
##이통
##인강
##인류
##일과
##일로
##일성
##일어
##일찌
##잃어
##잃은
##임기
##임박
##입소
##잇는
##있으
##있음
##자로
##자세
##자수
##자아
##작아
##잘못
##잡기
##장내
##장원
##장학
##잦은
##재기
##재직
##재킷
##저녁
##저조
##전격
##전매
##전설
##전셋
##전직
##전파
##전할
##절실
##절약
##접촉
##정려
##정원
##정해
##제가
##제제
##제형
##조리
##조용
##조율
##종결
##종속
##종지
##좌초
##주를
##주소
##주인
##주제
##중거
##중도
##중립
##중시
##중의
##중흥
##지가
##지각
##지낸
##직불
##직영
##직제
##진안
##진원
##질의
##질환
##짓고
##짜리
##쪽이
##차는
##차밭
##찬반
##참외
##참조
##창궐
##창의
##찾지
##채안
##채팅
##챙겨
##천안
##천하
##첨가
##체류
##초경
##초에
##초코
##총무
##최상
##출산
##출제
##출판
##측의
##측이
##치크
##카누
##카뱅
##카운
##캐롯
##커서
##커트
##커플
##켜진
##콜러
##콜롬
##큰폭
##키와
##키운
##키트
##킴스
##탈착
##탐색
##택시
##토막
##통지
##퇴출
##투명
##트래
##트롬
##특혜
##팁스
##파워
##팍팍
##팔고
##패소
##퍼플
##페퍼
##펴고
##편중
##포켓
##표기
##풀어
##품종
##풍선
##프렌
##핀셋
##하던
##한발
##한승
##한신
##한양
##한의
##한통
##합동
##합헌
##핫한
##해수
##해온
##헤어
##현저
##현판
##홈택
##회생
##회피
##후끈
##후에
##후오
##휘말
##휘발
##휴마
##휴점
##흔히
##힘겨
##힘내
가스를
가치를
감염병
갔다는
개선을
개설을
개에서
개월을
개월의
개인의
거래가
건더기
건설과
걸음질
경기가
경쟁이
경진대
계약은
계획의
고객의
고객인
고독사
공간을
공단은
공항공
과제는
관대출
관세청
교육을
교직원
교통부
국면에
국방부
군으로
궤도에
그룹을
극복을
근로자
근로종
글부글
금리를
급여를
기기업
기자재
기준을
기획관
기획팀
김병진
김성미
김태열
김현경
까지도
나이드
내국인
네오셈
네이처
뉴발란
느냐가
는데요
니아주
니워커
다음달
다이스
단으로
단지를
달라는
당국은
대에만
대표부
댄스릴
도율이
동에서
되기도
된다고
된다며
디피씨
딜링룸
라인이
락앤락
락했다
래티지
러스터
력평가
릅니다
리단길
마이징
마카롱
만개에
만개와
만개의
맵주차
메딕스
메리카
메모리
모티브
무제한
물품을
밀하게
박영선
박자연
박준식
반월동
반환점
방식을
배터리
백혈병
밸리에
법인은
베이징
벨로퍼
본부가
봅니다
부산은
부진과
분석원
분야에
불리오
불이행
브라스
블씨엔
비디오
사리빙
사법의
사원이
사태가
상사는
상한제
생건강
생명의
서면서
서울대
설비를
성과급
성윤모
세계의
세대는
세대로
세에서
센터의
소재인
슛페이
스카이
스토리
스페코
시간은
시간을
시보다
시설에
시장도
시청사
시태그
시흥형
식품이
신동윤
신소연
실장급
쌍끌이
씨아이
아이가
아이스
아잔틴
액보다
어가고
어워드
억리얄
억으로
언론인
업종이
었음을
에게도
에스티
에이징
여건이
여만에
역삼역
연계형
연면적
연수원
올해의
외교부
워라밸
워지고
워크로
위건위
위니아
위스키
유동현
윤정희
은행장
의견을
이기도
이모작
이세진
이장군
인구가
인터뷰
인포콘
일랜드
일리톨
일수록
임시회
임에도
자리가
자마자
자배정
잖아요
장관이
장씩만
재규어
재산세
전기차
정상화
제약에
제조사
조특법
조합이
조항에
종일반
주가는
주관사
주린이
중대본
중앙점
중앙지
증권과
증권사
지역인
지출이
지큐랩
지표가
지필름
진다는
창고를
책으로
처에서
총액은
촹예반
출됐다
층에는
층에서
층촬영
카메라
캡스가
커피는
케어가
케이크
코오롱
퀴즈는
큐가입
타입의
탱크톱
테오젠
테크의
토레이
톤골드
퇴근을
투자실
특례법
특산물
티웨이
파이브
파트너
판매가
패션은
패시터
퍼스트
평가원
프라임
프레첼
플라이
플렉스
플립이
픽코마
필룩스
하다가
하락이
하이텍
한국의
해보자
해지며
해지자
현산은
현상을
현황을
호점인
홍삼정
화애락
화했다
환경의
환구망
활성화
회사는
회의가
효과를
(+14
(+16
(+33
(-19
(-59
(023
(026
(030
(045
(065
(067
(095
(100
(143
(14:
(180
(185
(267
(49)
(500
-950
12%)
130)
1500
1968
2244
28%)
30',
330)
3400
3500
3900
40%)
4400
4700
48%)
4946
5532
5800
618@
640)
66%)
6982
70',
7397
77%)
770)
78%)
8-59
8100
8304
84%)
8465
8746
9170
94%)
9446
9771
9800
DAKS
HOLD
IFRS
KAMA
KISA
MLCC
Post
RANG
SEAN
USTR
Wood
Work
ards
edic
inen
lack
maps
obil
rban
stem
##-37
##06%
##1,2
##1,8
##164
##171
##174
##177
##183
##197
##1~4
##2,5
##20,
##209
##213
##232
##235
##263
##276
##284
##299
##319
##336
##350
##353
##355
##368
##374
##394
##4,0
##4,7
##406
##408
##409
##410
##419
##420
##458
##470
##475
##497
##506
##508
##52%
##532
##555
##581
##59%
##60(
##618
##625
##668
##69%
##711
##750
##754
##77%
##8%,
##836
##88%
##880
##904
##915
##930
##939
##99%
##ARS
##BBC
##DGB
##DIY
##DMC
##ELF
##EPS
##KCI
##KMH
##KSS
##Kit
##MTS
##NEW
##NIM
##RTD
##SBS
##SPA
##STS
##Sur
##Top
##UAE
##VFX
##bor
##kbs
##msp
##onl
##say
##sdw
##가구로
##가삼현
##가입과
##가입을
##가점은
##가점이
##가족의
##가족이
##가한다
##각별히
##각자가
##감독에
##감사를
##감산에
##감성을
##감소다
##감안해
##강기정
##강동구
##강렬한
##강보합
##강샤론
##강타한
##강화는
##개발과
##개발호
##개학이
##거래도
##거래의
##거점에
##걱정이
##건강과
##건물에
##건물의
##건물이
##건물주
##건설을
##건축물
##걸었다
##검증해
##검토에
##것보다
##것이라
##것이며
##게이츠
##견인할
##결과로
##결정이
##결정할
##결제는
##결합한
##경기는
##경록이
##경영의
##경영이
##경우도
##경쟁에
##경품을
##경험한
##고강도
##고개를
##고도화
##고려할
##고르고
##고민에
##고민을
##고소득
##고용과
##고품질
##곤두세
##골프장
##곳에서
##공간이
##공략할
##공연계
##공유해
##공장에
##공포가
##공휴일
##과부하
##과정에
##관계가
##관세청
##관심은
##광진구
##광채와
##구도심
##구매시
##구매해
##구윤철
##구입해
##구조가
##구조로
##구체적
##구축해
##구현한
##국가는
##국내서
##국민과
##국회에
##군별로
##군수품
##굳히고
##권리를
##권위의
##권인원
##권한을
##규격을
##그나마
##그다음
##그래서
##그렇게
##그렇고
##그렇다
##그렇지
##그룹에
##극복에
##근거리
##글래드
##금강제
##금리는
##금리의
##금액과
##금융주
##급감에
##급여를
##급증해
##기대해
##기반해
##기술과
##기술주
##기조에
##기준인
##기프팅
##기획과
##기획된
##기획을
##김규식
##김근희
##김범석
##김성훈
##김영대
##김유구
##김정주
##김형진
##꾸미는
##끌어내
##끌었다
##끝나지
##나뉜다
##나오며
##나올까
##난제로
##날씨가
##내려진
##내몰린
##넘겼다
##넘는다
##네이처
##노머니
##노바렉
##노사는
##논의된
##농가의
##농기평
##높다는
##높지만
##누리고
##뉴노멀
##니즈를
##다과와
##다르면
##다변화
##다음주
##단계로
##단계에
##단위의
##단장한
##단점을
##단지다
##단지의
##닫는다
##닫았던
##달라고
##달러를
##달보다
##달성을
##달성이
##달하고
##담보를
##당뇨병
##당면한
##당선인
##당첨가
##당첨자
##당하는
##대구의
##대국민
##대나무
##대두유
##대리점
##대안을
##대응한
##대전시
##대출잔
##대한유
##더보기
##덕양구
##덩달아
##데다가
##데브시
##도소매
##도입된
##돌려도
##돌리기
##돌아올
##두각을
##두산의
##뒤흔든
##드릴링
##들어설
##등교가
##등급은
##등락을
##디바이
##디피씨
##떠오른
##떠오를
##뛰었다
##뜻한다
##라라잡
##라이트
##락다운
##레이저
##로드숍
##로페즈
##롤오버
##롯데는
##롯데의
##롯데컬
##류혜경
##리니지
##리믹스
##리셀러
##리조트
##리츠에
##마니아
##마련해
##마음껏
##마치면
##마침내
##마카오
##만들며
##만큼만
##많았던
##말레이
##말보다
##말아야
##맞았던
##맞이할
##맞추기
##매경이
##매력을
##매입을
##매장과
##매출에
##맥주를
##멈췄다
##메이슨
##멘토링
##명으로
##명확히
##모기업
##모닝캄
##모델과
##모듈러
##모르게
##모이는
##모인다
##모처럼
##모친상
##모회사
##목요일
##목표물
##못박는
##무게가
##무너지
##무보증
##무주택
##문래동
##문진영
##물동량
##물었다
##물질을
##므누신
##미국은
##미국인
##바란다
##바람에
##바르게
##바타입
##박주봉
##반대로
##반드시
##받아볼
##받아야
##발돋움
##발목을
##발빠른
##발표될
##발행에
##방구석
##방문한
##방식에
##방식은
##방학역
##방호복
##배달앱
##배당을
##배우는
##백신이
##백종원
##백현동
##버밍험
##버티지
##번지는
##벌이는
##범정부
##벗었다
##벤처형
##벨기에
##변경의
##변경해
##변수로
##변신한
##변화와
##별개로
##보내고
##보릿고
##보면서
##보이자
##보장을
##보증을
##본업과
##볼빅이
##부문별
##부부의
##부분은
##부족에
##부채가
##부처는
##부품의
##부활을
##북미와
##분들이
##불과한
##불량이
##불리한
##불황을
##블루오
##비공개
##비교한
##비디오
##비법을
##비보존
##비브라
##비재무
##비주류
##비판이
##비핵심
##빈폴은
##빠르면
##뽑혔다
##사각지
##사람의
##사료에
##사문서
##사업도
##사업수
##사업영
##사은품
##사의를
##사이먼
##사이클
##사정이
##사회로
##사회에
##산정한
##살리는
##상가에
##상권의
##상담을
##상대적
##상실된
##상용화
##생겼다
##생계를
##생분해
##생산된
##생산량
##생활의
##서대웅
##서둘러
##서영서
##서울과
##서울서
##서울외
##서유럽
##선물용
##선방에
##선순환
##선진국
##선크림
##선택의
##설계사
##설문조
##설치한
##성분을
##성원에
##성장세
##성장은
##성추행
##성향을
##세금이
##세대가
##세대원
##세슘을
##셀렉스
##소리바
##소액주
##속도는
##손님이
##손익이
##송금이
##송창하
##수급에
##수급이
##수기로
##수명이
##수요일
##수원시
##수정한
##수주가
##수준인
##수지구
##수치는
##수확을
##순유입
##순익이
##순천향
##숫자로
##슈베스
##스미싱
##스트랩
##스파크
##스프레
##승인된
##시각이
##시간에
##시기다
##시내의
##시대로
##시세를
##시행된
##시행에
##시험에
##식재료
##신규로
##신남방
##신림선
##신선한
##신성이
##신소재
##신영은
##신웅수
##신청과
##신흥국
##실국장
##실시해
##실적의
##심사가
##심상치
##심의를
##싶다면
##쏠쏠한
##쓰나미
##씨에스
##아동용
##아웃렛
##안내를
##안내문
##안정성
##안팎의
##않도록
##않았던
##않지만
##알리고
##앞장서
##애로를
##액셀러
##야마하
##약세로
##양낙규
##양성과
##어느새
##어떨까
##얼굴을
##업계를
##업무용
##없었던
##없이도
##에디터
##에르메
##에스맥
##에탄올
##엠보틀
##여당이
##여름철
##여실히
##여파다
##연구를
##연기와
##연봉이
##연휴가
##열리고
##열흘간
##염두에
##영업부
##영향에
##영화관
##예방에
##예상된
##예스티
##예측이
##예타를
##옌타이
##오가는
##오렌지
##오르는
##오르며
##오르지
##오쇼핑
##오페라
##오픈을
##오픈한
##옥션은
##옥션의
##와디즈
##완판을
##완화와
##외신은
##요가복
##요인에
##용역을
##용이한
##우려한
##우리가
##우리는
##우리말
##우리의
##우미학
##우울한
##우위를
##우진은
##운용을
##운용해
##위대한
##위원회
##위축돼
##위축이
##위험을
##유가는
##유가를
##유래한
##유럽의
##유력한
##유로화
##유망할
##유선일
##유예를
##유일의
##유재석
##유조선
##육가공
##육박한
##윤종원
##윤활유
##윤훈수
##은평구
##은평점
##은행이
##은행제
##응원의
##의사결
##의사를
##의외로
##의하면
##의혹을
##이계우
##이공계
##이끌기
##이동오
##이뤄져
##이름이
##이사진
##이슈와
##이용료
##이유를
##이인영
##이재갑
##이재준
##이정훈
##이종민
##이진원
##이테크
##인구는
##인기몰
##인생을
##인수에
##인식이
##인원은
##인정받
##인제대
##인하여
##일대를
##일어나
##일정한
##일종인
##잃었다
##임대를
##임명될
##임차해
##입국이
##입국자
##입금할
##입사해
##있음을
##자격은
##자녀와
##자문단
##자신이
##자안은
##자원을
##작업도
##작용한
##잔돈을
##잠실동
##잠실점
##잡음이
##장기간
##장보다
##장세가
##장예진
##장점이
##잦아들
##재개가
##재고품
##재미를
##재배포
##재보험
##재승인
##저선량
##적극적
##적금을
##적발해
##적십자
##적어도
##적용이
##적자국
##전경련
##전국에
##전년과
##전달에
##전략은
##전면에
##전무는
##전문성
##전방위
##전북도
##전시회
##전일대
##전자맵
##전지박
##전체가
##전환이
##절반은
##절화용
##점검해
##점포와
##접수돼
##접점을
##정교한
##정도의
##정동훈
##정보의
##정순균
##정윤모
##정점을
##정치권
##정한수
##정희영
##제공과
##제공을
##제기가
##제네릭
##제대혈
##제도가
##제외된
##제이핀
##제작을
##제주산
##제품화
##제한을
##제한적
##조건이
##조달한
##조성될
##조성한
##조업을
##조직을
##조치에
##조합은
##조합이
##조항을
##존립을
##졸업생
##종목과
##주가를
##주가에
##주고자
##주말에
##주목받
##주목할
##주문한
##주방과
##주식에
##주식은
##주의를
##주인이
##주차권
##주최로
##주춤한
##준공을
##준비생
##준비할
##준주거
##중국을
##중국인
##중남미
##중앙오
##중으로
##중화권
##중후반
##증대를
##증발한
##지가는
##지급이
##지나면
##지속된
##지수로
##지수에
##지역내
##지적도
##지정돼
##지출을
##지패스
##지표와
##직무에
##직원에
##직접적
##진단시
##진단용
##진행될
##집계된
##집계에
##집약한
##집콕족
##차익을
##차입금
##차트에
##착수한
##창업의
##창업한
##찾았다
##채용인
##채용한
##천주교
##첫째주
##청구가
##청년이
##체감도
##체결할
##체제를
##체험존
##초고급
##촉각을
##총재가
##최대의
##최상위
##최저를
##최적의
##최종신
##최진환
##추천한
##추첨해
##축적한
##출시될
##출시와
##출하량
##충성도
##충전이
##충족한
##충청북
##취득해
##취소로
##취지로
##카드와
##카드의
##카디프
##카라반
##카지노
##커다란
##커지며
##컨텐츠
##코디악
##쿠폰을
##크다고
##클리어
##키우는
##타이거
##타입의
##탄력을
##탄생한
##태어난
##테마로
##토핑은
##통과한
##통과해
##통보를
##투명한
##투입한
##투자로
##투자사
##투자의
##트래픽
##트럭을
##특성을
##파장을
##판단은
##판로가
##판매는
##판매될
##판매사
##팔리지
##패턴을
##펀더멘
##펀드가
##페스타
##페이북
##페인트
##펫푸드
##펭수의
##편명을
##편안한
##편입한
##평가는
##평가할
##평일이
##포스텍
##포항공
##폭증한
##풀무원
##풍성한
##프라핏
##프리미
##피부가
##피부에
##피치의
##피프티
##피하지
##하누리
##하락장
##하락폭
##하이모
##학교가
##학생은
##한국인
##한국지
##한도로
##한도와
##한샘에
##한샘의
##한샘이
##한양대
##한지연
##할인이
##항공업
##해결에
##해결을
##해소를
##해소해
##해임의
##해지한
##핵심인
##핸들을
##했다는
##행렬이
##행보에
##향상된
##향상한
##허름한
##헌재는
##헛걸음
##헝가리
##현물을
##현실에
##현아는
##현아와
##현장을
##현장의
##형식의
##형제상
##혜택이
##호실적
##호재가
##호조로
##호조를
##호텔을
##혼란에
##혼선을
##홈케어
##화제를
##화학업
##확대돼
##확보가
##확인된
##확인해
##확정한
##확충이
##환경과
##환경에
##활용을
##황금빛
##회계사
##회복은
##회사인
##회삿돈
##회원만
##효율적
##후폭풍
##흐름에
##흑자가
##흔드는
간편결제
개발원조
건설공사
건축사업
경쟁력을
경제청은
고용안정
공제회와
관리공정
교통안전
국가연합
기준으로
남부지방
노동기구
달러선을
대공유도
대미문의
대상지역
대지면적
되더라도
디프랜드
랜스포밍
롯데쇼핑
리얼에셋
리얼치킨
리테일에
리테일의
마케팅학
만가구에
만달러가
만원인데
만원짜리
무역안보
무항생제
바이낸스
바이오가
발전소가
보증보험
보통사람
보험공사
복지시설
브이엠은
블씨엔씨
비크리에
사람들은
사모운용
사업부문
산업체로
삼성물산
삼성카드
생활과학
서민금융
서울랜드
석유화학
성모병원
소득세를
소비자원
소송에서
수익률을
시간으로
시청에서
신용카드
신한은행
실리스는
실업대란
씨엔에쓰
아우르다
아이디어
압도적인
앤에스텍
앤푸어스
억달러를
억원까지
연구개발
연구위원
연금보험
예탁결제
오쇼핑과
우리나라
월드투어
위안으로
위원장을
유상청약
육성기금
은행들은
이프라인
익스프레
인센티브
인스탁스
인천검단
일렉트로
자기자본
자동투자
자영업자
조원대에
중공업은
지역에서
진쎄미켐
채용시험
청년창업
층세라믹
칼텍스와
캐피탈은
코리아와
코리아의
클라윈드
투자사업
특화증권
티에이징
파크드림
페로시아
평가관리
프라이빗
하우스는
한화생명
해졌다는
현장에서
홀딩스의
홍이장군
활성화를
(0036
(0049
(0478
(2020
(22%)
(60%)
1140)
13378
1970)
5,000
6-3-1
7070)
9,000
Aurne
Brand
Nucle
Start
TLTRO
TOPIX
White
arket
ewoon
sumer
~2013
##006%
##009%
##016%
##031%
##047%
##1,44
##102%
##114%
##1207
##128%
##1300
##133%
##1370
##138%
##1390
##1488
##1506
##152%
##1520
##1552
##158%
##162%
##1649
##183%
##1850
##1933
##1976
##1987
##199%
##1995
##202%
##2024
##2027
##206%
##2115
##2180
##2725
##28%,
##2900
##293%
##2996
##3,63
##312%
##3150
##3220
##338%
##407%
##412%
##4131
##435%
##50%,
##513%
##521%
##5600
##5632
##718%
##7535
##7612
##802%
##819%
##871%
##922%
##937%
##941%
##968%
##979%
##Book
##Flex
##GSCI
##IFRS
##LOVE
##WOOD
##가격이다
##가구업체
##가입자는
##가족건강
##가족에게
##가축에게
##가치까지
##각국에서
##감사하는
##감소폭을
##감소하며
##감염자는
##감지되고
##강남권을
##강사에게
##강화된다
##개선되고
##개선했다
##개시했다
##개인들이
##개인정보
##개편했다
##객원기자
##거듭하고
##거래고객
##거래소는
##거부하는
##거점으로
##거품인가
##건강관리
##건설기계
##건축설계
##검토한다
##것입니다
##격려하는
##견인하고
##결정이다
##경기도내
##경기도청
##경영난이
##경쟁력이
##경쟁사인
##경제로의
##경제재개
##경험하지
##고객층을
##고려기연
##고용안전
##고용유발
##고윤정은
##고정이하
##고해상도
##곤두박질
##공개한다
##공고일을
##공급자에
##공급하고
##공모한다
##공무원을
##공유재산
##과정으로
##관계자가
##관광객이
##관세청에
##관측이다
##교보증권
##교육과정
##교육부는
##교육생을
##구매고객
##구매하면
##구이저우
##구제금융
##구직자가
##구축하는
##구현하는
##구현했다
##국가들의
##국가에서
##국무위원
##국민은행
##국산화를
##국채매입
##권고안을
##규제완화
##그렇다면
##근린생활
##금리인하
##금융권이
##금융부문
##급등세로
##급등으로
##급락에도
##급락했던
##급매물이
##급변하는
##기가골프
##기대감과
##기대감을
##기부했다
##기술이다
##기아차에
##기아차의
##기안기금
##기업공시
##기업상을
##기업승계
##기업에서
##기업이다
##기업인의
##기울이고
##기획됐다
##긴급지원
##긴급진단
##꼬북칩은
##끝자리가
##납부해야
##낮아졌다
##내놓는다
##내려달라
##내림세로
##내몰리고
##내수경기
##내수시장
##냉장고는
##네오프린
##노인들의
##노인들이
##농산물의
##농협상호
##농협은행
##누적액이
##늘리기로
##늘어나며
##다각화를
##다우산업
##단지들이
##달라졌다
##달라지는
##담당하고
##대상자가
##대전환을
##대주주에
##대출금을
##대출평균
##대통령의
##대학생과
##대회에서
##덕산네오
##덜어주기
##데이터에
##델라웨어
##도래하는
##도모하는
##도시재생
##도심제조
##도입됐다
##도입하기
##도입했다
##독보적인
##독자적인
##돌아서면
##동박제조
##동반위원
##되었다고
##두드리고
##뒷걸음질
##드라이룸
##드러나고
##들어봤다
##들어서고
##들어섰다
##들어왔다
##듯했지만
##등극했다
##등급전망
##등록발행
##디아지오
##딜러들에
##라인업인
##라틴어로
##래디언스
##랩어카운
##롱패딩을
##마감됐고
##마련하기
##마사지건
##마수걸이
##마트사업
##만들었다
##많습니다
##많아졌다
##매도에도
##매수세로
##매장이다
##매출감소
##머스크는
##면역력에
##면제법인
##모기업인
##모두투어
##모멘텀이
##모색하고
##모색한다
##모집에는
##모차렐라
##모회사인
##무엇인가
##무역관이
##무역전쟁
##문화공간
##물동량은
##물량이다
##물러난다
##물론이고
##물류센터
##미국석유
##미국에만
##미래사업
##미만으로
##미원상사
##밀레니얼
##밀려나고
##밀리면서
##바꾸면서
##바라보고
##반납하면
##반등하는
##발전량이
##발표에서
##발표하며
##발표한다
##발행으로
##발행한다
##발효홍삼
##밝히면서
##방송통신
##방식이다
##방지하기
##배경에는
##배달산업
##배터리가
##백화점을
##버팀목인
##법무법인
##변경상장
##변동금리
##변동률은
##변호사는
##변화하는
##보금자리
##보급형폰
##보도자료
##보라매역
##보유세가
##보험업계
##복지부는
##본격화로
##본점에서
##볼티아가
##부결사태
##부글부글
##부담하는
##부동산을
##부모님을
##부문으로
##부산항만
##부양책을
##부여하는
##부원장이
##부족으로
##부품업체
##분배금을
##분할상환
##불거지고
##불이익을
##불확실한
##브랜드에
##브랜드키
##비금속업
##빈패스트
##빨라지고
##뿌리부터
##사글세로
##사단법인
##사람인은
##사로잡을
##사막에서
##사무공간
##사업자인
##사업체의
##사외이사
##사용하고
##사우디의
##사장으로
##산업부는
##산파이자
##상대국의
##상반기에
##상승폭은
##상승하고
##상장협은
##상품들이
##상향조정
##상황까지
##상황이라
##생명공학
##생산량은
##생산성을
##생활뷰티
##서울경제
##서울랜드
##석유제품
##선구매를
##선글라스
##선도하기
##선물가격
##선물하는
##선언하고
##선정되어
##선제적인
##설립한다
##설비투자
##성수기를
##성장성을
##성장세는
##성장세다
##세계대전
##세액공제
##세종대로
##셰프봇을
##소개하며
##소개한다
##소비량이
##소비위축
##소비자물
##소속기관
##소외계층
##소외되고
##송파구는
##수급가구
##수도권과
##수산대전
##수상자로
##수요위축
##수원여객
##수정했다
##숙명여대
##순매수세
##순방문자
##순식간에
##쉐보레는
##스낵으로
##스마트베
##스프레이
##승부수를
##승인금액
##승인했다
##시공사로
##시세조회
##시작되는
##시작하고
##시장에선
##시장재편
##시행되는
##시행하고
##시험에서
##식품접객
##신기술을
##신논현역
##신사업을
##신설하는
##신약개발
##신용도를
##신입직원
##신한카드
##실적에서
##실직상태
##실현하기
##쌍용차가
##쏟아내고
##쏟아지고
##쏟아진다
##아반떼의
##아이들을
##아이센스
##아이템을
##아쿠아픽
##안내문을
##안전등급
##안전성을
##안정세에
##안정화를
##않는다면
##알루미늄
##알서포트
##알아보자
##알테오젠
##알파벳은
##암호기술
##압도적인
##압승으로
##앞으로도
##약사법의
##약속했다
##약해지고
##어김없이
##어렵다는
##억눌렸던
##얼어붙는
##얼어붙어
##업무혁신
##업종으로
##업황전망
##에이프로
##엔젤투자
##역성장을
##연금보험
##연기됐다
##연체비율
##영구적인
##영업적자
##예비심사
##예상하고
##예상하는
##예정이던
##예정이며
##오르면서
##오전장을
##오프라이
##오프쇼어
##오픈한다
##와이즈앱
##와중에도
##완료했다
##완벽하게
##완성하는
##완화되고
##완화하고
##완화하는
##외환교역
##우려하고
##우리금융
##우리종합
##움직임도
##원가율이
##원금상환
##원내대표
##원천기술
##원한다면
##위기에서
##위메프오
##위안화를
##위탁생산
##위협하고
##유급휴직
##유동성에
##유의미한
##유지보수
##유지해야
##유지해온
##유턴기업
##유턴지원
##유통채널
##은행계좌
##은행들의
##음식점업
##음악감상
##의견거절
##의결권을
##의료용품
##의무보유
##의사협의
##의약품의
##이내에서
##이동하고
##이미지를
##이벤트와
##이사했다
##이어간다
##이어오고
##이어졌던
##이연제약
##이틀간의
##이해관계
##인수했다
##인재육성
##인천시는
##인크로스
##인프라가
##인하하는
##인허가와
##일각에선
##일찌감치
##임대료는
##임원들이
##임직원을
##입소문을
##입었지만
##입장권을
##입주한다
##입찰에서
##있는데다
##자동차가
##자동차도
##자동차에
##자리에는
##자리잡을
##자신에게
##자유무역
##자일리톨
##잠실주공
##잠재력을
##장기적인
##장중에는
##재가동에
##재건축에
##재고품을
##재난긴급
##재사용할
##적용됐다
##적용하는
##적자폭이
##전국으로
##전기차용
##전까지는
##전동공구
##전략물자
##전력기기
##전망하고
##전문가인
##전문기관
##전문으로
##전반으로
##전세기가
##전원에게
##전장대비
##전환한다
##점거하고
##점진적인
##접어들고
##정관장은
##정기변경
##정산이익
##정상적인
##정책자금
##제고하기
##제공해야
##제너시스
##제안하고
##제언했다
##제외됐다
##제이콘텐
##제조공정
##제조설비
##제조업에
##제품에는
##제품이나
##조달하는
##조성사업
##조업일수
##조직개발
##종신보험
##종지부를
##좋아하는
##주가등락
##주겠다는
##주관한다
##주민센터
##주장하고
##주택건설
##줄기세포
##줄어드는
##중간지주
##중거리지
##중견리그
##중기부와
##중단했던
##중요성을
##증가폭이
##증권가의
##증권거래
##증축하고
##지급여력
##지난해엔
##지배주주
##지속성장
##지역주민
##지원금이
##지원받는
##지원했다
##지정하는
##직원들을
##직접적인
##직행했다
##진입하고
##진행하며
##차종별로
##차지하고
##차지한다
##착용하고
##참가자를
##참치회와
##창업교실
##창업초기
##책임지고
##천재교육
##청년고용
##체크하는
##초등학생
##촉구하고
##총선에서
##최고가를
##최고수준
##최악으로
##최저소득
##최초기준
##추가적인
##추진되고
##추진해야
##축소됐다
##출범했다
##출생년도
##출시되는
##출시되며
##출자기관
##충격파가
##충전공구
##충전시설
##충족되지
##취득예정
##취업시장
##치솟았다
##치열해질
##침체에도
##카메라를
##카카오와
##캠페인에
##캠페인의
##컨설팅과
##컬렉션은
##코로나발
##코리아가
##코스메카
##콘셉트로
##콘텐츠를
##콜롬비아
##큐레이션
##큐브엔터
##크리스틴
##킴스클럽
##택배기사
##토구조물
##통계청은
##통해서다
##통해서도
##퇴사한다
##투기등급
##투자조합
##투자주의
##투자처로
##투자회사
##특급호텔
##특수건설
##특약으로
##특허청은
##파르나스
##파악하는
##파이낸싱
##판매사인
##판매처에
##편의점을
##편의점의
##편입하는
##평가된다
##평가일에
##평가점수
##평가해서
##폐지된다
##포레스트
##포천화도
##폭발적인
##푸드트럭
##푸르덴셜
##품절됐다
##프라이팬
##피씨엘은
##필수적인
##필요성을
##하나마이
##하늘길이
##하락하는
##하루빨리
##하티스트
##하한가로
##하한가를
##하회하는
##학생들의
##한국개발
##한국기업
##한국도로
##한국동서
##한국알콜
##한화그룹
##할인한도
##합류했다
##항공권에
##항공기의
##항공사와
##항생제와
##해시태그
##해외사업
##해외수출
##행사에서
##허용되지
##헌법재판
##현대로템
##현대약품
##현실화율
##협력사를
##호소했다
##화상면접
##확대되는
##확대해도
##확대해야
##확인되고
##확인절차
##확인하는
##확정되면
##환경에서
##환경으로
##회계연도
##회복되기
##회복세가
##회복세에
##회복하는
##회사들이
##회원에게
##획득했다
##효율화를
##후분양과
##후폭풍이
##휩싸였다
##휴마시스
##흔들리고
가치위원회
공시가격을
국토교통부
기업은행과
기자재조합
댄스릴레이
도시공사는
디지털금융
리케이션을
모바일한경
사업본부가
삼성전자는
손해보험에
신동탄포레
신세계건설
신한카드는
엘사이언스
원으로부터
이었습니다
일씨엔에쓰
자조금관리
정보통신부
제일제당의
종일반주거
진흥원에서
첨단소재는
충당금환입
타운홀미팅
폴리텍대학
핵융합실험
현대중공업
홍삼톤골드
(01428
(052%)
(059%)
(070%)
(151%)
463386
977119
Frozen
Galaxy
Wooden
actice
edical
siness
##1096%
##111%,
##124%,
##13~15
##1473%
##150%,
##1615%
##1791%
##19058
##214%,
##2695%
##300%,
##35851
##59~84
##64686
##64946
##65~84
##Jones
##Mobil
##Techn
##photo
##가계대출과
##가능하다는
##가능해졌다
##가능해진다
##가시화하고
##감염증으로
##거부해서다
##거점시설로
##검토하기로
##경기침체에
##경북대기술
##경영성과를
##경영자협의
##경제기획관
##경제활동이
##경제활동자
##고객만족도
##고객에게는
##고급호텔을
##고통분담을
##공고한다고
##공공도서관
##공급하기로
##공모한다고
##공인회계사
##과정개설을
##관계사에서
##교보생명은
##구매력평가
##국내에서도
##국민연금의
##금강공업우
##금융그룹의
##금융기관이
##금융업계에
##기간산업을
##기관투자자
##기업은행은
##기업은행의
##기업은행이
##기업집단에
##기저효과를
##기준으로는
##기준환율은
##기초자산의
##기초지수인
##까사미아는
##끌어올리고
##나빠지면서
##나타나면서
##넘어서면서
##넘어섰다고
##노루페인트
##노르웨이가
##논의했다고
##농협금융은
##뉴욕증시에
##다가구주택
##단계적으로
##단지명으로
##대대적으로
##대상자에게
##대신증권이
##대우건설의
##대표이사로
##대표적이다
##대형마트를
##더마테스트
##데브시스터
##동결한다고
##동아제약이
##두산밥캣을
##두산베어스
##드림씨아이
##등으로부터
##디지털화한
##때문이라고
##떠오르면서
##뛰어들었다
##래핑도어에
##롯데건설은
##롯데마트는
##롯데마트와
##롯데카드는
##링컨세일즈
##마무리됐다
##만들어졌다
##말레이시아
##매도했으나
##매매가격은
##매매가격이
##매일경제가
##메디포스트
##메이크업을
##면세업계를
##면세점들이
##면세점에서
##면역항암제
##모니터링을
##모니터링한
##모바일한경
##모범사례로
##목요일까지
##무선사업부
##무역대표부
##무역투자실
##미래에셋이
##바로마켓은
##바이러스가
##바이러스를
##반영되면서
##백화점에서
##베스트셀러
##벤처기업과
##보이스캐디
##보통주자본
##보험사들은
##보험회사의
##복지포인트
##복합시설의
##본격화된다
##부문별로는
##부산시장이
##부정적으로
##브랜드들이
##브랜드와의
##브랜드평판
##브렌트유도
##브리지스톤
##사관학교는
##사라지면서
##사용했다면
##사회적기업
##산유국들의
##삼성전기와
##상반기까지
##서울중앙지
##선물세트를
##선물세트에
##설립하기로
##성암빌딩을
##성장했다고
##세입자들을
##소유자들의
##수요일부터
##수입통관한
##수출기업에
##순매수세를
##숭실대학교
##스마트폰에
##스마트폰이
##스카이패스
##스타트업과
##스타트업의
##스타트업인
##스트래티지
##승인금액이
##시간만큼만
##시상식에서
##시작되면서
##시중은행과
##시중은행의
##시현했다고
##식품업계가
##신용등급은
##신용카드가
##신용카드나
##신한금융은
##실리콘밸리
##실습데이터
##실적공시를
##실적이지만
##싸이토젠은
##씨에스윈드
##아르바이트
##아이비파크
##안방보험과
##안심플러스
##알리바바가
##에드링턴의
##에브리타임
##에이치엘비
##엔지니어링
##여의도지점
##예약판매를
##완화되면서
##완화하기로
##우려된다는
##우리금융은
##우리금융의
##우리들제약
##우아한형제
##우주부품의
##운영자금을
##원산지증명
##위대한상사
##위탁운용사
##유럽증시는
##유해물질이
##의무적으로
##이뤄지면서
##이브자리는
##이어간다고
##이용자들이
##인건비율은
##인생이모작
##인천공항공
##인플루언서
##인플루엔셜
##일각에서는
##일본에서는
##일시적으로
##일자리재단
##자동화하고
##자리매김한
##자체적으로
##자카르타로
##장기화됨에
##재정적자가
##저소득층의
##저축은행을
##전개한다고
##전기자전거
##전망된다고
##전망지수는
##전문가들과
##전해지면서
##전환사채에
##정시퇴근을
##정유업계의
##정회원으로
##제공해주는
##제도적으로
##제로페이로
##제약바이오
##제품부스를
##조기상환이
##조사결과가
##조선업계의
##조정했다고
##조합원들은
##종이목재업
##주도적으로
##주주연대는
##주주제안을
##준비했다고
##줄이겠다고
##지난달부터
##지드래곤은
##지상층으로
##지속하기로
##지원방안을
##지원해주는
##지정했다고
##지지부진한
##지패스기업
##직격탄으로
##진단키트의
##진입하면서
##진정되면서
##집주인들이
##참가기업의
##참석자들은
##창업경진대
##창조기획팀
##청년인턴십
##체크카드에
##체크카드의
##최종품평회
##출생연도에
##충남도지사
##취득한다고
##카드업계에
##캠페인으로
##컨소시엄이
##케이뱅크가
##코웰패션은
##콜러노비타
##크라이슬러
##크리스마스
##타이슨푸드
##타임커머스
##통과시켰다
##통상산업부
##투자한다고
##특허기술을
##파라다이스
##파산보호를
##판결했다고
##페이스북에
##편의점에서
##품목허가를
##품질력으로
##프레스티지
##프로그램의
##프로야구단
##프로젝트를
##프리미엄폰
##플라워박스
##플랫폼사의
##필기시험을
##하나금융의
##하나에프앤
##학자금대출
##한국교직원
##한국면세점
##한국백혈병
##한국언론인
##한국외식업
##한국원자력
##한국위원회
##한국인터넷
##한정판으로
##합병법인을
##합병법인이
##항공기취급
##항공사들이
##항바이러스
##해외여행을
##행복주택은
##행사장에서
##행정안전부
##허용하기로
##헛걸음하는
##혁신기술을
##현대카드를
##현대홈쇼핑
##호르몬제가
##홈플러스가
##화학기업인
##확대됐다고
##확대되면서
##확대하면서
##확인했다고
##회의실에서
##흑석뉴타운
##희망퇴직을
고용취약계층
규격인증획득
나라사랑카드
녹십자홀딩스
대공유도무기
랜스포메이션
렘데시비르의
리얼치킨버거
멕아이씨에스
박스코리아를
브로드밴드가
상장지수펀드
생건강위원회
액화천연가스
영종국제도시
주택건축사업
중앙대책본부
평균판매가격
한국조선해양
2258-59
ARIRANG
inenews
##1541%,
##193689
##202003
##Awards
##Change
##System
##border
##‘1865’
##간편건강보험
##같은기간보다
##검단신도시에
##경기남부지방
##공적개발원조
##관리종목으로
##구도자산운용
##국제노동기구
##국토교통부와
##규제특례심의
##극대화한다는
##근로장려금과
##금융그룹들이
##금융보안원은
##금융위원회의
##금융투자회사
##기업신용평가
##기자간담회를
##기획재정부에
##긴급사용승인
##납품업체에서
##넥슨코리아는
##노동시장에서
##닐슨코리아에
##다이아몬드와
##대명아임레디
##대체투자운용
##도미노피자가
##랩지노믹스의
##메이슨캐피탈
##모던하우스는
##미디어커머스
##민자투자사업
##방사광가속기
##벅셔해서웨이
##불확실성으로
##브랜드엑스코
##산업생태계를
##생오리고기만
##생활가전시장
##서버자동주문
##세종텔레콤은
##송도국제도시
##스마트딜링룸
##스튜디오앤뉴
##신속진단키트
##신용카드사를
##신한금융그룹
##아동복지시설
##아주대병원에
##애널리틱스는
##액화천연가스
##에너지솔루션
##에이블씨엔씨
##영업이익률이
##영업이익으로
##오프라인에서
##올스페이스를
##인스타그램에
##인천경제청은
##인터넷은행의
##일상생활에서
##일자리박람회
##자본시장에서
##장기화하면서
##전략점검회의
##전문사모운용
##정기주주총회
##제네릭의약품
##제이브이엠은
##조정대상지역
##주식시장에서
##중회의실에서
##청호나이스는
##카카오뱅크의
##카카오프렌즈
##캘리포니아주
##케이엠제약은
##코로나지원금
##코스닥지수는
##투모로드스쿨
##파리바게뜨가
##파트너십으로
##패스트파이브
##평균판매가격
##한경아카데미
##한국간편결제
##한국공항공사
##한국모태펀드
##한국예탁결제
##한국전력기술
##한국중부발전
##한화자산운용
##행정안전부가
##현대리바트는
##현대차그룹은
##홍보모델들이
##화성파크드림
가격공시위원회
리프레시포인트
바이오머티리얼
비크리에이티브
서민금융진흥원
스마트뱅킹에서
신동탄포레자이
우리들휴브레인
인베스트먼트를
인터넷전문은행
전력자원관리실
중소벤처기업의
페로시아나이드
현대산업개발은
(003620)
(004990)
(005380)
(009150)
(026150)
(026890)
(033230)
(035720)
(095610)
(221610)
(222810)
Nucleosi
Proptech
ewoonorg
##1,89706
##1,92277
##1,93689
##Medical
##nexilis
##개별주택가격을
##경영전문대학원
##공공조달시장의
##공정거래위원회
##구매관리자지수
##금융정보분석원
##금융지주사들이
##기획재정위원회
##나눠보겠습니다
##농림축산식품부
##다우산업지수는
##대출평균금리는
##롯데손해보험에
##롯데정밀화학은
##롯데칠성음료는
##롯데하이마트는
##리서치센터장과
##메가스터디교육
##미래사업분야의
##미래에셋글로벌
##바이오산업핵심
##방위사업청에서
##부동산투자신탁
##서민금융진흥원
##서비스마케팅학
##서울시마을버스
##서울신라호텔의
##소상공인들에게
##수출물량지수는
##수출진흥협회와
##식품접객업소의
##신세계백화점은
##신용보증기금의
##씨박스코리아를
##아모레퍼시픽과
##아우디폭스바겐
##에너지저장장치
##역외유입사례는
##역외유입사례다
##영구임대주택은
##예금보험공사가
##유진투자증권이
##이지스리얼에셋
##자기자본이익률
##전자상거래업체
##정기주주총회를
##주상복합아파트
##중단사업손실을
##지식산업센터가
##최저소득계층의
##통화정책회의를
##특례수입조항에
##파이오니어사업
##프라핏자산운용
##피치솔루션스는
##하나머티리얼즈
##한국개발연구원
##한국성장금융이
##한국에너지공단
##항공지상조업사
##혁신금융서비스
##현대경제연구원
##현대오일뱅크가
##현대오일뱅크는
사회적가치위원회
3010-2000
fnnewscom
##2020429/
##246%(416
##Mobility
##Practice
##금융투자기관들에
##기초자치단체에서
##긴급재난지원금이
##나스닥종합지수는
##농림축산식품부는
##대외경제장관회의
##더케이손해보험은
##두산인프라코어는
##두산인프라코어의
##르노삼성자동차가
##링컨세일즈서비스
##사업총괄본부장이
##성우엔지니어링과
##신세계인터내셔날
##오스템임플란트는
##우선협상대상자로
##유기발광다이오드
##재정관리점검회의
##적극행정위원회를
##전국경제인연합회
##정부세종청사에서
##중소기업경기전망
##중소기업육성기금
##중소벤처기업부에
##중소벤처기업부의
##청라국제업무단지
##투자자문서비스에
##포천화도고속도로
##프랑크푸르트에서
##한국경제연구원은
##한국금융연수원이
##한국면세점협회에
##한국무역보험공사
##한국신용정보원과
##한국인터넷진흥원
##한국항공우주산업
##한울원자력발전소
##현대엔지니어링은
과학기술정보통신부
삼성전자삼성전자가
신종코로나바이러스
연방공개시장위원회
##2011~2013
##경북대기술지주회사
##국가위생건강위원회
##만트럭버스코리아가
##미래에셋자산운용과
##식품의약품안전처의
##유가증권시장에서는
##이베스트투자증권은
##중소기업유통센터는
##포스코경영연구원은
##포스코인터내셔널이
##한국교직원공제회와
##한국노인인력개발원
식품안전관리인증기준
##onlinenews
##대한무역투자진흥공사
##민자투자사업건설공사
##브랜드엑스코퍼레이션
##서울부동산정보광장에
##식품안전관리인증기준
##중거리지대공유도무기
##카카오엔터프라이즈는
##특별고용지원업종으로
##한국간편결제진흥원은
##한국산업기술평가관리
mapsewoonorg
##이지스리얼에셋투자운용
##미래에셋글로벌인베스트먼트를
)1
)2
)[
-5
09
1’
4)
6,
=4
Am
CR
CU
Co
FF
HQ
IE
KG
LC
NO
OE
OW
Sm
Th
UM
UP
We
cs
ip
ke
mp
my
##y
##깃
2’
RB
##꽂
##뇌
##땐
##뚝
##롯
##봐
##붓
##뼈
##썩
##앨
##젤
##척
##칭
##탱
##텅
##혁
##휠
○○
가요
간밤
감자
값에
강로
강한
개점
거로
게차
겨짐
격에
격호
결한
경비
경섭
고히
곡에
골퍼
공실
공약
과용
관우
관찰
광물
교촌
국동
국무
국보
국회
규칙
그런
그인
근부
금강
금과
금법
기여
김은
까요
껑충
날을
내를
내포
냄새
냈던
너는
넌트
네랄
넷이
년치
노우
노이
노형
니코
닝이
단위
당동
당사
대도
대원
대율
대체
덕성
돌고
돕기
둔화
뒀던
드급
드릴
들만
듬해
등에
디쉬
디의
띠고
라노
라배
랐던
랑곳
런치
hi
ut
##싹
가락
간힘
고령
기생
꼼수
놨다
들기
디네
레더
레산
레저
레터
력의
력콘
로또
록을
롭탑
리거
리다
림을
릿지
마워
마킹
만병
망베
머리
멜로
명동
명예
모간
모나
모닝
모습
모아
무소
무인
문인
문특
물로
물친
미료
미스
민간
민경
민이
민지
바꾼
바키
밖의
받기
배나
배상
배수
백꽃
밸류
버블
벌을
법이
베다
베숲
벤션
보상
보와
보치
복인
볼루
부실
분경
불급
붐펫
블릭
비치
비프
빅딜
빅텍
빈폴
빙수
사막
사비
산점
산학
상은
서가
선생
선호
섰고
섰던
성산
성용
세와
세정
세준
셀라
셀은
소민
소유
소좀
LI
##첼
고나
기라
대손
더리
두천
디터
뚫어
렌디
렌텍
로니
리카
매직
멘트
봉은
부분
색조
세무
소화
속히
솔린
송도
수나
수련
수빈
수엘
스러
스런
스위
스탠
스퍼
승장
시각
시브
시영
식물
식스
실상
싱글
쏙쏙
아노
아르
아의
아침
안산
알을
애리
앤비
양우
양은
양을
양인
양행
억과
억여
억제
언을
얼리
었을
에겐
엔씨
엘이
엠피
여곡
여곳
여서
연립
연맹
연주
영세
영웅
예술
오공
오구
오브
온계
외국
외품
욕을
용량
용식
우량
우택
원금
월액
웹툰
위탁
유예
융자
은제
은주
은한
의존
이게
이든
이야
이와
이전
인사
2]
CF
##”
##랑
##몫
##잎
개척
곡면
군과
궁화
꼼히
농균
니치
대여
더미
덴티
도도
동변
디파
로조
르며
른다
문영
밀착
반에
방해
배관
배분
보리
부머
생검
시크
암동
어에
여야
연작
완전
욕장
월로
육이
익구
인쇄
일가
일벼
일제
임한
자고
자들
자류
작성
작업
잠실
재배
재씨
재의
재팬
전년
전례
전반
전철
절매
점장
접을
접한
정훈
제국
조류
조폐
종에
주력
중계
즈가
증을
증후
지마
진어
진에
진작
짐에
쪽에
차근
차의
차질
처를
처장
천명
천성
청소
청을
체력
체적
체제
촉한
최수
축이
충청
치민
커넥
커버
코메
NL
Ne
##굽
##넉
##널
감에
감의
강은
건한
곡을
굿즈
김을
꼬마
꿀팁
내달
독서
둬야
라곤
렬로
린아
물이
반려
세럼
수령
심텍
씨유
씽크
이웅
인분
장부
제훈
졌고
찬우
카주
코올
쿠키
쿨트
크톤
큰손
클로
키기
키엘
탈환
태광
택배
텔루
토목
토피
톤을
티를
티스
파는
파리
패를
팬텀
퍼멘
펜과
평오
평은
포승
폼을
플샵
피넷
필수
필터
하리
하의
하진
학년
한송
한전
할까
할부
합섬
항한
해고
해당
해소
향과
향후
헛은
호와
활력
회피
후보
훈련
훼손
휴지
(-9
(32
(35
(38
(43
(5,
(61
(65
(73
(84
,50
,69
NE
가제
견인
구글
구해
근접
닥스
딤돌
띠를
명호
몸을
문환
발과
빕스
석의
세컨
알레
압식
일신
제네
조엔
족수
중반
증서
지놈
천에
체가
체류
타를
특허
팝업
품인
한승
허용
혈액
-33
121
136
15/
161
177
179
19,
19-
195
205
25)
25,
261
269
284
287
297
322
36)
417
419
420
434
44(
442
446
456
457
467
486
497
50'
51/
514
53(
57)
589
604
607
621
633
692
70'
767
769
77)
774
880
978
=27
ABI
ABL
API
ARS
AVL
All
BBQ
BIX
BPA
BRE
BUY
CBO
CEP
CFO
1]
ql
rm
wr
광명
권도
기야
뇌의
다홍
더링
딛고
량도
럽고
뤘던
미샤
비만
빨간
선인
승차
시보
신일
양파
연간
이탈
전경
퀴스
탈취
파운
평등
폐율
합을
형태
후생
:00
CON
CRO
DTC
EAR
EIC
ELT
ESI
EUA
EUP
For
GBC
GPU
HMM
ICK
ILO
KER
KIU
MEC
MER
Mer
NPL
NYT
OTT
PFV
PPP
Par
SPC
SSA
STX
TEP
THE
URE
Vis
Viv
]29
air
all
alp
ant
arl
ase
con
des
eal
eat
eau
elf
erm
esi
gen
hag
ham
int
las
ley
myS
olu
ome
ond
one
ont
ors
own
pro
ran
sus
같은
단순
덕병
디언
래핑
마리
면이
볼까
뿌리
사료
사히
석민
소현
식사
아를
예상
위성
은희
이에
작정
제시
참가
취한
층의
화재
환급
회당
회씩
ung
urn
van
vey
wan
way
~18
~29
~40
##"'
##-5
##1:
##BA
##BK
##CF
##EF
##EL
##FX
##HE
##IR
##MZ
##NS
##PF
##Pl
##Po
##SA
##SC
##SS
##Sa
##So
##We
##ZE
##[5
##db
##go
##kw
##th
##vs
##ᄋᄋ
##‘2
##“(
##“3
##“‘
##△3
##가꿔
##가뜩
##가명
##가방
##가성
##가우
##가처
##가천
##각급
##간에
##감성
##갔다
##강동
##강소
##갖췄
##갚기
##갚을
##갚지
##개국
##개혁
##갤럭
##거둬
##거절
##건너
##걷고
##걷어
##걷혔
##걸려
VG
gn
go
공모
공인
과천
권부
극자
기저
김해
꼴로
서진
석에
씨에
아에
예능
위브
율에
음과
인석
적을
점포
철학
체형
충모
키지
테리
화소
환기
985
DIB
~11
##걸로
##걸친
##검역
##겨울
##격돌
##격차
##격화
##겪던
##견해
##결식
##결집
##경구
##경란
##경마
##경방
##경유
##경정
##경호
##계층
##고득
##고등
##고비
##고의
##고추
##공감
##공론
##공상
##공언
##공원
##공존
##과금
##과당
##과연
##과장
##과징
##곽도
##관행
##광양
##교과
##교란
##구구
##구속
##구형
##국어
##국정
##귀뚜
##귀에
##귀한
##그에
##그쳐
##근본
##근속
##금과
##급매
##급물
##기수
##기승
##기인
##기정
##김경
##김상
##김선
##김희
##까다
##깨고
##껑충
##꽤나
##꾸미
GC
GH
PD
uy
강좌
계룡
과잉
누가
로우
메뉴
받게
불황
사우
석한
스펙
시고
시한
싱싱
싸고
앵커
영화
움과
전남
절감
진짜
철호
체의
테스
포를
해에
352
605
##고백
##꿈을
##끊긴
##끓는
##끝낸
##나갈
##나쁜
##나연
##나인
##낙폭
##난이
##납기
##낮고
##낮다
##낮추
##낳는
##내게
##내기
##내디
##내렸
##내며
##내면
##내서
##내의
##내일
##냄새
##냈던
##냉방
##널뛰
##넘기
##넘버
##넘지
##네일
##년간
##년째
##노던
##노래
##노틸
##녹차
##농기
##누계
##누리
##눈도
##늘지
##능력
##늪에
##니켈
##다녀
##다채
##단골
##단말
##단야
##닫는
##닫은
##달과
##달려
##달이
##달한
##담겨
##답이
##당국
##대금
##대단
##대담
##대답
##대덕
##대만
##대사
계한
마음
복리
불가
사다
생은
선행
소견
스레
열람
오르
자역
잖은
죽을
지할
코퍼
크옵
터닝
파에
팽한
해져
확보
희만
##거시
##고액
##기온
##대산
##대세
##대의
##대입
##대추
##더본
##더샵
##더제
##덜한
##데스
##도곡
##도난
##도박
##도보
##도우
##도울
##도출
##돈의
##돋보
##동물
##동양
##동인
##동종
##되기
##되돌
##되레
##두루
##두어
##뒤에
##드는
##드링
##들썩
##등등
##디올
##딛고
##딜링
##때와
##때의
##때인
##떠난
##뛰었
##띄는
##띄운
##띠고
##라몬
##라벨
##랑벨
##램프
##랭킹
##레깅
##레미
##로비
##롭스
##리그
##리드
##리보
##리뷰
##리질
##리퍼
##릭스
##링스
##마곡
##마라
##마쓰
##마중
##만료
##말에
##말은
##맑은
##맛과
##망라
##맞붙
##맞았
##맞을
NP
sm
ve
##셔
##킹
기보
꽃팜
당의
돌아
로직
매를
목표
방과
선임
소는
소통
송파
있지
지투
텀에
호조
##골조
##디피
##로열
##맞춘
##맡아
##매력
##매번
##머물
##먹는
##먹지
##먹튀
##메릴
##메머
##명도
##명칭
##모자
##모태
##몸을
##몸통
##못했
##무균
##무더
##묵인
##묶여
##문태
##물을
##물적
##뭉쳤
##뭐야
##미룰
##미샤
##미스
##미아
##미주
##미중
##미취
##미치
##미팅
##민선
##밀착
##바디
##바바
##바퀴
##박기
##박진
##반해
##발발
##발암
##밝은
##방배
##방울
##방통
##배를
##배부
##배수
##배워
##배임
##백정
##백찬
##버블
##버스
##버튼
##버틸
##번쯤
##벌인
##법령
##법한
##베리
##벤딩
##벨로
##변방
##변창
##별칭
##보기
##보류
##보며
##보육
##보카
##보편
SW
구상
대기
동이
동탄
들여
무엇
문에
분쯤
새우
색포
숙영
와우
월분
의뜰
지진
차륜
출시
학습
흑석
(48
IPA
##TH
##본토
##봄은
##봐야
##부가
##부두
##부속
##부적
##부터
##부호
##부활
##북방
##분해
##불평
##붙고
##붙는
##붙박
##브랜
##비밀
##비비
##비싸
##비움
##비이
##빅뱅
##빈번
##빚은
##빛을
##뿌려
##사립
##사인
##사탕
##사후
##산다
##산모
##산지
##삼정
##상공
##상반
##상점
##상존
##생겨
##생길
##생성
##생수
##샤넬
##샴푸
##섞인
##선미
##선봉
##성동
##성사
##세븐
##세울
##세출
##세컨
##섹션
##센서
##소명
##소문
##소방
##소지
##소취
##소파
##손수
##손영
##손질
##송종
##수딩
##수량
##수매
##수성
##수와
##수일
##수축
##수학
##순수
##순증
##스틱
##스파
##시드
##시연
##시차
##시총
##식량
##식이
##신년
##신성
##신원
##신일
##신작
##실은
##실정
##실탄
##써야
##쏟고
##쓰던
##쓰지
##아기
##아퀴
##아홉
##악사
##안면
##안은
##안을
##안주
##안타
##알게
##알기
##알로
##알엠
##알톤
##앓고
##압도
##앤드
##약간
##약사
##양곤
##양귀
##양미
##양상
##양의
##양조
##양쪽
##양치
##어가
##없고
##없던
##에뛰
##에틸
##엑셀
##엘앤
##여유
##역점
##연골
##연루
##연식
##연율
##연작
##연재
##연차
##열쇠
##영광
##영농
##예년
##오고
##오아
##오윈
##오정
##오차
##온다
##올릴
##옳지
##옷을
##와사
##왕복
##왜곡
##요거
##요건
##요약
##욜드
##용기
##용돈
##용량
##우한
##원래
##원문
##원이
##월물
##웨어
##웨이
##위상
##유독
##유선
##유유
##유전
##유휴
##율곡
##율하
##응급
##응용
##의도
##의원
##의지
##의해
##이도
##이체
##이형
##인간
##인교
##인체
##인출
##일가
##일고
##일동
##일룸
##일선
##일은
##입맛
##입시
##입실
##입에
##입원
##입체
##입힌
##있죠
##자외
##자재
##자정
##자족
##자칫
##자택
##작고
##잔뜩
##잔액
##잠금
##잡는
##잡아
##잡을
##잡티
##장담
##장모
##장벽
##장안
##장이
##장지
##재건
##재경
##재활
##저감
##저널
##저점
##저하
##적막
##전당
##전영
##전작
##점에
##점쳐
##접점
##정반
##정신
##정육
##정작
##정재
##정제
##제트
##젤리
##조종
##존속
##졸라
##좀체
##좁은
##종묘
##종종
##주선
##주세
##주역
##주중
##죽염
##죽이
##중량
##지닌
##지름
##지을
##직속
##진동
##진흥
##징둥
##찍고
##차가
##차관
##차익
##차인
##차정
##차차
##창고
##찾을
##채택
##처방
##천보
##철거
##철수
##철폐
##청산
##청운
##청취
##청탁
##초저
##초호
##촉매
##총수
##총알
##최강
##최경
##최후
##추심
##출구
##출원
##출품
##충성
##취미
##측정
##치닫
##치매
##치중
##칠레
##칸톤
##캔을
##커져
##컸던
##케임
##켜는
##코딩
##코팅
##쿠키
##클리
##탈취
##탈피
##탈환
##탔다
##태양
##택지
##터널
##터져
##터진
##텐데
##토로
##토털
##통기
##통행
##투고
##투여
##특권
##튼튼
##틈새
##파기
##파버
##파종
##파타
##패닉
##팽창
##퍼진
##페인
##페트
##펜트
##펩시
##편지
##펼치
##평범
##평일
##평형
##포닥
##포도
##포석
##포투
##폴리
##풀릴
##품귀
##풍경
##퓨어
##퓨쳐
##퓨토
##핑거
##하게
##하드
##학계
##학과
##학력
##한산
##한옥
##할지
##함평
##항체
##해군
##해보
##해저
##해주
##행태
##향료
##헤쳐
##현혹
##협소
##협회
##형평
##호출
##호황
##혼이
##화순
##화장
##환원
##활짝
##획기
##횡령
##횡행
##효자
##후추
##후회
##훈련
##휴니
##휴먼
##흔한
##흘러
##흘렀
##희소
##히든
##히즈
##힘이
가격과
가구와
가들의
가맹점
가보다
가성비
가스와
가액은
가입금
가입자
가지로
간힘을
개국이
개발은
개사다
개월내
개이다
개장전
거리를
검사를
검색창
게이션
경쟁을
경제의
계약에
계열의
고마워
공간인
공기업
공단과
공단이
공동체
과정을
관으로
광고를
교육전
교육청
구역은
구역을
국내외
국제강
굴지의
권에서
규모의
그루를
금리가
금액을
금융권
금융위
금융지
기간이
기관이
기술은
기에서
기인견
기조를
기준이
기한이
김민지
김수한
김우영
김은정
깨끗한
나리오
내일의
냈지만
네이버
년이다
년째다
노동자
농가가
놓으면
뉴에고
니커바
다코타
단지에
당에서
대규모
대기업
대수는
대책만
덕분에
데이는
도시권
도이치
돌침대
동물을
동백꽃
됐다는
되었다
된데다
드라이
드백을
들까지
디스커
디앤피
똘똘한
뜨렸다
라거스
라배마
라상의
라이더
라이드
라인에
라인은
랜드주
랩벤처
러시아
려지는
롤오버
리라는
리서치
리스크
리언트
리테오
린다는
릴렉스
림동에
마스터
만대로
만봉을
만원은
망베르
머리를
머스현
메시지
메이크
면에는
면으로
명대로
모니터
모집액
몰링과
몰에서
문기업
물친구
미국의
민들이
및전자
바디샵
바람이
바운드
박대성
박상현
박세환
박스가
박일한
반택시
방법에
방식에
방안에
방에서
배까지
버스가
번가가
법에듀
법인인
벗겨짐
변경총
변동이
보골프
보이스
보장형
보증을
보험료
보험의
복지실
본부와
볼루션
부부의
부제는
부제로
부채권
분기가
분기엔
불공정
브라질
브레인
비서관
비용을
비율이
비케이
비텍은
비행체
빌라스
사고로
사랑의
사업법
사업인
산업계
삼성역
상반기
상장을
상품과
상품에
상품을
상품전
생명과
생활에
생활자
샷라떼
서류가
설계사
성남시
성에서
성으로
세균을
세금을
세대와
세대의
세에도
세정제
세터가
세트는
센터장
소독제
소비를
소송을
손보는
손실이
손익은
손인규
솔루스
송금은
수엘라
수요의
수출의
순자산
숫자로
슈티컬
스뉴스
스쿨이
스타가
스타워
스타즈
스트코
승장구
시간대
시계를
시나요
시리즈
시세의
시스는
시아컴
신동빈
신라는
신문에
신상품
신청이
신탁은
실업자
씨에게
씽크빅
아디네
아리랑
아반떼
아세안
아시안
아오를
아직은
안질환
알리미
암세포
암치매
액으로
앱에서
양념맛
언스는
업무의
업자를
업체에
없는종
에디터
엔젤스
여개를
여곡절
연하게
영업을
오리온
오토에
오티베
올레산
올해는
완화를
우고기
우기에
우리는
우선주
운영부
운용과
원개발
원테이
웨스트
위기가
위안에
유기농
유나이
유니콘
유니타
유대길
유엔젤
유튜브
으려는
을수록
읍시다
의사를
이거나
이널리
이벤트
이승현
이용이
이지혜
이항영
인데요
인덱스
인들을
일보다
일선을
일여성
일치로
임교수
임대차
자격은
자금은
자금이
자료를
자리를
자보호
자산의
자에땅
자이자
작업을
작업이
장보기
장수명
장씩의
재단의
재료를
재정의
저신용
전기는
전략을
전시회
전염병
전자에
전형을
접촉을
접히는
정기현
정보고
정보의
정세균
정책이
제도는
졌으나
조달과
조달청
조선업
조원과
조치가
조합에
조합장
종근당
주가가
주간지
주기별
주년이
주문이
주의의
준다고
중국이
중장기
즈링클
즐거운
증후군
지구와
지금이
지급식
지급형
지니톡
지역을
지주가
지청장
지펀드
직격탄
진단을
진어묵
질전환
집값이
집에서
차입금
채널에
책임땅
챌린지
챗페이
천기계
체로키
체인저
체인지
쳤다는
촉진을
촉진제
총액이
총이익
총회를
최고가
최우수
추세를
출판사
측정기
층짜리
칭하는
카드로
카이브
칼텍스
캠페인
컨벤션
컨텐츠
케이블
케이엘
콜라겐
콜센터
쿨트르
퀴즈를
크본드
클라우
클래스
클린은
키스탄
테라피
테이션
테이토
테크는
테크닉
투스가
투잡족
트래픽
트로우
특성을
티앤씨
티파이
파라곤
파리바
퍼스텍
펀딩은
편리한
포럼에
프린터
플래너
피넷에
피에스
피해가
피해를
하기가
하기는
하다며
하라는
하이카
학기제
학원을
했거나
행사가
행사는
허가구
현황과
혈액백
협의를
호점이
화되고
확대에
회장은
효과로
효확인
(+00
(+12
(+17
(+25
(+43
(+46
(-29
(024
(046
(049
(060
(079
(089
(096
(097
(09:
(105
(10:
(132
(140
(144
(148
(175
(213
(215
(217
(29)
(31)
(50)
(567
(670
(805
(853
(89)
)500
,250
,350
,650
,850
00)(
10%)
100(
1155
12%,
123@
1243
13%,
140)
1400
180)
190)
1935
1961
200)
2018
2250
226%
2300
240)
2400
26%)
260)
2600
27%)
270)
2775
2800
2951
300]
3040
3580
3968
40-7
4033
4166
4180
430)
44%)
4410
46%)
470)
480)
4915
50)=
500)
530)
5348
5400
5600
6008
63%)
660)
6800
7163
74%)
7400
750)
7769
7879
790)
7900
810)
8400
8510
8700
8890
8900
898%
9445
9456
9500
9600
CELE
CORE
Good
IFEZ
KIND
Liiv
MAPL
MEUP
MICE
NCAP
NLVC
OSPI
PPCB
SBHI
SECC
Sell
Visa
akao
aper
assi
cial
eorl
ggga
ices
ight
igit
ndic
orld
rest
rpor
theL
ulti
wwwr
~20%
~40%
~70%
~80%
##"1)
##'10
##-02
##000
##025
##09%
##1,7
##12,
##127
##147
##149
##155
##159
##173
##176
##185
##188
##198
##2,9
##206
##217
##219
##227
##236
##244
##248
##254
##268
##27%
##271
##286
##297
##3,3
##3,5
##303
##304
##307
##308
##315
##321
##323
##324
##337
##342
##372
##390
##402
##431
##439
##441
##442
##448
##453
##459
##460
##466
##47(
##472
##479
##481
##492
##493
##499
##4~7
##5,3
##5,5
##515
##518
##545
##55%
##553
##56(
##560
##568
##58%
##583
##599
##5~7
##6,8
##62%
##640
##66%
##671
##6~7
##713
##720
##733
##739
##770
##780
##823
##868
##874
##876
##884
##887
##889
##9,8
##918
##937
##940
##945
##953
##967
##998
##AAA
##ABL
##AMD
##API
##Arm
##BIS
##BYC
##CFO
##CNT
##DID
##DRB
##Dow
##ESS
##Ent
##Exc
##GPS
##HUG
##ICT
##Ind
##JKL
##KAI
##KDI
##KNN
##KTX
##Kim
##LCD
##MBC
##MIB
##NCS
##Ret
##SKT
##Squ
##VIP
##VOD
##alp
##hon
##tvN
##“10
##△74
##가게를
##가격의
##가계의
##가구다
##가급적
##가동해
##가드레
##가디언
##가라앉
##가로막
##가로채
##가변성
##가솔린
##가스켓
##가은읍
##가정용
##각오다
##갈무리
##감각을
##감소했
##감안할
##감췄다
##강남에
##강도를
##강연을
##강익구
##강자인
##강점인
##강조한
##강하다
##강화로
##갖는다
##같으면
##같은달
##개념의
##개발할
##개방형
##개선한
##개성을
##개수가
##개인간
##개인별
##개인적
##개장을
##개정된
##개정판
##개정해
##개최해
##개통을
##거기에
##거두며
##거라는
##거래할
##거슬러
##거주자
##건강상
##건자재
##건전한
##건폐율
##검색한
##검찰과
##검출된
##검토해
##것과는
##게다가
##게으름
##게임을
##격차는
##격차를
##겪었던
##결과는
##결과와
##결정을
##결제가
##결혼에
##겹치며
##경과원
##경기와
##경동나
##경매에
##경북빅
##경영학
##경우에
##경유가
##경인로
##경일고
##경쟁은
##경전철
##경제도
##경제학
##경험의
##경험할
##계약직
##계용준
##계절밥
##계층은
##고객사
##고광채
##고금리
##고리에
##고사양
##고성동
##고소한
##고유가
##고윤환
##고함량
##골자다
##곳이나
##공개를
##공고일
##공공성
##공급된
##공급한
##공기질
##공모에
##공시가
##공시는
##공터에
##공포를
##과장은
##과정이
##관보에
##관심도
##광고가
##광고와
##광공업
##광주점
##교강사
##교수는
##교원에
##교육부
##교육에
##교육이
##구글이
##구도를
##구성돼
##구월동
##구입을
##구조에
##구조의
##구직난
##구직단
##구축에
##국가가
##국경을
##국내선
##국립암
##국면을
##국면이
##국방부
##국세가
##국제적
##국채와
##군사적
##군주거
##굴곡에
##권순일
##권평오
##권한과
##귀뚜라
##규격에
##규명에
##규정상
##균형을
##그려진
##그렸다
##그룹사
##그었다
##극도로
##극복의
##극복한
##금융과
##금융에
##금융위
##금융이
##금통위
##급감과
##급감의
##급감할
##급기야
##급락의
##급상승
##기능에
##기능은
##기다리
##기반이
##기발한
##기부금
##기세가
##기술유
##기술적
##기승을
##기업간
##기업당
##기업도
##기업들
##기업형
##기울일
##기원인
##기자가
##기하급
##기흥에
##기흥의
##긴급한
##김근익
##김대일
##김대중
##김미경
##김병숙
##김성휘
##김수현
##김신애
##김영롱
##김용훈
##김재덕
##김정욱
##김종갑
##김종천
##김종훈
##김주동
##김주영
##김지영
##김태현
##김현진
##김형섭
##김혜원
##꺾이고
##꼼꼼히
##꿰뚫어
##끊이지
##끝까지
##끝내고
##끝으로
##끝판왕
##끼치고
##나라가
##나빠질
##나서자
##나오기
##나인원
##낙찰가
##낙찰된
##낙폭이
##난항을
##날이다
##남동구
##남아있
##남양주
##낮아질
##내걸고
##내다봤
##내수가
##내수와
##내일을
##냉온수
##넓히고
##넘었고
##네스트
##네오셈
##넥스트
##넥슨은
##노력이
##노석환
##노선을
##노원구
##노조의
##녹농균
##논쟁이
##농가와
##농수산
##농협에
##높이와
##놓치지
##누그러
##누디쉬
##눈앞에
##뉴트로
##능력과
##닛산은
##다가가
##다가온
##다니는
##다름없
##다리가
##다문화
##단계별
##단순히
##단위를
##단종된
##단지인
##단행한
##단호박
##달라는
##달랐다
##달래고
##달러로
##달부터
##달서구
##달콤한
##달하며
##담당할
##담합을
##담합한
##당국은
##당국의
##당연히
##당진시
##대가를
##대결을
##대금은
##대세로
##대열에
##대응은
##대응이
##대응책
##대자연
##대장주
##대책과
##대책에
##대책이
##대체로
##대출은
##대출의
##대폭락
##대표에
##대학을
##대학입
##더해져
##더했다
##덕이다
##덱스터
##도로는
##도민의
##도시를
##도시재
##도약의
##도의원
##도입과
##도입에
##도전에
##도착한
##도철호
##독일과
##독일의
##독특한
##돌아갈
##돌아오
##돌입할
##돌파를
##돕는다
##동기의
##동남아
##동박을
##동반한
##동사의
##동으로
##동작의
##됐지만
##된다는
##두뇌의
##뒤에는
##드러나
##들어갔
##들어맞
##들어오
##등급이
##등장해
##등촌동
##디딤돌
##디스코
##디캠프
##디텍터
##딜러가
##딜링룸
##때라고
##때문이
##똑같이
##뜨겁게
##뜻밖의
##라씨로
##라인은
##랠리를
##러블리
##런칭한
##레미디
##레이더
##로고가
##로고와
##로열에
##류준영
##리메드
##리워드
##리페어
##링컨의
##링크옵
##마감되
##마감에
##마늘의
##마땅치
##마이스
##마이클
##마카롱
##마켓을
##막바지
##막혔고
##만기는
##만기를
##만나볼
##많지만
##맞는다
##맞서는
##맞춰서
##맞췄다
##맡는다
##매각에
##매각을
##매니지
##매도인
##매력이
##매매를
##매매에
##매물을
##매수한
##매입도
##매입에
##매입할
##매진과
##맴돌다
##먼디파
##멈추지
##메디아
##메르스
##멘토와
##면접이
##면제해
##명령이
##명성을
##모가면
##모델인
##모두의
##모습에
##모이고
##모자형
##모집한
##모터가
##모토브
##목적은
##목적을
##목적이
##목전에
##몰린다
##못하게
##무거운
##무궁화
##무기로
##무난한
##무더기
##무사히
##무이자
##무작정
##무장한
##문영재
##문턱이
##문화로
##물가에
##물들이
##물량과
##물량도
##물량의
##물자류
##미국산
##미꾸라
##미네랄
##미래와
##미만인
##미취업
##민간과
##밀렸다
##밑도는
##바꿨다
##바뀐다
##바나나
##바나쉬
##바람이
##바친다
##박관우
##박나연
##박모씨
##박민석
##박사후
##박순향
##박승원
##박양우
##박원순
##박인규
##박정화
##박종한
##박지혜
##반등의
##반열에
##반영이
##반응에
##받다가
##받아서
##받아온
##받으면
##발견될
##발맞춘
##발주가
##발주한
##발표는
##발표해
##방글라
##방문을
##방산주
##방송을
##방어주
##방지에
##방향에
##백곡면
##백두산
##백복인
##백악관
##뱅골프
##버핏은
##범위가
##법인의
##법인이
##벗어날
##베베숲
##베이컨
##베팅해
##변경한
##변경할
##변동장
##변신해
##변호사
##보다는
##보도가
##보아핏
##보안전
##보여주
##보유자
##보탬을
##보험을
##본업인
##부가가
##부근을
##부닥칠
##부담과
##부분이
##부애리
##부양에
##부작용
##부진의
##부진할
##부채는
##부처와
##부천시
##북미로
##북유럽
##북한의
##분산돼
##분야가
##분야별
##분야인
##분양한
##분쟁을
##불러와
##불렸다
##불성실
##불안정
##붕괴를
##붙는다
##블록에
##비금속
##비난을
##비이자
##비행기
##빌딩에
##빌렸다
##빙수를
##빚어진
##빼돌린
##뽐냈다
##사계절
##사람과
##사례다
##사례로
##사료를
##사망과
##사무관
##사업군
##사업지
##사옥을
##사용될
##사용료
##사유로
##사이즈
##사이징
##사장의
##사진을
##산림동
##산업인
##산은법
##산책을
##산출한
##산타로
##살균에
##삼계탕
##삼성은
##삼호의
##상가의
##상근부
##상대방
##상위권
##상이로
##상이한
##상장이
##상태가
##상태를
##상황과
##색상에
##생닭과
##생소한
##생중계
##생크림
##생태계
##생활이
##생활형
##서대문
##서명을
##서명한
##서정식
##선글라
##선물이
##선발해
##선언이
##선으로
##선점을
##선택이
##설계된
##설립돼
##설비를
##설치를
##설치와
##섬유의
##성공적
##성과다
##성과에
##성분의
##성정은
##세균의
##세레모
##세상의
##세일을
##세정제
##세트다
##세트를
##센트럴
##셀렉온
##소개된
##소독을
##소득을
##소매업
##소비도
##소송이
##소유주
##소이현
##소재의
##소재인
##소재한
##소중한
##소하리
##소환해
##속에도
##손꼽아
##손상된
##손절매
##손정의
##송림동
##송승윤
##쇼크가
##쇼크를
##수급자
##수년간
##수단을
##수도와
##수립해
##수명은
##수상한
##수소와
##수순을
##수시로
##수업이
##수입을
##수주액
##수주한
##수준도
##수출국
##수치를
##수행에
##수행한
##수행할
##수혜로
##수혜주
##순매출
##순위를
##순천시
##숨통이
##슈피겐
##스트롱
##스티븐
##스피치
##슬리퍼
##슬비가
##습관을
##승인에
##시기에
##시민의
##시부상
##시사점
##시선은
##시술비
##시승을
##시작에
##시점에
##시행이
##시행해
##시황맨
##식당에
##식당을
##식료품
##식으로
##식품이
##신격호
##신고가
##신고를
##신동아
##신미진
##신북방
##신속히
##신입생
##신조어
##신중론
##신청인
##실감형
##실속형
##실수요
##실적악
##실천을
##실행한
##실현을
##심각할
##심리로
##심해질
##심화될
##싱글톤
##쏟아붓
##씨젠이
##씨티씨
##아끼는
##아끼지
##아동을
##아디다
##아랑곳
##아래는
##아름다
##아이가
##아토피
##악재성
##악화될
##악화로
##안다즈
##안방이
##안았다
##안에는
##안으로
##안정된
##안질환
##앉았다
##않기로
##않다고
##않을까
##알리안
##알아서
##압력을
##앤제이
##앵커의
##야놀자
##약보합
##약속한
##양분돼
##양사가
##양사의
##양상이
##양세찬
##양승조
##양충모
##양팡이
##양희만
##얘기를
##어가의
##어렵고
##언급한
##언론은
##언제쯤
##엄청나
##업무가
##업체다
##없다고
##없애고
##없을까
##에센셜
##에스모
##에스티
##에이디
##엑스코
##엘사가
##여객기
##여건이
##여파는
##여파와
##여행객
##여행업
##역기저
##역동성
##역사에
##역차별
##역할도
##역할이
##연구실
##연금이
##연동된
##연봉은
##연수구
##연장을
##연체율
##연회비
##열리지
##열심히
##영남대
##영업은
##영업일
##영예를
##영통구
##영향과
##예년과
##예대율
##예민수
##예방과
##예산의
##예상이
##예지동
##예측할
##오늘은
##오마하
##오문영
##오스트
##오지훈
##오하임
##온기가
##온몸을
##올라선
##올랐고
##올림픽
##올스톱
##옴부즈
##완료할
##완만한
##완제품
##완화가
##완화될
##완화를
##완화할
##외부감
##요소가
##요율을
##요인은
##욕구가
##용량을
##우려는
##우려와
##우리를
##우호적
##운반선
##운영한
##운영할
##운용에
##운임을
##운항이
##울산에
##울주군
##웃돌고
##웃돌며
##원가는
##원료인
##원어민
##원인을
##원장이
##월별로
##월소득
##월패드
##웨이브
##위상을
##위성에
##위주의
##위축은
##위축을
##위치해
##위태롭
##위협을
##유가에
##유경준
##유광열
##유럽에
##유로스
##유사한
##유승인
##유예는
##유제훈
##유지에
##유지와
##유지용
##유치를
##유통가
##유형의
##유효송
##육성에
##윤강로
##윤곽이
##윤덕병
##윤숙영
##융합한
##은은한
##은퇴와
##은행을
##음료를
##음성을
##음식업
##응시할
##응원을
##의견도
##의결을
##의혹에
##이곳을
##이내의
##이녹스
##이달중
##이동근
##이동철
##이두리
##이듬해
##이력서
##이메일
##이문환
##이번엔
##이보다
##이산화
##이상준
##이성근
##이성용
##이슈는
##이슈로
##이승용
##이용권
##이윤희
##이자는
##이재명
##이재현
##이찬우
##이패스
##이하는
##이현우
##이후엔
##인구가
##인구를
##인구의
##인덱스
##인사가
##인산철
##인천을
##인천항
##인큐릭
##인프런
##일가의
##일대일
##일렬로
##일로향
##일반식
##일반에
##일본도
##일본에
##일부가
##일상의
##일신상
##일으켰
##일이다
##읽는다
##임경섭
##임상시
##임시휴
##임영웅
##임정수
##입정동
##입주권
##입주해
##입찰을
##있거나
##있나요
##있어요
##자격을
##자동생
##자리다
##자문을
##자산에
##자율차
##작년과
##작년에
##잔고는
##잘크톤
##잡아라
##잡으며
##장민규
##장비와
##장사동
##장사를
##장애로
##장위동
##장인과
##장점은
##장점을
##장제국
##장현국
##재개장
##재계약
##재구매
##재료를
##재배한
##재산이
##재점화
##재정비
##재탈환
##재판에
##재편에
##잭슨홀
##저마다
##저성장
##저지를
##적발된
##적용을
##적용할
##적잖은
##적합한
##전기와
##전날과
##전략의
##전략폰
##전반을
##전사적
##전산업
##전소민
##전역에
##전일의
##전쟁이
##전환과
##전환될
##전후방
##절반도
##절반인
##절차는
##절차와
##점포가
##접속이
##접수된
##정기적
##정리한
##정문과
##정복을
##정부도
##정은경
##정저우
##정진우
##정진욱
##정체된
##정통한
##정하지
##정회원
##제거할
##제기한
##제도로
##제도에
##제스파
##제안을
##제약사
##제이엠
##제작에
##제출에
##제품에
##제휴한
##조기에
##조달이
##조로에
##조미진
##조사가
##조사해
##조세소
##조속히
##조언이
##조은희
##조치의
##조현의
##종목별
##종부세
##종소세
##종합해
##주간의
##주계약
##주관사
##주기로
##주담대
##주도권
##주도의
##주도할
##주도해
##주명호
##주유앱
##주자로
##주저앉
##주차돼
##주택에
##주택용
##준비된
##준비해
##중간에
##중구에
##중대한
##중이고
##중이던
##중점을
##중하위
##중학생
##즐기고
##증가세
##증가의
##증식을
##증액해
##증여세
##지갑이
##지구의
##지금의
##지급된
##지급될
##지나고
##지났다
##지도인
##지목된
##지베이
##지분율
##지속할
##지스트
##지앤피
##지원도
##지위를
##지점장
##지정한
##지정해
##지출한
##지침을
##지켰다
##지큐랩
##지키고
##지표다
##지표로
##직면해
##직방에
##직원들
##직장과
##진료비
##진심을
##진입을
##진입이
##진천군
##진출이
##진출할
##집값은
##집중된
##집중될
##집중할
##짓는다
##쪽으로
##차동석
##차례의
##차이가
##차이를
##차종을
##차지한
##차차차
##차트로
##착공할
##착안한
##참여와
##창업이
##창출의
##찾기에
##찾아가
##찾아야
##채널의
##채무자
##채택을
##챙겨야
##처리에
##처지에
##처했다
##천궁이
##철수한
##첫발을
##청구할
##청국장
##청년과
##청담동
##청약은
##청약통
##체계가
##체내에
##체질을
##체험단
##체험할
##초개인
##초경량
##초고가
##초급매
##초단기
##초록뱀
##초에는
##초중반
##촉진용
##총동원
##총체적
##총회에
##촹예반
##최고치
##최저치
##최첨단
##추경은
##추억을
##추진이
##추천을
##추측이
##축소는
##출고가
##출생자
##출자한
##충북에
##취소당
##취소돼
##취재한
##취준생
##치료를
##치솟고
##침구를
##침체로
##카리스
##커머스
##커피를
##컨설턴
##컨슈머
##코세어
##콜에서
##쿠팡을
##크다는
##크라운
##크지만
##클리오
##클리핑
##키우고
##키트를
##타운을
##타이틀
##타임스
##탐험선
##탑재돼
##탑재된
##태국에
##테니스
##테더링
##테라피
##토핑을
##통과가
##통과로
##통과에
##통새우
##통신이
##통으로
##통일벼
##통하는
##투입할
##투자양
##투자와
##투자협
##투잡족
##투포켓
##트랙터
##트러블
##특강은
##특수를
##특허는
##틀었다
##티몬의
##티웨이
##파라셀
##파리크
##파장이
##판도를
##판매점
##판매해
##판정을
##팔래스
##팔렸다
##팔아치
##팜스빌
##패널을
##패션을
##패스를
##패시브
##팬들을
##팽팽한
##펀드에
##펀드조
##펜데믹
##펩타인
##편하고
##펼쳤다
##폐기물
##폐쇄돼
##폐자원
##폐지와
##포항영
##폭락에
##표면재
##표시한
##푸드의
##풀리지
##풀린다
##품목에
##품목인
##프레첼
##프리빌
##피부의
##피스탁
##피치가
##필룩스
##필수가
##필지를
##하거나
##하나는
##하나도
##하나둘
##하나를
##하나만
##하네스
##하노이
##하니스
##하다가
##하려면
##하루에
##학교에
##학교와
##한가지
##한강공
##한강변
##한경희
##한국도
##한국산
##한국을
##한남동
##한라가
##한번도
##한섬은
##한승곤
##한여름
##한우를
##한은은
##한은이
##한파가
##한화큐
##할인한
##함께할
##함유된
##항공료
##항공은
##항공편
##해남권
##해마다
##해소에
##해왔다
##핵융합
##행보가
##행복한
##향상과
##향상에
##허가된
##혁신의
##혁신형
##현금과
##현상의
##현실로
##현실은
##현실을
##현아가
##협력할
##협업은
##형제의
##호가가
##호가를
##호재로
##호조와
##호치민
##호텔과
##호텔은
##호텔의
##호텔인
##홍보대
##홍보를
##홍은제
##화끈한
##화두는
##화물기
##화물을
##확대의
##확대한
##확인돼
##확정된
##확진은
##환경은
##환자는
##환자를
##환자식
##환자의
##활발해
##활용에
##황색포
##황용식
##회계감
##회복의
##회장을
##회전할
##효과는
##효과다
##효과도
##효과적
##효능이
##효율성
##후면에
##후배를
##훈풍이
##휴게소
##휴장한
##흔들릴
##흡착제
##흥행에
##흩어져
##힘쓰고
##힘으로
가격보다
간담회를
간접자본
개발원은
개발지구
개월만의
개월에서
거래일간
건강기능
경제혁신
계약서를
계절조정
골목길과
공공기관
공기업형
공시내용
과정에서
관광개발
관대출은
관리관실
교육기관
교통공사
구청장의
극자외선
글라스는
금호석유
기술기획
기술원은
기안기금
기타연결
기획관실
기획챕터
기획팀장
꼬마빌딩
넥스원이
녹십자는
뉴센트럴
다코타주
다홍매실
단층촬영
대신증권
대출금리
동남합성
되었다고
되자마자
들휴브레
라이프와
랜드로버
랩벤처스
레지던스
렸습니다
로보틱스
롭스포츠
르네상스
리버포레
리쇼어링
리크루트
리포트는
마르퀴즈
마스크를
만갑으로
만그루를
만달러에
만원대로
만으로는
매매가격
매매계약
무급휴직
무풍지대
문특파원
미니언즈
미래기업
밀레니얼
바로마켓
바이오텍
반포자이
백화점은
번가에서
법무법인
법인으로
베트남에
보험료는
본부에서
부장검사
부장판사
블록에서
비디아이
사업자가
사업자는
사업자와
사이코메
산업발전
산업부와
상상나눔
상품으로
생계급여
생활용품
세무서를
송창진씨
스니커바
스퀘어에
스틸광채
스포츠는
시원스쿨
시키면서
신화월드
실태조사
싸이토젠
아메리카
아시아나
아웃도어
아이볼트
아프리카
어닝쇼크
어린이날
억달러에
억원대로
억원대의
억원어치
억제정책
업무방해
업체들은
에스티지
엔진오일
여가구의
여명으로
여신비율
연계금융
연계대출
연구인재
연합회와
영업이익
영향으로
예고했다
온라인몰
와우클럽
완전판매
왔습니다
우리들의
우선주를
운영자금
원격의료
원격진료
원더랜드
원심력콘
원이었다
원테이블
웠습니다
위메프오
유통업체
이면서도
이었다는
이웅재씨
이익소각
이코노미
이탈리아
이항영의
인명센터
인성정보
인천공항
일까지의
일반국민
일부터다
자금관리
자금으로
자동차의
자료제공
자산신탁
장씩으로
재난안전
재택근무
전산망에
전용창업
전화연결
점이었다
정보기관
정책팀장
제니퍼룸
제로수준
조원까지
조원대를
조원어치
주주청약
중앙회는
증권거래
증시에서
지원사업
지환급금
진대학교
진흥원과
집중분석
착한여행
창업보육
청장에게
체크카드
초등학교
총회에서
카스나인
커머스가
커패시터
컨텐츠업
코아시아
큰건더기
키움증권
타솔루션
타이어앤
탈취수를
텍사스유
토목사업
통화량이
투자비서
투자자를
특별자치
특수건설
티라이프
티지엠피
파워세럼
파이낸셜
포럼에서
푸르지오
프레시는
프렌즈의
플러스가
함이라는
해외유입
해주기로
행복주택
향군인회
혁신처는
협력방안
호텔신라
회계연도
후보물질
휴지보험
(+200
(0010
(0015
(0068
(0095
(0178
(0340
(0470
(0644
(0645
(0833
(1112
(12%)
(1914
(2000
(2015
(2019
(2948
(5570
):44(
):53(
19369
20204
2140)
24%),
29011
3,300
33%),
44%),
60%),
ASEAN
HACCP
KAIST
KIURI
OLDEN
Phone
Smart
TOEIC
Traql
bound
conom
ealth
eauty
enter
eorlf
ilege
imate
rocom
##-007
##-68%
##018%
##022%
##023%
##024%
##028%
##032%
##033%
##035%
##041%
##046%
##063%
##1,25
##1,39
##1,78
##105%
##111%
##116%
##1196
##1219
##1242
##125%
##1250
##1252
##1265
##1315
##1355
##137%
##1412
##1440
##1471
##154%
##1540
##1551
##157%
##1600
##167%
##1694
##16:0
##176%
##179%
##180%
##182%
##188%
##1925
##2028
##203%
##205%
##21%,
##2123
##214%
##2171
##222%
##2232
##2270
##23,7
##2300
##2308
##235%
##236%
##252%
##2708
##271%
##2830
##30%,
##3049
##308%
##3169
##319%
##322%
##3290
##332%
##34%,
##3400
##341%
##346%
##3480
##349%
##3500
##352%
##364%
##365%
##366%
##378%
##3962
##401%
##4123
##4174
##4247
##451%
##4900
##50%!
##526%
##528%
##546%
##558%
##5686
##575%
##617%
##62%,
##6400
##665%
##674%
##6769
##679%
##7170
##7352
##746%
##747%
##753%
##761%
##773%
##792%
##7~10
##8269
##8277
##836%
##884%
##898%
##899%
##916%
##9200
##925%
##928%
##976%
##977%
##CBRE
##CDIB
##Club
##Cont
##Fund
##GIST
##IPTV
##JTBC
##KIND
##NCAP
##Oper
##PICK
##Part
##Ther
##chsm
##rews
##△002
##▷002
##가계에서
##가꿔주는
##가능하고
##가능해질
##가능했다
##가동률도
##가뜩이나
##가리켰다
##가리키고
##가리키는
##가맹점을
##가상현실
##가속화될
##가입으로
##가입자를
##가입하지
##가전사업
##가족들과
##가처분을
##각축전을
##간단하게
##간편보증
##감독규정
##감소에도
##감소하면
##갑작스런
##강남구는
##강력하고
##강하늘은
##강하늘을
##강화하며
##개개인의
##개미들은
##개발자를
##개발하기
##개발한다
##개선됐고
##개선됐다
##개선으로
##개선하기
##개선하는
##개설하고
##개인에게
##개인채무
##개점휴업
##개정안에
##개최하는
##개편하고
##거듭나게
##거래대금
##거래일인
##거래종결
##거래하는
##거론된다
##거침없는
##걱정하는
##건강하게
##건강하고
##건설한다
##건전성을
##검사장비
##것이라며
##것이지만
##것인지에
##게시판에
##게이츠는
##격려했다
##격리해제
##결산결과
##결의요건
##결의했다
##결정으로
##결정하고
##결제금액
##경고등이
##경고하고
##경기도시
##경기둔화
##경기방어
##경기상황
##경기청년
##경남도는
##경리단길
##경마공원
##경북도와
##경북지사
##경상수지
##경신하며
##경영대표
##경영안정
##경영위기
##경영지원
##경영활동
##경쟁률로
##경쟁률이
##경제에서
##경제활력
##계속되고
##계약해지
##계열사에
##계좌이체
##고객들은
##고객사의
##고등학교
##고려산업
##고려하지
##고려해야
##고령화와
##고무적인
##고무차륜
##고민하는
##고수분을
##고수하고
##고액자산
##고용복지
##고용시장
##고윤정을
##골프존이
##공개됐다
##공개하며
##공공임대
##공공주택
##공급망에
##공급망의
##공급하기
##공기정화
##공동연구
##공모사업
##공모에서
##공모전은
##공무원이
##공사비만
##공시지가
##공시하며
##공업이익
##공정상의
##공효진은
##과부하로
##과일이나
##관계부처
##관리하기
##관망세가
##관심이다
##교통정보
##구매행동
##구미시가
##구미시와
##구성원을
##구조였던
##구축사업
##구축하기
##국가계약
##국가공인
##국가기관
##국가들에
##국가들이
##국가별로
##국내에선
##국내증시
##국방부와
##국제경영
##국제금융
##군사시설
##군포시가
##규모이다
##규제개선
##규제에서
##그레이스
##극대화한
##근로자도
##근무기간
##근접출점
##금융권도
##금융사에
##금통위원
##급감하고
##급감했던
##급등하며
##급물살을
##급변하고
##급속도로
##급증했고
##기관이다
##기록했고
##기록했던
##기술기업
##기술용어
##기술특례
##기술평가
##기아차가
##기업교육
##기업들도
##기업보다
##기자단과
##기조에도
##기흥점에
##기흥점은
##긴급견인
##긴급생활
##긴장하고
##김모씨는
##깊어지는
##까다로운
##깜짝실적
##꼬북칩의
##꽃다발을
##꾸러미는
##나노스가
##나노스는
##나라에서
##나서기로
##나섰지만
##나타남에
##난임부부
##날아오를
##내걸었다
##내놓았기
##내림세를
##내부거래
##내세우고
##내용이다
##냉장고를
##넓혀가고
##넘었다고
##넘쳐나는
##넣었다는
##네이버가
##네이버는
##네이티브
##넥슨지티
##노력하는
##노트북과
##노트북을
##노틸러스
##논의하는
##농기계를
##농산물을
##농산물이
##농수산물
##농식품부
##농촌사랑
##농특산물
##높아진다
##높이면서
##누군가는
##누적수주
##눈도장을
##늘렸지만
##다가섰다
##다릅니다
##다양하게
##다양하다
##단계부터
##단계에서
##단기급락
##단백질이
##단야선생
##단행했다
##달한다고
##담배소매
##당선인은
##당시에도
##당첨번호
##대구지점
##대규모로
##대기업과
##대기하고
##대량생산
##대변되는
##대비하는
##대주주의
##대체하기
##대출이자
##대표들과
##대표에게
##대표이자
##대해서도
##더벤티는
##더제니스
##던험비가
##덜어주는
##데이터가
##도모하기
##도시정비
##도입되던
##도입되면
##도입하고
##도전장을
##도전하는
##도지사가
##돌아가고
##돌파구를
##동결하고
##동대문에
##동래점은
##동반위는
##동서대를
##동서발전
##동시다발
##동아시아
##동일하고
##되살리기
##되찾았다
##두산위브
##두산타워
##두자릿수
##둔화되고
##둔화되는
##드라이빙
##드러냈다
##드리웠다
##들썩이고
##들어서며
##들어오는
##들어있지
##들이닥칠
##등록금을
##등장하고
##등장했다
##등촌점에
##디자인에
##디자인이
##디피씨는
##떨어지는
##뚜렷했던
##뛰어드는
##뛰어든다
##뛰어들고
##뛰었으니
##뜨거웠다
##라라잡은
##라이브로
##라이언은
##로드맵을
##로봇카페
##롯데온을
##롯데푸드
##르쿨트르
##리뉴얼해
##리스크를
##리포트를
##릭스방크
##마감시황
##마감하며
##마감하여
##마련했던
##마사지가
##마스크가
##마스크는
##마스크와
##마음으로
##마친다고
##마켓컬리
##만기이자
##만들어갈
##만들어야
##만족감을
##만족시킬
##말했다고
##망라하는
##맞대결을
##맞이했다
##매도자인
##매매가를
##매장에선
##매출채권
##맥캘란의
##머신러닝
##먼지통을
##멀티쿠커
##메디포럼
##메이크업
##면세점을
##면세품이
##모나미는
##모델이다
##모르겠다
##모바일로
##모색하는
##모아지고
##모집공고
##모험자본
##목재산업
##목재제품
##목적이다
##목표치를
##못했다면
##무더위가
##무상으로
##무색하게
##무엇일까
##무역의존
##문경시장
##문제점을
##물량으로
##뭉칫돈을
##미국으로
##미래전략
##미세조류
##미얀마는
##미지급형
##민관합동
##민관협력
##민생안정
##바닥에서
##바이오와
##박람회는
##반도체업
##반등하고
##반등하며
##반발하고
##반사이익
##반영되지
##반영하는
##반품하는
##받아들여
##받았는데
##발굴하고
##발달상권
##발빠르게
##발생으로
##발탁했다
##발판으로
##발표됐다
##발표되지
##발행하는
##밝혔지만
##방문취업
##방사청과
##방지하는
##방향성을
##방향으로
##배우자가
##배터리의
##배후수요
##백화점이
##법정관리
##벗어나기
##베이조스
##벤치마킹
##벨로스터
##변경하고
##변경했다
##변동성은
##변신하고
##변화하고
##병행하는
##보급률은
##보냈다고
##보성녹돈
##보여준다
##보유세를
##보장으로
##보장하고
##보장한다
##보증하는
##보험으로
##보호하는
##복리후생
##복합개발
##본격화할
##본궤도에
##본부에서
##본엔젤스
##봤습니다
##부담으로
##부동산의
##부두에서
##부드럽고
##부분에서
##부산시장
##부산시청
##부업으로
##부원장은
##부진에도
##부진했다
##분기배당
##분사창업
##분석결과
##분양권과
##분위기에
##분위기와
##분주하다
##분해되는
##불가피해
##불안감을
##불안감이
##불이익이
##불편사항
##붙박이장
##브리지텍
##블루오크
##비브라스
##비수기와
##비슷하다
##비용으로
##비재무적
##비제조업
##빌딩으로
##빗그로스
##빠지면서
##사건에서
##사들였다
##사들이고
##사람들은
##사명변경
##사업소득
##사업수행
##사업자와
##사업환경
##사옥에서
##사용된다
##사용량이
##사용료에
##사용자가
##사용자는
##사용하게
##사용하기
##사용한다
##사임했다
##사재기가
##산림청은
##산업부와
##산업생산
##산업으로
##산유국이
##산유국인
##산출하는
##살리기에
##살펴보는
##삼성생명
##삼진어묵
##상담사가
##상당수가
##상당액을
##상당하는
##상무부가
##상상나눔
##상생협력
##상승하는
##상용화를
##상장기업
##상장법인
##상장사가
##상장사의
##상태여서
##상환권을
##상환하지
##새싹보리
##생각보다
##생각하면
##생각한다
##생산공정
##생산기업
##생산능력
##생산량을
##생산력을
##생산시설
##생산유발
##생태계가
##생활권을
##생활방역
##생활하는
##서울보증
##서지혜는
##서초사옥
##서포터즈
##서한에서
##선도하고
##선물했다
##선방했던
##선점하기
##선택하고
##선행지수
##설립하고
##설비공사
##설정하고
##설치된다
##설치했다
##성공하는
##성명에서
##성장률과
##성장에서
##성장하며
##성적표가
##성적표는
##세대주와
##세아특수
##세운일대
##세이브존
##세자릿수
##센터까지
##센터에서
##소리바다
##소액으로
##소외됐던
##소지하고
##소품으로
##손세정제
##손익분기
##솔루션은
##쇼플레이
##쇼핑몰과
##쇼핑몰을
##수급자인
##수도권은
##수도권의
##수도권이
##수사기관
##수업으로
##수요층인
##수익구조
##수정보고
##수출규제
##수출되는
##수행하는
##숙박음식
##스마트팜
##스위치를
##스크래핑
##스타들을
##스프레드
##슬로바키
##승승장구
##시공사가
##시너지도
##시도하는
##시리즈가
##시리즈는
##시사했다
##시설자금
##시설투자
##시스템의
##시스템인
##시원하게
##시음회를
##시작되고
##시작하는
##시장점유
##시점별로
##시제품에
##시추업체
##시행령을
##시행으로
##식감으로
##신디케이
##신분으로
##신선하고
##신세계가
##신세계는
##신소재인
##신용위험
##신입사원
##신차평가
##신한금융
##신혼여행
##실시되는
##실시하고
##실업률이
##실업자와
##실정이다
##실행계획
##심사지침
##심화하고
##씨준생은
##씨티카드
##씬파일러
##아니라고
##아마존은
##아마존이
##아세미를
##아이덴티
##아이에게
##아이템이
##아주경제
##아직까지
##아카데미
##아카이브
##아퀴스의
##아파트와
##아파트인
##악재에도
##악화되고
##안간힘을
##안정성이
##안착했다
##않습니다
##않았다면
##알려주는
##액체생검
##앨라배마
##야심작인
##야외활동
##약국에서
##양곤의학
##양성과정
##양성평등
##양성하는
##어닝쇼크
##어려우며
##어린이가
##언론들은
##업데이트
##업체들에
##업체와의
##없어서다
##에너지를
##에너지와
##에르메스
##에스엠비
##에이비엘
##엔젤클럽
##엔지니어
##엔투셀의
##여러분을
##연계하는
##연구비를
##연구진은
##연구팀은
##연기됐던
##연상하는
##연장하는
##연장한다
##연체율이
##영어능력
##영업수익
##영역에서
##영향력을
##영향력이
##예고됐다
##예고했다
##예상됐다
##예상되며
##예상치인
##예정대로
##오랫동안
##오르비텍
##오리온에
##오토바이
##오피넷에
##올라가는
##올랐다고
##올랐지만
##올해까지
##옵션으로
##와디즈를
##완화되며
##완화된다
##외국인에
##외부감사
##외출하지
##왼쪽에서
##요구했다
##요금제는
##요금제로
##요금제에
##요플레가
##용도지역
##용인시는
##용적률을
##우든굿즈
##우량주를
##우리넷은
##우미건설
##우미학의
##우여곡절
##운영된다
##운영중인
##운영하던
##운영하며
##운용수익
##움직이고
##워크스루
##원격으로
##원유저장
##월지급식
##웹사이트
##위스키를
##위원장이
##위원회는
##위축됐던
##위축으로
##위탁매매
##위탁하기
##위험자산
##유가급락
##유기적인
##유니드는
##유니폼을
##유명세를
##유병자와
##유예기간
##유예받을
##유일하다
##유입되고
##유전자를
##유지관리
##유치하고
##유치했다
##유통권을
##유통되고
##유튜브가
##유튜브로
##유행으로
##육성하고
##육아용품
##은행권에
##은행들은
##은행들이
##은행에서
##음성인식
##음식점이
##응답자가
##의견제출
##의류관리
##의류상가
##의사봉을
##의약외품
##의존하는
##이겨내고
##이노로드
##이뤄지지
##이상이고
##이어가는
##이어가던
##이용객이
##이용권을
##이용률은
##이유로는
##이유있는
##이자수익
##이전까지
##이전으로
##이전하는
##이평선의
##이후에는
##인공태양
##인력들의
##인력수급
##인사검증
##인식하지
##인정했다
##인증기관
##인증률이
##인증제도
##인증하는
##인지도가
##인천신항
##인천에서
##인천지역
##인터로조
##인터파크
##일반용역
##일시적인
##일신상의
##일용직과
##일정기간
##일환이다
##일회용품
##임대소득
##임플란트
##입국자가
##입력하면
##입성하는
##입성한다
##입찰지침
##입찰참가
##있는데요
##있음에도
##자격과정
##자금으로
##자금지원
##자동차의
##자동해지
##자랑하는
##자료에서
##자리잡은
##자본적정
##자본확충
##자세하게
##자신감이
##자신만의
##자신했다
##자아내는
##자율성을
##자제하고
##자제하는
##자치구가
##자회사의
##작년부터
##잔액에서
##잠금장치
##잡코리아
##장기화될
##장례용품
##장원교육
##재개하고
##재개하는
##재계약을
##재무설계
##재미있는
##재정집행
##재테크가
##재테크에
##재활용품
##저금리로
##저렴하며
##적자국채
##적절하게
##전개한다
##전기차가
##전기차는
##전날부터
##전년도에
##전달보다
##전달하기
##전도율이
##전망치가
##전망치인
##전망한다
##전문가는
##전문딜러
##전문성을
##전방위로
##전북도는
##전분기와
##전세계적
##전셋값이
##전염병이
##전용으로
##전자결제
##전자부품
##전자재료
##전주보다
##전체카드
##전환하고
##전환하는
##전환하며
##절반으로
##점심식사
##점유율은
##접수한다
##정면으로
##정면충돌
##정보보안
##정보보호
##정지됐던
##제공되는
##제공되며
##제공된다
##제공업체
##제공하게
##제공하며
##제공했다
##제기하자
##제도개선
##제반비용
##제시하는
##제시한다
##제약사에
##제외하는
##제작금융
##제조사인
##제출한다
##제품구매
##제품군을
##제품력을
##조니워커
##조달비용
##조달하고
##조사하고
##조사했다
##조성하는
##조성했다
##조세회피
##조언한다
##조이시티
##조정하고
##조직으로
##조짐이다
##조치했다
##조합원의
##존재하는
##종목들이
##종사자는
##종합계획
##좌우하는
##주거위기
##주관사와
##주력했다
##주류업체
##주목받는
##주문하고
##주식취득
##주요국의
##주요국이
##주유소에
##주장하며
##주주로서
##주주연대
##주택관련
##주택금융
##주택소유
##주택이다
##주택종합
##줄었으나
##줄었으며
##중고거래
##중국으로
##중반에도
##중에서는
##중요하게
##중위가격
##중위소득
##중이었다
##중진공과
##증가하며
##증가하여
##증권맨이
##증권사가
##증권주가
##증권중개
##증발했다
##증진하고
##지금보다
##지급하지
##지나치게
##지속으로
##지속했다
##지역상권
##지역으로
##지연되는
##지원받아
##지원센터
##지원키로
##지원하며
##지정했다
##지켜봐야
##지하철역
##직업훈련
##직장가입
##진단기기
##진단하는
##집중분석
##집중하는
##집합체인
##집행했다
##차근차근
##차단하기
##차단하는
##차량번호
##차별화가
##차별화를
##차원으로
##차원이다
##차질없이
##착수한다
##창업교육
##채안펀드
##채용으로
##채용한다
##챌린지는
##첨단기술
##첫날부터
##청년들이
##청년주택
##청년취업
##청약자가
##청약접수
##청약통장
##청와대는
##청주시에
##체결식을
##체계적인
##체제로의
##체험존을
##초과하는
##초기창업
##초등학교
##촉구했다
##촉진하고
##총무국장
##총사업비
##총수일가
##총자산은
##최고재무
##최고치로
##최근까지
##최소한의
##최소화한
##최저수준
##최종적인
##추가검사
##추가하며
##추대됐다
##추정치를
##추정했다
##추진됐다
##추진하기
##축산물을
##출렁였다
##출발하여
##출범하는
##출생연도
##출시되고
##출시일은
##출자액은
##출하량은
##충성도를
##충족하지
##충청북도
##충칭으로
##취급받던
##취소됨에
##취소했다
##취업자는
##측면충돌
##카드결제
##카드사가
##카드사업
##카드사의
##카망베르
##카카오의
##캐시워크
##캐시카우
##캠페인인
##커버력을
##커스터머
##커졌지만
##케어젠은
##코스맥스
##코스트코
##코스피와
##콘셉트를
##크림치즈
##타격으로
##타운으로
##타이거즈
##탈출구를
##토로했다
##토마토를
##통계작성
##통보하지
##통보했다
##통상투자
##통신망을
##통신사업
##투입되고
##투입하고
##투입하는
##투자가가
##투자목적
##투자자만
##투자정보
##특가전을
##특별계정
##특수목적
##티스쿨이
##팅크웨어
##파버나인
##파생상품
##파악하기
##파주페이
##판단이다
##판단했기
##판매됐다
##판매량도
##판매망이
##판매중인
##판매처를
##판매했다
##패키지는
##팩토리원
##페퍼로니
##편안하게
##편의점은
##평가기관
##평가받는
##평가시험
##평가지표
##평균적인
##평균판매
##평택포승
##포스코가
##포스코는
##포착하는
##포테이토
##포함되지
##포함하고
##포함하는
##포항공대
##폭락으로
##폭락했던
##폭증했다
##표면이자
##풍기인견
##풍성하게
##프로세스
##프로스펙
##프리미어
##플라즈마
##플랫폼과
##플랫폼은
##플랫폼이
##플레이어
##피아트크
##핀셋정책
##핀테크를
##필수라고
##필요소견
##필요하지
##하겠다는
##하나카드
##하락률이
##하락세다
##하락세로
##하루만에
##하향조정
##하회했다
##한국공항
##한국기술
##한국법인
##한국씨티
##한국우수
##한국인이
##한국전지
##한국조폐
##한국지엠
##한국환경
##한류타임
##한우고기
##한일합섬
##한진칼을
##한창이다
##한큐가입
##핫라인을
##항공권과
##항공사를
##항공사의
##항공산업
##해명했다
##해법에듀
##해수욕장
##해외거주
##해외인증
##해지환급
##핵심공약
##핵심기술
##핵심으로
##핵심이다
##했습니다
##행동계획
##행정복지
##행정부가
##향상시킨
##허리띠를
##허용하는
##혁신사업
##혁신장터
##현금배당
##현금흐름
##현대성우
##현대엘리
##현대차의
##현저하게
##협력사가
##협약식을
##형사합의
##혜택으로
##혼조세로
##화물선에
##화웨이가
##화장품과
##확대하며
##확보하게
##확보하는
##확산되는
##확산되며
##확산방지
##확장하는
##환경오염
##환매조건
##환자들이
##활발하게
##활성화로
##활용도가
##활용되는
##활용하고
##활용했다
##황금홀더
##회복되지
##회복세로
##회복하기
##회원증서
##회장으로
##휘발유가
##휴대전화
##희망자를
가입금액의
가치삽시다
걱정없는종
결혼적령기
고양시제공
그린가스를
근로종사자
금융거래법
금융지주를
금융지주에
금융투자의
기술연구원
나눔재단은
노동조합은
녹십자지놈
단기적으로
담보대출을
대기업집단
대책만으론
디스커버리
라이트벤처
롯데지주우
만원대까지
만원이었다
모닝포스트
모빌리언스
바이코리아
방탄소년단
베이비페어
볶음양념맛
부동산개발
분야에서는
비케이탑스
사물인터넷
사법연수원
사이언스의
생명과학은
생명과학이
생활건강과
생활건강은
서비스산업
서울디자인
세보엠이씨
센타홀딩스
소프트웨어
손해보험의
손해보험이
수협은행은
스파라거스
시장에서의
신용등급을
신용평가가
신화빌라스
아시안리뷰
아임스타즈
안방보험이
어린이재단
에어솔루션
엘비세미콘
여객터미널
연구원에서
연구위원은
올리브영이
월패드에는
유나이티드
융합연구소
이널리시스
인사이트부
인센티브를
작은도서관
장관회의를
저축은행은
전문금융업
준코스메틱
지원센터가
키움증권은
태경케미컬
텀에볼루션
테일즈링클
투자증권에
트랜스포밍
트릴리언트
특화증권사
파운데이션
패스트트랙
퍼멘테이션
포트플래너
프로젝트의
플라이체인
플랜트사업
해지환급금
헤시라스호
현금카드를
현대자동차
현대제철이
협의회에서
(092%)
(101%)
(11539
(220%)
(245%)
(266%)
(281%)
(284%)
1200),
372369
961935
978322
MAPLUS
Vivlas
WeWork
mySUNI
##"2020
##'150'
##-050%
##1,500
##1,520
##1,590
##1,600
##1,900
##1,920
##1017%
##1064%
##116%,
##118%,
##12230
##12325
##1298%
##1322%
##142%,
##1499%
##1688%
##181%,
##1961%
##2,300
##2,365
##2,565
##2019’
##271%,
##276%,
##30~34
##322%,
##3708%
##5226%
##57434
##64493
##64633
##6956%
##7,000
##8,000
##82455
##9,000
##9,325
##KOSPI
##KSTAR
##Point
##Urban
##kwang
##“2020
##가입자에게
##가처분신청
##가천대학교
##가치삽시다
##간편보험은
##감사보고서
##감소하면서
##감소하였다
##감소했다는
##감소했으며
##감정평가사
##갑작스럽게
##강화되면서
##개발사업에
##개발했다고
##개시했다고
##갤럭시아컴
##거리측정기
##건강기능식
##건설업계에
##검토하겠다
##검토한다는
##게임체인저
##격리해제는
##견본주택은
##결과적으로
##결정했다는
##결혼적령기
##경기고양시
##경기도농업
##경기부양을
##경동나비엔
##경력단절여
##경상남도가
##경영난에도
##경제생활자
##경제위기가
##경제협력을
##경제협력의
##고가주택의
##고급휘발유
##고려아연은
##고려아연의
##고배당주에
##고부가가치
##고사위기에
##고시했다고
##곤두세우고
##공개했다고
##공급망관리
##공략한다는
##공시한다고
##공식승인을
##공유서비스
##공항버스업
##과기정통부
##괄목할만한
##광고모델로
##광주은행이
##교보생명과
##교보증권은
##교육방송의
##교촌에프앤
##교통이용이
##구성됐으며
##구조조정은
##국내시장의
##국민카드는
##국책은행이
##근로자의날
##글렌피딕이
##글로벌성장
##금속제조업
##금액이지만
##금융소비자
##금융시장을
##급성장하고
##긍정적으로
##기고문에서
##기대했지만
##기록중이다
##기록했다는
##기부하기로
##기술사업화
##기업결합을
##기업심리가
##기업은행과
##기업은행에
##긴급대출은
##깨끗한나라
##꿰뚫어보자
##끌어모으며
##끌어올렸다
##끌어올리는
##끝판책임땅
##나눔캠페인
##나서겠다고
##나서겠다는
##나서면서다
##나타났다고
##나타냈으며
##낙찰됐다고
##내놓으면서
##내륙노선인
##네이버웹툰
##넥실리스는
##넷플릭스가
##노란색으로
##노사협의를
##노인일자리
##농수산식품
##농식품유통
##뉴욕타임스
##늘어났으며
##늘어놓으면
##단기차입금
##달콤커피는
##담보대출을
##대책회의를
##대출해주는
##대타협에서
##대형마트가
##대형마트는
##대형마트에
##대형마트의
##더본코리아
##더블샷라떼
##더케이손보
##델라웨어주
##돌아서면서
##돌파하려는
##동서식품이
##동아제약은
##동원산업이
##동진쎄미켐
##동참했다고
##되살아나고
##두산그룹의
##들여다보는
##때문이라는
##떨어졌다는
##떨어지기도
##뚜렷해졌다
##뛰어넘었다
##라이프케어
##러시아에서
##레버리지론
##레저활동을
##로열에디션
##롯데그룹이
##롯데케미칼
##리서치업체
##리질리언스
##마무리되는
##마사지볼을
##마이너스라
##마이송금은
##마이크로텍
##마케팅으로
##마크로젠이
##만들어가고
##매니지먼트
##매매거래가
##매일유업은
##메디아나는
##메릴랜드주
##면접전형을
##모델하우스
##무급휴직에
##무상서비스
##무역수지도
##무역항에서
##물류서비스
##뭉쳤습니다
##미국에서도
##미꾸라지의
##미니발전소
##미세먼지가
##미스터트롯
##미혼남녀가
##바이오센서
##바이오업계
##반등흐름이
##발생하거나
##발전사업을
##발표하면서
##발표했다고
##발표했지만
##발행금액은
##발행하기로
##방송서비스
##방역당국이
##배포했다고
##버크셔해서
##벌어지면서
##벗어나지는
##베네수엘라
##베이비부머
##베트남으로
##벤처기업에
##보건사업에
##보험업계의
##본격화되는
##본격화한다
##볼보자동차
##부동산시장
##부문에서는
##부문에서도
##부엌가구를
##부족하다고
##부진했지만
##분석해보는
##분양시장이
##분양업계에
##불가피하다
##불거지면서
##불편하다고
##브라보골프
##브랜드파워
##브렌트유는
##블룸버그가
##블룸버그에
##비교해서는
##비금속광물
##비상교육이
##빅데이터에
##빠져나갔다
##사내이사로
##사로잡았다
##사망보장을
##사모펀드는
##사모펀드에
##사모펀드의
##사무소에서
##사업영역을
##사업자들의
##사업조합에
##사회적가치
##산업혁명의
##살림살이가
##삼성닷컴과
##삼성전자를
##삼성카드의
##상생플러스
##상승추세를
##상승하면서
##상승했다는
##상승했으나
##상장사들의
##상조업체는
##상품화하는
##새벽배송에
##생산공장을
##생산라인을
##생산업체로
##생애주기별
##서비스마다
##서비스업을
##서울사무소
##서울시의회
##서울에서는
##선물세트는
##선물투자의
##선보였다고
##선적작업이
##설계사무소
##설문조사에
##설비투자를
##설치한다고
##성장동력을
##성장촉진제
##성장하면서
##세계굴지의
##세부적으로
##세종텔레콤
##소방당국은
##소비심리를
##소비심리에
##소비자가전
##소비자들을
##소비지출과
##소비촉진을
##소액주주연
##손자회사인
##솔루션으로
##수급가구를
##수도권에서
##수주절벽에
##수준이라는
##수출규제를
##수출기업의
##수출기업이
##수험생들은
##수험생들이
##순매도하며
##순영업수익
##순유입됐다
##순유출됐다
##스타필드와
##스토어에서
##스포츠산업
##스피리츠는
##승인건수는
##시급하다는
##시민들에게
##시세차익을
##시세차익이
##시장금리가
##신고했다고
##신규채용을
##신설했다고
##신성장사업
##신청했으며
##신한금융의
##신한카드의
##신혼부부를
##실물경제에
##실시계획을
##실시했다고
##실시했으며
##실적발표후
##심화되면서
##아난티강남
##아울렛에서
##아이디어와
##아트몰링과
##아파트들이
##악화하면서
##안전등급인
##안정적에서
##안티에이징
##알려지면서
##알리안츠는
##알서포트와
##애널리틱스
##어버이날을
##얼어붙었던
##업무제휴를
##업종단체와
##에드링턴이
##에어부산은
##엔젤클럽은
##여수공장의
##역기저효과
##연결이라는
##연결하겠다
##연구개발을
##연구결과가
##연동했다고
##연장하기로
##영업사원이
##영업손익은
##영업이익률
##영업환경이
##영위업체로
##예금금리와
##예금자보호
##예비심사를
##예상되면서
##예상되지만
##예외적으로
##예정이었다
##예정일자는
##오마하에서
##오스트리아
##오프쇼어는
##오피스텔의
##온라인경제
##올스페이스
##완화했지만
##외국인투자
##외부활동이
##요금제보다
##우미건설은
##운용해오던
##웅진씽크빅
##원격회의를
##원료창고를
##원인이라는
##웨스틴조선
##위기상황을
##위례신도시
##위메프오는
##위세아이텍
##위해서라면
##위해최고의
##유동자금이
##유럽에서도
##유로모니터
##유망산업을
##유상증자로
##유상증자에
##유아교육전
##유지한다는
##유턴지원반
##유통업계의
##유통회사와
##유해세균을
##유효기간이
##은행계좌에
##응원합니다
##의사결정은
##이끌었으며
##이노베이션
##이노화이트
##이미지센서
##이브자리가
##이용고객인
##이유에서다
##이의신청을
##이의신청이
##이의신청할
##이익창출을
##이자수익은
##이전상장을
##이전했다고
##인재들에게
##인정받았다
##인제대학교
##인천공항은
##인천광역시
##인천국제공
##인크로스는
##인테리어에
##인허가부터
##일반적으로
##일반회사채
##입국자들이
##입국장에서
##입주물량은
##자구안에는
##자녀장려금
##자동차부품
##자안그룹이
##자연스러운
##자유학기제
##자체브랜드
##잠재실업자
##장기화되고
##재고물품을
##재무장관이
##재택근무가
##재확인했다
##적발했다고
##적자전환한
##전국민에게
##전기로에도
##전기및전자
##전기분해해
##전달합니다
##전대미문의
##전망이라고
##전망이어서
##전망치보다
##전문브랜드
##전문업체다
##전시컨벤션
##전자맵으로
##전자업계가
##전지부문의
##전환사채를
##전환한다고
##전환해주는
##전환했다고
##점검해오늘
##접근해보자
##접어들었다
##정당하다는
##정부로부터
##정비사업과
##정비사업의
##정상적으로
##정책금리를
##제네시스의
##제로페이와
##제안했다고
##제약업체인
##제조업에서
##제주항공의
##조기상환형
##조선업계가
##조업일수를
##조합원들의
##조합원들이
##종속회사인
##주가지수가
##주거서비스
##주류업계와
##주민등록상
##주민센터나
##주변시세의
##주식회사에
##주유소에서
##주택시장에
##주택시장은
##주택시장이
##주택업계에
##주택투자가
##중기적으로
##중기중앙회
##중단한다고
##중앙부동산
##중앙재정의
##중증치매를
##증가했으며
##증권맨에게
##증권사들은
##증시에서는
##지금까지는
##지급되는데
##지난달에는
##지난해까지
##지속가능성
##지역경제에
##지역별로는
##지원대책을
##지원사업을
##지정한다고
##지주회사로
##직장인들의
##진정국면에
##진행된다면
##진행했다고
##질문만으로
##집단민원을
##참여자들의
##참좋은여행
##창동역세권
##창업기업이
##채무상환을
##채무자들이
##채용연계형
##채용지원을
##천연화장품
##청구건수가
##청약접수를
##청와대에서
##체감경기를
##체결한다고
##체류시간을
##체크카드나
##최고수준의
##최대주주로
##최대폭으로
##최초기준가
##출자사업은
##출자한다고
##취약가구에
##취업역량을
##측으로부터
##카드사들의
##카라반테일
##카테고리의
##캄보디아의
##캘리포니아
##커리큘럼을
##컨트롤타워
##케임브리지
##코나투스가
##코로나바이
##코스피시장
##코아시아는
##콘퍼런스를
##클라우드로
##클라우드와
##키움증권의
##탄소포인트
##태광산업이
##테스트베드
##통과하면서
##통상장관과
##통신사들이
##통해시장을
##투자수익률
##티브로드가
##티브로드와
##티스테이션
##판매가격은
##폐기하거나
##포털사이트
##폭스바겐이
##프로그램과
##프로젝트가
##프로젝트인
##프리미엄급
##프리토레이
##플랫폼에서
##하나금융이
##하나은행이
##하락했다는
##하반기까지
##하이트진로
##한경로보뉴
##한국은행의
##한밭대학교
##한솔테크닉
##한익스프레
##한자리에서
##합격자들을
##항공기들이
##항공업계를
##해서웨이가
##해외여행이
##해외진출을
##해저케이블
##혁신조달과
##현금카드를
##현대약품은
##현대오토에
##현대인들의
##현대제철에
##현대카드의
##현실화됐다
##협소하거나
##형평법원에
##호르몬제를
##호텔신라는
##호텔신라에
##호텔신라의
##확보한다는
##확산될수록
##확진자수는
##황색포도상
##휴게공간을
##휴림로봇은
##휴업수당의
##휴업하기로
##휴직수당의
##흑자기조를
##흥국증권은
##히든메이커
관계장관회의
기타연결종속
뉴에고라운드
도이치텔레콤
두산중공업이
드라이브스루
롯데관광개발
롯데하이마트
리버포레자이
머티리얼즈는
미래에셋중국
벤츠코리아는
부산항만공사
비즈니스센터
사이코메트리
상품기획챕터
서부텍사스유
서울신라호텔
스마트뱅킹은
시스템반도체
식품기술기획
아모레퍼시픽
액정표시장치
영구임대주택
유망중소기업
이베이코리아
자기자본비율
자산관리계좌
창조경제혁신
청년창업재단
최수문특파원
커머스사업부
커머스시장의
코스피지수가
테라젠이텍스
테크놀로지의
투모로드스쿨
투자연계금융
트레이딩으로
평판연구소는
한국소비자원
한국중부발전
한국타이어앤
한글과컴퓨터
핫황금올리브
핵융합실험로
호흡기증후군
(+105%)
(+159%)
(1319%)
(2982%)
40-7161
CELECON
PPCBank
agement
olution
##'030',
##'070',
##114-33
##144725
##144915
##201912
##20~30%
##20~40%
##282244
##286008
##291243
##59~106
##70~80%
##Carbon
##Econom
##Excess
##Return
##Square
##Survey
##Syndic
##Techno
##Valley
##alphag
##mspark
##개별주택가격
##개인이었음을
##개장시간으로
##건강보험심사
##결제수수료를
##경기도지사는
##경북빅데이터
##경제심리지수
##고급연구인재
##광역자치단체
##구매관리지수
##국가정보원과
##국가통계국에
##국무위원장의
##국제인명센터
##국제협력방안
##군수관리관실
##그랜드센트럴
##금고은행에서
##금융공공기관
##기아자동차와
##기업자금관리
##기획재정부가
##나라사랑카드
##나스닥지수는
##네오에스티지
##농업기술협력
##농촌진흥청이
##누적수익률이
##다우존스산업
##달성하겠다는
##달차컴퍼니는
##대전신용보증
##더마코스메틱
##도시재생사업
##도와드립니다
##도쿄증시에서
##동일고무벨트
##디스플레이를
##디자인파크를
##라이브네이션
##렘데시비르가
##로이터통신에
##롯데월드타워
##리서치센터는
##리서치센터장
##링크옵틱스는
##마이너스통장
##마이크로텍은
##마이크로텍의
##마이크로텍이
##마트당일배송
##마포구청장의
##만성질환자는
##매매서비스를
##메리츠증권이
##모델하우스를
##모바일어워드
##무역안보정책
##미래에셋은퇴
##미혼남녀에게
##박사후연구원
##배달의민족은
##변액연금보험
##보건복지관실
##보건복지부가
##보건복지부는
##보안전문기업
##복지포인트를
##복합쇼핑몰인
##분산투자하는
##불가피해졌다
##비이자이익이
##사모투자신탁
##사우스웨스트
##사우스차이나
##사회간접자본
##사회공헌활동
##살균탈취수를
##삼광글라스는
##삼성중공업이
##상생기금으로
##상장예비심사
##상환우선주를
##생명공학기업
##생활안정자금
##서비스센터를
##서울교통공사
##서울성모병원
##서프라이즈를
##선결제하기로
##선정위원장을
##선지급금으로
##성우테크론은
##세븐일레븐이
##세종텔레콤이
##세종특별자치
##소개함으로써
##소득공제율이
##소상공인들의
##송금서비스인
##수요억제정책
##수출입은행을
##스마트폰으로
##스카이라이프
##시스템옴므가
##시중은행들이
##신약후보물질
##신주인수계약
##실리콘웍스가
##싱가포르에서
##아이오케이가
##아이오케이는
##아이파크시티
##안전정책팀장
##앞당기겠다고
##액정표시장치
##앤제이컴퍼니
##에비에이터에
##에스앤에스텍
##에이프로젠의
##에코마케팅은
##엔씨소프트는
##연결기준으로
##예능프로그램
##예정이었으나
##오렌지라이프
##오픈마켓에서
##온라인샵에서
##우리들휴브레
##우리은행장이
##우아한형제들
##원산지증명서
##유안타증권이
##유지하면서도
##유통업체에서
##유한책임회사
##육일씨엔에쓰
##이동통신사인
##이랜드재단과
##이어가겠다는
##이테크건설은
##이행보증보험
##익숙하면서도
##인도네시아에
##인명정보기관
##인사혁신처는
##인터뷰하면서
##일부개정령안
##입찰제안서에
##자동차업계에
##자산건전성을
##자유무역협정
##재난긴급생활
##전년동기보다
##전략적투자자
##전문기업이다
##전용면적별로
##정부세종청사
##정책점검회의
##제넨바이오는
##제주신화월드
##주거안정자금
##주주제안서를
##중간지주사인
##중앙재난안전
##중요관리공정
##지속가능경영
##지원하겠다고
##지원함으로써
##직거래장터다
##직거래장터인
##집중하겠다는
##창업경진대회
##창업지원단은
##채무상환자금
##청년창업교실
##취소당하거나
##취소소송에서
##커뮤니케이션
##커스터마이징
##코스메슈티컬
##토구조물공사
##통상장관회의
##통합온라인몰
##투자자로부터
##트렌드세터가
##티브로드와의
##파리크라상의
##패스트푸드점
##펌텍코리아는
##편집기획팀장
##평생교육원은
##프로그램으로
##하나마이크론
##하반기부터는
##학자금대출로
##한계대출금리
##한국거래소의
##한국과학기술
##한국석유공사
##한국야쿠르트
##한국원심력콘
##한국위원회의
##한국자산관리
##한국정보통신
##한국주택금융
##한국타이어앤
##핫황금올리브
##항바이러스제
##해지환급금을
##행정안전부에
##현대카드와의
##화상상담회를
##흑자전환됐다
강남사랑상품권
공정거래위원회
녹십자엠에스의
녹십자헬스케어
농협금융지주의
르노삼성자동차
무역안보정책관
미래에셋대우가
미래에셋대우는
어닝서프라이즈
여신전문금융업
오픈이노베이션
위지윅스튜디오
인베스트먼트는
증권거래위원회
키다리스튜디오
탄엔터테인먼트
팔래스호텔에서
한국에너지공단
현대산업개발의
(+163%),
(-5995%)
(000270)
(000660)
(002140)
(004830)
(005690)
(006890)
(007070)
(009540)
(013810)
(014285)
(041140)
(061970)
(064480)
(064550)
(096770)
(118000)
(191410)
(294870)
Business
Consumer
Traqline
wwwrassi
##1,93409
##202051/
##Climate
##dbeorlf
##honggga
##고용대책만으론
##관리처분변경총
##국민건강보험법
##국민연금기금의
##군주거정책과장
##그래픽처리장치
##금융감독원장은
##금융투자업계는
##기업공시채널에
##기업승계활성화
##기하급수적으로
##납품업체로부터
##노던라이트벤처
##녹십자헬스케어
##농협상호금융은
##대명스테이션은
##더마테스트에서
##데브시스터즈는
##데이터통화량이
##데일리블록체인
##도심제조업체의
##도이치모터스는
##두산베어스와의
##디지털컨텐츠업
##라임자산운용의
##리바트스타일샵
##리빙파워센터에
##마이크로바이옴
##마켓인사이트부
##메디포럼제약은
##무역투자실장이
##미래에셋대우와
##바이오솔루션은
##방사선관리용역
##보험가입금액의
##부동산자산관리
##부산대학교병원
##부산베이비페어
##부산항만공사가
##브레인콘텐츠는
##블룸버그통신이
##삼성자산운용은
##삼일회계법인은
##생명보험협회에
##서울사랑상품권
##서울신라호텔이
##서울패션위크가
##스파크랩벤처스
##신용회복위원회
##씨티씨바이오는
##아시아나항공은
##아시아나항공이
##아시아미래기업
##안인베스트먼트
##애플리케이션을
##외국인투자자의
##우리금융그룹은
##우리금융그룹이
##우리들휴브레인
##우정사업본부는
##이엠케이네트웍
##이코노미스트와
##인천공항공사는
##인천도시공사는
##재규어랜드로버
##정부지원대출을
##종료프로젝트의
##종신보험이지만
##주택산업연구원
##증권중개업체로
##지놈앤컴퍼니는
##지식산업센터로
##지역상품권으로
##지역아동센터를
##집중분석합니다
##창업지원펀드는
##최고재무책임자
##카카오프렌즈의
##캐리어에어컨이
##컴퓨터단층촬영
##코리아리크루트
##테슬라코리아는
##토지거래허가구
##통상투자관광부
##투모로드스쿨은
##투자양해각서를
##트랜스포메이션
##트렌드를최고의
##특별인센티브를
##푸르덴셜생명의
##프놈펜상업은행
##프로탄바이오와
##하나금융지주에
##하이투자증권은
##한경희생활과학
##한국동서발전은
##한국산업은행법
##한국석유공사에
##한국씨티은행이
##한국우수상품전
##한국장학재단과
##한국장학재단이
##한국투자증권에
##한국투자증권이
##한국폴리텍대학
##한우자조금관리
##한화손해보험의
##한화투자증권은
##해외주식자산이
##현대건설기계는
##현대렌탈케어가
##환매조건부채권
걱정없는종신보험
교보라이프플래닛
교촌리얼치킨버거
금융감독원지난해
기간산업안정기금
산업통상자원부는
서울주택도시공사
신세계인터내셔날
올리브네트웍스가
유기발광다이오드
종합자산관리계좌
중소벤처기업부가
층세라믹커패시터
핫황금올리브치킨
2258-5940
Privilege
formation
##043%(805
##23,72369
##57%(1112
##강남사랑상품권은
##건대스타시티점에
##경기남부지방경찰
##경일고등학교에서
##계좌입금서비스는
##고용유지지원금은
##군사시설기획관실
##닛케이아시안리뷰
##대학일자리센터는
##르노삼성자동차는
##메리츠금융그룹이
##메리츠금융지주를
##모바일현금카드를
##물류서비스센터를
##벤처캐피탈리스트
##삼성디스플레이에
##상가정보연구소가
##새마을금고중앙회
##소프트뱅크그룹이
##신동탄포레자이의
##신차평가프로그램
##아모레퍼시픽그룹
##양성평등정책과장
##에이비엘바이오는
##오스템임플란트가
##이유있는사람들은
##자동차산업협회에
##재난기본소득으로
##전기및전자공학부
##전문사모운용사인
##중소기업중앙회는
##중앙대책본부회의
##지속가능연계대출
##첨단의료기술개발
##카카오페이증권은
##카카오페이증권이
##평가기관으로부터
##폭스바겐코리아는
##프놈펜상업은행은
##프로바이오틱스는
##피아트크라이슬러
##하나에프앤아이가
##한국금융투자협회
##한국언론인협회와
##한국전지산업협회
##해외규격인증획득
테일즈링클파워세럼
##경기도농업기술원은
##글로벌비즈니스센터
##농업기술협력사업의
##뉴욕상업거래소에서
##니혼게이자이신문이
##대한상공회의소에서
##미래에셋자산운용의
##뿌리엔터테인먼트와
##사회적가치위원회는
##상온물류서비스센터
##서비스마케팅학회가
##소셜네트워크서비스
##시스템트레이딩으로
##아모레퍼시픽그룹의
##아모레퍼시픽그룹이
##아카이브코퍼레이션
##양곤의학연구소에서
##온라인동영상서비스
##유사투자자문업자를
##이베스트투자증권이
##지역사랑상품권이나
##포스코인터내셔널과
##한국상장회사협의회
##한국자동차산업협회
##한국프롭테크포럼이
Nucleosides
##경기도경제과학진흥원
##과학기술정보통신부가
##과학기술정보통신부에
##금융정책결정회의에서
##기초생활보장생계급여
##노던라이트벤처캐피털
##비상경제중앙대책본부
##인터넷전문은행특례법
##중앙재난안전대책본부
##지앤피바이오사이언스
##한국기업평판연구소는
##한국대학교육협의회가
##한국백혈병어린이재단
##한국중견기업연합회가
##해외투자영업본부장과
암치매걱정없는종신보험
##Syndication
##경기도경제과학진흥원이
##동구바이오제약으로부터
##바이오산업핵심기술개발
##브랜드엑스코퍼레이션이
##사우스차이나모닝포스트
##중소벤처기업진흥공단은
##캄보디아증권거래위원회
wwwrassirocom
##링컨세일즈서비스코리아는
##(02)3010-2000
+'
-)
6)
Di
Fe
XC
eh
fC
od
um
~~
##했
가습
경상
공식
과열
광훈
국엔
낙인
년만
다날
당국
덕트
도델
디올
미담
밤휴
병희
세교
셀프
소드
송가
수홍
승세
식한
신의
실권
영서
온투
우현
유료
윤호
율로
이냐
이유
익부
자수
장마
지불
카를
EP
기찬
절염
줘도
칸과
켓몬
크가
토털
통관
투는
투를
티카
편식
편을
하되
학회
한솔
협업
(67
(71
196
2,7
2,8
366
376
480
52(
642
671
679
703
741
798
852
999
ADT
AMU
ASB
AVE
And
BHI
CES
CVD
CVS
Cat
Com
DID
DRB
DRI
EAN
ELF
FOL
Fas
GBI
Gun
HCA
HCN
HTS
Hot
IBK
INE
ISM
KTB
LAB
LEN
LPG
Lab
MIL
MMT
MSI
Mez
NEA
NEW
OCR
PEG
PVC
QLO
REA
ROG
Ram
Res
SLL
STO
STS
Sim
TCH
TOP
Vol
ZCS
ade
ame
bgo
bit
bps
ero
fic
guy
ife
ike
irm
충북
ize
mic
mod
net
nov
ode
ogy
ove
rec
ree
rue
ust
wth
zan
~55
##"6
###"
##BO
##Ch
##['
##ji
##kh
##li
##pH
##pl
##pp
##re
##si
##가야
##갑각
##강서
##강제
##걸음
##검출
##견줘
##고신
##곡물
##곤충
##골수
##곰탕
##괴기
##국동
##굳이
##굽네
##궁금
##권기
##규명
##균을
##극심
##글과
##금전
##깃발
##깊다
##깔고
##깨달
##나프
##난무
##난방
##낳고
##낳은
##넓은
##넣는
##넬로
##녹아
##놀라
##느끼
##능가
##니더
##닫아
##덴탈
##돌소
##동포
##됐기
##둬야
##든다
##듯한
##디어
##뛴다
##띄워
##랠리
##렌즈
##루비
##루손
##루쏘
##룩을
##르누
##린드
##마치
##맑고
##맛있
##맛집
##맡고
##맡는
##맡은
##맥도
##머문
##머저
##몫을
##몸에
620
86,
##금일
##뮤직
##배화
##뱅킹
##벗을
##병목
##분업
##붐펫
##붓기
##붙여
##붙을
##뷰노
##비장
##빛의
##빼서
##삶과
##삶이
##삽화
##색소
##서밋
##서유
##선반
##세빛
##센텀
##셀룰
##수년
##수료
##수집
##수택
##숙성
##숙원
##순경
##쉽다
##스틸
##슬림
##신곡
##심포
##싱크
##썼던
##쓰면
##씽씽
##아무
##앉아
##암모
##압축
##야후
##얻게
##얻어
##엄마
##엄태
##엘사
##오션
##옥석
##옮겨
##옵티
##왔을
##왕정
##요양
##움츠
##웃고
##웃돈
##웰컴
##윈스
##은을
##이곳
##익스
##인디
##일산
##임지
##잔가
##잔인
##잔치
##재입
##저는
##절묘
##정성
##제프
##조심
##좁혀
##줘야
##즐겨
##지옥
##직결
##진한
##집권
##집안
##짓기
##징수
##짧아
##차감
##차갑
##챙긴
##청하
##체온
##총장
##축인
##춘천
##층을
##족
브린
설의
실과
외부
##Qi
##균등
##넣을
##선출
##정공
##족집
##치러
##칭다
##칼럼
##칼슘
##캔디
##캘훈
##컴백
##컷팅
##큼직
##키엘
##탈세
##탐사
##탐욕
##터닝
##텐동
##토목
##튀는
##틀린
##틈타
##티아
##티후
##팀원
##팀이
##팝업
##패트
##팩스
##팩트
##팬덤
##펴는
##펼친
##폰을
##폼팩
##풍덕
##풍요
##퓨처
##핀잔
##한동
##핸즈
##햇차
##했기
##행장
##허위
##환인
##훼손
##휠라
가동을
가동향
가량의
가족은
감소에
값할인
강기정
강석류
강종민
개국은
개국을
개인화
개척에
개팀이
거주자
검단역
이
다
기
로
1
에
가
2
0
는
지
을
자
한
고
일
대
은
의
시
인
사
업
스
(
9
원
하
)
전
를
서
,
제
나
수
주
해
3
으
상
국
장
5
부
아
했
정
코
비
매
4
공
리
경
도
7
8
'
보
동
트
만
어
있
성
6
분
소
신
중
%
산
면
[
]
증
과
개
위
적
금
계
구
유
조
진
세
드
종
출
영
선
회
라
용
년
차
관
투
월
화
억
오
등
감
연
간
최
들
데
모
재
난
내
행
거
달
체
래
발
현
터
마
니
미
러
바
통
실
‘
단
우
품
문
와
’
준
밝
급
안
혔
것
권
=
파
반
프
약
S
크
여
식
따
그
생
결
운
표
순
익
근
르
외
역
게
입
무
올
요
C
된
융
확
할
물
방
o
-
점
포
타
격
당
승
치
머
"
건
I
명
석
까
울
양
목
규
배
염
카
K
T
A
강
후
a
본
량
P
청
설
e
B
되
록
판
G
각
호
브
태
며
속
환
평
려
E
됐
디
민
형
예
교
향
삼
두
합
액
열
직
r
김
택
집
피
D
력
별
임
온
◆
특
학
처
추
심
레
L
협
플
채
활
었
남
항
M
음
티
초
작
날
료
늘
n
O
노
락
i
번
같
망
/
t
저
른
m
총
험
랜
율
받
더
박
N
능
불
럴
c
높
히
린
헤
돌
글
던
케
축
뉴
테
복
벌
든
l
편
R
야
담
및
황
객
버
련
션
송
법
천
취
줄
V
맞
롯
함
토
술
손
책
F
루
났
벤
창
s
커
페
획
변
메
너
룹
습
폭
광
센
휴
즈
H
키
질
골
말
때
균
육
참
알
충
름
백
견
@
퍼
독
~
존
필
았
새
움
농
워
없
“
앞
언
않
텔
엔
씨
폰
효
p
률
층
h
혜
접
북
펀
완
U
베
u
패
애
응
절
핑
d
득
탄
류
윤
극
란
쇼
k
검
병
츠
될
졌
네
+
W
곳
널
넘
희
철
허
였
컨
긴
범
악
론
쟁
&
블
립
께
”
몰
홈
또
략
침
혁
살
람
템
누
족
흐
홍
겠
텍
닥
군
왔
J
럽
털
겪
례
친
흥
많
클
런
빠
앙
링
못
△
앤
측
델
림
셋
▲
욕
뱅
g
랫
봉
콜
큰
폼
얼
령
X
놓
캐
팅
젠
탈
돼
잠
엄
턴
딩
넷
착
엘
폐
첫
잡
탁
막
콘
y
길
섰
십
잔
:
돈
랑
램
컴
럭
쿠
욱
웨
솔
렌
w
렸
빌
먼
슬
켓
훈
값
럼
캠
떨
갈
째
밀
푸
볼
색
걸
낮
져
뚫
뒤
몬
쳤
b
앱
찰
풀
갤
암
낸
징
꾸
풍
혼
흑
힘
끌
튜
픽
둔
엠
Q
콤
겨
렉
Y
덕
빅
큼
찾
뷰
숙
홀
갖
>
냈
젝
쳐
릭
봇
눈
촉
팔
핵
넥
싱
톡
돕
뛰
빙
셀
잇
춰
!
념
룸
릴
붙
슈
?
믹
팀
f
킨
논
춘
헬
팬
롭
뤄
첨
칭
휘
쓰
벨
셔
좌
v
딜
벽
픈
텐
틱
춤
*
녹
닉
엑
옥
웃
ᆞ
뒀
탑
퇴
셜
좋
팡
뿐
녀
빈
쇄
써
밸
꼽
칠
펴
쪽
헌
납
찬
답
▶
▷
느
큐
랐
먹
폴
겸
굴
압
j
슨
닝
떠
맥
쉽
킹
곡
톤
봄
씩
틀
힌
냉
핀
랩
팩
꽃
렴
혈
갔
끝
둘
흡
◇
왕
웍
퓨
낙
렇
켜
Z
맹
밥
<
갑
쏠
짜
샘
귀
섭
촌
곤
닷
쌍
잉
컬
괴
섬
잘
칼
캔
틸
#
롱
벳
탓
힐
※
밴
혹
z
겐
놀
벗
즐
짝
캡
괄
님
뜻
닛
릿
봤
척
쉬
톱
겼
끼
룡
뮤
빨
탕
펼
눔
샵
랙
맺
븐
씽
엇
왼
놨
맛
닌
웅
웹
핏
겹
뜨
틴
혀
흘
x
끈
닫
덴
샤
웠
탠
빚
얻
떤
멈
훼
깜
렘
멘
쉐
싼
윈
펜
핫
낼
듯
렬
붕
꿈
넣
멀
숨
앵
죽
롤
몸
싸
펫
━
땅
몇
밖
밤
냐
떼
맵
멤
빗
웰
젤
즘
흔
롬
싶
쌓
쏟
탱
≪
≫
슷
졸
짐
췄
퀴
밍
빛
셉
촬
펙
깊
끊
떻
뢰
짓
찍
칩
맡
즉
캄
궁
긍
꺼
됨
뚜
렵
벼
콕
콩
걱
겁
넓
띄
렛
앰
덜
듭
벅
읍
켰
텀
美
깨
멕
셈
셧
옵
죠
캣
쿨
퀀
팜
→
듣
맨
셰
챌
펭
혐
↑
냥
밋
뿌
칙
컸
탐
곧
깃
꿔
놈
듈
릉
샌
쓸
‧
中
꼬
덮
빼
좀
캘
툴
뀌
듀
뜰
룩
밑
젊
즌
꽁
랭
룰
옮
옴
욜
죄
줘
줬
킷
튀
팎
○
곽
꺾
꼭
끄
렷
몽
므
빕
삶
숲
슐
썸
얀
얘
엌
옛
킬
q
∙
늦
닐
룬
묻
삭
솟
쏘
쩍
칸
턱
햇
↓
넬
눠
돔
쌀
씬
앉
챙
툰
튼
갚
낵
뇨
돋
둥
뒷
륙
멜
묶
밭
봐
뽑
숍
숫
슘
잃
쯤
찌
펄
훌
갱
굳
덩
땐
렀
쁘
삽
쓴
핸
걷
딕
똑
띠
맘
뭉
붐
섯
섹
엽
옷
왜
읽
짧
쿄
퀘
휩
ᄋ
比
겔
꼼
녕
덱
뛴
렁
뤘
믿
볶
쎄
잭
컵
킴
팁
〈
〉
全
굿
꿀
늄
딸
빔
윙
첼
칫
텝
튬
틈
펌
펩
횟
횡
α
꾀
꾼
끗
낄
닭
랍
묵
뵨
숭
싹
쿼
팰
팽
햄
`
★
發
껴
꽂
뀐
낳
덧
땡
똘
썼
윅
잦
챗
켐
퉈
팍
팝
헛
新
銀
곰
껏
꽤
넨
뇌
눌
됩
딛
딤
띈
랄
렐
묘
섞
쉴
썩
옆
윌
잎
잖
컷
큘
팹
;
傷
慶
株
重
갓
굵
궐
깍
깎
깔
늪
댄
덤
둬
딘
떡
뜩
랠
럿
륜
맑
밟
붓
셨
썬
쏙
좁
촹
쾌
탔
탬
텅
휠
흩
|
–
■
●
前
國
州
註
韓
궤
껑
꼴
끓
낭
냄
넌
놔
듬
딱
뚝
릅
멍
몫
뮨
봅
뷔
뽐
샀
샴
쇠
쑥
씀
씹
앨
얄
얇
옌
옳
짙
쪼
챕
켈
쿵
톨
헝
홉
.
▽
【
】
大
故
網
車
酒
걀
굽
긋
깅
깝
깥
꿨
꿰
낌
넉
녁
뉜
늠
둡
딪
맴
뭐
뱀
빵
뼈
쁜
삿
샷
슛
싣
앓
