[PAD]
[UNK]
[CLS]
[SEP]
[MASK]
##있
##이
했다
##1
으로
##지
##기
##대
##수
##‘
##2
에서
##전
##있다
##등
##사
이다
##가
##시
##한
하는
##제
##“
##중
##것
00
##경
하고
##정
##인
##공
##위
##자
##주
##부
##상
##3
##소
##보
##국
##최
##지난
##신
##고
##비
##아
##회
##조
##20
##개
##관
##연
##나
##다
##내
##미
##일
##유
##그
한다
##매
##5
##하
##세
##선
##통
##발
기업
##모
##서
억원
##있는
##4
##현
##금
##생
##구
##올
##스
##만
까지
었다
##말
이라
##설
##해
##성
##기업
부터
##때
##계
##201
##분
##한국
다는
000
투자
##방
##제품
##않
##오
##마
랜드
##확
##시장
##반
##적
##업
지만
##강
##예
##차
##동
은행
##지난해
##브
하기
##추
##노
##장
니다
##위해
산업
##우
##판
##없
##따
##바
##실
##여
##사업
##출
들이
##안
##도
##원
##영
##6
##직
##국내
##했다
##달
##어
##대표
##투자
##브랜드
##높
면서
##정부
됐다
##회장
##진
##지원
적으로
##재
##10
##배
##열
##불
##의
##7
##더
적인
##결
##늘
##받
##건
##거
##운
##작
자는
##및
##많
##미국
##규
##증
보다
##금융
았다
##중국
##경제
##말했다
##8
##활
##특
##것으로
항공
에는
##통해
##무
그룹
##평
이라고
##소비
된다
##포
##대한
##게
##문
##협
##때문
##들
##판매
##감
##창
비스
##과
##단
##물
##명
##점
##줄
##성장
##등을
##디
##관계
##프
##L
##이상
##요
##기술
##회사
##데
##맞
##커
##파
##두
에게
롯데
##교
만원
하다
##서울
##입
##현대
시아
##생산
20
삼성
하게
##위한
##올해
##화
##설명
##9
##참
##한다
였다
##경영
##19
##같
##임
##중소
장은
들은
%)
금융
##상품
분기
##전문
##필
##새
##고객
##후
##에
##소비자
##김
##함
하면
##가능
##초
졌다
##개발
##계획
마트
##세계
##청
위원
##서비스
리는
습니다
##총
도체
##역
레이
들의
##알
##크
##발표
##행
##각
##매출
##시작
##관계자는
##본
##대상
##롯데
##할
글로
동차
에도
##다양
##이어
##이후
##기준
##사용
장을
0%
##운영
##증가
##간
##가격
##산업
글로벌
기를
##제공
도록
##규모
##들어
##변
##카
##같은
##집
##수출
업체
스템
##뒤
##취
환경
##S
##함께
##확대
사업
##외
혁신
##출시
##최대
라인
##업체
시장
##가장
금을
##처
##관련
##목
##종
##삼성
력을
##넘
##반도체
##밝
##저
##피
벤처
##합
##근
달러
##작년
##채
##편
##12
##다양한
되는
성을
사를
##당
##또
전자
##C
##못
##15
##해외
##글로벌
하지
##경쟁
##리
##지역
##효
라는
##최근
##평가
##약
##박
리를
##하는
##체
##분석
혔다
시아나
##아니
르면
##패
##필요
##법
##앞
##낮
##적용
##양
##수준
(1
##담
##산
##따라
##대비
##스타
업계
##11
##온
##호
##것이
##기존
##설명했다
회사
##200
##중소기업
이라는
보험
##△
자인
시간
성이
정부
해야
스트
##때문이다
는다
##급
201
##손
##사회
##선보
##영업
##것이다
대로
기술
##밝혔다
##농
##직원
성장
##보험
##정책
##2017
지를
##식
##심
##좋
##따르면
##경기
##전기
##협력
##혁신
##번
##활용
##시스템
##베
왔다
위원회
##큰
##전망
##LG
##커피
##연구
다고
##프로
##K
이어
##타
##메
##트
년간
##예정
에선
##다른
##새로
##분야
)’
##완
##강화
##100
##갖
##계획이다
##찾
##충
##로
##측
##30
하면서
##이유
##코
지는
),
##아이
##창업
##나온
##대해
##최고
##있다는
쇼핑
조원
##A
##전략
##돌
##토
경제
##25
##만들
주는
##주요
##추진
에서는
##상황
개월
##등의
##인수
##늘어
너지
##남
핵심
##것은
##방식
##지적
벤처기업
##추가
##디자인
##하지만
##개선
##처음
##속
##절
##향
##검
이고
##지난달
시아나항공
사진
치를
그램
라고
제품
이는
지고
한국
##블
##준
카드
##제조
##핵심
센터
이익
임금
하겠
##품
렸다
##회장은
##발표했다
##진행
##하나
##빠
##기능
##도입
인트
##등이
##아니라
##스마트
##자동차
##고용
##기간
기가
##이번
##제품을
도를
##13
##없다
##있도록
##살
##플
라이
이었다
##기록
하며
##업계
##인상
##순
점을
하기로
개발
정을
##14
##이용
##독
##면
기로
이나
화를
되고
##감소
##사람
##은행
##직접
##곳
##광
##있어
##참여
##치
리스
##문제
##만에
##업무
##논
경영
억원을
##구매
##마련
##선정
##전국
##투
기관
##17
##그는
리아
지털
##복
##16
##때문에
30
공업
##국민
사가
자가
##결과
연구
##목표
##일본
##가입
##우려
##진출
스는
##근로
##높은
##안전
##나온다
##팔
##설립
##잘
##비중
##열린
##오는
##전체
##대표는
##내놓
##국가
##정도
자동차
##새로운
현대
##최저
##하고
##이를
##지급
##포함
테크
##부문
##이날
##키
페이
##수익
##전년
##모두
##예상
##지속
에서도
##걸
##누
##민
사는
통령
##강조
회를
년부터
##우리
##일자
##되
기에
부는
##아시아나항공
5%
##정보
##환경
##매각
떨어
##많은
자를
장이
##실적
했다고
##구성
##효과
##전환
##애
##계열
안을
##그룹
##수입
##I
원은
##규제
##모델
##생각
##어려
##조달
##대통령
##홍
이터
##SK
##보유
##형
거나
##경우
##예정이다
##정부가
##구조
##수요
##책
##첫
##활동
##뛰
##다음
##청년
##전문가
##네
펀드
##승
##교육
##된다
##자산
##등에
플레이
##2016
##0
##공기
##대출
##크게
##평균
##대상으로
리가
##많이
##영향
##최초
(2
처럼
협회
##알려
중공업
##사업을
##쓰
리고
##국제
##적극
##표
##등으로
##잡
##접
이션
정책
##장관
##T
직원
##발생
##보고
자의
##떨어
##현재
##음
##18
##교수
##친
##태
났다
##공급
##됐다
##끌
##콘
관리
량을
##항공
##성공
이라며
##될
##관리
50
##G
하이
##미래
포인트
##지분
##벌
인을
##공정
##따른
##소득
##시간
들에게
가는
거래
##거래
##유지
##힘
케팅
##구축
##기반
##비해
##요구
##삼성전자
##월
##육
금은
트업
##노동
##이런
##온라인
##드
들을
##판단
입니다
운데
지난
##상승
먼지
회의
##24
##부담
##신규
##악
기는
식품
##기대
##없는
##중심
소득
으면
##무역
##발전
##디지털
##느
세계
##것을
##결정
화학
##행사
##금호
##와
##허
위를
##컨
##건강
##노조
##비용
##일반
##권
냈다
##내용
##맛
##용
기도
일부터
계를
력이
년까지
##집중
##차지
##가운데
##스타트업
##꼽
##것도
##자체
##199
##프로그램
##E
##쿠
##매장
2019
린이
섰다
##방문
8%
##눈
##질
##환
상공
##조사
억달러
1%
##P
백화
사회
서는
세대
##50
##한진
상을
##신한
##서비스를
##뉴
##우수
##확보
##계열사
##에너지
율은
으며
##품질
일까지
##먹
##쉽
##폐
노동
##사이
##중요
백화점
3%
공장
식을
##과정
##소재
##할인
##레
##얘
별로
##임직원
##협력사
동산
안전
##만큼
##신청
##1000
놨다
##각각
##역할
##차량
##축
##학
들과
##각종
##미세
##않고
##마케팅
##상품을
(3
##철
화된
##피해
##시작했다
’,
##버
##캐
반기
회장
##가맹
##공간
##나타
##유통
##시장을
억원으로
##비롯
##작업
##라
##클
도가
##공장
##대형
##시행
서다
##40
##이달
##가능성이
##모든
##임금
4%
##침
가량
세를
연금
원이
트를
##뛰어
##일자리
##꾸
##막
기다
청정
발전
##22
은행은
##있습니다
##밀
##29
##기획
##나오
##동안
EO
##/
##계약
##주문
##줄어
##늘었다
##강조했다
##최저임금
##가지
##제작
##참석
##특징
겠다는
##영업이익
##기자
##의미
##전시
##편의
##석
드는
르게
모리
##신용
##맡
##캠
가스
료를
스터
##없이
##위원
##이미
##자동
한다는
##202
##열었다
##정부는
##회장이
##앱
##사례
##있다고
수를
##23
##결제
##공공
##다시
##좋은
##대기업
UV
an
##휴
비를
지원
트남
##공개
##받아
##사실
##사장
##일부
##2015
##날
##렌
##높아
##조직
##‘2019
ED
##납
권을
상품
세점
인이
쳤다
##논의
##이뤄
5000
##시장에서
##끝
대를
조합
하려
##넘어
##성과
##설명이다
##번째
##생활
##유럽
##자리
적이다
##기술을
2%
NG
##돈
##검토
##인증
##지금
##중이다
6%
##갈
##넣
##테
##관심
##대신
##다음달
##않았다
##어린이
10
##티
##홈
맥주
부분
성도
조선
##매년
##현대차
리미
바일
시설
율이
했지만
##얻
부가
스크
전문
##물론
시스템
한다고
##부동산
##2000
’(
##잠
법인
제로
##않는
##중소벤처기업
##별
##삼
##천
시에
협약
##상생
##여성
##친환경
##알려졌다
량이
진다
##개인
##반영
##설계
##설치
억원의
##공기청정
##것이란
##규모의
##기업이
##내놨다
##탈
##받았다
##전기차
7%
##맺
생산
연합
원을
##법인
##선택
##조성
##특히
그룹은
월부터
움을
케어
##채권
하다는
##최초로
##놓
##엔
디어
##21
##많다
##인터
##전달
##호텔
##성장률
##탄
도로
##연속
##이름
리미엄
##기업의
워크
율을
자로
##있을
##점유
상공인
##베트남
가지
는데
대표
##해당
##필요한
##폭
단체
하우
##예산
##인력
##주장
하지만
이트
프로
했고
##부산
##부진
동안
랫폼
지역
호텔
##가정
##경험
##대부분
라도
올해
인다
##계속
##창출
겠다
년대
렌드
치는
##공동
##사회적
명을
스타
시키
업을
했던
##고려
##비교
##모바일
19
##돼
사의
주의
##26
##자신
코리아
##정부의
##2014
##기록했다
(4
##언
감을
리어
준다
중소
##건설
##인정
##하락
##합의
##D
##골
대에
동을
중앙
카오
##더욱
##변화
##찾아
##확인
##역할을
##풍
스를
조정
주도
##나서
##안정
##연간
##의견
##책임
##현대중공업
원에
재인
제를
##대학
##에어
##준비
##카드
##패션
##나왔다
계획
대출
중국
##렌털
##변경
##본격
##않은
서비스
##플랫폼
##한다는
##미세먼지
ng
##냉
이란
이번
##통한
브랜드
##스마트폰
..
80
##B
##R
##둔
##즐
소비
프라
...
##쇼핑
##원두
##제도
##시장에
##회장의
하겠다는
했습니다
(5
##길
되면
사와
##가족
##만든
##열고
LG
##뜻
니스
마다
위는
커피
##부총
##위험
##이사
##화장
##잇
뱅크
이너
##가구
##끌어
##돌아
##악화
##지정
만달러
합니다
##사장은
##O
##몰
##착
##혜
스코
원의
##공유
##노력
##맞춰
##수상
##이에
로부터
##투자를
##프리미엄
##동기
##외국
##참가
##취업
##매출은
##극
##볼
##얼
규모
지가
##TV
##개정
##기본
##농협
##장기
##출범
##활성
##있지만
##전망이다
##중심으로
60
국내
명이
상화
왼쪽
이기
전히
정보
##단계
##자금
##제시
##차별
##해결
##현장
##혜택
스플레이
##특징이다
##낸
가가
들도
미국
소를
프트
##광고
##방침
##육성
##종합
지난해
##선보였다
##소상공인
##떠
과의
랐다
르노
자금
포츠
##CJ
##측은
억원에
##대한항공
##증가했다
##백
본부
서를
스의
##고급
##비슷
##여러
##여행
##올라
##자율
##전용
##조정
##주력
##것이라는
러운
실을
##늘어난
차를
평가
##당시
##않다
##전자
##중단
##현지
##경쟁력
##만들어
##빠르게
##신제품
##2019
##기준으로
##연구개발
계약
문화
세청
##비판
##주도
##통상
##트렌드
기구
년을
밖에
액은
지수
##간편
##소개
##수도
##식품
##최종
AI
##퇴
##항
##불과
##있게
##확산
##10%
##프로젝
9%
갔다
다이
물을
웨어
창업
##28
##맞아
##신뢰
##재무
##조선
점에서
##있었다
~2
##색
##젊
금리
케이
##금리
##기관
##받을
##배출
##우선
##이들
##점포
##형태
전자는
테리어
##않는다
##행사를
##제품이다
성과
스가
웨이
##또는
##부족
##부품
##상당
##주는
타이어
##교수는
##지적했다
70
##풀
첨단
##발굴
##부분
##유명
##중인
중앙회
##30%
##500
om
##넓
##된
##압
공헌
만큼
보고
자산
##달리
##달한다
##화장품
##'
나는
르는
생명
인의
전을
협력
##방안
##인도
##전통
##지방
##하루
##회원
##데이터
##보유한
##인기를
##제공한다
##출시했다
##겪
##잔
봤다
수록
용품
트너
500
##꾸준
##내부
##보면
##사진
##신설
##인천
##채용
##패키
에너지
지면서
##방안을
##제품은
40
##덕
##붙
공단
아차
전기
학과
##자유
##중앙
##투입
##영향을
##줄었다
##카카오
##활용해
##액
##핀
건을
##기념
##방향
##보호
##소통
##재정
##피부
했다는
##20%
##벤처기업
##처음으로
##M
##깨
##난
##황
스토
##내년
##요청
##있기
##제외
##쿠팡
##확장
##가격이
##기획재
##송
공사
률이
문을
위기
이노
이드
##60
##가치
##거쳐
##되는
##받은
##베이
##젊은
반도체
##LNG
##운영하고
~3
”▷
##긴
##싶
럼프
물질
점이
트로
ank
##공략
##대응
##문화
##받고
##본사
##설비
하겠다
르노삼성
##사회공헌
##아이디어
##쌓
##희
량은
롭게
스팅
자원
조사
주행
지에
캐피
하던
##강원
##국회
경영자
##등에서
##앞으로
##2013
##인테리어
##돕
가고
교육
라스
뿐만
서울
주주
##감안
##급증
##바탕
##사고
##시설
##중기
은행의
하거나
##가격은
##비롯해
##시장의
##아니다
##운영하는
가를
구조
니아
지능
LED
##갖고
##냈다
##어렵
##이끌
##인하
##제기
##주목
원에서
##가치를
##겨
##꽃
##엄
##컬
##페
##푸
비용
##동반
##맞춤
##기능을
##얘기다
##회사는
프로그램
##5000
IT
##먼
##울
##터
결제
바이
복지
설팅
수가
##나선
##도시
##보여
##정기
##하이
##300
##우려가
##이마트
##채권단
##평가를
##하반기
##100%
##나타났다
##브랜드를
##격
##빨
##응
률은
통상
%),
##민간
##사무
##외부
##이란
##제출
만원을
즈니스
트워크
회장은
##그동안
##동시에
##매출이
##경쟁력을
##기획재정부
가격
개국
라면
민국
와대
페인
ung
##독일
##등도
##이해
##인기
##시작한
##지원하는
(6
##야
스로
운드
웠다
##31
##AI
##개편
##데다
##등록
##벤처
##상태
##성능
##이벤
##회의
##효율
데이터
메모리
자들이
##나섰다
##아시아
##자회사
##과정에서
##소비자가
##F
##병
##빌
규직
기금
라며
었던
영업
통신
##달성
##대체
##발행
##쉽게
##완화
##이동
##점을
베이션
##가능하다
##바탕으로
##한국경제
##(
##움
없이
##낮은
##달러
##대폭
##이익
##인식
##최소
##통계
공지능
프라인
해주는
##노하우
##시장이
(-
DP
##북
되지
리티
최근
터리
판매
##나라
##늘고
##라인
##마음
##업종
##자본
##추세
##가능한
##문재인
##한국의
이노베이션
25
CC
##범
##빈
##센
기의
명의
신한
양광
에만
하자
##단체
##담은
##라이
##만나
##연금
##오른
##출신
##향후
##SUV
##발표한
##사용할
##수요가
##분석이다
금이
라우
리지
생활
트는
com
##고민
##동일
##와인
##유치
##절반
##제한
##체결
하도록
##비중이
##활성화
##방식으로
##대표적이다
##-
##덧
관계
린다
사로
증권
##27
##노선
##맥주
##배송
##보장
##블랙
##선도
##움직
##있고
##한화
##회복
그룹이
리스타
은행이
하이닉
##꾸준히
##끌어올
##사실상
##시스템을
##쏟
기능
랑스
수는
이를
지주
##불가
##수소
##어떤
##집계
##취임
##해도
##50%
##근로자
##대규모
##매장을
##핀테크
11
km
##빅
##씨
##펼
떻게
리에
위로
위에
##공식
##목소
##문을
##받는
##분기
##장애
##최적
##추천
##파업
그룹의
하기도
##신세계
##지원을
##현대자동차
##답
##숙
나라
무역
제는
학교
CEO
##그러
##기여
##달라
##덕분
##만족
##메뉴
##이전
##주방
##협약
되면서
원으로
##기업을
##로스팅
##이상의
##제품의
주도성장
##2018
##공공기관
##구조조정
##인공지능
##머
##암
대한
부를
상이
엑스
##관광
##덧붙
##동원
##둔화
##바닥
##연결
##운용
##인사
##주로
##통합
##스타일
중소기업
##기반으로
##대한민국
##방침이다
##둘
##봉
기간
르고
사인
신문
하나
##근무
##낮아
##내세
##대우
##상담
##세탁
##실내
##아직
##없어
##제주
##주택
##진단
##처리
##청소
anky
##부회장
##정보를
##청와대
##트럼프
hanky
ungcom
hankyungcom
NS
##깊
##솔
거리
렇게
자재
진흥
힌다
##70
##관측
##누적
##유니
##자연
##차례
##품목
##홍보
더라도
연구원
##198
##스포츠
##여전히
##자율주행
디스플레이
24
SS
re
##루
##몇
##워
기와
내는
액이
오는
이자
제가
카페
##KB
##바꾸
##중고
##창립
##콘셉
##크다
##특별
##고객충
##수밖에
##2012
##탓
개의
구를
동에
사장
성에
자와
췄다
##개최
##담당
##대책
##미만
##바뀌
##반응
##상대
##상속
##않을
##일정
##전면
##파악
6000
##CEO
##개발한
##그쳤다
##어떻게
##인정받
##장관은
##비즈니스
##판매하는
CD
SK
느냐
료로
이버
재단
조달
지로
치고
치다
프레
##놓고
##단순
##먼저
##명품
##바람
##전력
##지표
##토론
##필터
회에서
##노조는
##등이다
##정도로
##혜택을
##3000
##덧붙였다
##고객충성도
##최고경영자
12
##술
니까
리기
세가
세로
아이
했기
회가
##느낌
##영국
##전략을
##중국의
##태양광
아시아나
##제공하는
DB
##싱
대가
도는
리즈
인증
텐츠
해온
##물류
##부과
##산불
##쏟아
##완성
##이하
##좋아
##침체
##하지
##화재
##희망
면세점
##경제가
##면세점
##미국의
##비중은
##산업혁
##시장은
##어려운
##정책을
##포스코
##브랜드로
##수준이다
##필요하다
##슬
국민
무원
우리
움이
응용
의도
티브
평균
폴리
해양
##가까
##기재
##돈을
##두고
##등은
##모습
##분리
##생태
##아닌
##원유
##작은
연구소
정부는
지에서
##많았다
~4
##겸
##흑
계가
노미
점은
##교체
##두산
##리더
##수주
##스위
##않아
##원전
##자녀
##증권
##특허
##확정
하려면
##공기업
##메모리
##선보인
##제대로
##활동을
##효과를
##2030
##것이라고
##르노삼성
##바리스타
##윤
당국
부문
스와
원전
장치
지도
##반면
##부채
##석유
##안에
##역시
##체험
##통신
##퇴직
었지만
해졌다
홈쇼핑
##규모는
##기업은
##소프트
##증가한
##지원한다
##혁신성장
##공기청정기
90
##능
##슈
##옷
##졸
##탑
##혼
가치
국제
년에
받을
유업
이며
점에
프리
##GS
##과거
##다만
##많아
##못한
##배경
##사랑
##열어
##잇따
##화학
디지털
자들은
##공장을
##이유다
##줄어들
##부회장은
##웃
##촉
겼다
고용
두고
로운
분의
산화
상은
셔츠
월드
이날
이즈
인터
지와
##사모
##선호
##준다
##줄여
##직장
##첨단
##협업
라우드
명으로
점으로
조원을
캐피탈
2000
##가격을
##그대로
##달했다
##받는다
##부총리
##스타벅
##올해는
##제조업
##제품이
##활용한
##감소했다
##국내에서
##대표적인
##생산하는
##수준으로
##시작으로
##제품으로
응용프로그램
15
ed
##쌀
##퍼
대의
운용
정이
현지
##넘는
##맞는
##명의
##바이
##방법
##천연
정부가
##규모가
##성장을
##인터넷
##전했다
##2010
##공정거래
##대통령은
65
##봄
##즉
##콜
같이
지지
짜리
회에
##내다
##내려
##바로
##블루
##실질
##실패
##연계
##울산
##적립
##전반
##조합
사업을
장에서
주년을
8000
##내용을
##비슷한
##컨설팅
##빅데이터
##집계됐다
##처음이다
##한진그룹
##지속적으로
GM
##낙
##존
만의
산물
수료
수익
이지
##33
##구입
##방송
##이는
##점검
##카페
##해석
##협의
현대차
9000
##25%
##관심을
##꼽힌다
##내놓은
##맞춤형
##사업에
##상반기
##줄어든
##국민연금
##위해서다
##한국경제신문
18
##H
##까
##녹
##놀
개로
그는
근로
루션
률을
마의
민주
품을
##가공
##가스
##갖춘
##명이
##배달
##보니
##보조
##부드
##선물
##실제
##안팎
##엔진
##음식
##이른
##인재
##주식
##키우
에서다
##기업에
##달하는
##배터리
##있으며
##지적이
##추가로
##출시한
##편의점
##한다고
##회사가
##차별화된
##싸
##팀
##흔
공항
뉴스
성은
타워
포럼
푸드
회는
##52
##가져
##등장
##반발
##소형
##연장
##자구
##저렴
##주주
##총재
##한은
##향상
위원장
3000
##40%
##적용해
##콘텐츠
##분야에서
##차지하는
##판매한다
##프로젝트
아시아나항공
13
DI
MF
in
##N
##견
##찍
러스
력과
서도
순환
스티
저축
지의
##80
##가방
##강력
##거의
##금액
##매달
##사전
##차이
##통과
##패턴
만원대
으면서
##국내외
##기회를
##여의도
##올랐다
##의견을
##자금을
##효과가
조선해양
통상자원
##비메모리
##제공하고
##프로그램을
76
##군
##멀
가의
가전
건설
대학
리바
뿌리
스럽
어나
와의
200
##가동
##노사
##높다
##뉴욕
##의무
##졸업
##지나
##펀드
##후원
산업의
스러운
해왔다
##대표가
##맺었다
##비롯한
##사람이
##서울대
##아니냐
##원하는
##이름을
##이유는
##인프라
##파트너
##프랑스
##회사를
##조달시장
##년
감독
긍정
려면
로를
신생
인은
종합
##갖추
##레이
##반대
##분위
##선박
##어느
##얼마
##역대
##장비
##제거
##조건
##필수
상화폐
##국세청
##나오는
##상황이
##업무를
##파운드
##기업들이
14
PE
다운
릭터
이사
전략
진공
채권
화할
##35
##나눠
##내고
##돌파
##않았
##저축
##충전
##힘들
개월간
라스틱
##가맹점
##방문해
##업체가
##이유로
##제품에
##캠페인
위원회는
으로부터
##산업혁명
##소비자의
##글
개를
사항
수당
잡고
##KT
##겨냥
##그래
##기부
##대만
##비전
##상장
##인건
##정치
##측정
##통화
##후보
기아차
네이션
소비자
스토어
월까지
##과정을
##만드는
##설립된
##타이어
##가상화폐
LO
al
##걱
##균
##벗
##은
##컴
##택
감한
급여
단계
모델
무리
선을
시는
어야
위가
인력
자본
지면
처리
펀딩
##개척
##도전
##소속
##왔다
##이탈
##제안
##초기
발전소
으로는
##LED
##매출을
##비중을
##수준의
##캐릭터
현지시간
##부문에서
##소비자에게
##금호아시아나
##너
##몸
##빼
##흡
과는
기획
노조
렉션
베이
보증
부와
부의
분을
셀러
어링
의를
지다
##가전
##금지
##긍정
##깨끗
##또한
##로봇
##불안
##사내
##수는
##여파
##오후
##이자
##일이
##장착
##적자
##체계
##측면
##편리
사에서
스마트
##경영진
##고객의
##말까지
##부담이
##분석이
##지금까지
BC
TV
##W
##컸
##팬
##팹
##훨
감이
곳에
드를
미세
비는
수출
시킨
인지
장과
차가
촬영
퀄컴
해도
활동
##36
##공익
##관세
##구현
##납품
##노후
##대구
##신발
##영역
##예방
##인한
##주행
##찾는
##패널
##허용
##훨씬
억원이
인으로
##고객이
##보험료
##성과를
##쇼핑몰
##순이익
##주제로
##커지고
##2009
##2011
##만들었다
##어려움을
(7
26
받는
부에
뷰티
시켜
아야
양호
이면
페셜
했을
##고정
##규정
##기계
##매일
##바꿔
##산은
##서류
##신선
##연다
##유리
##이내
##제휴
##조절
##지배
##지주
##해소
기업의
월에는
##400
##그리고
##시간을
##않으면
##앞두고
##없다는
##전망이
##회사의
##OLED
##상대적으로
17
MO
##갑
##셈
##짜
건강
고를
공간
공정
기준
멤버
사에
였던
운영
필터
##45
##건조
##결합
##명을
##모양
##복지
##사상
##쉽지
##역량
##외환
##주고
##주최
##지키
##청정
##현실
##휴대
보다는
업계에
화하고
##기업인
##높이는
##못했다
##문제가
##방식을
##소재를
##솔루션
##수출이
##점유율
##조달청
##중요한
##지분을
연합뉴스
하겠다고
##상황에서
##선보이고
##업무협약
##주장했다
##직원들이
##진행한다
##판매량이
##협력업체
##소비자들이
##삶
##캔
##폴
공제
교통
리트
메라
미를
받은
스에
이크
자치
파크
해서
화가
##공격
##남성
##늘려
##무엇
##분할
##불편
##앞서
##이재
##주민
##차단
##추구
##키워
겠다고
금융은
2018
7000
##도움이
##부담을
##세금을
##실적을
##열리는
##정부와
##피해를
##2022
##개발했다
##네트워크
##디자인을
##오프라인
##정보기술
##차지했다
##소득주도성장
16
er
##덜
##듣
##밑
##벽
##획
##흐
그니
기계
다른
단지
대는
등급
만을
불어
장기
제도
줬다
체계
함을
##간담
##강남
##끌고
##등과
##보내
##우대
##유일
##의류
##인근
##추정
##충분
##케이
##퀄컴
##하면
년에는
동조합
테크놀
해보험
4000
##개발에
##계약을
##늘어나
##못하고
##수수료
##실적이
##없었다
##우수한
##정규직
##평가다
##공개했다
##방식이다
##사모펀드
##통상임금
(8
##낼
##러
##샌
권이
나다
도어
려는
마켓
머니
배송
보는
장의
차량
치가
5%)
##관한
##권고
##논란
##매트
##선언
##시험
##음료
##입주
##적지
##종량
##추경
##현황
됐다는
들었다
디노미
산업을
하려는
##도움을
##베이징
##새롭게
##역량을
##원두를
##이상을
##테스트
##투자자
##한국은
생에너지
테크놀로
##브랜드가
##사용하는
디노미네이션
SF
##꿈
마루
미나
으나
장에
재를
진국
체인
통화
화에
확실
##32
##결국
##고성
##누구
##들여
##모집
##복합
##빠른
##소송
##앞세
##여름
##오전
##집행
##초청
폴리오
화하는
회사인
##경제의
##규제를
##문제를
##실시간
##열린다
##패키지
##포인트
##포함해
금융그룹
자치단체
##고객에게
##선정됐다
##지적이다
##산업통상자원
ar
~6
##옮
디오
법을
서에
석유
요금
인당
일을
장애
저가
청년
3%)
~30
##개별
##그의
##너무
##넘게
##배우
##시각
##원칙
##유가
##의료
##입점
##조리
##합리
공사는
그니처
기술을
업계는
해준다
2017
##197
##600
##금리를
##나서고
##높이고
##목표를
##미국과
##보인다
##시리즈
##외국인
##이벤트
##홈페이
##2008
##내다봤다
##동반성장
##떨어졌다
##업체들이
##추진하고
##파운드리
##판매량은
##소프트웨어
##뿐
##익
고객
고속
기본
로는
물이
번에
에어
웅진
있는
제일
케미
해진
화재
##LS
##대거
##독립
##메시
##명예
##발주
##별도
##불꽃
##산하
##설정
##스토
##신고
##심사
##쓰는
##이와
##재계
##진입
##탑재
##특수
##포트
##표현
##행복
라이프
아시아
하다고
##가격에
##목표로
##백화점
##스스로
##자리를
##제도를
##포함한
##한진칼
##4000
##금융감독
##대통령이
##보유하고
##한국타이어
MC
on
##V
##늦
##습
##헤
라질
받고
었고
오롱
인데
책임
합병
협의
##가계
##당초
##바꿨
##상환
##수행
##스테
##아래
##없을
##의사
##장점
##정비
##정확
##종류
##컸다
##현금
네시아
으로도
##기능성
##말한다
##모델로
##모델을
##불리는
##자영업
##장애인
##조양호
##중고차
##차세대
##컬렉션
##티셔츠
기능식품
##공익위원
##넘어섰다
##분석했다
##스타벅스
##적용했다
##적극적으로
##지방자치단체
OC
at
##뒷
가정
간다
고도
구매
규제
대형
디아
랜차
리드
소가
오일
이런
작용
전쟁
제조
주고
치지
##44
##65
##건물
##계좌
##급격
##기조
##만한
##매우
##벌어
##애플
##약속
##양산
##연령
##위축
##유해
##인해
##일시
##잠재
##적은
##적합
##접목
##주관
##직후
##페이
상품을
엑스포
이지만
케미칼
##80%
##계획을
##고객을
##관련해
##기준을
##늘어날
##사용해
##이같이
##이용할
##인증을
##적용한
##지금은
##판매가
랜차이즈
##1990
##금융회사
##노하우를
##위원장은
##지속적인
##스마트공장
##인도네시아
##포트폴리오
38
87
##e
##곧
##귀
##닫
##묻
##뽑
##쓸
##히
경기
노총
망을
지방
포르
화한
히려
GDP
SUV
##EU
##검증
##극복
##나머
##넣어
##들고
##발급
##부처
##비상
##소셜
##실업
##어디
##연료
##예측
##오염
##외에
##정상
##15%
##경영권
##교육을
##규모다
##그러나
##그만큼
##나오고
##내놓고
##더불어
##때마다
##리스크
##바닥재
##분야의
##불확실
##이끌어
##자신의
##카메라
시장에서
##기술력을
##기업들의
##매장에서
##보험계약
##제시했다
##지원하고
##영업이익은
##전문가들은
##건강기능식품
OE
SC
~5
##좌
관을
난방
다가
대상
사노
섬유
오른
유통
일자
임을
자력
종의
케일
히는
100
##55
##과제
##구체
##높여
##때는
##불어
##비준
##센서
##센터
##수석
##신속
##안내
##오래
##올리
##인구
##저감
##절감
##점도
##제로
##출발
##출자
##흐름
가포르
레이션
력으로
틸리티
##196
##관심이
##구성된
##규모로
##분야에
##스페셜
##여기에
##연평균
##오히려
##위원장
##이들은
##이렇게
##인력을
##제외한
##진출을
##필요가
아자동차
##가능성을
##감안하면
##경제정책
##금융당국
##성장했다
##시그니처
##프랜차이즈
29
EU
ST
##+
##J
##Q
##겁
##듯
##믿
##쓴
건이
과학
도에
메프
미래
수로
스톤
시켰
신을
액을
오피
자체
전에
최저
##34
##경고
##맛과
##맛을
##미니
##민주
##변동
##세무
##소주
##수가
##시계
##실시
##왼쪽
##우버
##응답
##이곳
##지출
##철강
##폐쇄
##폐지
##해야
##호주
관에서
산업은
카드는
##ESS
##국내에
##규모를
##금융권
##기아차
##덕분에
##뛰어난
##상품은
##셈이다
##여파로
##이어질
##인건비
##적자를
##커피를
##화이트
미세먼지
##기간보다
##마련했다
##산업은행
##소비자를
##싱가포르
##핵심협약
##롯데백화점
##본격적으로
##중소기업중앙회
EB
LS
##망
##욕
##찬
##층
##헬
개선
게티
과세
국의
급을
니터
다면
동화
산은
신용
원과
위인
일간
장터
지막
지아
4%)
##가죽
##가진
##갈등
##경유
##국무
##그런
##급등
##내는
##다섯
##담보
##방지
##뿌리
##세금
##시중
##앞장
##얻고
##요즘
##입장
##장례
##장수
##재킷
##전에
##즐길
##지켜
##채널
##취득
##탄생
##힘을
그레이
사들이
인터넷
회의를
##경험을
##깨끗한
##만들고
##상황을
##서울시
##올렸다
##인터뷰
##잇따라
##투자가
##판매를
진흥공단
##브랜드의
##이탈리아
##있어서다
##전문기업
##참석했다
##투자하는
##확대하고
##삼성전자가
##삼성전자는
(0
(9
PC
kg
##꼬
##셰
년이
단을
더스
도시
들에
받아
상의
식에
안에
전지
정한
질을
품질
하여
향을
화로
(10
8%)
##54
##계산
##나설
##높이
##도약
##맞게
##보다
##부모
##분쟁
##양성
##운항
##위협
##유기
##이야
##판결
건으로
금리를
기업이
너지를
소에서
인들이
자이너
적이고
파트너
##150
##60%
##결과를
##관련한
##관측이
##마무리
##보이고
##불가피
##사업은
##세미나
##이번이
##절차를
##직원이
##팹리스
##혁신을
었습니다
##1500
##고용노동
##신용카드
##연금보험
##일자리를
중소벤처기업
IC
##니
##든
##엘
남기
레스
면을
봐야
시티
이에
작년
종을
중기
트코
LNG
##37
##IT
##걱정
##걸쳐
##다르
##대기
##멤버
##모아
##물가
##발언
##보는
##보증
##부정
##비율
##사태
##성적
##세대
##아동
##오르
##올려
##우승
##원인
##유망
##작성
##정리
##조치
##좋다
##주류
##증정
##치열
##포장
##행정
시장에
졌다는
활동을
##1~2
##겁니다
##경기가
##공간을
##공기를
##기술이
##꼽았다
##나머지
##높이기
##느낌을
##들어가
##사장이
##상황에
##시행령
##완성차
##위기를
##의미다
##이사회
##이용해
##중국이
##추세다
##코리아
##하나로
##항공기
##형태로
##홈쇼핑
##활용할
센터에서
최저임금
##기업으로
##아니냐는
##인수합병
##참여하는
틸리티차량
PU
##왜
기순
론을
분이
상생
안이
음을
퓨터
해외
호를
##거듭
##곳에
##까다
##느낄
##드러
##맺고
##보복
##상업
##상위
##선임
##신경
##심각
##언급
##웅진
##위기
##일상
##입찰
##조명
##질문
##추출
##커질
##한전
##현행
##활발
면서도
받았다
오른쪽
정부의
했는데
##70%
##90%
##내용의
##네이버
##떨어진
##바꿨다
##법인세
##사무실
##어려워
##영업손
##인기가
##지자체
##지적도
##콘셉트
##하나다
네트워크
억원에서
위원회를
하이닉스
##2021
##노동조합
##디자이너
##매트리스
##점유율은
##제조업체
##차원에서
##평가했다
##플라스틱
##2019’
##디스플레이
##생각합니다
유틸리티차량
DC
TA
##굳
##끊
##끼
##맥
##밥
##빚
##옥
##좀
##쪼
계의
공동
권의
기기
년째
드시
람회
런스
버스
설비
지니
지자
표준
피크
해달
MOU
##5%
##PE
##겪고
##고위
##광주
##구상
##금속
##급락
##긴급
##눈에
##맞추
##모듈
##배치
##분류
##샌드
##세종
##시도
##예비
##이행
##자기
##저장
##전담
##출연
##충남
##편안
##학생
##한정
##협상
성장을
웃도어
케일업
##갈수록
##강력한
##기업과
##목표다
##바이어
##비용을
##비용이
##설립한
##손잡고
##어렵다
##있다이
##중국에
##출시된
노동조합
썸플레이
##강화하고
##들어가는
##미국에서
##상품이다
##선보인다
##수상했다
##아시아나
##이어졌다
##자구계획
##20~30
##리디노미네이션
##스포츠유틸리티차량
TO
en
es
##U
##깔
##꺼
##웰
##휘
가구
가능
경쟁
기존
단은
먼트
스탄
시킬
씨는
예산
주택
퍼브
1%)
2%)
7%)
900
##CU
##가업
##개의
##거주
##건축
##나가
##낮추
##늘리
##대리
##대중
##되면
##마켓
##멀티
##무게
##보급
##생리
##생존
##시즌
##알고
##언제
##임원
##제어
##준공
##직무
##창호
##특정
##표준
##함유
##형성
리바게
만으로
시장을
업계의
정규직
##120
##개발해
##고려해
##높았다
##높였다
##당기순
##대상을
##대주주
##마이너
##매각을
##선택할
##속도를
##시간이
##없다고
##운전자
##정도다
##정상화
##제도다
##참석한
##참여한
##캐나다
##했지만
코리아는
##계열사인
##도입했다
##무역전쟁
##브랜드다
##정보통신
##퇴직연금
##소비자들의
##아이디어를
35
36
IB
##빛
##칼
금호
나눔
내고
년의
대문
되기
많은
모터
박스
비아
소에
시를
이던
이스
일에
자문
자유
재해
적금
제철
지기
층에
트리
특별
판을
효율
(19
300
##갖춰
##것과
##과학
##구직
##기초
##무료
##봉사
##비싸
##사건
##소매
##손실
##슬로
##시절
##심의
##어울
##없애
##예고
##올초
##완료
##우유
##위반
##절차
##중간
##탄력
##포기
##풍부
##합작
##항목
마의자
민주당
시키는
시했다
티스트
항공사
화했다
##가정의
##갖추고
##경제학
##그룹의
##나선다
##늘면서
##만들기
##미래를
##벗어나
##부작용
##수요를
##수익을
##업계에
##여부를
##인상을
##잡았다
##투자할
##투자해
##평가가
리바게뜨
만원으로
##대우조선
##들어갔다
##본사에서
##부총리는
##신한금융
##자동으로
##중요하다
##혁신적인
테크놀로지
##전문가들의
##아시아나항공이
39
##멈
##잃
##좁
##큐
가에
긴다
길을
력은
리카
물로
법은
상속
성비
일이
텔레
파트
퍼니
형을
800
##1%
##90
##같다
##개설
##공통
##국산
##낮춰
##담아
##당장
##마사
##모터
##미리
##북미
##사라
##살펴
##수립
##수정
##실행
##요리
##조기
##주변
##총괄
##회계
##흔들
대에서
센터를
스포츠
총생산
토교통
##가까이
##가동을
##갖췄다
##개발을
##관계자
##기반의
##늘리는
##대표적
##대해선
##러시아
##미국이
##발생한
##불가능
##비트코
##시대에
##얼마나
##이른다
##전략적
##중장기
##지원할
##컴퓨터
##코오롱
##행사는
##확대할
##휴대폰
중공업은
호텔에서
##대해서는
##성공했다
##업그레이
##업체들은
##예상된다
##적극적인
##확대하는
##아시아나항공을
BI
FC
MR
MW
oT
다지
데이
들여
량의
머스
분쟁
사이
수도
어붙
일은
장관
제당
조차
주년
지표
차례
트롤
틸렌
피언
##39
##48
##감사
##감지
##계절
##고령
##고양
##과세
##나빠
##나아
##내수
##냉동
##높인
##다이
##대화
##더해
##동남
##마찬
##설문
##수용
##슈퍼
##싶은
##압박
##여신
##영양
##의원
##이르
##자문
##전산
##조세
##중견
##초과
##축소
##출하
##파는
##한꺼
##해체
##홍삼
##획득
##효성
##흡수
록체인
분기에
브리드
빌리티
전문가
1000
##감소한
##경쟁이
##경제를
##기능이
##도시락
##들었다
##마지막
##못하는
##반드시
##변화를
##성능을
##우려도
##위메프
##이사장
##저렴한
##점이다
##중국은
##중국인
##최초의
##취지다
##팔렸다
기업으로
억원이다
적으로는
##2005
##구성했다
##노력하고
##대표하는
##대형마트
##마찬가지
##세계적인
##자회사인
##전략이다
##지원하기
##판단했다
##한꺼번에
##업그레이드
22
##"
##객
##갤
##멜
##셀
##썼
##징
##팝
개혁
금의
년엔
뉴얼
달아
렌지
렌탈
매출
방송
병원
분야
상황
생을
수기
수의
어드
오고
재로
침대
특히
6%)
SNS
~20
##2%
##교류
##끝에
##농업
##느끼
##다각
##면제
##목적
##비결
##빠져
##살아
##소유
##수제
##시상
##쌓아
##연출
##오픈
##올린
##요인
##원화
##유동
##일단
##임시
##재고
##전쟁
##전혀
##정체
##정해
##지하
##철저
##추산
##파워
##한층
##화폐
디자인
만원의
먼지를
상으로
스티벌
시하는
이라도
챔피언
파게티
화학은
##공무원
##국회의
##담았다
##문화를
##바꾸는
##사용자
##수준을
##수준인
##엑스포
##예산을
##이미지
##이번에
##제품과
##제품인
##지역에
##차이가
##커졌다
##통계청
##트레이
##한국을
##확인할
손해보험
업계에선
프라이어
플레이션
##늘어났다
##데이터를
##부드러운
##소개했다
##스페셜티
##이벤트를
##전달했다
##판매하고
##하나금융
##국내총생산
##중소기업의
PG
SI
ag
op
##싼
##쏘
##염
##짓
공학
대회
도와
만여
명은
발유
수소
어는
여성
연맹
오드
외선
우고
우선
월에
유럽
인치
자연
장비
전력
주로
진을
##강한
##곳은
##과도
##그렇
##나올
##납부
##다니
##단독
##대로
##대전
##돈이
##둘러
##때도
##마감
##마이
##만난
##맞은
##반려
##보수
##블렌
##상무
##세련
##승계
##시공
##시대
##시범
##식당
##실무
##연말
##연봉
##예약
##워크
##유입
##유행
##자주
##전남
##접수
##조현
##종료
##충족
##컬러
##테마
##투명
##판로
##하기
##합성
##확충
스럽게
시장의
퍼런스
협회는
##700
##경험이
##계기로
##기술과
##노력을
##대상은
##모니터
##비교해
##생태계
##선정된
##신기술
##업체인
##열렸다
##위해선
##있는지
##있었던
##장수돌
##투자한
##확대를
##확대해
업체들이
하면서도
협동조합
##2002
##7000
##근로시간
##롯데월드
##보여주는
##브랜드는
##상승했다
##선호하는
##아웃도어
##예상했다
##전해졌다
##조사됐다
##협력사의
##중기중앙회
##필요하다는
CG
GS
##끈
##던
##읽
격을
공유
관에
국가
금속
동물
돼야
두산
렀다
로에
마저
마존
사고
스키
시스
어를
영선
응을
재료
점유
줄이
책을
천연
캠퍼
탄소
핑크
한진
화해
9%)
IMF
##57
##64
##75
##기다
##나눔
##냉장
##농심
##대를
##도매
##많았
##말을
##매월
##면허
##복잡
##봤다
##분명
##사망
##상호
##수십
##신재
##실천
##액화
##에스
##오랜
##외식
##운수
##위탁
##유도
##일을
##자극
##자원
##작용
##전북
##취급
##치매
##캠페
##특성
##특화
##한경
##환율
##힘입
광다이
까지는
문재인
사들은
##01%
##KEB
##가치가
##경영에
##뛰었다
##뜻이다
##베스트
##분석해
##사례가
##않도록
##연세대
##우리는
##움직임
##위해서
##이들이
##인수한
##작업을
##줄줄이
##중진공
##참여할
##총재는
##펼치고
##품질을
##회장과
##회장을
연구원은
##2006
##2020
##6000
##나라장터
##늘어나는
##롯데카드
##비교하면
##생산라인
##위해서는
##재무구조
##제로페이
##중앙은행
##지원했다
##참여했다
##해외에서
광다이오드
##투썸플레이
##프로젝트를
21
et
##걷
##넥
##닛
##밤
##얇
개사
거운
담당
동의
됐던
들로
루노
루는
마크
맛을
면에
물산
벚꽃
보틀
부처
소한
수입
실업
우수
작업
정비
제히
조직
주기
차의
추진
폭이
rea
##38
##거부
##결혼
##교통
##금감
##급여
##기회
##년간
##농가
##단기
##단축
##대회
##로보
##막기
##만기
##받지
##생명
##수집
##스트
##쓰고
##영입
##원고
##입소
##장학
##제재
##조언
##조작
##직업
##착공
##착용
##책정
##침대
##통보
구하고
금으로
다지오
마케팅
별로는
스에서
연합회
원이다
제품을
##ASF
##구매할
##구조를
##근로제
##단위로
##답했다
##발생할
##분석한
##사람은
##선진국
##성장할
##속도가
##신사업
##영향이
##이상이
##일제히
##있는데
##자리잡
##정책에
##중심의
##즐기는
##청소년
##초점을
##최고의
##최대한
##토대로
##한국에
##회사다
##힘입어
제일제당
##경제성장
##금융위기
##금호고속
##농협은행
##대통령의
##브랜드인
##사람들이
##서비스도
##석유화학
##성장률은
##아다지오
##우리나라
##임직원이
##전년보다
##최적화된
##활성화를
라우드펀딩
##지난해부터
##더불어민주당
##한국조선해양
28
57
it
##떼
##뚜
##뜨
##런
##맨
##멘
##쏠
##융
##컵
##틀
가족
간담
금액
나갈
년여
램프
마이
물가
바스
법상
부산
비가
상태
설계
세다
센서
야크
어도
업종
엘라
위의
일러
일로
일리
자에
제어
튜브
한경
행정
(16
##47
##PC
##“‘
##간단
##거론
##거실
##경남
##고속
##길을
##김기
##높일
##늘릴
##돌려
##뒤를
##머물
##반복
##배당
##배분
##보상
##빌려
##세제
##손을
##연동
##예외
##이슈
##일어
##입사
##입을
##잘못
##재배
##점점
##케어
##프레
##향을
##흑자
##히트
관학교
국세청
기업에
레이터
마트는
사노위
산업이
상거래
시키고
업체인
유업은
자에게
질랜드
커머스
프리카
플러스
한국당
해지고
OECD
##250
##Fed
##GDP
##가까운
##경우가
##관리를
##관세를
##그래서
##기록한
##낮췄다
##내용이
##노동계
##노조가
##롯데는
##만이다
##매출의
##물량을
##미국은
##베이커
##사랑을
##산업용
##성장동
##세웠다
##수많은
##완전히
##위기에
##장관이
##저소득
##전시회
##점에서
##정책이
##포함된
##합니다
##화웨이
업계에서
위원회가
##기업들은
##대표이사
##떨어지는
##목소리를
##설비투자
##수익성이
##신한은행
##영향으로
##이미지를
##이사장은
##임금피크
##저축은행
##트렌드를
##기아자동차
##당기순이익
##현대백화점
발광다이오드
##중소벤처기업부
31
CJ
KT
mm
##꼭
##덮
##쉬
##쪽
##캄
공공
널드
농협
다만
단이
뒀다
라워
리로
리콘
매김
바람
법에
분간
석을
소의
소재
심을
안은
안정
이비
즈를
지금
코스
한화
행복
(20
ard
ing
##3%
##42
##개입
##공모
##극대
##기저
##깊은
##난방
##납세
##내구
##늘린
##동물
##라면
##맞춘
##먹는
##명령
##바다
##불황
##생수
##소식
##속도
##승인
##시내
##실험
##알아
##야외
##연기
##운송
##일으
##있던
##자랑
##잡아
##재료
##제고
##지연
##취약
##코스
##팝업
##포럼
##프린
##하다
##한때
##헬스
부터는
시장은
식으로
으로써
이어서
장애인
장으로
캐피털
##360
##ILO
##강원도
##강화를
##경제는
##기준이
##넘는다
##높다는
##누구나
##늘리고
##리더십
##리퍼브
##미치는
##방식의
##방안도
##방향을
##벌이고
##보고서
##비판이
##사례다
##사업장
##수석부
##스위트
##시작해
##업체를
##유니콘
##이란산
##전체의
##제출한
##종량세
##줄이기
##지역의
##차량을
##호응을
##휘발유
개발기구
물인터넷
억원까지
지니어링
청사에서
##2007
##가능성도
##간편하게
##것입니다
##뉴질랜드
##마케팅을
##무역분쟁
##발생하는
##블록체인
##사용했다
##스케일업
##안정적인
##이어지고
##자리매김
##페스티벌
##현대차는
##롯데면세점
##판단에서다
네트워크서비스
##산업통상자원부
##아시아나항공의
42
64
##값
##겹
##낚
##냄
##닭
##띄
##억
##챙
##햇
강대
국에
그린
난다
리도
림을
명에
문이
미널
사랑
소는
시로
시민
시피
신이
었기
역량
연료
예금
운동
음료
장려
점과
지급
체를
타민
필드
하라
해질
향이
화폐
##49
##‘3
##가로
##고유
##곳이
##공감
##공을
##공제
##근거
##기금
##나와
##납입
##넓은
##대외
##독자
##돕는
##동결
##동화
##따로
##법률
##보안
##본다
##세단
##셰일
##소폭
##시원
##실현
##안심
##여기
##연내
##영상
##욕실
##운행
##위로
##위에
##유엔
##이제
##적이
##조항
##줄일
##직영
##차관
##창원
##철학
##치솟
##치킨
##탄탄
##탓에
##티몬
##확실
공사가
금융권
들이다
사업에
시켰다
신보험
억원어
웨이는
이어트
임금을
테이너
##결정을
##눈길을
##도입한
##마사지
##마음을
##먹거리
##문제는
##미국에
##반영해
##반응을
##본사를
##브라질
##사업이
##속에서
##신청을
##아파트
##앞세워
##원자력
##의미를
##중국산
##증가율
##찾았다
##책임을
##출신인
##투자에
##홍남기
##환경을
##1980
##2004
##간편결제
##검토하고
##경영권을
##경쟁력이
##기업이다
##다양하게
##대체투자
##요청했다
##우리은행
##지급하는
##지역사회
##콘퍼런스
##투자하고
##플랫폼을
##삼성전자와
##인터뷰에서
##중소기업이
디스플레이는
협력개발기구
##롯데월드타워
63
AM
KB
##굴
##궁
##벤
##첨
##흘
격이
결정
구는
데도
동원
레인
려고
론이
른다
리다
리의
리츠
매장
보호
부품
상담
서의
선은
세한
수석
신탁
여름
원장
이가
일과
자기
자다
주가
중견
채움
플래
현실
협상
회계
효과
(15
##-0
##감축
##검찰
##고도
##공부
##구분
##나갈
##나는
##남양
##낸드
##담긴
##등급
##맡고
##맡아
##면적
##모임
##바꿀
##배럴
##배제
##부여
##소외
##실용
##오피
##요금
##유력
##음성
##의존
##이때
##인쇄
##인텔
##재해
##정산
##줬다
##증시
##집단
##창의
##키운
##통제
##푸본
##한솔
##한편
##호소
##홍콩
가량의
러스터
받는다
본부장
스토랑
업체가
일에는
카카오
컨설팅
하고자
orea
##800
##900
##건강한
##경쟁을
##급격히
##대상이
##동대문
##동일인
##때까지
##라이프
##말레이
##말부터
##모습을
##바이오
##보였다
##부드럽
##브루노
##사업도
##상당한
##상품이
##상하이
##소재로
##손실을
##수준이
##신뢰를
##않아도
##알려진
##업체에
##에틸렌
##와인을
##입장을
##자체가
##적합한
##점수를
##제품도
##조직을
##줄이는
##직장인
##추진할
##충분히
##컨트롤
##파업을
##풍부한
렌탈케어
어드바이
업체들은
오프라인
천연가스
##1998
##2025
##8000
##기념촬영
##기대하고
##노동생산
##높아지고
##배경이다
##블루보틀
##비정규직
##비판했다
##사업이다
##서비스가
##선보이며
##성장률이
##성장하고
##신용평가
##신제품을
##업체들의
##자산관리
##중국에서
##최대주주
##캠페인을
##컨테이너
##한국은행
##해당하는
##말레이시아
##중소벤처기업진흥공단
le
or
##냈
##딜
##똑
##럭
##묶
##써
같은
개가
건에
계에
공급
군을
당한
됐고
듬해
리너
리즘
림픽
만간
미아
보자
부채
섭취
세는
시트
신고
어로
여금
역을
일본
전환
주얼
중에
지요
치킨
쿠팡
퇴직
티지
패션
활용
ILO
##43
##69
##같이
##개를
##개성
##거친
##건의
##경찰
##그린
##급감
##끊임
##낙관
##노인
##눈을
##돕기
##동영
##되고
##듣고
##매입
##물러
##발견
##버스
##보관
##복구
##부양
##불러
##사는
##산정
##선발
##섬유
##속속
##수급
##순환
##시기
##신입
##신형
##애로
##얘기
##엄격
##에이
##여당
##옷을
##은퇴
##의도
##이천
##이틀
##입법
##입은
##자국
##전원
##제정
##줄이
##책을
##초반
##출근
##캠핑
##탈취
##테이
##투쟁
##폐기
##표창
##후속
기업을
대학원
보디아
식에서
신세계
어린이
업체의
일리톨
일자리
자금을
전자가
전자의
조정을
책임자
##개선을
##관광객
##기간에
##기존의
##기회가
##내놓을
##넘었다
##다르다
##맞았다
##무료로
##박람회
##벌였다
##별도로
##부족한
##상대로
##수준에
##수출은
##수치다
##시작된
##심사를
##아마존
##않다는
##얘기가
##어려울
##업체의
##웅진코
##위험이
##유가가
##유명한
##이듬해
##이상인
##이익을
##일부를
##일하는
##있어야
##적용할
##진출한
##참석해
##최적의
##탓이다
##투자는
##폭으로
##한국이
##가능성은
##대해서도
##롯데그룹
##마련됐다
##상품으로
##서비스는
##선보이는
##성장하는
##종신보험
##증가율은
##지역에서
##진출했다
##진행하고
##측면에서
##디자인으로
##삼성전자의
##임직원들이
##자유한국당
##재생에너지
##지난해에는
##카카오뱅크
##팝업스토어
소득주도성장
##에어프라이어
##소셜네트워크서비스
?“
CS
PA
PP
aT
”(
##깎
##봅
##캡
##쾌
##탐
##털
##펴
건은
건의
규칙
끄는
나가
나노
되자
리면
리세
뱅킹
버터
번째
보건
보장
산이
세서
소로
소연
심판
업무
업은
연을
우는
육성
장수
재산
정은
중심
집단
차원
총리
추럴
충전
타임
파이
한은
훈련
##개방
##것에
##공항
##국정
##나섰
##내비
##넣은
##단위
##동향
##디젤
##떠오
##말이
##매수
##명목
##명에
##모범
##몰려
##바나
##법정
##벚꽃
##보통
##불만
##뷰티
##빨리
##사드
##사후
##살려
##삶의
##상관
##세트
##손해
##수백
##시민
##썼다
##연세
##올랐
##옮겨
##완구
##요가
##용인
##운반
##웃돌
##원료
##유아
##육아
##인지
##입증
##작동
##전주
##점이
##접근
##주말
##중동
##지식
##직전
##축적
##측이
##쿠폰
##타결
##특가
##한번
##화물
리면서
만원에
맘스터
부동산
산화물
새로운
시장이
앤쇼핑
에게는
자들의
조지아
지난달
회사를
##2~3
##가입할
##경기도
##경영을
##공개한
##규제가
##기반을
##논란이
##돼지고
##들어선
##때보다
##마켓컬
##말이다
##변화에
##사업의
##사이즈
##상당의
##상품도
##생산성
##선정해
##수도권
##스위스
##에어컨
##올해로
##은행권
##점포를
##정부에
##조만간
##체계를
##키우는
##탈원전
##판매량
##효율을
셨습니다
저축은행
##개발하고
##경제학과
##공동으로
##관리하는
##구상이다
##구체적인
##국토교통
##기자간담
##농협금융
##레스토랑
##목소리가
##민주노총
##반도체를
##불과하다
##불구하고
##사이에서
##시장에선
##예상보다
##유럽연합
##이상으로
##자유롭게
##적용됐다
##증가하는
##캄보디아
##클라우드
##투자했다
##현대차의
##금융위원회
##동남아시아
##뛰어들었다
##롯데케미칼
##미세먼지를
##성공적으로
##실시간으로
##카카오페이
##파리바게뜨
##대우조선해양
##액화천연가스
78
PO
SO
oo
sh
##k
##s
##뮤
##왕
##짧
##탁
##헌
##휠
간편
구가
그라
나무
년은
디프
뜻한
란드
래스
로봇
르트
모든
미콘
백을
복합
분배
블랙
세법
세에
세종
션을
손보
쉽게
스턴
실적
아버
에스
에이
오토
운송
원태
유아
조건
차는
처를
치게
코드
포장
피해
학생
행사
현재
199
Fed
ICT
SMC
##AP
##NH
##‘1
##“1
##개가
##겪는
##공무
##근본
##기울
##길이
##꼬집
##내내
##내야
##당부
##도와
##도쿄
##두드
##드는
##따져
##마늘
##많지
##먼지
##바뀐
##범위
##법제
##보기
##상용
##상징
##생겨
##생긴
##선수
##설득
##아메
##양해
##얻은
##영화
##운동
##위촉
##인센
##장치
##저가
##적금
##전날
##조회
##지점
##진정
##채무
##충북
##타고
##타깃
##파격
##편입
##푸드
##하향
##해양
##힘든
거래소
공장을
기관인
미디어
베스트
산식품
시부터
위원은
은행장
이기도
카드를
케이션
텔레콤
팰리세
푸드빌
2016
##IMF
##KDB
##LCD
##겨냥해
##결과다
##경제에
##고성능
##공정위
##금리가
##기념해
##기술로
##내에서
##넘겼다
##달라는
##당분간
##대출을
##들어갈
##뛰어들
##마스크
##방식이
##보험사
##부진한
##불린다
##비율이
##사이에
##상품에
##세탁기
##앞장서
##이유식
##잇달아
##있다면
##자신이
##전망도
##전부터
##조원태
##줄이고
##지난주
##지원이
##직원을
##쪼그라
##특성을
##형태의
##회의를
금융기술
디프랜드
사관학교
##강화하기
##구매하는
##기술개발
##높아졌다
##모빌리티
##베이커리
##분석된다
##브랜드와
##사회복지
##선정했다
##소개하고
##수익률을
##시장점유
##안마의자
##앞으로도
##온라인몰
##외환위기
##왼쪽부터
##유지하고
##이어가고
##인센티브
##자산운용
##장점이다
##지급한다
##지속가능
##진행된다
##친환경차
##편리하게
##하락했다
##한국에서
하이닉스는
##부동산펀드
##소비자들은
##스타트업을
이노베이션은
##경제협력개발기구
##금호아시아나그룹
43
67
89
AP
cm
ic
~7
##갚
##곤
##꼼
##델
##됐
##숨
##숫
##옆
##튀
##퓨
##핸
##혐
##흥
가맹
감동
값은
건전
계층
고기
곳이
국이
나고
네수
놓고
다오
닥터
대와
돈을
배움
삼구
실장
았던
없는
유로
의가
자율
전거
주일
지사
착한
청소
층이
토니
통장
팩트
피아
학적
행위
IoT
##73
##SI
##가파
##감독
##게임
##과일
##국립
##기억
##내지
##대림
##데도
##도로
##드론
##들이
##런던
##레벨
##로그
##멘토
##모여
##무산
##물을
##미친
##보완
##부사
##부스
##북한
##사항
##상권
##섭취
##수영
##수천
##순간
##스튜
##스티
##시점
##아기
##아무
##아주
##아침
##없고
##열풍
##예금
##오더
##오리
##월드
##유진
##의결
##자발
##재개
##재산
##저녁
##전월
##제일
##존재
##종전
##좋지
##주거
##주인
##즉시
##채택
##촬영
##최신
##충당
##치료
##클럽
##키즈
##포상
##플래
##해지
##해킹
계약을
곳에서
그동안
기까지
된다는
쇼핑몰
스타일
실에서
이번에
컴퍼니
했으며
##Top
##가능성
##가능해
##강조한
##겨냥한
##경영계
##기본급
##기재부
##내렸다
##단순히
##대표를
##대학생
##들어간
##레이저
##발굴해
##발전을
##변화가
##부사장
##분석도
##비용은
##비타민
##사례도
##상속세
##서강대
##성장한
##세금이
##손쉽게
##수익률
##시너지
##식이다
##올리는
##운영을
##유튜브
##의지를
##이뤄진
##인수를
##자동화
##전략은
##전환을
##제공할
##지원해
##최첨단
##카드사
##크기의
##합의를
##활력을
##회장에
들로부터
사회노동
상공회의
중기부는
##2500
##TSMC
##간담회를
##경사노위
##고용보험
##고용부는
##구성됐다
##근로자의
##급증했다
##꼬집었다
##내년부터
##덕분이다
##동기보다
##본격적인
##불과했다
##비슷하다
##아프리카
##전기요금
##점유율이
##제주항공
##주목받고
##주문했다
##증가하고
##지배구조
##진단했다
##진행하는
##채권단이
##콘셉트로
##통화정책
##합리적인
팰리세이드
##사물인터넷
##영업손실을
##자율주행차
##신재생에너지
##정보통신기술
##크라우드펀딩
23
45
AS
DT
PS
ty
·2
##샤
##켜
가공
간의
곳을
공기
까요
내셔
노우
다양
단의
담보
대면
대우
대책
도의
동빈
들인
란다
로우
론은
리테
멘트
문고
봉사
브루
상에
상조
선스
선이
설록
셔리
소외
수지
시험
씨가
어진
언스
오염
월엔
의료
인가
저트
전망
져야
졌고
조트
주력
준비
지인
질이
탄을
트넘
티카
팀을
파업
표를
회와
and
##58
##63
##7%
##77
##Aw
##IR
##감면
##개념
##객실
##골라
##공시
##국채
##급속
##남아
##내에
##내일
##냄새
##넣고
##달에
##달콤
##대량
##대용
##데크
##도금
##도달
##돕고
##되지
##면담
##명확
##무상
##물량
##미사
##밝힌
##배정
##생두
##소음
##스프
##스피
##시급
##신차
##아예
##압도
##앱을
##언론
##얼굴
##역사
##오를
##온도
##올릴
##이끈
##일환
##임대
##적격
##제약
##조금
##종가
##종목
##주기
##지능
##지닌
##찾기
##총수
##커버
##클린
##토종
##팔아
##편집
##평소
##표면
##합쳐
##회전
기업은
스터리
올해는
인프라
총연맹
터미널
한다면
해지는
2015
ards
##130
##3~4
##가성비
##가족이
##거래를
##계획도
##곳에서
##곳이다
##관련된
##관세청
##교육과
##구매한
##구축을
##급성장
##기간을
##기능도
##넣었다
##늘렸다
##대표의
##도널드
##도입을
##바람이
##박영선
##상담을
##세련된
##소비가
##소통을
##수익성
##시대를
##실리콘
##양해각
##얻었다
##업계의
##영역을
##오렌지
##오른쪽
##올리고
##외에도
##유니폼
##유동성
##의지가
##자료를
##작업이
##전략이
##직무급
##질문에
##참여해
##출범한
##출시를
##취임한
##크다는
##특별한
##하나의
##하소연
##한국수
##했다고
##현대해
##현상이
##협력을
##협약을
##환율은
##회사로
부가가치
스트리트
통화기금
함으로써
##2023
##강화하는
##개발하는
##근로자가
##금호산업
##낮아졌다
##내놓는다
##다양하다
##다이어트
##담당하는
##돌파했다
##돼지고기
##디자인이
##마이너스
##생태계를
##설문조사
##세계에서
##수제맥주
##시작됐다
##애로사항
##어린이날
##어울리는
##에스프레
##이용하는
##인정받아
##자본주의
##좋아하는
##증정한다
##지난해엔
##지원금을
##짜파게티
##차지한다
##출시됐다
##편의성을
소비자포럼
어드바이저
##금호타이어
##바디프랜드
##베이징현대
##업무협약을
##Awards
##신세계백화점
노동조합총연맹
73
?”
OO
##낳
##듀
##엠
##죽
##톡
##틈
##홀
가와
개에
경정
곳의
관은
금과
기고
네사
노사
는지
디즈
또한
렉스
로그
멕시
뮤니
미와
바른
반면
방을
배달
보안
분석
블리
비밀
비와
샐러
소시
소와
애나
어가
연한
우유
위안
유니
자흐
전시
정의
정치
제와
제주
제한
졌기
주식
주인
줘야
지출
직한
척을
키로
통계
편의
평양
화와
600
PEF
##41
##67
##개막
##개혁
##검출
##경북
##과감
##그가
##꼼꼼
##능력
##달간
##대대
##대목
##도심
##독점
##떠올
##마리
##먹거
##명동
##물질
##밑돌
##박정
##받았
##백악
##본부
##부각
##부실
##분산
##빌딩
##서로
##선제
##선포
##성인
##세워
##송금
##수렴
##수를
##시달
##신촌
##안경
##않기
##여는
##예다
##완공
##의한
##입력
##자격
##장려
##적발
##전무
##전방
##점차
##주물
##철수
##첨가
##체감
##체크
##택시
##펀딩
##해고
##혼란
##회수
들과의
명이다
모니아
사업의
시설을
시키기
점이다
조사를
포스코
플래시
하우시
회장이
,000
##LPG
##PEF
##“20
##가지고
##걸렸다
##것처럼
##결과가
##고티카
##그렇게
##긍정적
##꼽히는
##냉장고
##담보로
##리뉴얼
##매물로
##메뉴를
##박삼구
##받아야
##베네수
##보이는
##분야를
##블렌딩
##사용한
##상태다
##생산을
##성공한
##수입차
##스페인
##신라면
##위스키
##유기농
##이끌고
##이르는
##이용한
##이유를
##임금을
##자전거
##정도의
##조정호
##조합원
##주식을
##지원금
##지원에
##참가해
##챔피언
##최근엔
##커지는
##쿠팡이
##플라워
##하면서
##항공사
##협업해
##확대에
경정예산
기본계획
기업들이
노우라인
만원이다
석유화학
소상공인
시스템을
억달러를
오일뱅크
##가입하면
##결정했다
##공급하는
##국회의원
##노사관계
##늘어난다
##단계부터
##대기업이
##대상에서
##모니터링
##블랙스톤
##비트코인
##생활가전
##설립했다
##스타일의
##신용등급
##안전관리
##없습니다
##전망치를
##전통시장
##점유율을
##준비했다
##중시하는
##지나치게
##직원들의
##청년창업
##체결했다
##콘텐츠를
##헬스케어
업계에서는
##10~20
##계획입니다
##고급스러운
##전기자동차
##지난해보다
##트레이더스
##하이브리드
##현대중공업은
##아시아나항공은
1,
44
62
69
AT
ch
##《
##밟
##볶
##빙
##쌍
##앉
##엑
##칩
##훌
가장
개인
검사
계좌
구직
권과
그래
널리
단에
달라
닷컴
대리
되며
락앤
럭시
루미
류세
리핑
바닥
박한
배로
사용
세안
스앤
액의
약품
울렛
워터
유기
의로
이동
일방
일부
장년
정에
주를
카데
카이
플러
해주
협정
홈데
환급
히고
8%,
ion
~10
##4%
##95
##가중
##개로
##골프
##공조
##균형
##그중
##김동
##끝난
##남은
##낸다
##냉감
##넥센
##노출
##달려
##달을
##대법
##데는
##동맹
##두께
##때가
##떠나
##로드
##마실
##매력
##매주
##미칠
##보낸
##불법
##사우
##수분
##숙박
##양도
##영구
##워터
##이원
##자료
##잡은
##전공
##전액
##제네
##주가
##주차
##차를
##창구
##찾을
##최악
##커진
##크림
##테크
##편성
##평창
##평택
##포항
##하위
##학교
##한도
##한우
##허리
각에선
겠지만
됐다고
라다이
락앤락
롯데는
메이션
멕시코
명에게
모비스
문화를
물질을
반기에
사회적
셧다운
습니까
시간을
실가스
어졌다
용으로
조원에
중진공
지수는
커피는
협회가
형으로
호점을
##05%
##SPC
##감안해
##고객은
##고품질
##곳으로
##과감한
##구성해
##국내산
##국민의
##그랜드
##금융위
##기대가
##기저귀
##기존에
##논의를
##능력을
##뛰어넘
##럭셔리
##레시피
##마련해
##마시는
##만났다
##모았다
##못하면
##반응이
##봅니다
##부모님
##부문에
##부정적
##분위기
##살렸다
##생각이
##선보일
##소규모
##소득을
##신청한
##안전한
##업체는
##요인이
##유지할
##의견이
##이들의
##재활용
##적용된
##전면에
##전보다
##조건을
##조치를
##줄였다
##직원의
##차량의
##창출을
##출시할
##캐주얼
##커뮤니
##통계를
##특화된
##피부에
##행사다
##환경부
##회장님
##후보로
겠습니다
만달러를
이지애나
프리미엄
플라스틱
회의에서
##1300
##1992
##경고했다
##경제학부
##달성했다
##당부했다
##대상이다
##방향으로
##사용하고
##생각하는
##생명보험
##생산하고
##생활용품
##설명하고
##솔루션을
##시너지를
##시스템이
##신한카드
##아메리카
##암모니아
##어렵다는
##업계에선
##예상하고
##올해부터
##이곳에서
##자영업자
##작년보다
##저소득층
##정부서울
##주방용품
##집중하고
##차지하고
##추구하는
##추진하는
##커지면서
##트렌드에
##행사에는
##협동조합
##확대했다
##활용하는
##구조조정을
##단계적으로
##영업이익을
##이유에서다
##인플레이션
##임금피크제
##전문가들이
##최저임금을
##팰리세이드
##추가경정예산
27
CR
DS
EV
FO
mL
ro
st
##b
##넉
##닿
##땅
##링
##빗
##쇼
##왔
##짐
##칭
##펜
##펫
##혹
각을
국은
기인
능력
다수
단협
당성
대전
대체
더니
돼지
랜트
레븐
로도
리핀
리한
만한
무늬
발을
븐일
사무
상표
생의
스북
시한
쓰비
여서
연은
요일
원도
위험
이한
재가
쟁의
조세
주와
집을
청은
치의
침체
파는
판에
함이
해지
향에
회째
(18
LCC
~40
##59
##가는
##가솔
##갈아
##강도
##강소
##개점
##거치
##경상
##곳을
##관람
##관료
##나누
##낚시
##내몰
##노무
##노트
##높게
##누가
##다변
##듯한
##램프
##무너
##무선
##밀려
##바뀔
##밖에
##반등
##발휘
##배합
##보도
##분배
##브라
##산안
##새벽
##색상
##서버
##세수
##세운
##세척
##수협
##신임
##실증
##암호
##에쓰
##연관
##연방
##연수
##예술
##운전
##원격
##유발
##유예
##이례
##이론
##이루
##이색
##일회
##재능
##적절
##정유
##조립
##조종
##주당
##주유
##줄고
##증설
##질소
##촉구
##출고
##충격
##캐피
##코디
##콜롬
##키울
##탑승
##토스
##팔린
##프리
##피고
##합병
가량을
개국에
개월째
고고도
공학과
금리는
금액은
년으로
됐지만
루미늄
명에서
모터스
베트남
센터는
소득세
소시엄
스타벅
시까지
어체계
였지만
올림픽
전기차
체계를
트럼프
프라이
홈데코
##03%
##04%
##195
##23%
##26%
##WTO
##가맹본
##갑자기
##강화할
##강화해
##건자재
##결합한
##관계를
##국회에
##기술력
##나들이
##나서는
##내세운
##내세워
##뉴트로
##도입해
##드라이
##롯데가
##마련한
##맘스터
##맡았다
##모양의
##목표는
##미지급
##미쳤다
##민감한
##방문객
##범위를
##부문은
##분야는
##브리핑
##비교적
##비율은
##빠졌다
##사실이
##사업과
##산업의
##상태를
##생산량
##수시로
##수입을
##수출을
##스토리
##식으로
##신선한
##쓰이는
##안팎의
##예산이
##요구를
##우리가
##운반선
##위주로
##육성을
##이뤄질
##이유가
##인식을
##자산을
##저비용
##전망을
##전망치
##전환에
##제공해
##제작한
##졸업한
##주머니
##중기부
##지표가
##직원은
##진출해
##초대형
##초청해
##최종구
##커피와
##테이블
##해왔다
##현대상
##회사에
##회사채
경영자총
금융지주
기아차는
라다이스
븐일레븐
억달러로
인베스트
인터내셔
자산운용
처리장치
파트너스
하더라도
해지면서
혁신성장
##1200
##까다로운
##끊임없이
##단체협약
##들어간다
##디자인의
##메시지를
##목적으로
##미사일방
##바뀌었다
##반도체는
##분석됐다
##삼성물산
##삼성화재
##상생협력
##순이익을
##스타필드
##시장으로
##신설했다
##약속했다
##온실가스
##유일하게
##이사회를
##자리잡고
##자일리톨
##전망했다
##제기된다
##주관하는
##주도하는
##케이뱅크
##콜롬비아
##한국전력
삼성전자는
셀러레이터
##고용노동부
##금융위원장
##낸드플래시
##때문이라는
##루이지애나
##베네수엘라
##불확실성이
##업계에서는
##정규직으로
##중소기업과
##직원들에게
##초미세먼지
##하반기부터
##효율적으로
##경제사회노동
##국제통화기금
##기념촬영하고
##현대렌탈케어
##미사일방어체계
68
88
IN
PB
PM
RC
VC
~8
##<
##땀
##뚫
##론
##뿌
##섞
##옛
간접
값이
걸음
곰팡
과거
관광
관법
그레
기면
기반
기한
난을
노인
다시
다퉈
대금
데히
독일
동이
라떼
라미
라의
라자
래버
레니
렉트
로드
마자
만두
메이
목을
밀리
방식
버거
버리
번호
보드
사람
설명
세이
슈퍼
스러
업의
여행
연의
였고
예술
온다
우러
월은
이달
인천
자녀
점검
정기
제약
최고
층을
캠프
테이
텍은
특한
함에
화의
SOC
hsh
##CS
##GM
##“(
##가속
##갑작
##게보
##그때
##깔끔
##노란
##다소
##다운
##도서
##동양
##동의
##동참
##되기
##레드
##만날
##맛이
##맞물
##먹을
##미팅
##반박
##번에
##부서
##불참
##비싼
##비행
##사각
##사육
##상인
##서민
##성금
##성분
##세부
##셔츠
##승부
##시황
##식물
##신흥
##아우
##업황
##에티
##여유
##역전
##연차
##영세
##오뚜
##오토
##용산
##웨이
##위생
##위치
##유출
##의식
##이래
##이비
##입고
##장난
##재편
##전동
##전부
##정수
##정의
##종이
##줄곧
##질감
##차기
##촉진
##침구
##캡슐
##타계
##타이
##트럭
##특구
##파이
##핑크
##하강
##학습
##한샘
##허브
##현상
##혼자
##화성
공항점
교육을
그룹에
기업인
나라는
다양한
단법인
달러로
덴마크
디셀러
럼에도
모바일
번호를
비율은
생명은
시킨다
안으로
알데히
업체는
여금을
우리는
이라면
조원의
크리트
키스탄
하느냐
하자는
학과를
한국의
했으나
##140
##170
##32%
##KCC
##가입자
##가정용
##개발할
##개선에
##거뒀다
##건강을
##계획이
##고려한
##고양시
##과도한
##관측도
##구매를
##구조다
##그레이
##기록을
##기업가
##기업도
##농산물
##높아진
##느낌이
##대비해
##됐다고
##렌털한
##멕시코
##명예교
##명으로
##밀어붙
##바란다
##번째로
##부장은
##블렌드
##빈티지
##사례를
##사실을
##산업부
##상업용
##서류를
##설비를
##세계적
##소재의
##수출입
##실제로
##아이스
##앞다퉈
##어려움
##어우러
##업체다
##여건이
##예산은
##예정인
##올해도
##요구에
##위상을
##이르면
##이었다
##이익이
##이재민
##인수해
##일본의
##입지를
##자금이
##적격성
##전까지
##전반에
##정했다
##제도는
##제시한
##제휴를
##줄면서
##중국과
##지역을
##차량용
##차원의
##최우선
##커피의
##코엑스
##통과한
##티토니
##판단해
##팔리는
##팔았다
##풍미를
##하나인
##하는데
##해외로
##화제가
##활동에
##회장도
##힘들다
그룹으로
기업들은
년부터는
인프라코
자연마루
자흐스탄
현대차는
hshin
##1979
##1996
##개정안을
##고객감동
##공공조달
##공정위는
##관점에서
##구축했다
##노하우와
##늘어나고
##동원그룹
##롯데마트
##맺었다고
##무엇보다
##미스터리
##반려동물
##보고서를
##보험료를
##부사장은
##분리과세
##분위기를
##블랙야크
##샌드박스
##서비스인
##실질적인
##알루미늄
##양해각서
##요구하고
##요구했다
##우려했다
##운영한다
##이름으로
##일상생활
##있었지만
##제출했다
##주최하고
##줄어들고
##중기부는
##증가율이
##채권단에
##채권단은
##최고치를
##최근에는
##컨소시엄
##투자은행
##파격적인
##포함됐다
##현장에서
##현재까지
##홈앤쇼핑
##효율성을
##Korea
##‘2018
##공정거래법
##미세먼지가
##베스트셀러
##벤처캐피털
##아메리카노
##영업이익이
##중소기업을
현대중공업은
##khshin
##공기청정기를
##소비자들에게
##포트폴리오를
##프로그램이다
##공정거래위원회
##정부서울청사에서
34
52
BK
NI
OT
RA
VR
ay
~1
##X
##d
##딱
##딸
##땐
##묵
##봤
##웹
##칠
##칸
##혈
개정
경훈
과를
구호
근당
근혜
기지
나이
내기
느라
됐기
디야
러다
러브
로서
로스
리며
리와
매각
명과
물류
미스
민족
바로
밴드
복을
부진
비율
비티
상증
선에
세아
솜이
수단
스위
스톱
시가
실이
심사
심의
쓰고
아웃
아직
아트
어서
어져
어질
업이
엔진
연수
완전
용기
웍스
이미
인수
장재
재무
제다
제에
주에
중지
지게
착순
철을
체에
쿼티
큐온
클럽
터를
테인
통합
포트
품이
희망
(14
(30
(50
PEC
mag
##1,
##CC
##가볍
##걸러
##검사
##겨울
##경주
##경품
##골드
##공사
##교환
##구간
##국방
##그림
##김광
##끝나
##나프
##날씨
##내보
##다크
##달린
##도마
##동력
##뒤집
##마시
##멈추
##면역
##배터
##변형
##변호
##보건
##부활
##붙여
##비자
##사료
##산학
##상향
##서점
##선점
##속옷
##속초
##수당
##수질
##순위
##승낙
##싱글
##싶다
##쓰레
##앞둔
##애니
##양측
##없던
##에센
##여부
##예전
##용량
##음악
##이로
##이승
##이웃
##이주
##이중
##인생
##인허
##임차
##자사
##잠실
##잡고
##장을
##재난
##전장
##점은
##접속
##중구
##중순
##지수
##직속
##질병
##착안
##찬성
##추첨
##축구
##취소
##콜드
##태국
##터키
##파리
##폐업
##폴로
##합동
##합류
##호황
##화면
가정신
간편식
국으로
국제강
근로제
더스트
라호텔
러리아
문제는
바이오
버이날
베이터
본부의
선으로
소득이
업체와
오피아
요금을
원자력
을지로
이크로
조원이
종으로
중국의
차세대
침대는
투자가
플라자
하다가
하라고
하라는
etty
##02%
##12%
##13%
##18%
##21%
##45%
##CPU
##가솔린
##개발과
##과제로
##과제를
##광고를
##그렇지
##금액을
##기간은
##김기문
##까다롭
##꼽는다
##꾸준한
##끌었다
##나가고
##낮다는
##내놓는
##넘어선
##노트북
##달러당
##대책을
##대책이
##독특한
##된다는
##둘러싼
##뛰어나
##로드맵
##마련된
##매장에
##멤버십
##물건을
##미치지
##바나나
##반영한
##발표할
##보험금
##복잡한
##본사가
##본연의
##사람의
##사업자
##삼성동
##생산한
##생산할
##소상공
##수입이
##순으로
##시작할
##신성장
##신청할
##실적은
##아이템
##연계해
##월평균
##유상증
##은행의
##이상은
##이어진
##이제는
##인식이
##일정을
##작업에
##장점을
##전반의
##창업자
##찾는다
##철저한
##충분한
##치열한
##캐피털
##쿠팡의
##토트넘
##투자와
##특성에
##판매할
##필리핀
##필요할
##하이트
##한계가
##한국산
##한국인
##한은이
##합리적
##해외에
##현장을
##협업을
만원짜리
산업단지
서비스를
알데히드
억달러에
정보통신
차적으로
투자증권
mages
##1997
##1999
##2001
##가격으로
##가입하는
##가파르게
##강화했다
##개선됐다
##경영진은
##고속도로
##공간에서
##구직급여
##그러면서
##금융상품
##금융소외
##금융시장
##기대했다
##노브랜드
##논의했다
##디자인과
##롯데쇼핑
##반도체와
##받아들여
##부작용을
##브랜드도
##사업보고
##삼성카드
##상관없이
##생각이다
##생각한다
##설치했다
##순이었다
##스튜디오
##시작한다
##시중은행
##아이들이
##아이스크
##않는다는
##에너지를
##워크웨어
##이뤄진다
##인프라를
##일자리가
##자리에서
##자회사로
##전망된다
##전문업체
##전문인력
##제공하기
##제기됐다
##제작했다
##조세심판
##종량세로
##주도하고
##중요성을
##직원들은
##창업지원
##커피전문
##패키지를
##했습니다
##행사에서
##현지에서
##확보하고
##확산되고
##Getty
##관계자들은
##끌어올리는
##다음달부터
##마찬가지다
##소상공인의
##스테디셀러
##애니메이션
##에스프레소
##에티오피아
##자동차보험
##정기적으로
##집중적으로
이노베이션이
##저비용항공사
##르노삼성자동차
##중소벤처기업의
##한국소비자포럼
2)
32
61
74
79
82
BS
CI
CL
EX
GB
IR
NH
TS
kW
~9
##t
##랭
##몽
##샘
가입
격차
경을
계열
국인
균형
그십
글러
금지
금형
기판
깝다
내년
넥스
단기
대사
두를
드림
렌징
려한
로가
로의
록을
료는
리더
립을
막이
명한
민간
배당
버홈
벤션
보기
보를
부로
선수
선택
소형
순위
식과
식당
싱턴
야구
여겨
열에
위권
이제
있다
적이
전이
제표
주간
지속
지않
직을
처는
출산
치매
코올
콜릿
타르
통을
트인
특가
특구
특례
티드
프렌
한도
한우
행을
현장
홀딩
화문
4%,
CGI
ESS
##+0
##0%
##00
##62
##76
##79
##99
##JB
##PB
##가고
##가시
##가열
##간접
##거점
##게시
##고가
##고를
##고집
##공약
##공존
##구호
##국영
##군사
##금형
##기기
##김정
##나뉜
##나무
##내걸
##내린
##넉넉
##넓혀
##닛산
##다가
##대가
##대선
##동서
##돼지
##되돌
##되찾
##뜻을
##라떼
##맺은
##모른
##모은
##문래
##믿고
##발간
##밝은
##밥솥
##방출
##벤치
##병원
##보강
##보지
##부친
##블라
##비밀
##사양
##살균
##상조
##선사
##세분
##소공
##수령
##쉽고
##스탠
##시가
##식사
##신중
##신체
##신호
##심플
##아르
##아버
##안산
##양재
##엄청
##에코
##에탄
##완벽
##요소
##원가
##원천
##융합
##의해
##장악
##저하
##전인
##중문
##중반
##즉각
##지도
##지향
##직격
##착수
##참치
##창고
##채워
##청호
##최상
##축산
##축하
##코인
##코팅
##쾌적
##털어
##판교
##편익
##피싱
##하남
##합격
##항상
##해서
##핸드
##향한
##허가
##회생
##후쿠
##휴게
##흘러
##흡입
개에서
겠느냐
관리를
기업과
년간의
레미콘
렸다고
만원이
미국은
밀하게
바스백
보솜이
브리지
사들의
산업체
세까지
수당을
수하고
스앤젤
었는데
에쿼티
원들이
음에도
인력을
정책은
졌지만
출하는
친환경
케어는
코노미
판으로
하우스
화됐다
(1~3
2012
rand
##35%
##41%
##65%
##LCC
##개발된
##갤럭시
##것보다
##결정할
##결제를
##공략에
##공장은
##공장이
##구조로
##규정을
##급격한
##나가는
##나아가
##눈여겨
##대리석
##대용량
##두드러
##디저트
##떨어져
##뜻한다
##라이트
##마련할
##마스터
##마쳤다
##바람직
##보냈다
##보조금
##부진이
##분명히
##비대면
##비전을
##사례는
##사진을
##상품의
##선순환
##설치해
##성장에
##성장이
##소송을
##신속한
##쌓아온
##않지만
##앞에서
##얘기를
##언제든
##업계는
##없애고
##오르고
##오르는
##오피스
##요건을
##요구한
##우려를
##유류세
##유일한
##음식을
##일이다
##임금이
##장비를
##절반을
##정확한
##제작해
##제조사
##주문을
##지금도
##지냈다
##지능형
##지위를
##진행할
##집중할
##초부터
##초저가
##축산물
##취지로
##투입해
##패턴을
##품목을
##품질과
##피해가
##하겠다
##하락한
##하이얼
##한도를
##행사도
##행사에
##행장은
##현실을
##현안을
##확보를
##확산을
##활동이
개국에서
담보대출
만원대에
분기보다
비즈니스
산화탄소
안전보건
인더스트
코리아가
홈쇼핑은
##1400
##1970
##2003
##고정금리
##구매하면
##구축하고
##국민은행
##기록하고
##기술력과
##남양유업
##내세웠다
##내용이다
##달라졌다
##동국제강
##등장했다
##라이선스
##마련하고
##부산공장
##분위기다
##사용하기
##사용하면
##사용하지
##상승률이
##서비스다
##성장세를
##셰일가스
##소매판매
##손해보험
##수익률은
##수출하는
##신용대출
##암호화폐
##여신금융
##연료전지
##열었다고
##올라섰다
##원화결제
##의사결정
##이동통신
##이뤄졌다
##이마트는
##이야기를
##이어갔다
##이해관계
##인수했다
##있다롯데
##전기안전
##전기차를
##전문성을
##전문적인
##정도였다
##정책자금
##제작하는
##제품보다
##지식재산
##지역난방
##추진한다
##취지에서
##파트너십
##판단이다
##패션부문
##플래그십
##한국가스
##협력사에
##획득했다
##효과적인
신한은행은
전문가들은
##가능하도록
##경제성장률
##고부가가치
##긍정적으로
##노동생산성
##바리스타가
##밝혔다이번
##스노우라인
##신한은행은
##연구위원은
##웅진코웨이
##월스트리트
##이르기까지
##전자상거래
##지주회사인
##체결했다고
##카자흐스탄
##파라다이스
##프로그램인
##필요하다고
##기자간담회를
##보험계약자의
##스마트폰으로
##투썸플레이스
##현대자동차가
아시아나항공은
##삼성디스플레이
07
54
83
HC
IP
TM
##>
##Y
##곡
##꾀
##덩
##둥
##롤
##멋
##봐
##삭
##셋
##앵
##잊
##팽
##훈
##힐
가죽
값을
경련
과도
국대
기사
길이
나마
나타
내가
내일
네랄
년과
념을
눈에
다니
대중
도금
러한
레드
료가
류가
르기
림축
명품
므로
방지
벤져
보면
비상
빔면
상승
서부
세금
수수
스틱
신규
앞줄
업과
었을
연도
연산
오늘
와는
와이
요한
우버
울러
워드
원인
이와
인도
인실
일까
일반
재계
절벽
종이
째로
쪽에
채무
치기
치로
칙을
컨대
크를
크샵
텔루
토스
통제
퇴근
트가
트륨
포스
폭을
플로
호점
회로
(11
(12
(17
ASF
CGT
STR
##51
##EV
##OE
##가벼
##가산
##가상
##가세
##각자
##강제
##거느
##거둔
##거세
##건전
##격려
##경력
##골목
##궁금
##권한
##그간
##그려
##김포
##꿈을
##낮다
##널리
##녹록
##다수
##닥터
##단행
##달할
##당일
##데이
##도급
##도착
##든다
##마라
##마친
##마트
##모색
##모호
##몰아
##무늬
##무인
##물려
##물품
##뮤지
##미술
##바라
##발병
##발탁
##배를
##번도
##병행
##보인
##복귀
##본죽
##불이
##브렉
##빠진
##빨라
##사은
##삶을
##상임
##석탄
##선을
##세라
##세로
##세우
##소방
##수리
##수송
##수탁
##순수
##시승
##시청
##신혼
##실태
##싶어
##아름
##안성
##알파
##애착
##양국
##양돈
##어깨
##여전
##연락
##완전
##외교
##요거
##유언
##유연
##유용
##유화
##유효
##익숙
##인적
##일방
##있지
##전격
##전후
##정년
##정착
##정통
##조짐
##좌우
##주재
##주한
##중점
##중형
##증진
##지구
##진한
##짧은
##처분
##초등
##초래
##추락
##출입
##충돌
##친구
##큐브
##크기
##크지
##탁월
##테라
##토끼
##토크
##파괴
##포름
##하드
##한계
##한마
##했고
금리가
단으로
들였다
라이드
배터리
사업부
시리즈
안에서
어지고
업계가
으로서
을수록
의민족
이마트
재단은
정책을
제리너
차전지
카데미
태평양
화되고
화학의
##16%
##24%
##27%
##350
##64%
##가입을
##가입한
##가지다
##간담회
##강점을
##강화에
##거래가
##건수는
##결정한
##경기를
##경유차
##고효율
##공간에
##공간의
##공기질
##공사를
##균형을
##금액은
##기간이
##기여한
##나트륨
##내추럴
##노사가
##논의가
##다르게
##달랐다
##대표와
##동일한
##됐다는
##들이고
##등급을
##따뜻한
##때부터
##또다시
##랭글러
##만하다
##많다는
##말하는
##모두가
##미래차
##밀레니
##바꿔야
##바뀌고
##바네사
##방법을
##별도의
##보험을
##보호를
##부가가
##부른다
##부채가
##불만을
##산불로
##상당히
##상무는
##상황은
##색상을
##생겼다
##생리대
##생존을
##선착순
##성장과
##성장의
##속도로
##수출의
##스타킹
##스프링
##시간과
##시기가
##시기를
##시제품
##식재료
##신동빈
##심각한
##알로에
##애큐온
##업무에
##업종별
##연구를
##연봉이
##영상을
##예정된
##올리면
##의원은
##이름의
##이용자
##이자를
##이재용
##이하로
##인기다
##인력은
##인상에
##일감을
##일어날
##일으키
##일하고
##임단협
##있을까
##자산이
##자외선
##적자가
##전문점
##전체를
##절차에
##정도를
##정수기
##조사를
##조사한
##주문한
##주인공
##주주총
##준비를
##중점을
##쪽으로
##처리할
##최악의
##추가해
##투자도
##판매된
##페인트
##편집숍
##포함돼
##하나가
##하나는
##할리스
##할아버
##협상을
##환율이
##활동도
##흐름을
근당건강
대한항공
만원까지
상속공제
스타트업
연구원이
위원장은
자들에게
전문은행
정위원회
퍼레이션
회관에서
~2018
##CCTV
##가맹사업
##경영전략
##계열사의
##공격적인
##공유오피
##관리하고
##국무총리
##국세청은
##규정하고
##금융위는
##금융정책
##기재부는
##대응하기
##로스앤젤
##맞아떨어
##매각하는
##먹거리를
##모습이다
##보험수익
##본점에서
##부드럽고
##분위기가
##블라스트
##사업에서
##사업자가
##사용한다
##사회주의
##상황이다
##성장률을
##수익성을
##시행하고
##신기술을
##신선식품
##신청하면
##악화됐다
##요인으로
##우수제품
##유명하다
##유지하는
##유해물질
##이뤄지지
##이벤트도
##이어지는
##인건비를
##전문가가
##전환하는
##주장이다
##줄어드는
##지원사업
##지주회사
##체계적인
##추정된다
##페이스북
##하겠다는
##한국무역
##합의했다
##합작법인
##확인하고
##활용했다
기아자동차
림축산식품
엔지니어링
##넥센타이어
##대표브랜드
##바리스타는
##보고서에서
##빅데이터를
##세계적으로
##세븐일레븐
##순차적으로
##안정적으로
##연세유업은
##자동차부품
##자연스럽게
##중소기업인
##탄력근로제
##한솔홈데코
##현대모비스
##Images
##대한상공회의
##현대오일뱅크
##로보어드바이저
##에너지기본계획
)·
,7
1)
49
EP
HD
TD
TF
gk
ig
jk
lo
ur
we
##i
##겉
##괜
##류
##립
##뭐
##섬
##쉐
##척
##캘
##턱
##횡
관과
관련
관세
광고
금감
김밥
깜짝
네이
년도
놓은
다란
뎀칩
동향
들고
란스
래곤
레저
렌디
례를
로마
로만
로보
리브
리적
리턴
릭스
만에
만이
만족
맛이
맞춤
맞춰
메틱
모금
모드
미가
받침
배에
벌이
범준
부모
사원
삼호
성적
수요
스바
스텔
승계
식이
야쿠
어내
에프
연히
요양
요즘
우스
워즈
위다
은구
이하
일인
입찰
있게
자동
자리
제지
주시
증을
지분
지어
질의
책이
취업
타이
타페
태원
투어
트론
파워
한편
함과
함은
회원
흘간
(34
07@
ATA
FTA
SDI
ang
##46
##85
##QR
##RC
##SB
##가득
##가수
##간판
##개장
##곰팡
##공영
##공청
##과잉
##괜찮
##교보
##그리
##그친
##기름
##김재
##꺼내
##꽃을
##꾸려
##나왔
##났다
##낮게
##낮춘
##누릴
##단일
##담겨
##담고
##답변
##대여
##도출
##둘째
##들을
##뚜껑
##뚜렷
##만의
##만인
##맡은
##매매
##먹고
##메이
##면세
##명칭
##모드
##몸에
##못할
##못해
##받기
##발송
##배관
##법무
##보이
##복원
##부가
##부당
##부의
##불거
##빛을
##뿐만
##사옥
##선별
##소액
##소요
##소진
##수면
##수술
##술을
##스크
##시연
##시음
##시트
##신생
##신의
##신축
##실물
##쌓은
##씨가
##아끼
##압축
##얇은
##억제
##엄마
##영어
##예를
##오너
##의장
##이노
##이대
##이룬
##이뤘
##이명
##이외
##일은
##입문
##잔액
##잠시
##잡을
##접착
##정장
##제트
##조율
##주의
##주저
##주춤
##중증
##중지
##증대
##지지
##질환
##찾은
##청구
##출력
##치과
##코나
##코드
##크고
##퇴근
##틈새
##파티
##펼쳐
##평생
##포스
##폴리
##풀이
##하며
##했던
##향해
##협조
##활력
##획기
##후반
##훌쩍
가격은
가격이
가성비
경제인
공사의
국에서
급으로
기관이
기능성
도에서
뚜라미
레바람
레인지
리조트
마스크
만원씩
발전은
보일러
산업에
센터에
소프트
수수료
시장치
신경훈
업체를
업체에
역으로
으려면
자금은
제품의
투자자
펀드를
페인트
프렌즈
핀테크
하려고
협의회
협회에
협회와
협회장
화학이
2013
OLED
OTRA
##160
##1~3
##CNS
##KAI
##bjk
##egk
##가격도
##가이드
##가지로
##각국의
##게보린
##경영정
##계기가
##계획에
##고유의
##공장의
##관람객
##구성돼
##구성원
##구조가
##국민이
##금리는
##급증한
##노력이
##노무현
##노선을
##놓치지
##느끼는
##달라고
##더했다
##도입에
##뒷받침
##따라잡
##뛰어든
##뜨거운
##라인을
##락앤락
##리프트
##마련을
##막대한
##만기가
##만든다
##만족을
##맞물려
##맥주는
##멘토링
##모델은
##모델이
##모뎀칩
##무게를
##문제다
##민주당
##반대로
##발전에
##배럴당
##배치해
##별세한
##부분을
##부진을
##불꽃축
##불완전
##비과세
##비상장
##비싸다
##빠르고
##사각지
##사고를
##사이렌
##사장을
##사회에
##상당수
##설치된
##성공할
##성과가
##성분을
##성적을
##수산물
##수요는
##승인을
##시장도
##식자재
##신혼부
##아직도
##안전성
##어디서
##없으면
##없지만
##여력이
##연계한
##영구채
##예상치
##오설록
##요금을
##요청한
##운수권
##원유를
##원자재
##의미가
##이끄는
##이러한
##이른바
##이상직
##이스타
##인력과
##인수에
##일가의
##일시불
##일일이
##장기간
##재구매
##재미를
##재테크
##정책의
##제도가
##조성해
##조절할
##조치다
##주장을
##주택용
##지분율
##지원도
##차별화
##창업을
##출시해
##케이블
##탄탄한
##티몬은
##판매에
##패널을
##편이다
##평가해
##품질의
##필터를
##한국과
##한은은
##항공권
##해준다
##향상을
##현황을
##혐의로
##호텔을
##화재가
##확보할
##효과도
공기청정
공동모금
국세청은
금융위는
노동기구
만원에서
비메모리
생활건강
였습니다
위원장을
적이었다
조원으로
채움공제
코스메틱
클러스터
프레미아
해달라고
##1900
##Bank
##가입자가
##강조한다
##개선하는
##개인정보
##개최했다
##경영환경
##경쟁에서
##계열사와
##과학기술
##구축하는
##규제자유
##금융지주
##긍정적인
##기아차는
##대기업의
##떨어지고
##롯데하이
##롯데호텔
##마케팅에
##모른다는
##무역협상
##반도체의
##벤처나라
##부회장이
##불어났다
##사람들의
##사용자의
##상속세를
##서비스로
##서비스의
##선도하고
##선언했다
##세무조사
##스타일을
##시장조사
##안심하고
##에쓰오일
##영업손실
##영향이다
##육성하기
##이마트가
##이사장이
##인수하는
##자동차에
##자체상표
##적용된다
##적용한다
##정기예금
##제품군을
##조달청은
##조사에서
##주장하고
##준비하고
##줄어든다
##중에서도
##지급해야
##집단대출
##창의적인
##출시한다
##취업준비
##캠페인은
##콜드브루
##테스트를
##하이트진
##한국투자
##해석된다
##협력사가
##협력사를
##확보하는
브랜드지수
안전보건법
하이브리드
##30~40
##공격적으로
##기록했다고
##소비자물가
##시장점유율
##엔지니어링
##우대금리를
##우리은행은
##있었습니다
##자발적으로
##자체적으로
##중소기업에
##체계적으로
##컨트롤타워
##한진중공업
##현대차그룹
##효과적으로
벤션센터에서
##egkang
##중앙처리장치
##포름알데히드
##한국경영자총
##한국타이어앤
##아시아나항공에
##한국테크놀로지
##중소기업중앙회는
%,
51
53
55
84
AR
LP
SB
ct
mg
ne
##꺾
##돋
##멸
##뭔
##밖
##벨
##앓
##앤
##웬
##톱
##펀
##혁
##흰
가업
감과
강화
개편
공개
광모
구에
국을
김영
년생
노이
대행
등을
디션
라가
래식
리게
리그
리오
리포
마을
마킹
맥심
모스
목재
문제
바지
박사
방향
보에
본드
블루
빌딩
사양
사한
상인
선행
설을
성능
세요
소다
수급
수영
스킨
스테
슬러
승인
시마
식은
애플
얏트
엘리
연간
열티
예고
온더
용차
원대
유의
융합
인식
인용
재정
저우
전국
전은
전체
점포
정표
종원
증이
지며
차로
차별
창출
철강
축협
충망
층의
치면
코닉
탕면
텍스
템퍼
토론
티슈
팀은
패널
패키
협을
(26
(29
BCI
CPU
KDI
SOL
WTO
~19
##01
##53
##89
##가게
##각광
##감성
##강의
##결성
##공연
##과자
##교역
##국적
##균일
##기구
##김밥
##김영
##김용
##깨고
##끈다
##나노
##나은
##남긴
##남녀
##내리
##느껴
##더한
##두려
##레고
##말고
##맞고
##매진
##멀리
##메디
##명시
##모래
##모르
##모으
##모자
##모태
##미뤄
##바꾼
##박스
##받게
##발달
##버려
##변속
##보일
##부착
##사재
##삼고
##상표
##새우
##생길
##선거
##수평
##쉬운
##시뮬
##신탁
##실손
##심판
##싸게
##앉아
##어르
##얻을
##없기
##엘리
##여야
##연예
##영풍
##예치
##오일
##요건
##용기
##유독
##은은
##이직
##일괄
##일등
##일명
##일한
##일할
##임명
##입교
##입기
##입체
##재미
##적다
##적정
##전량
##전성
##전세
##절대
##점에
##접어
##정례
##조속
##종교
##준수
##직급
##쪼개
##차등
##차입
##참조
##처벌
##첫날
##첫해
##체육
##출장
##침해
##코너
##쿠션
##팔려
##풍력
##플러
##하늘
##한데
##한류
##한창
##한해
##호봉
##환산
개월이
경쟁력
공사와
관으로
김범준
나갔다
년이다
리바바
미국의
법으로
브란스
사업은
사업자
샐러드
선에서
성장은
손실을
스바겐
시멘트
시키며
아이스
앞으로
오스크
위니아
이익은
인리스
인에게
일랜드
자들과
전자와
페이스
편의점
품으로
하얏트
하였다
한국은
했다가
했다이
화학과
회사가
(100
2014
##180
##19%
##33%
##MBK
##가구의
##가벼운
##감성을
##강마루
##강화한
##개선과
##개선한
##개정안
##겪었다
##결론을
##결정에
##결제할
##고려대
##고민을
##고용부
##곧바로
##과정이
##관리가
##교수가
##구성한
##구축해
##그래픽
##기관은
##기여할
##나뉜다
##나프타
##내면서
##녹록지
##늘어났
##단기간
##단순한
##달성할
##대표이
##도입할
##돕는다
##들어서
##등에도
##마이클
##맡는다
##매장이
##매출과
##면허를
##못한다
##물량이
##미친다
##박차를
##발맞춰
##법인을
##본사와
##부문을
##부문의
##부분이
##불편을
##비율로
##비판도
##비판을
##사고가
##사례로
##산업에
##상승한
##상여금
##생기는
##생산능
##생산이
##설립해
##설치한
##세계에
##소공동
##소득이
##수출도
##슬로건
##승부를
##시기에
##시대가
##시설을
##시원한
##시장과
##시행한
##식감을
##신산업
##실적도
##싼타페
##쏘나타
##쏟아부
##아끼지
##아무리
##안마의
##안에서
##알려져
##알리기
##앞세운
##얘기도
##얼어붙
##엄청난
##여행을
##역할도
##연구소
##연차총
##영업을
##영업점
##올바른
##운영해
##운용사
##워싱턴
##원료를
##원인을
##유력한
##이곳에
##이뤄져
##이주열
##인수할
##인스타
##있으면
##장난감
##장례식
##장학금
##전국에
##접목한
##정치권
##정확히
##조지아
##주세법
##주최한
##증가로
##지급액
##지원과
##질문을
##창출에
##채널을
##초콜릿
##최고급
##취향에
##커다란
##컨센서
##쿠팡은
##쿠폰을
##키우고
##타격을
##탄생한
##테마로
##투자로
##특허를
##편안한
##평가와
##포스트
##품질이
##프로모
##필요로
##한눈에
##할인된
##해주는
##행사가
##혁신적
##혜택이
##확보에
##환경에
##흑자를
계올림픽
과학기술
구직활동
국민연금
무역협정
분기부터
안마의자
억원가량
전기안전
중진공은
캐피탈은
판매하는
하나은행
##1700
##2040
##KCGI
##OECD
##가계대출
##강력하게
##개성공단
##경제단체
##경제수석
##계열사가
##공시했다
##그럼에도
##근무하는
##기대한다
##기업들도
##나타냈다
##내구성이
##내다보고
##대목이다
##도입하는
##돌아오는
##마음으로
##마켓컬리
##말했다이
##명목으로
##모델들이
##목소리도
##발생했다
##벤치마킹
##보조금을
##브랜드에
##사단법인
##사람들은
##사업으로
##상태에서
##생산한다
##서비스에
##선도하는
##소비자는
##수출하고
##시스템은
##시작하는
##시행규칙
##신혼부부
##안전성을
##알리바바
##앞장서고
##영업비밀
##요구하는
##우려하고
##움직이는
##움직임을
##이유식을
##인정받고
##일본에서
##임직원을
##입법예고
##입점했다
##작업중지
##적용하는
##전국민주
##전략으로
##전문가를
##전환했다
##정부세종
##제안했다
##제외하고
##제조하는
##주방가전
##주최하는
##중간지주
##증가율을
##지역별로
##직격탄을
##진행됐다
##차량공유
##참여하고
##추가했다
##치매보험
##캐릭터를
##컬렉션은
##클러스터
##통계청이
##투자자를
##판매됐다
##판매되고
##판매량을
##핵심이다
##화장품을
##화학물질
##활용하면
경제연구원
디지털혁신
저축은행의
전자상거래
정표시장치
주도성장을
현대중공업
##가정간편식
##금융당국의
##금융소비자
##노동조합이
##르노삼성은
##불가능하다
##소상공인을
##스테인리스
##시장에서는
##시장에서도
##이스타항공
##일시적으로
##자연스러운
##전반적으로
##전산시스템
##지원하기로
##질소산화물
##취업준비생
##통상임금에
##투자자에게
##편의점에서
##프로그램도
##한국수자원
산업통상자원
##가업상속공제
##공기청정기가
##오렌지라이프
##프로그램으로
##홈페이지에서
리디노미네이션
##한국조선해양은
##청년창업사관학교
##한국경제신문과의
##전국민주노동조합총연맹
3,
71
99
BA
LA
SD
VA
il
no
ue
##낡
##밸
##앨
##얹
##엇
##웨
##킨
##텐
##햄
##했
가닉
가동
가루
걸레
것도
고한
골드
과장
관이
구나
권은
그렇
기재
끼리
남미
남방
다음
당초
대구
대만
되어
두에
들어
들일
라마
레일
류를
르밀
르지
말라
먹는
메가
면의
면적
물의
바꿈
발주
방안
버그
법이
변속
보로
보상
보수
볶음
본지
브릿
사모
색을
세트
소셜
소통
수산
수송
수탁
신의
신청
신항
씨를
아도
아동
아스
업에
우산
운수
울산
원씩
웰스
유를
을까
음식
응답
이유
인사
자료
장병
장인
점인
정밀
제련
조기
조명
종과
종량
좋은
주요
직자
채널
처가
처벌
처에
체크
출금
치에
치온
치와
키즈
택시
통운
특허
티넨
퍼스
퍼시
평등
품종
프를
할까
합의
해왔
향후
형은
호가
호기
호르
화는
확인
(40
1%,
7%,
HMR
~12
##61
##68
##81
##82
##CO
##DB
##IC
##NS
##“2
##“4
##가리
##가슴
##감각
##감당
##강연
##강요
##개에
##거두
##거리
##걸고
##걸린
##걸친
##격차
##견인
##경매
##경증
##경차
##고문
##고수
##골판
##곳의
##공과
##공업
##공직
##공포
##과징
##구글
##구제
##그럴
##그릴
##기득
##기탁
##긴장
##깊이
##나눈
##내외
##누진
##니즈
##다우
##담합
##당사
##대미
##독려
##돋보
##동생
##드릴
##드림
##등기
##디스
##로켓
##론칭
##르노
##리튬
##마치
##막걸
##막아
##말씀
##맞지
##매칭
##메모
##면접
##명은
##모금
##무슨
##무풍
##문서
##밀착
##박사
##발효
##방사
##번개
##벌여
##베인
##본점
##봐야
##불필
##붙어
##블룸
##사과
##사외
##산유
##살린
##삼아
##샘플
##서부
##선전
##선출
##성수
##센싱
##소파
##손잡
##수강
##쉽다
##실망
##심리
##심화
##씨는
##아모
##안주
##안착
##안타
##알게
##액상
##앵커
##양극
##어떨
##얻는
##여겨
##여수
##연휴
##외주
##용접
##웃돈
##워낙
##원활
##유관
##유로
##의뢰
##이메
##이병
##인간
##일조
##잠정
##전개
##전락
##전직
##절약
##정무
##정화
##제과
##조용
##좁은
##주름
##지낸
##지목
##지상
##지진
##직류
##직면
##차밭
##창조
##찾고
##천안
##최다
##출생
##충실
##취항
##카누
##커핑
##쿠쿠
##크레
##태도
##터뜨
##텔루
##토지
##톡톡
##트위
##파고
##팔고
##펴고
##폭이
##풀어
##퓨처
##학계
##합친
##합판
##해상
##현안
##호조
##화두
##확신
개까지
개사를
곳으로
공기업
공무원
구에서
금융을
기금은
대통령
됩니다
렉트로
렸다는
르면서
메카드
문이다
바이트
박람회
방안을
벤져스
본부와
상하이
생명이
선택과
세이버
식에는
아울렛
았다는
억원대
었다고
에서만
온라인
은행인
이사장
이었던
일에도
입니까
자마자
장려금
전시장
제철소
종이다
지표가
청와대
코오롱
탄소년
태양광
테크는
트레이
플라이
하기에
해달라
했다면
회사로
(200
1400
PPIB
##173
##43%
##85%
##가족의
##갈등을
##갈등이
##감소할
##강하게
##개발도
##개선이
##개정을
##개편을
##걱정이
##검찰에
##게다가
##결합해
##경쟁에
##경제적
##고객과
##과정은
##구광모
##구현해
##국가의
##규제에
##그룹을
##글라스
##기능과
##기자와
##나빠진
##나오기
##나오면
##논의는
##높다고
##다음날
##단계별
##달콤한
##대비한
##대상인
##던졌다
##드레스
##들어온
##들여다
##롯데의
##맞벌이
##맞추기
##매뉴얼
##먼지를
##메리츠
##명에게
##문제로
##문화가
##물가가
##물가지
##물걸레
##미국산
##미디어
##밀렸다
##바꾸고
##반영된
##백악관
##벤처붐
##변경할
##별다른
##불꽃쇼
##불어넣
##비율을
##비은행
##비준을
##사람도
##사업화
##사장과
##사장의
##사전에
##산은은
##상장을
##생각해
##생긴다
##생산된
##설명을
##설치할
##성공을
##수년간
##스피커
##시가총
##시점에
##신상품
##실시한
##심의를
##쏟아져
##쓰인다
##아울러
##악화로
##안전을
##안정을
##않고도
##알리고
##알리는
##액세서
##어르신
##엄격한
##없도록
##여름철
##영유아
##예컨대
##온도를
##올라서
##와중에
##요소를
##우버는
##웃도는
##원두의
##원료로
##원스톱
##원전을
##위치를
##은행에
##은행이
##을지로
##인력이
##인상과
##인재를
##일정한
##일종의
##입맛을
##입점을
##자녀를
##작년에
##장점이
##재료를
##전기를
##전략과
##전환이
##정부도
##정의선
##정하고
##정해진
##제거할
##조성을
##조현민
##주기로
##주장이
##주택을
##중장년
##증가에
##증가할
##증가해
##직후인
##진행한
##질감을
##차질이
##창업에
##철학을
##체험할
##최상의
##추진해
##취향을
##칭다오
##카드를
##컨버터
##퀄컴의
##탁월한
##탈바꿈
##태스크
##토론을
##통째로
##파업에
##판결을
##판로를
##펀드를
##프로세
##프린터
##플러스
##하노이
##한계를
##해결을
##핵심은
##핸드백
##행사로
##현장에
##협력해
##형태를
##혜택도
##확대와
##희망을
글로비스
기관으로
기아차의
리케이션
리포니아
만달러로
보증기금
뿌리산업
수탁생산
스마트폰
앤컴퍼니
왼쪽부터
적이라는
지역난방
캐피탈이
포스코는
푸드빌은
화학물질
##1600
##1800
##1962
##1985
##1991
##1994
##가상현실
##개편안을
##것이었다
##경우에는
##고려해야
##공기업이
##과감하게
##과도하게
##국가채무
##국회에서
##금융권에
##급감했다
##기술력이
##기업시민
##끌어올릴
##내세우고
##늘리기로
##대기오염
##대안으로
##동물복지
##디자인에
##라인업을
##마이크로
##매일유업
##면세점을
##명예회장
##발표한다
##변동금리
##보장하는
##보호하는
##부정적인
##부총리가
##뿌리산업
##사이에선
##사회안전
##산업단지
##생산시설
##서비스와
##수익률이
##수입하는
##수주했다
##순이익은
##실용적인
##쏟아졌다
##아티스트
##않았지만
##않으면서
##업계에서
##유통망을
##육성하는
##은행들이
##의미한다
##이끌었다
##인상으로
##임직원과
##있다최근
##작년부터
##재무장관
##점포에서
##조성하는
##주력하고
##줄었지만
##지적한다
##직무급제
##직원들과
##직원들을
##참가했다
##채권단의
##청와대와
##측정하는
##카메라를
##콘셉트의
##투자자가
##포인트를
##필요성을
##해지환급
##현대상선
##홈페이지
##확대되고
##확보했다
##활성화에
##후원하는
##후쿠시마
삼호중공업
저축은행은
카카오뱅크
파리바게뜨
하겠습니다
하나은행은
하우시스는
##공공기관의
##관계자들이
##국내에서도
##금융감독원
##금융상품을
##네트워크를
##매각하기로
##봉사활동을
##불가피하다
##시내면세점
##시뮬레이션
##아이스크림
##어린이보험
##우리은행이
##인스타그램
##인정받았다
##자구계획을
##자리잡았다
##자일리톨껌
##전문기업인
##지난달부터
##최저임금의
##추진하기로
##태양광발전
공업협동조합
금호아시아나
##국제노동기구
##농림축산식품
##라이프스타일
##로스앤젤레스
##시스템반도체
##주택담보대출
디지털혁신캠퍼
##한국경제신문사가
##경제사회노동위원회
##고객감동브랜드지수
##금호아시아나그룹이
3’
58
72
85
86
91
92
93
BL
ES
HS
MA
MM
SJ
is
pp
ut
yo
##둬
##뚝
##몫
##잦
##족
##죠
##춘
##쿼
##핫
##휩
감은
검토
견을
경북
계는
공원
과정
국장
기념
기후
꼴로
나소
나요
넓은
년만
녔다
놀이
뇨스
늦게
단과
단순
동서
됨에
라운
렌털
력도
마력
메뉴
모임
무인
물품
믹스
반도
밥솥
방문
배를
버트
보검
비의
비츠
비타
상과
새우
색이
성급
세와
센트
소송
수와
수주
실상
심성
심한
씨씨
양어
어난
어스
어요
연결
연계
영상
오션
용적
우대
워시
월과
월을
유가
으론
이상
이슬
이용
익을
인재
적자
전통
절차
조작
조화
종규
주류
주민
진은
진이
질과
처분
체육
체험
초밥
추경
층은
카를
커는
켰다
코는
콜라
큐셀
테고
투명
편이
평을
피치
할지
함께
허브
형에
호적
휴직
(25
350
6%,
IDT
TEU
art
woo
##03
##2,
##6%
##71
##8%
##84
##86
##aT
##yo
##각국
##각오
##간부
##간식
##감싸
##갔다
##강릉
##개조
##거시
##거절
##건너
##건면
##검색
##견제
##고기
##고압
##공산
##과열
##과장
##관행
##광양
##광역
##교섭
##구동
##구미
##구비
##군산
##그쳤
##근속
##기내
##기타
##기후
##김수
##김태
##깊고
##꾸미
##끄는
##남북
##낮출
##내가
##내기
##내놨
##논쟁
##놀이
##높고
##높지
##단말
##단백
##단지
##대명
##대변
##대처
##동월
##동행
##되살
##두는
##두루
##라벨
##레저
##마곡
##마크
##만남
##많고
##말리
##맛볼
##맡겨
##매니
##무관
##무리
##무한
##묶어
##묻자
##물리
##물적
##미루
##민생
##바른
##반월
##반토
##방위
##버튼
##번씩
##번의
##법적
##법학
##베뉴
##변신
##보육
##보행
##부부
##부추
##부평
##붙는
##비비
##빠질
##빼고
##산출
##삼양
##상암
##상을
##선진
##성사
##성향
##소믈
##속에
##손님
##손질
##수수
##수원
##수치
##숙성
##스킨
##승차
##시세
##신념
##신문
##신종
##신주
##쌓인
##쓰지
##아쉬
##아트
##앞당
##애경
##애완
##어린
##엔젤
##여건
##연비
##연합
##열을
##오이
##외면
##원청
##의심
##의혹
##이은
##익스
##인조
##일관
##입맛
##잇단
##자재
##작품
##잡는
##쟁의
##전파
##정교
##정밀
##정성
##정식
##정한
##종사
##종의
##주무
##주세
##주지
##중복
##중엔
##즐겨
##증류
##증명
##지위
##지친
##진로
##진보
##집닥
##집무
##집을
##집진
##찍어
##차체
##창사
##처한
##초고
##초대
##초코
##출전
##측에
##측의
##쿠첸
##타인
##타입
##탈퇴
##태림
##통장
##특강
##파견
##파크
##포토
##폭을
##표시
##품종
##프랑
##하게
##하자
##학과
##한글
##한두
##한시
##할부
##허인
##홀로
##후퇴
강현실
개월여
게이션
관계를
나가고
나소닉
는데도
단계로
달라고
대기업
도시락
되기도
되도록
된다면
라운드
레쓰비
레퍼시
모델을
법인의
베이스
보험료
사미아
사업이
생활을
설비를
세이브
솔루션
스터를
스트는
스트코
스페셜
시간이
시에서
실장은
십니까
어지는
에서의
오렌지
우리가
이비통
정부와
중심지
지사첼
지원금
티넨탈
팻다운
페이는
포조선
퓰리즘
프레시
프리즘
하이텍
해주고
활동에
회장님
CSBI
~30%
##000
##110
##134
##190
##1~4
##1·2
##29%
##34%
##37%
##39%
##53%
##55%
##BMW
##ELS
##SNS
##가치는
##각각의
##간단한
##간편식
##강도를
##개선될
##건축물
##걸었다
##검토한
##검토할
##격차가
##경우도
##경험할
##계약이
##고령화
##곳곳에
##공개된
##공급을
##공급이
##과정에
##관리할
##광화문
##규제는
##그나마
##금감원
##금액이
##기대를
##김재철
##나라의
##내부에
##노선에
##놀이터
##농식품
##높이면
##늘리기
##다각화
##다니는
##대다수
##대상에
##돌아섰
##똑같은
##로열티
##롯데몰
##링크샵
##매각이
##매각할
##매장은
##매출도
##메이크
##명의로
##모드를
##못지않
##무조건
##미네랄
##바뀌면
##발간한
##발언을
##방문한
##방법이
##방안이
##방침을
##배경을
##번째다
##법원이
##보이지
##부품을
##분석을
##불공정
##불과한
##붙었다
##브라렛
##비중도
##빌트인
##사명을
##사용이
##사이버
##사정이
##산업을
##샌드박
##생각을
##생산에
##생산해
##선정한
##설정을
##소고기
##소식에
##손으로
##수상의
##수소차
##수차례
##스토어
##스티커
##시계를
##식품의
##신남방
##아래로
##아세안
##아이돌
##악화된
##않았던
##알렸다
##알코올
##업체로
##에버홈
##역량과
##연기금
##연다고
##연령대
##연출할
##열처리
##오리진
##올리지
##와이드
##우리의
##운영할
##울산에
##원양어
##원인은
##원장은
##웬만한
##위주의
##위험에
##유럽과
##음료를
##의견도
##의미로
##이내에
##이랜드
##이어가
##이전에
##인력난
##인버터
##인상이
##일본과
##임원은
##재정이
##저축성
##전략도
##전력을
##전망은
##제조한
##제주도
##조직의
##조현아
##준비가
##중남미
##중저가
##증권사
##지역은
##지적에
##지주사
##지키기
##직접적
##진행해
##질감의
##창업한
##찾아가
##채용을
##철저히
##체질을
##총자산
##최태원
##출시와
##침체로
##카타르
##카테고
##캔커피
##커피에
##클래스
##클래식
##타당성
##통하는
##투명한
##트렌디
##특성상
##특성화
##특유의
##팀장은
##판매한
##패키징
##편리한
##편의를
##표현한
##프레임
##플러그
##피보험
##피부를
##한국형
##한도로
##한전은
##한정판
##해마다
##했는데
##했다는
##현상을
##협약은
##협의해
##화관법
##확대는
##확실히
##환경이
##활발한
##회사인
##회원국
##후에도
##휴식을
##힘쓰고
간접자본
개발은행
국토교통
대한민국
되더라도
들에게는
레퍼시픽
만큼이나
모빌리티
민주노총
사회복지
우수제품
운송사업
웨이항공
인테리어
채권단은
포인트를
해달라는
홈쇼핑이
(2017
##108%
##1969
##1982
##1995
##3500
##가동률이
##강소기업
##강점으로
##경영계의
##경영진이
##고객들의
##고객들이
##공급하고
##공급한다
##공략하고
##공무원의
##공유경제
##공유하는
##공장에서
##근본적인
##금감원은
##금융규제
##금융투자
##기금운용
##기대된다
##기준금리
##끌어올린
##나타나고
##내년까지
##내놓기로
##논의하고
##달라진다
##달성하기
##대대적인
##대우건설
##돌아왔다
##들어서는
##때문으로
##루이비통
##마케팅도
##매각했다
##멀티순환
##반도체가
##반영했다
##받아들이
##발굴하고
##부회장의
##불과하던
##브렉시트
##비용으로
##사내이사
##사람에게
##사업부문
##사장으로
##산불피해
##상여금을
##생산량은
##생산성을
##생태계가
##서비스업
##설계인증
##소송에서
##수준에서
##수협은행
##스테이크
##시장에도
##신설법인
##신성장동
##신속하게
##실리콘밸
##아이들의
##않는다고
##알고리즘
##어려움이
##어린이집
##어버이날
##연결하는
##예상한다
##요구사항
##요인이다
##우대금리
##움직임이
##유지해야
##은행들은
##이달부터
##이뤄지고
##이후에도
##일반적인
##입소문을
##있다국내
##있었다는
##자동차용
##자리잡은
##자신감을
##재무건전
##전달하고
##전반적인
##전통적인
##정확하게
##제공했다
##주장하는
##중진공은
##증가했고
##지금보다
##진행되는
##진행했다
##쪼그라든
##청년수당
##최저치다
##출발했다
##출시하고
##치솟았다
##콘셉트를
##콘크리트
##키오스크
##트렌드가
##파트너스
##편안하게
##폭스바겐
##풀이된다
##하더라도
##하반기에
##현대차가
##호소했다
##확대된다
##확대하기
##확대한다
##회장에게
근당건강의
동계올림픽
래버레이션
브릿지사첼
엘리베이터
위원회에서
채권은행인
현대자동차
##KAIST
##간담회에서
##경영정상화
##국토교통부
##금융회사가
##기준금리를
##내비게이션
##농협은행은
##대기업집단
##데크플레이
##마찬가지로
##브리핑에서
##산업은행은
##슬로건으로
##아이디어가
##연구원들이
##연세대학교
##지난해까지
##지역사회와
##최저임금이
##코엑스에서
##태스크포스
##한국은행이
액셀러레이터
액정표시장치
인베스트먼트
인프라코어는
##금융감독원은
##금융위원회는
##깨끗한나라는
##미니클러스터
##소상공인연합
##에어프레미아
##자동차업계에
##자리매김하고
##커뮤니케이션
##현대자동차는
##현대중공업이
##인터넷전문은행
##한국경제신문이
중소벤처기업부는
##사회복지공동모금
##한국경영자총협회
2,
46
47
77
98
AE
EC
ER
LC
NO
RS
SA
ce
li
##갔
##굵
##긁
##꽤
##끓
##뇌
##뜯
##맹
##빵
##엽
##옴
##찌
##튼
##횟
##훼
가방
강도
강판
개념
개다
계절
공감
과제
과즙
관료
광역
광은
글라
금고
기요
기자
내외
네트
노돔
노선
농업
놓을
니언
니컬
단열
담배
디는
디의
라노
란트
렇다
로지
르다
리서
림돌
매틱
모닉
모두
모사
목의
물인
바나
반을
받지
백은
버드
보니
보복
부담
분위
분할
붕괴
비즈
사탕
산을
상환
서트
석이
선의
세탁
소매
소주
송금
수에
스쿨
스틸
시즌
실은
심은
씨티
아메
아오
애틀
앤비
어의
에다
여개
연봉
영리
오후
와도
왕산
외국
우주
원화
월께
음이
이들
이온
이의
이체
인기
일엔
일의
자도
자이
자일
저널
전반
정상
정지
조금
즈베
증명
지나
지마
지양
직무
직영
직접
질환
차밭
청과
체는
체형
최종
치즈
카의
컷다
크래
클릭
탈은
터보
토리
틀어
티몬
티오
평소
평형
풀이
풍을
프린
피가
필수
해볼
해운
헬스
형의
홍삼
화장
화질
확장
확한
활력
(23
(24
(27
(44
(48
(60
400
LPG
~15
’(4
##66
##72
##78
##83
##93
##LA
##감동
##감염
##갖게
##갖출
##건립
##결승
##경량
##고갈
##고지
##광명
##광장
##구두
##국책
##국토
##그냥
##그에
##그해
##기증
##김종
##깎아
##꾸며
##꾸몄
##나면
##나이
##날짜
##남산
##내릴
##내장
##넓히
##넘길
##넘을
##노래
##농어
##농촌
##눈높
##느낀
##다녀
##다들
##답답
##대에
##대타
##더마
##더블
##더샵
##덕에
##덜어
##데님
##동작
##돼야
##두유
##두통
##뒤에
##뒤처
##듣는
##디테
##뜯어
##띄게
##라돈
##라지
##루비
##리막
##리스
##리챔
##마블
##마일
##막는
##말한
##맞이
##매물
##멸종
##명당
##명절
##모인
##목재
##목질
##문턱
##물로
##물이
##미주
##미흡
##반경
##발을
##밝혔
##버티
##별로
##별세
##보잉
##보전
##보존
##부위
##부인
##불복
##빼면
##뽑아
##사명
##사안
##산양
##삼각
##생성
##생일
##성격
##세일
##세포
##손보
##수납
##수박
##수산
##순서
##술의
##스터
##슬림
##승진
##시사
##시속
##시정
##식의
##식재
##식탁
##신년
##신사
##심어
##싱크
##싸다
##쓰일
##아들
##악영
##않게
##않던
##않으
##알레
##알짜
##엄선
##엇갈
##엑스
##여객
##여론
##역동
##연초
##영예
##오버
##올봄
##운구
##원목
##원조
##월급
##유병
##유사
##육박
##응원
##의자
##이석
##이윤
##인덕
##인턴
##일대
##잃은
##입는
##입학
##작고
##잠수
##장남
##적게
##절실
##정신
##제격
##조형
##좋게
##즐기
##지성
##진열
##진화
##질을
##짜장
##찍고
##차가
##차원
##찬반
##찾지
##청약
##촉촉
##최장
##추모
##추억
##축제
##층을
##층이
##치아
##칼로
##캔디
##택배
##텔레
##토로
##통일
##트윗
##티몰
##편한
##포괄
##폭발
##푸른
##프렌
##해동
##했기
##행동
##형광
##형사
##형식
##호흡
##횡성
##훼손
##흔히
가맹점
간다는
강은구
경영을
경제학
계획을
공장은
공장이
공학부
관리법
그룹과
그룹도
금액을
기금을
기기로
김영우
나가는
넥티드
년에서
노조는
달러를
대리석
되지만
라이트
리케어
마스터
마이너
모니터
미국과
베이징
보험에
부터다
비용이
선진국
성으로
성장률
시스코
심사를
았지만
억원씩
연금은
오토모
유동화
이미지
이처럼
자료를
정책에
제도를
주에게
준다는
카드가
콘텐츠
테이션
파운드
평가를
푸드는
하기가
협력을
호르몬
홍남기
회사는
회사의
회째를
~50%
##08%
##09%
##133
##17%
##22%
##48%
##68%
##99%
##CFO
##FDI
##IoT
##KDI
##가능할
##가져다
##가지를
##가하고
##감사의
##감소로
##감소폭
##강남점
##개선해
##걸림돌
##검사를
##결제가
##경기에
##계절에
##고개를
##고성군
##공간이
##공급할
##공정을
##관계가
##관리에
##교수의
##구하기
##구현할
##국민적
##그래도
##그런데
##극대화
##금리로
##급감한
##기관이
##기반한
##기법을
##기술에
##기준에
##기준은
##기회도
##깔끔한
##꼽혔다
##나눔을
##남성복
##낮았다
##낮추고
##내놓지
##냈지만
##노조의
##논리다
##뉴트리
##늘려야
##늘었고
##니즈를
##다루는
##다문화
##다음주
##닥터자
##대금을
##대표로
##대화를
##덴마크
##도로를
##도시를
##동남아
##동영상
##되도록
##뒤늦게
##들어오
##등장한
##따라서
##떨어뜨
##떨어질
##떼어내
##뜻하는
##리워즈
##마음이
##마치고
##맛있는
##매각에
##매기는
##모른다
##모모스
##무역협
##문제도
##물산업
##미국을
##미래에
##미래형
##미만의
##바뀌는
##바람을
##박근혜
##반발이
##받으면
##발목을
##발주한
##발표를
##발행한
##방식도
##배제할
##법제화
##변경에
##변호사
##변화는
##별개로
##보내는
##보낸다
##보일러
##보장성
##본격화
##부담은
##부르는
##부채는
##브레이
##블라우
##블렌더
##비디오
##빈소를
##빙그레
##뿐이다
##사람들
##사람을
##사용을
##사태가
##산안법
##산은이
##살리기
##상대방
##상품인
##상황과
##샌드위
##생산과
##선물을
##선보이
##설계와
##설명회
##성분이
##성장해
##세상을
##센터는
##셧다운
##소식이
##손실이
##손해를
##수상자
##수주를
##스크린
##시기다
##심플한
##싶었다
##아로마
##않기로
##않다고
##앱에서
##양재동
##어떨까
##없을까
##에센스
##여성복
##여성의
##역할이
##예고한
##오래된
##올리브
##와디즈
##완화적
##외환위
##운영에
##운영한
##워크숍
##원인이
##원재료
##웨이퍼
##의사결
##의사를
##이들을
##이루는
##이야기
##이처럼
##인근에
##인지도
##인허가
##있다김
##있어도
##있음을
##자녀가
##작년엔
##장점은
##장착해
##장치를
##재창업
##적자로
##전경련
##전기요
##전달할
##전통주
##전환해
##정도가
##제안한
##제재를
##조정할
##종류의
##주도로
##주도한
##주도할
##주장도
##주재로
##줄여야
##중국을
##중에선
##지금의
##지나친
##지속될
##지었다
##지정된
##지지를
##지키고
##지키는
##지표를
##지하철
##진단을
##진정한
##진출에
##집에서
##차량이
##차례로
##창출과
##청소기
##체제를
##초소형
##최소화
##코스맥
##클렌징
##키우기
##키웠다
##토대를
##통신칩
##통틀어
##특징을
##파업이
##판단에
##팻다운
##펼치는
##평가는
##풀무원
##품목은
##프라이
##합의한
##해결에
##허가를
##혁신이
##현금을
##확대로
##확보한
##확인한
##확장에
##회복될
경제자문
금융당국
나눔재단
래곤시티
무역기구
배움카드
블랙야크
삼성전자
삼성화재
스케일업
신라호텔
신용평가
안정자금
억원이던
업체들의
연구소가
연구소를
우산공제
월부터는
유플러스
일각에선
자율주행
지원사업
청년창업
테인먼트
ation
~2017
##1100
##1960
##1988
##1989
##9000
##QLED
##가맹금을
##강조하고
##같습니다
##갤러리아
##결정하는
##결혼정보
##경영자문
##경제부처
##고객만족
##고민하는
##공유하고
##구성된다
##구축하기
##국내에선
##국제기구
##권고했다
##귀뚜라미
##극복하기
##금융결제
##급증하는
##기업들을
##기업은행
##기여하고
##기자들과
##나오면서
##나타내고
##납품하는
##내놓으며
##늘었지만
##대부분은
##대부분이
##대응하는
##대체근로
##돌아가는
##동서식품
##디자인한
##떠오르는
##롯데닷컴
##마련하기
##말했다박
##모집한다
##목표치를
##바이러스
##반발하고
##발생하면
##발생하지
##방문했다
##방법으로
##방송에서
##방탄소년
##배터리를
##변경했다
##병원에서
##보여준다
##부동산을
##불필요한
##브랜드키
##사용되는
##사후관리
##상승으로
##생산량을
##생산량의
##생산량이
##선택하는
##설립됐다
##설명한다
##소득대체
##시스템도
##시원하게
##시장이다
##아니지만
##아이에게
##알려주는
##앞으로는
##연구원은
##연말까지
##영풍문고
##예고했다
##예비창업
##웃돌았다
##원인으로
##유상증자
##유일하다
##은행들의
##이뤄지는
##이미지가
##인지도가
##일각에선
##일자리는
##일환으로
##임금체계
##입소문이
##잇따르고
##자기자본
##자랑한다
##작년에는
##장착됐다
##재무제표
##적용하고
##전달하는
##전시관을
##점검하고
##점검하는
##정기배송
##정책금융
##제네시스
##제시하고
##조건으로
##주도권을
##중견기업
##증강현실
##지급했다
##진화하고
##참여한다
##청년들의
##카바스백
##컨설팅을
##컨센서스
##컬렉션을
##코스트코
##탄생했다
##탑재했다
##털어놨다
##테마파크
##토론회를
##특수관계
##파악됐다
##파키스탄
##포함된다
##품질관리
##필요했다
##하티스트
##한국야쿠
##한국으로
##할인받을
##함께하는
##합류했다
##해당한다
##해외시장
##협력사와
##확보하기
##황산화물
##회의에서
##회장으로
금융그룹은
스타벅스는
억원이었다
인더스트리
인터내셔날
제일제당은
코퍼레이션
하이닉스가
한국타이어
ungwoo
##000%)
##2030’
##KOTRA
##가맹본부가
##공유오피스
##금융당국이
##금융소외를
##기술력으로
##기업가정신
##끌어올리기
##높아지면서
##디자이너가
##무역전쟁이
##분야에서도
##생산라인을
##세무조사를
##소프트뱅크
##스타벅스는
##스타트업이
##시스템으로
##신한카드는
##실질적으로
##애로사항을
##앵커에쿼티
##예정입니다
##온라인에서
##유지하면서
##일반적으로
##장수돌침대
##전문적으로
##증가했다고
##지식재산권
##집계됐다고
##최대주주로
##커피전문점
##투자하기로
##티웨이항공
##해양스포츠
##현실적으로
##협력업체의
##확대하기로
##확대한다는
##효과적이다
##금호석유화학
##노란우산공제
##롯데면세점은
##수석부회장은
##애플리케이션
##업그레이드한
##웅진코웨이는
##자유무역협정
##현대자동차의
##가상화폐거래소
##산업안전보건법
##평창동계올림픽
유기발광다이오드
##youngwoo
##금호아시아나그룹은
,5
2(
33
37
41
96
?’
AA
CA
CB
FI
NK
SE
as
bp
co
de
nC
ot
ra
##■
##곁
##닦
##댓
##떡
##벼
##붐
##뷔
##뺀
##솜
##숲
##싣
##윈
##윌
##젤
##콤
##쿨
##탔
##텀
##팁
##팩
가드
가칭
갈등
감도
건축
경력
고와
공은
공조
관의
광주
교섭
구로
글리
기만
기타
깨끗
나지
납부
낸다
네켄
눴다
니를
니어
니커
대응
데스
도급
동남
동반
드로
라빈
란히
랜딩
랬다
로겐
로잡
리금
마끼
마일
말을
매니
면허
명인
목표
무진
문찬
민을
밀컨
바다
바리
바작
배상
보관
보국
보유
부착
분과
블러
비씨
비트
빠른
사도
사채
사태
성실
세척
수퍼
스라
스파
승을
시의
신은
심리
십자
씨의
씽크
아암
았을
앞서
앤드
어다
어와
업원
없다
여대
온이
온항
요구
요리
요타
원유
월의
윤모
인건
임이
장도
장표
재난
저장
전의
정도
정수
제의
조는
중고
증의
지구
차장
착륙
철학
청에
청이
초를
추가
치료
칠성
카누
캉스
켤레
퀀텀
크찰
클린
터카
토를
투스
투표
판이
퍼블
포동
퓨어
피스
피트
하긴
하신
한샘
해상
해체
현황
화물
(-0
(21
(22
(28
(54
(56
(84
HEV
KEB
~50
##02
##05
##92
##BB
##DS
##IB
##PO
##‘4
##“3
##“5
##“6
##가을
##갖췄
##같아
##건보
##건을
##걸맞
##것만
##결단
##결렬
##결의
##경직
##경총
##계란
##고등
##고삐
##고온
##고장
##고전
##공용
##공적
##과천
##구운
##국고
##국물
##굳건
##글을
##금고
##길게
##김성
##김학
##깔려
##꾸민
##꿈꾸
##나쁘
##나쁜
##난다
##낡은
##남는
##내놔
##넘겨
##누락
##다짐
##대금
##대박
##대사
##도모
##독보
##독서
##독창
##돈은
##되길
##든든
##때만
##때인
##뛰고
##라운
##리빙
##리얼
##리츠
##마포
##막고
##막을
##맞서
##머리
##멈춰
##모닝
##몰린
##묻는
##뮤직
##미쳤
##민감
##밀집
##바비
##박람
##박상
##반값
##발의
##발족
##밝히
##방진
##방한
##배로
##배상
##배포
##밴드
##버터
##법령
##보디
##보자
##볶아
##봐도
##부딪
##부상
##부천
##부탁
##분과
##분사
##분양
##불고
##블러
##비데
##비례
##빌린
##빗썸
##빚이
##사기
##산단
##살짝
##생계
##섞어
##성남
##세균
##세웠
##세이
##셋째
##손꼽
##손익
##수여
##수혜
##스틱
##스포
##시나
##시흥
##쌍용
##씨티
##악재
##안다
##안마
##안을
##알리
##알림
##앞에
##애초
##앨범
##얹어
##여섯
##연도
##연례
##연상
##연중
##영수
##예대
##오고
##오름
##오비
##요양
##우세
##원산
##원장
##월계
##유족
##윤석
##응모
##의문
##이기
##이종
##인용
##인출
##자립
##자릿
##잡기
##장면
##재도
##재생
##재질
##적어
##전과
##전선
##전역
##전폭
##전화
##점주
##접촉
##정말
##정맥
##정용
##제너
##조각
##조끼
##존중
##좁혀
##좋고
##주간
##주축
##주휴
##줄인
##중개
##중에
##즐거
##증거
##증여
##지내
##지은
##진동
##진료
##집안
##징계
##찍은
##체인
##체코
##추후
##출산
##치고
##치사
##친화
##칩을
##코모
##코칭
##쿠바
##터치
##토출
##통기
##투어
##트랙
##팽창
##페트
##포르
##포화
##폭락
##폭탄
##피로
##필름
##필립
##하방
##한강
##한발
##한수
##합산
##해저
##해피
##향과
##향이
##헬기
##현물
##환영
##황태
##훈련
##휠체
##휴양
##희생
가량이
가운데
거리는
겠다며
경기가
경영권
근로자
글라스
금융업
깨끗한
날로그
났지만
대까지
되거나
두산은
뜩이나
랫동안
량으로
르트는
리아쥬
리퍼브
립니다
마저도
모델링
법인을
부사장
비율이
뿐만이
뿐이다
사고를
사랑의
사이드
사이렌
사진을
산으로
상황이
생산성
설명회
수지는
스럽다
스카이
스트라
스트를
실업률
에게도
였는데
온항습
월에도
위메프
이어야
자들을
자리에
자영업
장치를
전으로
정부도
정수기
정으로
제조업
주일에
주주총
중국은
중국이
증권을
지역에
직자의
초저가
층까지
카페라
캠퍼스
케이블
투자는
투자를
팹리스
포럼은
플랫폼
플렉스
하기는
하반기
한은은
합니까
했거나
호에서
화장품
회사에
회사와
회장을
효과는
'...
,500
17%)
26%)
8200
QLED
USTR
alue
reen
weat
##14%
##28%
##36%
##440
##4~5
##71%
##72%
##76%
##95%
##IHS
##MIT
##SOC
##가격의
##가깝다
##가방을
##감소에
##감안할
##강점이
##개인별
##거대한
##거래소
##거쳤다
##건강과
##건국대
##건설을
##겨울철
##경력을
##경영난
##경영의
##경제와
##경제팀
##계기판
##고강도
##고소한
##공간과
##공략을
##공장에
##과감히
##과장은
##규모인
##그리스
##금융사
##금융업
##급속히
##기가지
##기관인
##기금을
##기기를
##기록할
##기술은
##기조를
##기회로
##꼼꼼히
##꾸몄다
##끝나는
##나눴다
##나오지
##내리는
##내세우
##넘어서
##네이비
##노사는
##노선은
##단계를
##단어를
##달라진
##달러를
##대학에
##도입된
##돌아선
##동떨어
##되풀이
##뒤에는
##뒤에도
##들어갔
##등록을
##떠나는
##뚜껑을
##롯데와
##루치온
##마니아
##맨온더
##메뉴는
##명령을
##명확한
##모터쇼
##문제에
##물질을
##바닥을
##바이낸
##박정수
##받으며
##방법은
##방식에
##방식은
##방안에
##방충망
##배송을
##번째는
##벌금형
##벌어질
##보내고
##보증을
##복구를
##부분에
##부분은
##부산항
##부족해
##분야로
##분쟁이
##불균형
##불렀다
##불만이
##붙는다
##붙였다
##비빔면
##비싸게
##사로잡
##사장에
##사항을
##사회의
##삼았다
##상장사
##생두의
##서울과
##서울에
##선보여
##선정돼
##선정할
##선택해
##설계를
##섭취할
##성능과
##성장은
##세라믹
##센서를
##센터를
##셀리턴
##손바닥
##솜사탕
##쇼핑을
##수영장
##수용할
##스니커
##스카이
##스타키
##스터디
##스트레
##시각도
##시간에
##시설과
##시애틀
##신개념
##신발을
##신속히
##실내공
##실적에
##실질적
##쓰레기
##양산을
##양질의
##어렵게
##어워드
##없다면
##없었던
##에코백
##역사가
##역사를
##연결해
##연구용
##연금을
##연동해
##연매출
##예방할
##오뚜기
##오르면
##오른다
##오리온
##오메가
##올라가
##올레드
##외부에
##요구다
##요구도
##요기요
##용량이
##위협이
##유가족
##은은한
##의사가
##이곳은
##이들도
##이디야
##이론을
##이뤘다
##이름은
##이물질
##이어져
##이유도
##이익은
##이틀간
##인기몰
##일가가
##일감이
##있다신
##있지요
##자리다
##자리에
##자산은
##자산의
##자체를
##잔액이
##장관과
##재산세
##재원을
##재정을
##전략에
##전시돼
##전원을
##전원이
##절감할
##절차가
##점포에
##접점을
##정부를
##제목의
##제작할
##제품군
##조건이
##조사에
##조짐을
##조치로
##좋았다
##주목을
##주문이
##주제는
##중국형
##증가는
##지급을
##지수는
##지원은
##지출이
##지표는
##지표인
##진출은
##차이를
##참이슬
##창업주
##채권을
##청년의
##초기에
##초특가
##최선을
##최우수
##최저가
##추진한
##출발한
##충성도
##측면이
##측정해
##침체가
##캠퍼스
##커피빈
##쾌적한
##쿠팡을
##크다고
##키성장
##턱없이
##파악해
##패러다
##퍼스트
##펼쳤다
##포모사
##표창을
##플레이
##하거나
##하기로
##하는지
##하우스
##한동안
##한번에
##한전이
##할로겐
##할인해
##함량이
##함유돼
##합의가
##햄버거
##향상에
##혁신과
##현장의
##협상이
##형태다
##화면을
##확대될
##확산된
##회사와
##회원은
##휴가를
각에서는
공공기관
공장에서
국제공항
기아차가
년대부터
단체협약
대로라면
랑스러운
력원자력
마이너스
미포조선
바리스타
백화점은
비정규직
사업본부
산업으로
산업진흥
삼성물산
수산식품
스타벅스
스텔바작
스페셜티
어벤져스
재해구호
중앙회는
클라우드
타워에서
하티스트
한국인의
회사들은
136%)
Korea
##1950
##1987
##가공식품
##가맹점을
##가맹점의
##가져가는
##개선되고
##것이어서
##계열사를
##고객가치
##고려하면
##공기조화
##공정위에
##관계없이
##관계자의
##관세청에
##금액이다
##급락했다
##급증하고
##기관이다
##기능까지
##기술역량
##기업들에
##꼼꼼하게
##끌어올려
##나가겠다
##납입기간
##노하우가
##높아지는
##눈높이에
##담당하고
##대부분을
##대부분의
##대주주인
##대통령을
##도전하는
##동영상을
##동원산업
##됐습니다
##떨어지면
##뛰어나다
##레이크찰
##로스팅한
##롯데지주
##만족도를
##매출에서
##물가상승
##밑돌았다
##반대하는
##반발했다
##발표하는
##배출가스
##벗어나지
##변경하는
##변화하는
##보건복지
##보고서는
##보고서에
##본부장은
##부동산의
##부분이다
##부진했다
##브루노는
##비슷했다
##비전펀드
##사들였다
##사용자가
##삼성전기
##상반기에
##상승세를
##생각하지
##생산성이
##선정한다
##설명회를
##성장동력
##소개한다
##소비자와
##소통하고
##소통하는
##속에서도
##수소연료
##수수료를
##수출상담
##수출액은
##수행하는
##시스템에
##신입사원
##신제품은
##신한생명
##실업급여
##실적이다
##실천하고
##아니라는
##아름다운
##아이스티
##아일랜드
##안전하게
##않습니다
##않았다는
##액세서리
##에어서울
##엔제리너
##여신전문
##영향력을
##예상되는
##오르면서
##올라간다
##올리브영
##올초부터
##우려된다
##운용하는
##유가증권
##유치했다
##유통기한
##유효기간
##의미하는
##이뤄지면
##이코노미
##이후에는
##인수전에
##인터파크
##일렉트로
##일환이다
##입장에서
##있다한국
##자동차와
##자랑하는
##작용했다
##장기요양
##장수돌소
##장애인을
##저장하는
##적용되는
##적합하다
##전국에서
##전달한다
##전자담배
##전자제품
##정부에서
##정상화를
##정책실장
##제기했다
##조성했다
##조언했다
##조합원이
##주목된다
##주문하면
##중단했다
##증정하는
##지자체가
##직업훈련
##직장인이
##진출하는
##창업했다
##처리하는
##체크카드
##촉구했다
##총괄하는
##추산했다
##추진해온
##출시하며
##취약계층
##취업규칙
##카드사의
##카카오톡
##캠핑용품
##커뮤니티
##커버팩트
##터뜨렸다
##투자자의
##투자정책
##트레이더
##티토니는
##파나소닉
##판매되는
##판매된다
##판매했다
##편의점과
##포기했다
##한국개발
##한화큐셀
##항목에서
##항온항습
##해결하기
##해소하기
##해외투자
##행정안전
##형사처벌
##호텔에서
##확정했다
##환경에서
##활동이다
##활용하고
##회계법인
##회장님의
##횡성축협
##후문이다
발전소에서
신한금융은
억원가량의
억원어치를
오토모티브
우리은행은
인터내셔널
자동차산업
카카오페이
하이닉스의
##sweat
##개발했다고
##고객들에게
##공공기관이
##구조조정에
##구조조정이
##국내에서는
##국민은행의
##기업인들의
##내놓으면서
##대대적으로
##대한항공은
##때문이라고
##마이너스를
##모집한다고
##무역분쟁이
##배달의민족
##벤처기업을
##불완전판매
##비정규직의
##산업은행과
##상생스토어
##선정했다고
##수석부회장
##신한은행의
##이산화탄소
##인센티브를
##인조대리석
##임직원들은
##있다지난해
##자구계획에
##자산유동화
##전국경제인
##제조업체인
##지원하겠다
##출시한다고
##컨테이너선
##탄력적으로
##파트너십을
##패션부문은
##프로그램은
##프로젝트는
##한앤컴퍼니
##혁신성장을
##현대해상은
##홈페이지에
##환경호르몬
금융위원회는
동화자연마루
이노베이션을
이노베이션의
##20~30%
##고용보험기금
##규제자유특구
##그랜드하얏트
##기획재정부가
##동화자연마루
##롯데하이마트
##루이지애나주
##성장동력으로
##종근당건강의
##주채권은행인
##쪼그라들었다
##하나금융그룹
##항공운송사업
컨벤션센터에서
##기자간담회에서
##월스트리트저널
##지방자치단체가
##투썸플레이스는
##플래그십스토어
##한국개발연구원
##한국수자원공사
##현대엘리베이터
##리디노미네이션을
##중소벤처기업부가
##한국타이어앤테크놀로
)“
5)
56
97
FA
FD
GF
KL
LE
MS
NA
NY
PD
TI
am
cc
em
fe
io
of
te
us
ve
##c
##곱
##굽
##깃
##꽂
##낫
##눌
##딴
##뛸
##린
##며
##므
##뼈
##섹
##숭
##싫
##싹
##씹
##옌
##젖
##짤
##찢
##케
報國
가르
가요
간이
겁다
게임
겨진
결국
결합
겹살
경질
고령
고정
공구
공식
교환
구청
권도
귀포
규준
그런
금에
기부
기야
길에
꼈다
꼬동
낙연
년차
년형
누신
달을
당시
대박
대인
더멘
더블
동양
됐을
두지
드에
등록
디트
란데
량과
렌토
렬한
로나
로선
률도
리라
마킷
만금
말로
매를
매수
매일
멀티
메시
메탈
문에
물론
물적
박물
버른
법적
베드
벤츠
벽을
변경
변동
변화
보가
보스
보육
부장
블릿
비닐
비도
비로
비전
빨간
사다
사스
산단
산불
산안
새로
생애
선박
성분
세수
소방
쇼크
수다
수박
수용
숙박
스탠
스피
시내
신도
실에
실질
실태
심히
아주
양대
에너
연대
열병
영전
오기
와인
외로
용은
용을
우드
우쯔
원주
웨덴
유연
윤설
으니
음악
이죠
익스
인간
인하
일께
임스
자격
잠재
저는
저브
전북
젊은
정통
정화
제리
제휴
졌던
조절
지점
지진
징어
짜파
창호
책은
챌린
청사
체가
첼백
초기
총수
출력
출자
치인
카는
코르
크림
키트
테라
텍의
토피
통이
투쟁
트러
티나
티노
티스
파고
패스
페어
폐기
표창
풍기
풍이
프란
필렌
하되
해줄
행동
허벌
형태
호섭
효성
후군
히면
(32
2%,
9%,
ADB
ATL
ECC
FCA
FnC
KAI
ess
~26
##98
##AW
##CB
##CI
##ST
##St
##VN
##kg
##‘2
##가늠
##가르
##가야
##간병
##개관
##개당
##개봉
##개시
##객관
##경계
##고발
##고안
##고충
##공고
##공론
##공언
##공인
##공지
##구단
##구할
##굳이
##그것
##그만
##금을
##김지
##김치
##깜짝
##꼽은
##끝날
##낙찰
##날을
##남겨
##낮을
##내주
##넓고
##넘긴
##넘쳐
##네일
##놨다
##누군
##늘면
##늦춰
##단맛
##단열
##달걀
##당연
##대의
##대조
##댓글
##델타
##돌입
##동해
##두뇌
##두지
##둬야
##뒀다
##뒤로
##뒤인
##드립
##들러
##딜러
##때와
##띄는
##리딩
##마루
##만만
##만약
##말도
##맛집
##메가
##메인
##며칠
##명문
##미끄
##미미
##민원
##밀접
##밀폐
##바쁜
##반품
##밝혀
##백채
##번거
##벌써
##벌인
##범죄
##벤츠
##보따
##보습
##복고
##복리
##본인
##봄철
##봉지
##부지
##불량
##불리
##불을
##불합
##붕괴
##비씨
##빈패
##빚을
##빨간
##빨대
##빨아
##사측
##사퇴
##삭제
##상시
##상하
##색깔
##서초
##서현
##선행
##셀프
##소급
##소모
##송파
##수성
##숙련
##술이
##슈즈
##스커
##스쿨
##스톤
##스파
##습관
##승리
##시일
##식기
##신분
##신조
##신항
##심해
##쏘울
##아닐
##아랍
##안건
##야당
##야생
##얇게
##양식
##양호
##언어
##얼음
##여덟
##여의
##연산
##연쇄
##연유
##연필
##열정
##열지
##온돌
##왜곡
##외화
##용품
##우정
##우한
##운임
##워너
##원단
##원래
##원할
##월간
##웰뱅
##웰컴
##위안
##위챗
##유선
##유학
##융자
##응급
##이건
##이겨
##이관
##이호
##인문
##인체
##일감
##일군
##읽고
##자매
##자진
##작다
##잔뜩
##잡화
##잡힌
##재단
##재현
##적기
##적재
##전속
##전송
##전업
##전지
##점심
##정권
##정작
##정제
##정지
##제동
##제소
##조심
##종로
##주부
##주얼
##줄을
##중시
##지갑
##지문
##지을
##직결
##진해
##집권
##짓는
##차남
##차종
##책상
##체류
##체제
##체질
##총선
##최병
##추격
##출금
##출품
##출혈
##충성
##취미
##켤레
##태광
##터보
##터져
##텐데
##통증
##트렁
##트윈
##특급
##특약
##파손
##파우
##판다
##판을
##패드
##팬츠
##플랜
##한남
##한쪽
##해온
##해운
##혹은
##화요
##화훼
##환급
##환자
##효도
##힘이
가격을
가정의
건에서
경사노
경영상
경영에
계층에
공단은
공항에
권으로
그룹을
금융지
기구인
기술과
기에서
까지만
내리는
내추럴
년여간
니꼬동
달러에
대금을
되는데
된다고
들까지
들이는
디스크
디아라
디오는
라웨어
레이저
리더십
리즈번
마지막
맞춤형
맥주는
메이징
문화에
물었다
물이다
미래당
받으면
발전의
배가량
보험은
보험을
본부를
부회장
비용을
비율을
사업과
사업도
사이클
사회의
산업용
상에서
석으로
센터와
소득을
수출입
스턴트
스토리
스트림
스트에
스티지
시스의
시키지
아세안
알로에
어나고
억원과
업계와
업체다
업체로
에이징
영국의
오설록
올해로
위기간
위임금
이거나
이달의
이들이
일하는
입출금
자니아
자리를
장비를
장수돌
전략을
제품은
조직을
종량세
종합상
지도록
지펀드
진다는
진제약
청소년
촨현대
카드의
카메라
타당성
팀장은
페이퍼
폐업을
프로젝
플랜트
하느라
할리스
항공기
해서다
해하는
했는지
했으면
허문찬
혁신을
협력사
협회의
화수소
화하면
"...
(-11
,550
2020
30%)
9800
GBCI
IATA
OPEC
TMMR
~100
~200
~500
##103
##11%
##162
##211
##310
##365
##38%
##3~5
##44%
##450
##74%
##750
##CSP
##DTD
##FTA
##ICT
##PLP
##TCR
##가구는
##가입이
##가정을
##가져갈
##각자의
##간단히
##간판을
##감동을
##강남구
##강의를
##강하다
##강화와
##개성을
##개정이
##건강에
##건수가
##격차를
##결과로
##경영상
##경영이
##경향이
##경험과
##경험한
##계열의
##고기를
##고비용
##고용을
##골자다
##공기가
##공략할
##공로를
##공연을
##공정한
##공통된
##과정의
##관련이
##관리해
##관심은
##광고제
##구입해
##구조적
##국가는
##국내선
##국채를
##규모도
##규모에
##그들의
##그랬다
##근거로
##기관에
##기능은
##기다려
##기대에
##기록해
##기술의
##김수현
##나서기
##나중에
##납세자
##낮추는
##내리고
##내주는
##냄새를
##넓히고
##넘기는
##논의할
##농심은
##농심의
##높으면
##눈으로
##능력이
##니즈에
##단시간
##단점을
##달성을
##달성한
##달았다
##담겼다
##대신해
##덩달아
##도매상
##도약할
##도전을
##되느냐
##됩니다
##두려워
##드라마
##들였다
##등록된
##뚜렷한
##레미콘
##레이스
##렌터카
##로고를
##로이즈
##루비콘
##막걸리
##많았고
##말리부
##망인이
##매물이
##멜버른
##모듈을
##모르는
##모양을
##몰리고
##무거운
##무게가
##무리한
##무이자
##문래동
##뮤지컬
##므누신
##미지수
##박보검
##반토막
##반하다
##받도록
##발전소
##방송을
##방향에
##벌이는
##법인차
##베이지
##변경을
##변수가
##변화와
##보장을
##보호에
##복구와
##부과를
##부대표
##부품사
##분기별
##분석과
##분야다
##분야별
##불평등
##비결은
##비영리
##빨라질
##사들여
##사이의
##산업은
##살리는
##살아남
##생활에
##생활을
##선물로
##선심성
##선택이
##선택한
##섬세한
##성과도
##성과에
##성금을
##성윤모
##성적표
##세대의
##세상에
##세우고
##소공인
##소득은
##소비를
##소식을
##소통의
##수요도
##수요에
##수입은
##수출에
##스포티
##승낙을
##시각이
##시멘트
##시점은
##신광은
##실험을
##심사가
##아울렛
##아이가
##아이를
##아이오
##악화될
##안전에
##안전자
##안정적
##알파인
##애자일
##앱으로
##양산에
##양측은
##어디에
##언급한
##업무용
##업종을
##업종의
##업체와
##없애는
##엔진을
##여론이
##여행객
##영국의
##영예를
##영향도
##오디오
##오세아
##외국계
##요구안
##요소가
##요청할
##우즈베
##웃돈다
##원칙을
##위기가
##위니아
##위원회
##유니온
##유럽의
##유리한
##유아용
##유지해
##유치원
##은행은
##음료가
##음료로
##음식점
##의료비
##의약품
##이낙연
##이동걸
##이렇다
##이번엔
##이하의
##인기는
##인기에
##인덕션
##인사를
##인상률
##인원을
##인증한
##인텔의
##일본에
##일본은
##일으킨
##일회성
##임금은
##임기는
##입사해
##자금은
##자본을
##잔액은
##잠정치
##장관을
##장착된
##재검토
##재킷은
##재해석
##적당한
##적립금
##적절한
##전년도
##전분기
##전시관
##전제로
##전환한
##접목해
##정년이
##정도에
##정보가
##제기한
##제동을
##제치고
##조리할
##조명용
##조사는
##조성한
##조속한
##조언을
##조작이
##조항이
##좀처럼
##좋겠다
##주문자
##주요국
##중금리
##중단을
##중대한
##중소형
##중에는
##증가를
##지급한
##지성규
##지적을
##지정을
##지표다
##직원들
##진행된
##짓는다
##차이는
##참석할
##참치를
##창립한
##천지양
##체험형
##초미세
##총력을
##총수가
##최대를
##최대의
##추경을
##추천해
##추첨을
##출발해
##출퇴근
##취업자
##침체에
##커진다
##커피다
##크기가
##크로스
##크리스
##태블릿
##텀블러
##테크핀
##토론회
##통합해
##투입된
##판결이
##판단을
##편의성
##평가도
##표면에
##푸르밀
##품목이
##피해복
##하루에
##한국농
##한도는
##한마음
##함께한
##합의에
##항목에
##항산화
##해석이
##핵심인
##행정부
##향미를
##헤비츠
##현황과
##협상은
##홍장표
##화려한
##화장지
##확보해
##확산될
##확실한
##확장을
##확장해
##활동의
##회사측
##회원사
##후발주
##후에는
##후진국
##휴대용
##흐름에
##힘들어
개월간의
공간으로
구조조정
국민은행
금감원은
넥티드카
대우조선
대표이사
둘레바람
렸습니다
리테일은
만달러에
만달러의
만원대다
바리퍼블
소득분배
소비자가
소비자의
아카데미
았습니다
억달러의
억원대로
업체들도
에서부터
오플레이
우리나라
위원회와
유통공사
점에서는
조달청은
중견기업
지금까지
챔피언십
칠성음료
커피협회
코리아의
큘레이터
테크니컬
통상임금
투자자가
프라이즈
플러스는
(2018
Brand
##1450
##1974
##2600
##291%
##CATL
##가뜩이나
##가맹점에
##가스안전
##가전제품
##감소폭이
##강점이다
##강화한다
##개발하기
##개편했다
##거래됐다
##거론된다
##거점으로
##걱정하는
##건설기계
##검토하는
##검토하지
##게보린은
##경기침체
##경영진의
##경증치매
##계산이다
##계속되고
##계약학과
##고객과의
##곳곳에서
##공정경제
##관광객이
##관련해선
##교보생명
##국세청의
##국정운영
##국제무역
##국제항공
##그런데도
##그렇다면
##근로자를
##금융기관
##금융통화
##기록하는
##기부했다
##기아차의
##기업에는
##기업에서
##기저효과
##기점으로
##기존보다
##기탁했다
##까사미아
##나서기로
##나타나는
##내용으로
##논의하는
##단위기간
##대출금리
##대회에서
##데이터가
##돌파구를
##동일인을
##동일하게
##들어오는
##떠오르고
##떨어진다
##런던에서
##레시피를
##렌털료는
##마사지볼
##만들어야
##만들어진
##만족도가
##많아졌다
##말했다김
##면세점은
##명예교수
##모델보다
##모범규준
##무리하게
##무상으로
##문제점을
##미국으로
##미세공정
##밀레니얼
##반박했다
##발굴하는
##방산업체
##법무법인
##보도했다
##보호하기
##복지단체
##부담이다
##부드럽게
##부작용이
##불편함을
##브리즈번
##블라우스
##블룸버그
##비상장사
##사무공간
##사업에도
##사업주가
##산업으로
##삼각김밥
##상징하는
##새벽배송
##샌드위치
##생각하고
##생산하기
##서울지방
##선임했다
##선정하는
##설치하는
##성장으로
##소믈리에
##소외계층
##수입맥주
##수준까지
##수출계약
##수출기업
##순이익이
##스타일러
##스트레스
##슬로건을
##시스템과
##시행령에
##실업률은
##아날로그
##아우르는
##악영향을
##안성탕면
##안전사고
##안전하고
##안정자금
##야외수영
##어우러진
##엄격하게
##에어버스
##엑스레이
##연구기관
##영업점을
##예방하기
##오염도를
##오염물질
##완화하고
##왔습니다
##외부에서
##유관기관
##유럽에서
##의존도가
##이들에게
##이란으로
##이벤트는
##이상이다
##이어오고
##이해하고
##인정받은
##있습니까
##자금조달
##자본시장
##자신만의
##자율성을
##장점으로
##재정건전
##저렴하게
##전기전자
##전망치는
##전문가는
##전문가인
##전세자금
##전시했다
##전환하고
##정년퇴직
##정상화에
##제기되고
##제외된다
##제품들을
##조성하기
##조정하는
##주머니가
##주목받는
##주문하는
##주장한다
##준공식에
##지급하고
##지분율은
##지분율이
##지주사인
##직원에게
##진단이다
##진행되고
##집중해야
##집진필터
##집행위원
##참석하는
##창업자를
##창출에도
##창출하는
##찾아다니
##책정했다
##청소년을
##추가됐다
##추구한다
##출신으로
##충전으로
##취업자는
##토로했다
##투입하고
##투자한다
##트렌드로
##특급호텔
##파악하고
##편의점이
##평가하는
##포스코가
##포스트잇
##포인트로
##포퓰리즘
##포함하면
##프로야구
##플랫폼인
##플러그인
##하이네켄
##한경연은
##한국보다
##합성목재
##현대리바
##홀로그램
##홍보하는
##확대됐다
##환경노동
##환경부는
##활용하기
##힘들다는
게티이미지
니꼬동제련
디아라비아
뱅크샐러드
브랜드경영
인플레이션
전문대학원
프란시스코
했다하지만
##Value
##가능하다는
##가스공사는
##갑작스러운
##강화하기로
##관계자들의
##국민은행은
##근로자에게
##금융시장에
##금호산업이
##급성장하고
##기관투자가
##기념촬영을
##기본적으로
##까스텔바작
##끌어올렸다
##내용이었다
##대통령에게
##대한민국의
##대한항공과
##대한항공에
##두드러졌다
##두산중공업
##때문입니다
##떨어진다는
##롯데마트는
##무엇입니까
##바람직하다
##반영됐다는
##베트남에서
##불과하다는
##브랜드들이
##사각지대에
##사람들에게
##사무실에서
##사업장에서
##산업혁명의
##상생협력을
##성장동력을
##수소전기차
##시스템이다
##신라면세점
##신한금융의
##신한은행이
##아르바이트
##아시아신탁
##아이들에게
##아이디어로
##아주캐피탈
##연구개발을
##예비타당성
##예정이라고
##오세아니아
##온라인으로
##운영하기로
##위해서였다
##이례적이다
##이어지면서
##일방적으로
##장기적으로
##전시회에서
##제공하기로
##제외하고는
##종신보험은
##종합소득세
##종합적으로
##중요하다고
##지속가능한
##직무급제를
##진행한다고
##최저임금법
##최저임금은
##추천해주는
##측면에서도
##캘리포니아
##텔루라이드
##투입하기로
##투자자들이
##평가받는다
##폐플라스틱
##포스코건설
##프로그램에
##프로젝트다
##필수적이다
##하드디스크
##하소연했다
##한국레미콘
##한국장애인
##한진그룹은
##현대종합상
경제연구원은
경제자문회의
디스플레이의
바리퍼블리카
시장진흥공단
에어프라이어
크라우드펀딩
현대렌탈케어
##고용노동부가
##내일채움공제
##당기순이익은
##롯데백화점은
##사회간접자본
##사회공헌활동
##세계무역기구
##스타벅스커피
##액셀러레이터
##여신금융협회
##영업이익률은
##온라인쇼핑몰
##우즈베키스탄
##장수돌침대는
##전국재해구호
##청년구직활동
##카카오프렌즈
##캠브릿지사첼
##컬래버레이션
##현대글로비스
##현대중공업과
##현대중공업의
게티이미지뱅크
아시아나항공의
지역난방공사가
##글로벌혁신성장
##마이크로소프트
##사우디아라비아
##소득주도성장을
##소득주도성장의
##파라다이스시티
##한국타이어월드
##현대경제연구원
##현대삼호중공업
##현대중공업지주
수산식품유통공사
##소득주도성장특별
##앵커에쿼티파트너
##정부세종청사에서
##중소벤처기업부는
##중소벤처기업부와
공업협동조합연합회
##플러그인하이브리드
##소상공인시장진흥공단
0’
1·
48
75
94
CO
CU
DR
EG
GW
HI
KI
KR
MD
NC
RE
RO
RV
TC
ey
he
un
up
~0
##m
##w
##▲
##굉
##꿀
##끄
##낯
##딘
##뛴
##란
##랜
##롱
##뭘
##밴
##붉
##뿜
##삽
##샀
##샴
##쇠
##쏙
##씻
##엉
##으
##쟁
##찻
##촘
##콩
##퀴
##톤
##픽
##흩
輸送
가며
간병
감시
감지
값에
개성
개씩
격에
격호
경남
고급
고등
골든
구동
구성
구정
굿잡
그러
그림
기록
까진
네르
네요
노무
노아
노펙
뇨라
는가
니발
니에
다섯
담은
담을
대비
데시
돈이
되던
될지
드레
드슨
디비
디에
라또
라리
라비
라상
란지
래를
램과
려다
렸기
렸던
례가
로켓
로텍
루엣
루즈
룹슨
류도
류에
르세
리랑
리엄
리조
리칸
릴리
링을
마늘
망이
매트
먼저
명령
모키
민트
밀도
밀히
바브
바우
받기
방과
배치
뱅앤
벼랑
보레
보며
보좌
복수
본격
부과
분에
비에
빔밥
사히
상무
서로
선도
설린
설이
성공
성의
성향
세율
소개
속도
송이
수리
수신
수십
수준
숙한
스텀
슬아
시오
시청
시카
신뢰
신저
실과
실제
심이
싱글
씨와
아름
아모
아임
아한
안의
았기
앞에
액션
앤머
얼셀
엄마
업도
에겐
에미
에버
엔은
열을
영국
영수
영을
예방
예정
오갑
오던
오리
옵션
요거
욕을
용지
운반
워커
워킹
월말
유와
유지
의류
이게
이궁
이재
인텔
일으
임대
재다
재배
정산
정원
제작
주관
주물
중이
중한
중훈
쥬쥬
즈는
지식
지알
집행
짜로
차게
창수
처의
청기
체다
초과
촉진
최대
추는
취급
취를
층과
치며
칙에
친화
카르
카지
컬처
켈리
코모
코트
퀘어
크릿
킹통
타운
터에
토크
투웨
특정
특화
팀이
팅을
파를
팬츠
폭은
표시
표지
푸본
푸집
프터
피를
하길
하시
하트
학계
학회
한솔
함의
항을
해고
해를
해피
행장
헬기
현금
현수
현행
호주
황금
힘을
(-3
(35
(39
(55
ACC
DDP
JAM
LSI
PVC
ity
ust
~11
~60
##3,
##88
##94
##IP
##In
##LF
##MG
##MS
##PG
##SC
##in
##가서
##가질
##각계
##간과
##간의
##감자
##걸려
##걸릴
##검역
##것인
##겪어
##겪을
##경비
##경신
##경진
##고창
##골든
##공대
##공로
##공세
##과로
##과태
##관해
##교원
##교촌
##구석
##구속
##국세
##국한
##굴착
##권리
##규격
##그날
##그램
##근원
##근육
##근절
##금방
##급변
##기용
##길러
##김교
##나눌
##나지
##낮췄
##낳고
##내건
##내실
##내정
##넘은
##넣을
##네팔
##년째
##노원
##녹색
##녹차
##논현
##높기
##놓여
##놓은
##다낭
##단가
##닫는
##닫을
##달고
##담배
##당진
##당혹
##대는
##대당
##대면
##도울
##도태
##독과
##동급
##동료
##듀얼
##드레
##등산
##때의
##로고
##마땅
##마인
##막혀
##만두
##많기
##맛에
##맡는
##매콤
##맥킨
##머무
##먹기
##명분
##모던
##모토
##몽골
##무신
##무해
##문구
##문성
##미달
##미드
##미연
##민영
##민첩
##믿을
##바퀴
##박승
##박태
##발암
##밟고
##방범
##방북
##백금
##백지
##버거
##벌일
##법원
##변수
##보람
##보류
##보름
##본질
##봄을
##봉쇄
##봉제
##부를
##부장
##부쩍
##분당
##불릴
##브러
##브렌
##비서
##비수
##빼가
##빼앗
##사법
##사원
##상부
##상주
##색을
##생물
##생애
##샤오
##서서
##석사
##선불
##설탕
##성실
##센트
##셰프
##소니
##소용
##소품
##소화
##송출
##쇼크
##수은
##숙명
##스캔
##스케
##스핀
##시들
##시한
##신진
##싣고
##실버
##실습
##실어
##쌀을
##쌓여
##쏟고
##쓴다
##아는
##아빠
##아파
##안고
##알릴
##압력
##애도
##야기
##약화
##양념
##양조
##어른
##어민
##얻어
##없게
##역삼
##연일
##연체
##열릴
##영문
##예민
##오늘
##옥션
##온천
##올렸
##외형
##우드
##원금
##원내
##원쇼
##원적
##원정
##위크
##유산
##유인
##유형
##응용
##의성
##이정
##이젠
##이케
##인위
##인플
##일도
##일러
##일찍
##일컫
##읽어
##임기
##입국
##입금
##입원
##잘라
##재기
##재발
##재선
##재판
##저울
##전사
##전염
##전제
##절박
##접할
##정관
##정규
##종종
##주어
##주역
##주종
##주효
##중대
##지고
##지붕
##지탱
##지프
##직불
##진지
##집약
##차는
##차에
##창이
##채소
##챙겨
##챙기
##철도
##체내
##촉발
##촘촘
##충원
##치러
##치즈
##친근
##침실
##카고
##캠프
##코딩
##크로
##클릭
##타일
##타협
##템퍼
##통닭
##퇴진
##투싼
##튀는
##튼튼
##팀을
##파산
##팔마
##패소
##펜디
##평상
##표방
##풍경
##풍요
##핀크
##하던
##한라
##한빛
##항균
##해명
##해썹
##해제
##햇반
##협정
##협회
##형평
##호반
##혼잡
##화상
##확립
##환원
##활약
##황금
##효능
##효자
##후배
##휩쓸
개사가
개사의
개였다
겼다는
경영계
경영의
경제부
계에서
공장과
공항공
관념을
관리에
광역시
국내외
그렇게
그룹형
글리콜
금융사
기간을
기간이
나이스
네이버
년마다
년보다
농식품
다음달
다이날
단지를
단체인
달라는
대부분
대주주
대출을
더멘털
더불어
돼서다
됐으며
라인을
렉트릭
로스팅
로움을
리테일
릴레이
마켓컬
만원은
면으로
모터쇼
물가지
미국이
바브웨
박근혜
받아야
발전을
뱅앤올
법원은
법인인
보다도
비디아
사와의
산물을
산안법
상속세
서에서
세에서
수도권
수익률
스위스
스톤은
슬레저
시설과
시설이
심에서
심으로
씽크빅
아이는
억위안
업계를
업체도
었으나
엠트론
여명의
여전히
오가닉
오쇼핑
올리브
와이드
우버는
우호적
웅진코
원전을
유니콘
으로선
이유식
이익을
이익이
일수록
임했다
자동화
자외선
작년에
재단과
정보를
조세탁
조원대
주차장
지먼트
지역의
지원을
지출을
집에서
챌린지
처에서
축통화
충전소
치면서
캡스는
케이크
코드를
크래커
큰치킨
테스트
텍사스
툭하면
티비티
파업에
파업을
패키지
푸드가
퓨얼셀
프랑스
플라워
해보자
해진다
행사를
홀딩스
홀에서
홈씨씨
화관법
화이트
(250
...'
13%)
ACCP
PASS
##06%
##07%
##112
##115
##172
##235
##42%
##4~6
##52%
##56%
##57%
##720
##78%
##7~8
##83%
##850
##876
##96%
##APR
##BBQ
##COO
##DGB
##KBS
##Key
##OCI
##RBC
##UHC
##가격과
##가구를
##가구에
##가로수
##가업을
##가죽을
##간편한
##감소와
##감안한
##강세를
##강조해
##같지만
##갚아야
##개국에
##개발이
##개방형
##개선할
##거리가
##건물에
##건조기
##걸리는
##걸맞게
##검증을
##것이냐
##것인가
##결정된
##경사노
##경영수
##경영학
##경쟁은
##경찰학
##계약의
##고객사
##고르는
##고삐를
##고소득
##고용이
##고인의
##골판지
##공문을
##공유할
##공항동
##과거와
##과정도
##과제다
##구매해
##구입할
##구축에
##구축할
##국가로
##국가별
##권한을
##규정이
##규제로
##그들이
##그란데
##금값은
##금액의
##기관의
##기구인
##기능에
##기반이
##기술인
##기승을
##기자회
##기재된
##김동연
##김상조
##꽃무늬
##꾀하고
##끌어내
##끌어모
##나란히
##나서야
##나이스
##낚시를
##낮에는
##내걸고
##내년도
##내놓자
##내부의
##내역을
##내용은
##넘치는
##노력은
##노력할
##노조를
##논의에
##높아져
##높아질
##높여야
##누르면
##누진제
##닛산은
##다녔다
##다수의
##단가가
##달러화
##대법원
##대비할
##대상의
##대열에
##대표도
##대학교
##대학을
##도달한
##도요타
##돈으로
##돌렸다
##돌아설
##돌침대
##동생인
##되돌아
##된다면
##두산은
##둔화로
##둔화에
##뒷걸음
##든든한
##들어설
##들어왔
##등록한
##등에게
##때였다
##라인은
##레쓰비
##리조트
##마시멜
##맞이한
##맞추고
##맞추는
##맞췄다
##매각한
##머리를
##메신저
##모델과
##모델의
##모였다
##모이는
##모호한
##목소리
##몸집을
##못했던
##무엇이
##문구를
##물어야
##물품을
##뮤직비
##미과즙
##미루고
##미세한
##밀가루
##밑으로
##바꾸지
##바뀐다
##바비큐
##바이러
##박수를
##박았다
##반려견
##받기도
##발왕산
##방문을
##방향은
##배분을
##배출을
##벌인다
##범위가
##변경은
##변하는
##보험에
##본사로
##부동의
##부스를
##부족할
##부진의
##불투명
##비용과
##비효율
##빠르다
##사라질
##사랑의
##사이클
##사진은
##산업이
##삼겹살
##삼성의
##상승률
##상승이
##상태에
##상황도
##색상의
##생각에
##생기면
##생산기
##생수를
##선두를
##선발해
##선점을
##설계한
##설치돼
##설치를
##세대를
##소리를
##소비는
##소아암
##소재인
##속도는
##송호섭
##수강생
##수당을
##수소를
##수익이
##스미스
##스웨덴
##스탠더
##스파크
##슬라이
##승무원
##승용차
##시간은
##시중에
##시험을
##식사를
##신뢰와
##신차를
##신촌세
##신호를
##신흥국
##실루엣
##실패를
##쏟아붓
##아니면
##아들인
##아르헨
##아세아
##아이더
##아이의
##안건을
##안았다
##안정성
##안팎인
##않겠다
##알아야
##압구정
##압도적
##압력을
##약속한
##양성을
##업무가
##없이는
##없이도
##에스와
##에이치
##엔진이
##여부는
##여성이
##여행사
##역사상
##연료비
##연장을
##염두에
##영감을
##예상을
##오더는
##오래전
##오징어
##올린다
##올림픽
##올여름
##와인과
##와인이
##완벽한
##요건이
##요리를
##요인은
##요즘은
##용도로
##우려한
##우버가
##움직일
##원단을
##원활한
##월급을
##위기의
##위원은
##유니버
##유럽에
##유입을
##유전자
##유지를
##유치해
##육성에
##은행과
##의결을
##의무가
##이노션
##이란의
##이론적
##이루고
##이름이
##이명박
##이병철
##이슈가
##이외에
##이유에
##이재갑
##이재현
##인력의
##인상은
##인원은
##입맛에
##입소문
##있느냐
##있다며
##있다에
##자금난
##자발적
##자원을
##자유롭
##작성해
##작품을
##장관의
##장례를
##재료로
##저성장
##저출산
##적용을
##전국의
##전략의
##전망에
##전체에
##전통적
##절반에
##접수한
##정년을
##정보와
##정신을
##정원을
##정책적
##정치적
##제공한
##제도의
##조금씩
##조달한
##조성할
##조중훈
##조치가
##종업원
##주가는
##주목할
##주제를
##주주가
##중국어
##중대형
##중앙회
##증가와
##증진을
##지금과
##지나면
##지수를
##지식을
##지원한
##지정해
##지켰다
##지키지
##진입을
##진출할
##진통제
##집중해
##찍었다
##차량에
##차량은
##차지할
##착안해
##창고형
##창업해
##천연물
##첫선을
##청장은
##체제로
##초경질
##촉진을
##총재가
##최상급
##최소한
##추가할
##추억을
##추진을
##추출물
##추출한
##출시돼
##출연금
##출장을
##취약한
##카시트
##커스텀
##커지자
##컬러와
##케이크
##퀄컴과
##타격이
##통계에
##통보를
##통한다
##투자유
##투자의
##파악할
##파우더
##판교점
##판단할
##판매는
##판매해
##팔린다
##패밀리
##페로텍
##폐기물
##포용적
##표했다
##풀었다
##품목의
##품질은
##퓨처북
##플랜트
##피아트
##필수다
##하나를
##하나씩
##하락할
##하버드
##하이퐁
##한국전
##한부모
##할인을
##할인점
##함량을
##합하면
##해결할
##해소를
##행사와
##행사장
##향상과
##혁신의
##혁신형
##현상은
##현지의
##협상에
##협업한
##협의를
##확률이
##확보가
##확산에
##활기를
##활발히
##회전형
##효과는
##효도잔
##후원한
##흔들림
##흘러나
輸送報國
개성공단
갤러리아
경사노위
공항공사
기술육성
기업가치
기후환경
노브랜드
대한통운
동서발전
로그앤머
르세데스
면세점은
문화재단
법인으로
본부장은
분기에는
사모펀드
사회공헌
산업부는
산업에서
산화물을
상생협력
상여금을
생명보험
스킨라빈
시스템과
시장에선
시장으로
안전관리
앞으로도
어메이징
억원어치
언스파크
업종별로
에미리트
엘라코닉
연구개발
연구원장
예산정책
운송협회
이지투웨
인간공학
인공지능
자일리톨
장려금은
저장장치
정보기술
젠테이션
중앙회장
지역으로
짜파게티
최근에는
컨티넨탈
플레이스
하우시스
한국에서
현장에서
홈앤쇼핑
화하면서
환경부는
회계법인
회장님은
##-03%
##115%
##1919
##1983
##1993
##2100
##2200
##25%,
##4500
##6500
##가계부채
##가능하며
##가맹계약
##가업승계
##감각적인
##감소세로
##강화해야
##개선했다
##개정안은
##개정안이
##개최하고
##개최한다
##객관적인
##결정체계
##결제하면
##경영개선
##경쟁력은
##계열사별
##고기능성
##고려하는
##고용창출
##공간으로
##공감대를
##공개하고
##공개하는
##공급하며
##공략했다
##공무원이
##관계자도
##교육기관
##구매하고
##구입하는
##구현했다
##국민소득
##국세청이
##금융거래
##금융사가
##기가지니
##기능으로
##기술이다
##기술창업
##기술평가
##기술혁신
##기업금융
##기업문화
##기여하는
##기여했다
##기울이고
##기획했다
##깨끗하고
##끊임없는
##나서겠다
##나섰지만
##나타난다
##낮아지고
##내놓았다
##내부거래
##내비쳤다
##넘어서는
##높아진다
##다양하고
##다음으로
##단계에서
##단독가구
##단독으로
##달한다는
##대구은행
##대기업과
##대기업에
##대중화를
##대출받을
##대통령과
##대표들과
##델타항공
##도급승인
##도시에서
##도입된다
##도입으로
##도입한다
##도전장을
##독보적인
##독자적인
##돌아섰다
##동떨어진
##동일인이
##들어선다
##등에서도
##떠올랐다
##롯데리아
##리모델링
##리튬이온
##마감했다
##마련하는
##많았지만
##말했다조
##매장에선
##매장으로
##모르겠다
##몰리면서
##못지않게
##문화예술
##미지급금
##민간기업
##밀레니엄
##바이네르
##반대하고
##반도체에
##반발하는
##반영됐다
##반영한다
##발생한다
##발언하고
##방지하기
##번개장터
##벌어진다
##변동성이
##보내준다
##보험사는
##보험설계
##보험자의
##본관에서
##본회의를
##부가가치
##부모님께
##부족하다
##부총리의
##부회장과
##분기별로
##분기보다
##분류된다
##분석하고
##분석하는
##불가피한
##불가피할
##불과했던
##불러일으
##블렌딩해
##빌려주는
##사람들을
##사무실을
##사업구조
##사업장에
##삼성페이
##상인들의
##상품기획
##생산업체
##서울시가
##선임됐다
##선정하고
##설계했다
##성공적인
##성과연봉
##세금으로
##세미나를
##소개하는
##쇼핑몰을
##쇼핑몰인
##수단으로
##수수료가
##시나리오
##시달리는
##시리즈는
##시민단체
##시스템인
##시작되는
##식재료를
##신라호텔
##신뢰도를
##신산업을
##신청서를
##신청자가
##쏟아냈다
##쓰촨현대
##아니었다
##아카데미
##않겠다고
##애완동물
##어려움에
##어려워질
##에어부산
##에틸렌을
##연구하고
##연구하는
##연기했다
##연세유업
##연속으로
##오랫동안
##완성했다
##우수조달
##운영하며
##운영했다
##움직임에
##원화계좌
##위메프는
##위원장과
##유아용품
##유지했다
##은행에서
##의존하는
##이르렀다
##이번에는
##이비테크
##이상이면
##이야기가
##이용자가
##인상률은
##인상률을
##인상률이
##인상했다
##인재들이
##인정하고
##인정하는
##인지도를
##일등석을
##일정으로
##임직원의
##입장이다
##입증했다
##있다동원
##있다또한
##있다신한
##있다이런
##자구안을
##자기소개
##자동화를
##자원순환
##자유로운
##잠재력이
##장기적인
##저렴하다
##적극행정
##적금상품
##적립금을
##전기추진
##전날보다
##전담하는
##전원합의
##전환사채
##점유율로
##정부조달
##정체성을
##정치권과
##제거하는
##제공된다
##제시한다
##제외하면
##제일기획
##제품들이
##조달청이
##조직으로
##조직이다
##졸업하고
##주무부처
##준공식을
##중위임금
##즐거움을
##증가폭이
##지시했다
##지역경제
##지원금이
##지정하고
##지정학적
##직접적인
##진입했다
##집중하는
##착용감이
##참석한다
##창업주인
##채택했다
##책임지는
##천연가죽
##청와대가
##청호나이
##초과하는
##초등학교
##초등학생
##최고재무
##최소화할
##추산된다
##추정하고
##추진했다
##출시하는
##취급하는
##콘셉트카
##탈취필터
##태림포장
##티토니의
##판단하고
##패키지는
##패키지에
##팹리스의
##평가에서
##평가하고
##평균급여
##평균임금
##포화상태
##표현했다
##프로모션
##프리필터
##피해액이
##필요하면
##하락세를
##한국여성
##한국표준
##한국항공
##한자리에
##한화그룹
##항공산업
##해결하는
##행복하게
##현대그린
##현대해상
##홍보했다
##화웨이는
##확인됐다
##확인하는
##확인해야
##확장하고
##활동하는
##활발하게
##활용한다
##획기적인
##효율성이
##효율적인
##후원하고
##희망하는
금융그룹의
금융그룹이
기술연구소
기업가정신
롯데케미칼
문화재단은
뱅앤올룹슨
부동산신탁
브란스병원
스마트공장
인베스트먼
저축은행이
주도성장은
투썸플레이
하셨습니다
하우시스의
한화그룹은
##Brand
##“2030
##가능해진다
##갑작스럽게
##경쟁력으로
##경쟁적으로
##경제정책을
##계획이라고
##구조조정은
##국민은행장
##근로시간이
##금융회사의
##대조적이다
##독자적으로
##동반성장을
##동일인으로
##롯데그룹이
##마이너스로
##만들겠다는
##만들어내는
##말했다그는
##명예회장은
##모모스커피
##모바일뱅킹
##무역전쟁에
##반도체업계
##발표하면서
##부가서비스
##사은품으로
##사회안전망
##산업연구원
##선제적으로
##설명했다이
##설문조사한
##성공했다고
##성장하면서
##셰일가스를
##스마트폰에
##시작했다고
##신선식품을
##신용카드를
##신한금융은
##실내공기를
##에탄크래커
##여행상품을
##영업이익률
##우리금융은
##운영한다고
##위해서라도
##유로모니터
##유통기한이
##의무적으로
##이례적으로
##인터브랜드
##임시주주총
##전기요금은
##전문인력을
##제주항공은
##종합부동산
##주목받았다
##중요하다는
##증가하면서
##지난해에도
##지배적이다
##청호나이스
##최우선으로
##케이뱅크의
##투자금액은
##패션그룹형
##푸드케어는
##플랫폼으로
##한진그룹의
##할인해준다
##해외에서도
##행사장에서
##혁신성장에
##협력사와의
##홈페이지를
##획기적으로
기아자동차가
디자인플라자
이지투웨니스
장수돌침대는
테크니컬센터
##10~20%
##가상화폐거래
##고용노동부는
##공기청정기는
##공기청정기와
##공기청정기의
##금융감독원에
##금융감독원이
##기아자동차의
##대기오염물질
##더마코스메틱
##데크플레이트
##롯데백화점이
##베이징현대의
##보험계약자가
##샌프란시스코
##소상공인에게
##아랍에미리트
##애큐온캐피탈
##에틸렌글리콜
##유가증권시장
##이스타항공은
##코오롱스포츠
##투자했습니다
##파리바게뜨는
##한국야쿠르트
##현대자동차와
로보어드바이저
중소기업중앙회
##법학전문대학원
##비바리퍼블리카
##서울지방국세청
##신세계백화점은
##중소벤처기업을
##최저임금위원회
##한국경제신문은
##한국수력원자력
##한국자동차산업
##현대중공업으로
##산업통상자원부는
##코오롱인더스트리
##동대문디자인플라자
##사회복지공동모금회에
##중소벤처기업진흥공단은
!’
-1
2’
81
BU
CE
DM
FS
HR
IG
II
IM
PT
RI
VO
Wh
XP
ad
gy
ib
ip
ir
·3
·4
’”
##:
##l
##▷
##갓
##괴
##굿
##꼴
##꽉
##낭
##넷
##닐
##띈
##띠
##랍
##랩
##맑
##빔
##탕
##펩
##펭
##흙
##흠
가리
가인
각각
간식
갈비
감사
강원
개년
개별
개와
개점
갤러
건물
건조
겔은
경찰
경험
고루
공서
공시
공영
공인
관도
관춘
관행
괄도
광석
교실
구역
구체
권에
규정
균관
기아
기홍
김치
께서
꾸로
나기
나면
나비
남도
남호
납입
내부
냄새
네넴
년물
노소
노후
누스
뉴욕
닐라
다리
닥친
당이
당장
대고
대림
대복
대폰
덴셜
도나
도서
동과
동일
되게
두로
두주
디다
뛰드
라톤
랑이
래브
량한
러블
런트
레탄
로라
로워
루가
루를
루언
른김
리얼
리퐁
링턴
마리
만삭
매도
매매
매우
메디
면접
명당
모카
목적
무풍
미안
미역
미터
바의
바퀴
박람
반박
반짝
발표
배가
배기
배나
범한
법정
베르
베스
벽이
병을
보조
보지
본다
부자
부정
부하
분리
뷰를
브라
비싼
비준
산지
상업
생제
생태
서점
선다
선제
선진
설턴
성수
세스
세인
세전
셰일
소년
소문
소자
속에
손실
수한
스포
슬레
승재
시대
시머
시중
시행
신라
신발
실대
실무
실사
실험
쓸이
아빠
아침
안경
안주
야지
양과
어떤
어린
어치
억여
언젠
에로
엔터
여당
여력
여신
여야
여운
연령
연율
영양
영향
오이
오카
오프
오픈
외식
욕실
우기
원가
원더
월물
월이
위비
유리
유에
유증
유진
유해
으려
이로
이윤
인구
인생
인정
일감
일회
임시
잎을
자구
자나
장히
재생
전남
전년
전달
전무
전선
전인
점도
정우
제과
제이
젤리
조림
조회
주면
주방
주영
주지
주체
주한
주휴
즈니
증현
지던
지엄
지침
직업
진해
차관
창고
채용
천리
철도
청구
청장
청춘
체로
초에
카스
카와
캐너
커녕
컵을
코노
코인
코튼
크레
키는
킬러
태수
테일
텔라
통닭
트럭
트에
트유
트의
틀을
티아
티앤
팀장
파가
파격
패를
편을
폐합
포터
품은
풍력
플독
하니
하루
하성
항이
해튼
헌재
협업
협에
호봉
홍보
환율
환자
회담
회도
후보
휴업
흡수
히지
힐튼
(-8
(13
(36
(45
(49
(76
2%(
386
47%
BTS
CFO
CLI
EUV
FDI
FSC
KDB
KPM
PEA
SCI
TCR
UAE
WBC
WSJ
eal
hin
ign
new
pay
ppm
red
ver
~24
~25
~29
~64
~70
##08
##1+
##91
##CN
##MD
##OK
##PD
##RV
##UV
##VR
##XM
##to
##‘5
##‘7
##가깝
##가성
##각기
##각별
##간격
##간소
##감정
##갑질
##강경
##강사
##개소
##거대
##거뒀
##건수
##걸리
##걸어
##견고
##겹쳐
##계단
##계정
##계통
##고래
##고른
##고리
##고무
##고심
##고액
##고조
##곳도
##공룡
##공원
##공학
##공헌
##과연
##구강
##구인
##구자
##굴곡
##궁극
##그칠
##근접
##긁힘
##기사
##기아
##기원
##긴축
##김범
##김현
##김홍
##깎는
##꼽을
##끝내
##끼고
##나스
##낙후
##남발
##남자
##내각
##내게
##내면
##냉방
##넣는
##노릇
##녹아
##놀라
##농장
##능동
##늦어
##다량
##다름
##다용
##닦아
##단과
##달여
##달해
##닭을
##담는
##닿는
##대답
##대략
##대행
##도어
##돌며
##동네
##동아
##되레
##되어
##두꺼
##듀오
##드럼
##들려
##들지
##땀이
##때나
##때다
##뛰는
##뜻의
##뜻이
##띈다
##라스
##리모
##리콜
##마을
##마중
##많을
##말로
##말에
##맡길
##매번
##맥락
##맺어
##먹어
##메카
##메탈
##멜론
##몇몇
##모나
##무궁
##무급
##무림
##무보
##무브
##묶여
##물건
##물과
##미백
##믹스
##바삭
##바지
##박준
##박찬
##반사
##반짝
##반찬
##반팔
##발레
##발렌
##방산
##방수
##방치
##배기
##배려
##배에
##배율
##배타
##버는
##벌금
##법안
##법을
##벽지
##병에
##보게
##볼륨
##부대
##부동
##부르
##부응
##부임
##부합
##불매
##불신
##비관
##비난
##비리
##비어
##비축
##비치
##사막
##사사
##사흘
##산실
##산책
##살리
##삼광
##삼정
##상급
##상륙
##상반
##상상
##상세
##상쇄
##상판
##상해
##생겼
##생필
##샴푸
##서명
##선명
##선배
##선양
##섹터
##소고
##소극
##소량
##소시
##소홀
##솔트
##수년
##수단
##수량
##수료
##수사
##수순
##수신
##수지
##수직
##수트
##수혈
##스낵
##스며
##스와
##스카
##스탬
##스틸
##승소
##시력
##시몬
##시야
##식약
##신세
##실린
##실속
##실정
##싸움
##쌀과
##쓰면
##씨를
##아낀
##아산
##아크
##아테
##아홉
##알뜰
##앓고
##암참
##앞선
##애를
##액면
##약정
##양과
##어긋
##어두
##어릴
##어학
##엔화
##엘라
##연주
##열쇠
##영원
##예스
##예타
##옥죄
##온수
##올인
##옮길
##와서
##울타
##워킹
##원을
##원자
##원재
##위주
##유래
##유모
##이견
##이경
##이공
##이긴
##이력
##이송
##이인
##이체
##이학
##이화
##일곱
##일산
##일일
##입자
##자가
##자란
##자만
##자부
##자식
##자칫
##작아
##잠금
##잠식
##장년
##장세
##장식
##잦은
##재경
##재원
##재직
##저는
##저지
##적고
##전만
##전소
##전수
##전진
##전투
##절세
##점진
##정우
##정원
##제이
##제철
##제형
##조장
##조화
##존속
##종결
##종일
##좌석
##주된
##주제
##주중
##중과
##중립
##즉석
##지름
##지불
##지시
##지인
##지체
##지퍼
##지폐
##질이
##짐을
##짓고
##징역
##차선
##차승
##착즙
##창단
##창작
##챙길
##처방
##철폐
##철회
##첫째
##청각
##청계
##청산
##청취
##초록
##초밥
##총력
##최철
##추월
##추적
##추징
##축인
##충무
##취영
##취할
##취향
##칠레
##카피
##칼라
##커져
##쿠페
##타개
##타는
##타워
##타지
##탈출
##탓이
##토요
##토털
##톡식
##통지
##통행
##투숙
##투표
##트래
##트레
##특례
##팀이
##파란
##파문
##판정
##팔기
##팔도
##팔지
##퍼스
##퍼져
##펼친
##포드
##포털
##폭의
##표기
##표지
##품절
##풍미
##플로
##피드
##피자
##피지
##피터
##한미
##한성
##한승
##한일
##할지
##함량
##함정
##항만
##해보
##햇차
##했을
##헌혈
##헤드
##형제
##호가
##호기
##호전
##호칭
##혼합
##홈택
##화관
##화보
##화소
##환기
##환노
##환불
##환아
##황사
##황토
##후에
##훌륭
##흥미
##힐링
가고용
가르드
개월의
개혁특
거리다
거티브
경하는
계열사
고객을
공장에
공장의
과정을
관세를
구조가
군에서
그랜드
그러나
그리드
금액의
금액이
기능을
기본법
기정통
기존의
기준을
기획재
께서는
냈다는
네넴띤
년대생
념으로
노조가
노조의
놀이를
농심은
단순히
닭볶음
대였다
대표부
대학교
덜란드
도시에
드라이
드슨야
디저트
라이언
라파고
로드는
루언서
리너스
리미어
리스트
리에이
리지널
마끼다
마루는
마리를
마킷에
만큼은
맛우유
면에는
물산은
바네사
바람과
박스를
방식을
방에서
버리지
베이거
보드를
보상배
보이고
보험금
브로드
비빔밥
빙그레
빠르게
사업장
사이트
사하고
사항을
상여금
상품은
상황에
새롭게
생산은
선행상
섰다는
성실의
센터가
손보는
수익을
스러워
스와프
시간씩
시간은
시장과
신사업
신산업
실상부
실장이
아마존
아파트
안마의
았는데
액티브
야말로
어떻게
어지지
어피치
억원은
업금지
었으며
역에서
연금을
였다면
예금은
옵니다
와디즈
외국인
워지는
위에서
위였다
은행과
은행을
음식점
이다이
이면서
이버거
인건비
인들은
일까요
임블리
자금이
자산은
작지만
재해가
전선은
전시회
전에는
전에서
조달청
조양호
조정실
조직인
주거래
주에서
증권은
증후군
지금은
지수도
지표를
직영점
직원은
직원이
직장인
진코스
진흥원
질설비
천지인
청소기
출하고
층으로
치웠다
카지룩
카콜라
컬렉션
컬처웍
케이는
크라상
클렌징
탈레이
테이블
테크핀
파이낸
팩토리
퍼니싱
푸어스
품이다
플란트
플로러
피겔은
하이저
학위를
한국이
해하고
협약을
호기를
호텔은
화비닐
화해야
활력을
휴대폰
(3,7
...’
12%)
1500
18%)
20%)
2010
65%)
7500
KPMG
omer
~35%
~60%
~70%
~90%
##117
##142
##145
##148
##20’
##220
##230
##240
##280
##297
##2~4
##330
##390
##3~6
##476
##51%
##5~6
##66%
##67%
##73%
##84%
##86%
##ADT
##AIG
##AMC
##APD
##BGF
##CUV
##EUV
##GPU
##IMM
##JKL
##KTX
##NRC
##RPA
##WBC
##가로막
##가리지
##가방에
##가방은
##가볍게
##가볍고
##가입국
##가입해
##가전을
##가정에
##가족을
##가중될
##가치로
##각오를
##각지의
##강렬한
##갖춰야
##개념을
##개발로
##개발은
##개인의
##개장한
##개점을
##개척에
##개척을
##거느린
##거리에
##거세게
##거슬러
##거주자
##걱정을
##걸린다
##것에서
##결과는
##결과에
##결정적
##경계를
##경기부
##경수로
##경우는
##경제계
##경제도
##경차의
##계약도
##고가의
##고급차
##고단열
##고려할
##고르게
##고민은
##고민이
##고용량
##고용원
##골고루
##공간은
##공부방
##공정이
##공짜로
##과거에
##과일을
##과제가
##관세가
##광고는
##광고도
##광고에
##굉장히
##교류를
##교수진
##교육부
##교육생
##구도가
##국가가
##국가에
##국내로
##국민을
##권리가
##권리를
##규제와
##그려진
##그림을
##그치지
##급여를
##기계류
##기계식
##기대와
##기술적
##기재돼
##기조가
##기조는
##기조연
##기준인
##김광수
##김대중
##김동호
##꿈꾸는
##끝까지
##나라는
##나오자
##낮다고
##낮아진
##내년에
##내려갈
##내리면
##내부를
##내용도
##넉넉한
##넓혔다
##넘어설
##넣으면
##네모닉
##노력한
##노리는
##노씨가
##노조에
##농가는
##농기계
##누군가
##뉴스가
##느낌의
##능력과
##닛산이
##다변화
##다보스
##다양해
##다졌다
##단계인
##단백질
##단체가
##달라질
##달렸다
##달리고
##달리는
##달했던
##답변을
##당사자
##대가로
##대국민
##대도시
##대리점
##대응할
##대중화
##대책도
##대출금
##대출은
##대화에
##대회를
##더케이
##도소매
##도수가
##도시에
##돌아가
##돌아온
##동원은
##동유럽
##동의를
##되려면
##되면서
##된다고
##두께를
##두바이
##드릴십
##듣는다
##들어야
##들어와
##등급인
##등장해
##떠났다
##똑같이
##뜯어고
##뜻으로
##라이선
##란제리
##렌털료
##로그인
##마련돼
##마른김
##마음껏
##만나볼
##많은데
##말라는
##말에는
##맡기는
##맡았던
##매력적
##매장도
##매출액
##맥주에
##맨해튼
##메뉴가
##메뉴다
##명확히
##모델도
##모델인
##모양새
##모은다
##모터와
##목적에
##목적이
##목표치
##몰라도
##몰랐다
##몰렸다
##무너질
##무뇨스
##묵직한
##문구가
##문성현
##물었다
##미국계
##미만인
##바닥에
##박상현
##반려동
##반열에
##반응은
##발굴에
##발생해
##발언은
##발의한
##발전과
##발행된
##밤에는
##밥맛을
##배출해
##백종원
##법원은
##법인의
##변신을
##보고를
##보따리
##보면서
##보복이
##보스턴
##보이자
##보청기
##보험업
##보험은
##부과할
##부담도
##부리는
##부문과
##부문별
##부분적
##부산을
##부진에
##부처와
##부처의
##부피가
##분리해
##분야가
##분통을
##불안이
##불어난
##불편한
##불황에
##비금융
##비례해
##비상이
##비정기
##사건을
##사계절
##사고와
##사람과
##사료를
##사명이
##사실은
##사용될
##사운드
##사회를
##사흘간
##살펴볼
##삼천리
##상권을
##상생과
##상승은
##상태로
##상품과
##색다른
##색상은
##색상이
##샌더스
##생겨난
##생산직
##생산체
##서버에
##석태수
##선도할
##선박을
##선언한
##설계돼
##설계해
##성과는
##성균관
##성능이
##세금은
##세대가
##세수가
##세이프
##세종시
##소유한
##소음이
##소장은
##소통할
##속으로
##수명이
##수작업
##수주한
##수출품
##수출할
##수치는
##수치를
##수행할
##수확한
##순위는
##숫자로
##숭실대
##쉐라톤
##쉐보레
##스모키
##스텔라
##스티븐
##습기를
##승계를
##승낙이
##시간당
##시간대
##시계로
##시노펙
##시도를
##시설은
##시점이
##시행된
##신격호
##신뢰가
##신발은
##신발이
##신사동
##쓰기로
##쓰면서
##아무런
##아사히
##아이폰
##아직은
##악재가
##악화가
##악화를
##안정과
##않았고
##않을까
##알아서
##애도를
##애플의
##액티브
##약간의
##어렵고
##어머니
##어울릴
##얻어야
##엄선해
##업무의
##업종은
##에기본
##에디션
##엔진과
##여건을
##여기서
##여론을
##여부가
##여의치
##여행자
##역량이
##역사는
##역점을
##역차별
##연구와
##연면적
##연비를
##연예인
##열심히
##열풍을
##열풍이
##영수증
##영양을
##영입한
##예대율
##예산도
##예상과
##예상한
##예측할
##오가는
##오류가
##오르지
##오염된
##옥수수
##올려놓
##올해의
##완화를
##완화에
##외국산
##외치고
##요거트
##요리가
##요인에
##요청을
##요청이
##우려에
##우버의
##우승을
##우아한
##우한분
##운송할
##원가를
##원금을
##원자로
##원피스
##위에서
##위험을
##유지될
##유치에
##유치할
##유통을
##유행을
##육성할
##음식과
##음식물
##응답한
##의미의
##의식한
##이같은
##이로써
##이메일
##이번주
##이사를
##이상씩
##이어갈
##이용객
##이제훈
##이천에
##이케아
##이해를
##이해할
##이후엔
##익숙한
##인구가
##인사와
##인상의
##인상할
##인하를
##일반직
##일본산
##일시적
##일어나
##잃었다
##입교생
##입장이
##입점해
##있다조
##있으나
##자격이
##자극할
##자기계
##자료에
##자릿수
##자문을
##잘하는
##장관도
##장려금
##장시간
##장착돼
##장착한
##장치다
##재계에
##재고가
##재킷과
##재확인
##저금리
##적용돼
##전공한
##전문성
##절약할
##점검할
##접수된
##접었다
##접착식
##정도인
##정책과
##제너럴
##제어할
##제임스
##제자리
##제작에
##조기에
##조리한
##조사해
##조성에
##조종사
##조직이
##조직인
##조합이
##조합해
##조항을
##조화를
##종류로
##종류를
##주가가
##주름잡
##주얼리
##주유소
##주저앉
##주주인
##주차장
##주행할
##준다는
##준비한
##줄었고
##중관춘
##중국도
##중에서
##즐거운
##증권업
##증권형
##증대를
##증시가
##증시는
##지급이
##지나지
##지분은
##지역별
##직장을
##직전인
##진에어
##진출이
##진행될
##차관은
##차지한
##차지해
##참가한
##참여를
##창업이
##창저우
##창출할
##채웠다
##책임과
##책임이
##챌린지
##처리한
##첫걸음
##체계가
##체제가
##체형에
##초점이
##최근에
##최대인
##최승재
##최정우
##추세로
##추정치
##축적된
##축적한
##출시에
##충격을
##충당금
##취업을
##취지에
##치과용
##칸스톤
##캔시머
##컴프레
##컵커피
##콘서트
##콜센터
##콤팩트
##쿠팡과
##크기로
##크기를
##킨텍스
##타계한
##탑재된
##탑재할
##탑재해
##태도를
##태어난
##태평양
##택했다
##터미널
##토끼를
##토론이
##톡톡히
##통폐합
##퇴직금
##투입할
##투표를
##트래버
##트럭에
##트렁크
##파이낸
##파이버
##팔리고
##패턴에
##패턴이
##펀딩을
##평가에
##폐쇄를
##포함될
##폭넓은
##폴더블
##폴란드
##폴리에
##풍미가
##프린트
##플라이
##피고의
##피부가
##하락이
##하려면
##한국계
##한다면
##한반도
##한전의
##함유된
##합치면
##항목을
##해석도
##행복을
##행위를
##행진을
##향미와
##혁신에
##현재의
##현지화
##호텔의
##호텔이
##홍삼정
##화제다
##화폐를
##화학반
##확대된
##확대한
##확률은
##환경적
##활동은
##활용을
##회복할
##회사도
##효과로
##효과적
##효율성
##효율적
##흐름이
##흑자로
##흔들릴
##희망의
공정거래
공정위는
그렇다면
근로자의
기술개발
기업들의
기재부가
네트웍스
노동행위
돼지열병
됐습니다
라파고스
랐습니다
로켓배송
롯데쇼핑
루페인트
마을금고
만원대로
만원대를
만으로는
발전소의
보고서를
복수응답
분기에도
블록체인
빅데이터
사업부는
사업으로
석유가스
수송보국
스러움을
시간으로
시설이다
시켰다는
아웃도어
아이에프
아카페라
약품안전
어버이날
엔제리너
역점에서
연구센터
연구소는
연구원과
영업이익
우쯔다오
원이었다
이다국내
익스프레
일부터는
입출금기
자로서의
재무제표
적으로도
전기요금
졌습니다
주휴수당
첨단소재
체크카드
추가고용
카바스백
코리아에
콘크리트
퇴직연금
투자자는
포인트에
프로세서
하기보다
해졌다는
혁신도시
현대차가
회사들이
(11%)
(2019
(35%)
31%),
80%),
CPPIB
Green
~2019
~5000
##180%
##1963
##1965
##1981
##1984
##2026
##251%
##336%
##4300
##5900
##BCLI
##IATA
##OPEC
##USTR
##가격대에
##가능성에
##가성비를
##가정하면
##감소하고
##감안하지
##강조하는
##강합니다
##개막했다
##개발도상
##거듭하고
##거론되고
##거시경제
##거실에서
##건강식품
##겨냥했다
##결정으로
##결정적인
##결제하는
##경영난을
##경영진과
##경영철학
##경유차의
##계기판용
##계열사다
##고민해야
##공공구매
##공공분야
##공략하기
##공장으로
##공정위가
##과일향이
##과징금을
##과태료를
##관계부처
##관계장관
##관측이다
##구동되는
##구축한다
##구현한다
##국민에게
##국세청에
##국영석유
##권고안을
##그룹에서
##극복하고
##근로자는
##글라스락
##금속가공
##금액으로
##금융사의
##금융소득
##금융지원
##금융허브
##금지하고
##금지하는
##급등했다
##기대하기
##기본금리
##기업가정
##기업가치
##기획됐다
##깎아주는
##나선다는
##남녀노소
##내걸었다
##내보내는
##노동관계
##노동시장
##노력으로
##농산물을
##눈여겨볼
##늘리면서
##늘린다는
##늘었다는
##다하겠다
##단체관광
##단체표준
##담보대출
##대량으로
##대법원이
##대출상품
##대표들이
##더해준다
##델라웨어
##돌아갔다
##동력으로
##두산그룹
##둔화되고
##둘레바람
##뒷걸음질
##드라이브
##드러났다
##드럼세탁
##들어봤다
##들어왔다
##등장하는
##디자인월
##따라가지
##따라잡기
##라가르드
##라인으로
##로켓배송
##롯데손보
##리뉴얼된
##리더십이
##리스크에
##마련해야
##마시멜로
##마케팅의
##맘스터치
##맨온더분
##메모리폼
##메이크업
##면세점의
##면세점이
##명실상부
##모델에는
##모델이다
##모바일로
##모임이다
##모태펀드
##못한다는
##무역센터
##물러났다
##물류센터
##미만으로
##민간위원
##반복했다
##받았다고
##받으면서
##발암물질
##발전하는
##발탁했다
##발판으로
##발행하는
##방문하는
##방지하는
##배경에는
##배터리팩
##벌어지고
##베트남은
##변경으로
##변호사는
##보십니까
##보유하게
##보장받을
##보험금을
##보험료가
##부과하는
##부담해야
##부산은행
##부여했다
##부의장은
##부진으로
##부회장을
##불가능한
##불꽃축제
##불합리한
##불확실성
##불확실한
##브렌트유
##비교해도
##비상방송
##사관학교
##사라졌다
##사실이다
##사업모델
##사업자로
##사업장을
##사용된다
##사이즈는
##산업재해
##상승하는
##상품군을
##상품권을
##색상으로
##생각으로
##생각했다
##생산되는
##서울에서
##선포했다
##설립하고
##설명하는
##설정했다
##성장성을
##성장세가
##세계철강
##세밀하게
##손해배상
##수입차에
##수출했다
##수평적인
##스킨케어
##스타일이
##스포츠카
##시각장애
##시달리고
##시대에는
##시작하면
##시정명령
##시제품을
##시행되는
##시행하는
##식기세척
##신사업을
##신설하는
##신속하고
##신용도를
##신의칙을
##신종자본
##신축성이
##실시했다
##실패했다
##싶어하는
##싸이버거
##쓰레기를
##아니라고
##아무것도
##아이들을
##아직까지
##악화되고
##안전자산
##안타깝다
##안팎으로
##않겠다는
##않더라도
##어디서나
##어렵다고
##어린이가
##어린이용
##언급했다
##업무추진
##업체들과
##업체들도
##없어서다
##에코백스
##엔비디아
##엘라코닉
##엘리먼트
##엘포인트
##여전하다
##연결기준
##연구용역
##연구위원
##연차총회
##연초부터
##연출했다
##영역으로
##영향력이
##예상됐다
##예상이다
##예측하는
##오뚜기는
##오비맥주
##올라갔다
##올랐다는
##올해까지
##외주업체
##우려하는
##우선협상
##우세하다
##우수성을
##운영하던
##운전자가
##운전자금
##운전자의
##원내대표
##위탁운영
##위험성이
##위험자산
##유니폼은
##유도하고
##유도하는
##유발하는
##유연하게
##유입되는
##유통업계
##유해가스
##육성하고
##음성으로
##의미에서
##의미있는
##이동수단
##이듬해인
##이마저도
##이용률은
##이용률이
##이용하면
##인사혁신
##인스턴트
##인식하는
##일선에서
##일어나는
##일으키는
##일정하게
##입사했다
##있다현재
##자격증을
##자동차가
##자원봉사
##장수돌침
##장학금을
##재계에선
##쟁의행위
##전국으로
##전기레인
##전기차용
##전달식을
##전동공구
##전망하고
##전시장을
##전시한다
##전시회에
##전월보다
##전환배치
##점유율도
##정규직화
##정리하고
##정보보안
##정치권이
##제작하고
##제조업의
##제한하고
##조달청의
##조정했다
##조직개편
##조직문화
##조합원은
##졸업했다
##좋아졌다
##주목하고
##주문하고
##주민들은
##주식으로
##준비하는
##줄었다는
##줄여준다
##줄이면서
##중국으로
##중기부의
##중요성이
##증가세가
##지금처럼
##지급액은
##지급하지
##지속되고
##지역으로
##지역주민
##지원받을
##지향하는
##직접투자
##짐바브웨
##차단한다
##차별화를
##착수했다
##참가한다
##창업자인
##찾아왔다
##찾아주는
##책임져야
##천연가스
##청년들이
##청와대의
##체결하고
##총괄수석
##최고치다
##최소자본
##최적화한
##추구하고
##추정됐다
##추진해야
##추천하는
##출고가를
##출범했다
##출시된다
##출신이다
##충당부채
##취업지원
##칭다오시
##카네이션
##캠페인에
##커피음료
##크레디트
##키운다는
##키즈카페
##타개하기
##타깃으로
##탄탄하게
##통계청은
##통과했다
##통보했다
##통상교섭
##통해서다
##투입되는
##투입하는
##투자금을
##투자상품
##트렌드와
##트렌디한
##특징으로
##티셔츠를
##파악하는
##파업했다
##판단하는
##판단했기
##퍼지면서
##편리하다
##편안함을
##포스코는
##퓨리케어
##프로세서
##프리미어
##피해복구
##피해지역
##필수적인
##하나카드
##하드웨어
##한국도로
##한국석유
##한국씨티
##한화생명
##할인한다
##항공기를
##항공사는
##해소하고
##해외여행
##행동주의
##행정부가
##허드슨야
##헤지펀드
##현대건설
##현대제철
##현대차와
##협력사는
##형식으로
##호기심을
##홈퍼니싱
##화웨이와
##화웨이의
##확장했다
##환경오염
##활동으로
##활용도가
##활용된다
##회사들이
##회사에서
##후원으로
##희망퇴직
공기청정기
국민은행은
금융지주는
깨끗한나라
르노삼성은
리에이티브
매니지먼트
배달의민족
사물인터넷
생활건강은
서부발전은
수퍼세이브
시스템으로
억원이었던
에스아이는
저축은행을
전기자동차
정보통신부
중견기업의
캠퍼스에서
포인트까지
하나은행장
한국은행이
혁신성장을
(-03%)
##CPPIB
##가맹본부의
##강화한다는
##개인사업자
##개최했다고
##검토하겠다
##경제활동을
##계열사들이
##계획이다이
##고객에게는
##구축하기로
##국민연금은
##국민은행이
##귀뚜라미는
##근로자들이
##금융서비스
##금융중심지
##금호산업과
##기념식에서
##기업문화를
##기준으로는
##깨끗한나라
##난방요금을
##노동조합의
##농협금융은
##농협은행의
##다양해지고
##대우건설과
##대표이사로
##대한항공의
##들어보이고
##등으로부터
##등장하면서
##디자인까지
##라스베이거
##라클라우드
##롯데쇼핑은
##롯데컬처웍
##마련하기로
##매트리스를
##메르세데스
##물류센터를
##미세먼지로
##미세먼지의
##바람직하지
##바른미래당
##방식으로는
##보건복지부
##보험료율을
##부동산신탁
##불과했지만
##브로그앤머
##블랙스톤의
##블루보틀은
##블루보틀이
##비트코인을
##산업은행이
##삼성전자를
##생산공장을
##생산시설을
##서비스업은
##서큘레이터
##선보인다고
##설계인증을
##설비투자가
##설비투자는
##소비자와의
##소비자층을
##소상공인은
##스마트폰용
##스타트업에
##스터디카페
##시작한다고
##신한베트남
##싱가포르에
##아르헨티나
##안마의자를
##안정적이고
##알려지면서
##애로사항과
##연세유업이
##영업비밀을
##외환위기를
##용산점에서
##우리은행과
##원고들에게
##유상증자를
##의사결정이
##이사회에서
##이자이익은
##이해관계가
##익스플로러
##인기몰이를
##인터넷은행
##인테리어를
##인플루언서
##일산화탄소
##일자리안정
##있다신세계
##자리매김할
##자산운용사
##전기요금을
##전략적으로
##전통시장을
##제로페이로
##제로페이를
##종신보험에
##주도적으로
##주휴수당을
##줄어들었다
##중국인들이
##중소기업은
##중요시하는
##중점적으로
##지금까지는
##지배구조를
##지역사회의
##참석자들은
##찾아다니며
##철수하기로
##체계적이고
##체크카드를
##최대주주가
##최대주주인
##커넥티드카
##커핑로드는
##통화스와프
##투자자들의
##특수관계인
##틈새시장을
##팔려나갔다
##풀무원식품
##프로젝트로
##프로젝트에
##프리미엄을
##하이트진로
##한진그룹이
##한화케미칼
##협력사들의
##협력업체에
##협력하기로
##홈페이지와
##화학물질을
##확산되면서
##활성화하기
내일채움공제
디스플레이가
아모레퍼시픽
엔제리너스는
자동입출금기
중소기업회장
현대오일뱅크
현대차그룹은
(48,550
Greener
ustomer
##+136%)
##국무회의에서
##금융위원회의
##기아자동차는
##기획재정부에
##내일배움카드
##당기순이익을
##마찬가지였다
##베이징현대는
##보험수익자를
##비즈니스포럼
##스노우라인은
##신세계면세점
##액화석유가스
##에티오피아산
##연금보험금을
##온라인몰에서
##올라서겠다는
##인플레이션이
##장기요양상태
##지속가능경영
##질소산화물을
##통상임금으로
##파리바게뜨의
##팝업스토어를
##프레젠테이션
##한국가스공사
##한국무역보험
##한국전기안전
##해지환급금이
##기획재정위원회
##농림축산식품부
##대한상공회의소
##메리츠금융지주
##소상공인연합회
##식품의약품안전
##에너지저장장치
##중기중앙회에서
##지방자치단체의
##지역난방공사가
##최고재무책임자
##하나금융그룹은
##현대자동차그룹
두산인프라코어는
산업통상자원부는
##국제항공운송협회
##그랜드하얏트서울
##롯데액셀러레이터
##삼성디스플레이는
##한국소비자포럼이
##2017~2018
##금호아시아나그룹의
##청년구직활동지원금
##한국노동조합총연맹
##경제사회노동위원회가
##한국농수산식품유통공사
!”
"“
',
1’
4’
BY
CM
EM
FL
IS
KO
MT
NE
OU
PF
RT
WB
YO
ab
ac
af
ci
kL
la
’‘
##=
##Z
##f
##r
##中
##車
##갇
##궤
##깐
##꿰
##났
##낱
##딥
##떨
##떴
##룸
##르
##멧
##뭉
##삐
##쇳
##쉴
##슐
##앙
##엿
##왓
##웅
##잉
##젬
##줘
##쥐
##짙
##짚
##찜
##찰
##쳐
##콕
##펠
##푼
##핵
가게
가계
가기
가도
가상
가을
각규
각종
감의
강남
강유
객을
거를
거지
게더
격한
결함
고문
고시
곱창
공립
공방
공익
관람
교수
교체
구석
국무
국토
군요
군의
궐련
규성
규어
그가
그네
그릇
극한
근막
급식
급제
기나
기문
기조
기통
김승
김이
깃한
나와
난히
날의
날이
남매
남성
내믹
내수
냉동
너무
네마
네시
년제
농가
농도
뉘어
니게
다모
다우
단위
당에
당은
대곡
대신
대째
대화
더리
더샵
덱스
도심
독립
독한
돌고
동후
돼온
둘러
드기
든지
듯이
등에
등한
디리
디엄
디와
디움
디추
라기
라멘
라밸
라임
라클
란티
래드
래방
랩을
랭크
러리
럭스
로버
록체
록한
료품
루프
룸은
르도
름한
리몰
림동
립대
마사
마스
마음
마진
마토
만약
만은
말과
맞이
매입
머리
머신
메르
메트
멘텀
멤스
면도
면은
명씩
명재
모간
모에
무를
문래
문서
문은
물량
물에
미경
미네
미용
미작
민관
민생
밀한
반돼
반려
반의
받게
방재
배분
배출
밸런
번가
번개
벌적
법과
법도
법령
법의
벗고
벤트
별관
보미
보통
봐도
부족
북한
브러
브레
브리
브히
비약
비치
빙과
빛을
쁘게
사각
사례
사료
사상
사할
산림
살을
상영
상장
새벽
색과
서가
서야
서적
선물
선양
선포
설치
세사
세창
세포
셔블
션핏
소리
속을
솥밥
수권
수렴
숱한
쉐린
스미
스퍼
스펜
습관
시계
시다
시더
시적
시점
신인
신차
신흥
실도
심장
쓰는
아몬
안과
안내
암참
애경
액도
얀마
양을
양이
양자
업소
업황
엘이
여수
연이
열과
영관
영민
예다
예상
예약
오버
온을
완화
외교
외환
요가
우지
운다
운임
운트
운하
운항
움의
원투
웰뱅
위례
위생
율도
은퇴
이도
이전
인스
인에
일단
일보
임원
입에
입주
자극
작가
작은
잔액
잖은
잡이
장한
재능
재된
재에
재와
재원
저히
적용
적을
적절
전공
전트
정년
정훈
제인
조영
조한
종에
좋아
좌석
중단
중의
중인
줬기
지노
지부
지하
직에
직은
진단
진동
진로
진수
진핑
질병
집약
집이
짜장
짠맛
차림
차에
창규
챗봇
처드
처음
천히
청쉬
체국
체적
체제
쳐야
촌호
총장
추세
추천
추출
축제
출시
출장
충남
취약
츄럴
층인
치아
카고
칼텍
커버
코백
쿠버
큐밍
큐브
큰손
클레
탄생
탈취
탕을
태승
터치
턴바
톡톡
튜버
트라
팀도
팀에
팜은
팜투
패턴
팽글
퍼런
펑크
펜을
편한
평한
폐업
포닌
포를
폼을
품의
퓨처
피니
하늘
하위
하청
한정
한테
할인
합산
합성
해당
해준
햇반
행에
허가
헬로
현민
현직
협은
형과
형제
혜성
호봇
호에
홍콩
회복
회선
힐링
(-2
(1)
(2)
(3)
(59
(63
(68
(95
-50
184
202
3%,
5%,
686
ABS
AMC
ATM
COO
FID
GNI
ICE
INT
IPO
LCD
MEX
MMT
NIM
RBC
VAC
Way
all
igh
ire
ith
nov
one
rin
ris
ter
tro
ure
~6%
~8%
’(1
##06
##2∼
##56
##87
##96
##97
##AS
##Ad
##DI
##DT
##FA
##HB
##HR
##JP
##ON
##PM
##QP
##TL
##ix
##of
##가나
##가든
##가령
##가면
##가미
##가짜
##가팔
##간결
##간다
##간섭
##갇혀
##감상
##감수
##감시
##값싼
##갔을
##강점
##강판
##강해
##강행
##같지
##개도
##개체
##거센
##격의
##격인
##겪은
##견학
##결격
##결론
##결산
##결코
##겹친
##경동
##경로
##경인
##경합
##계기
##고로
##고소
##고시
##고육
##고의
##곡선
##곤란
##곧장
##과소
##과속
##관건
##관여
##관철
##광채
##구본
##구워
##국익
##권위
##권장
##귀를
##균등
##금성
##급급
##급부
##기동
##기둥
##기소
##기지
##길다
##김남
##김덕
##김도
##김준
##깐깐
##깨는
##꽃과
##꽃이
##꽃차
##꿈과
##끝낸
##끝낼
##나간
##나랏
##나의
##낙하
##날렵
##날로
##날아
##날은
##날이
##남지
##남짓
##낳을
##내달
##내림
##내솥
##냄비
##냉각
##넓어
##넘나
##네온
##네이
##네임
##년의
##녹인
##농축
##높을
##놓인
##눈이
##느낍
##니로
##다산
##다채
##단결
##단단
##단추
##달아
##달인
##닭강
##담화
##답이
##당국
##당첨
##대개
##대덕
##대부
##대산
##대장
##대주
##던진
##덮밥
##델리
##도덕
##도미
##도유
##도축
##독거
##독식
##돌린
##동천
##동호
##될지
##두툼
##둥펑
##뒤엔
##뒤흔
##들인
##딜로
##따뜻
##땅에
##떠받
##떠안
##똑같
##뚫고
##뜻은
##러브
##레쓰
##렌딧
##마끼
##마카
##만점
##말과
##말엔
##맑은
##맞출
##맡을
##매듭
##매립
##맺을
##멋을
##메종
##멜라
##명사
##명인
##모션
##모카
##모험
##목욕
##몰입
##몸이
##무겁
##무단
##무더
##무의
##문의
##문자
##물색
##물에
##물의
##뭔가
##미용
##민관
##밀리
##밀링
##밀컨
##바닷
##바르
##바스
##반납
##발목
##밝지
##방어
##방영
##방풍
##배울
##배재
##밸류
##버금
##번복
##법이
##벗고
##베어
##병풀
##보금
##볼트
##분량
##분쇄
##분식
##분유
##분의
##분자
##분홍
##붉은
##붙은
##뷔페
##블랑
##비공
##비대
##비유
##빈곤
##빙수
##뽑힌
##사정
##사케
##삭감
##산림
##산타
##산행
##삼는
##삼을
##상법
##상설
##상자
##상정
##상큼
##상한
##새집
##새해
##색조
##생기
##생략
##생보
##샤넬
##서광
##서두
##서해
##석권
##석회
##선고
##선대
##선로
##선반
##선영
##세법
##세상
##세울
##세전
##소독
##속은
##손에
##수시
##수와
##수의
##수험
##순천
##순탄
##술은
##숨어
##슐럽
##스루
##스몰
##스팀
##시판
##신동
##신상
##신원
##실명
##실세
##실효
##심는
##심층
##심한
##싸고
##쓰기
##쓴소
##씨와
##아닙
##아레
##아마
##안간
##안티
##알렉
##앞줄
##앱에
##야구
##야근
##야심
##약세
##약한
##얇아
##양대
##양은
##양의
##양적
##양파
##양평
##어시
##에듀
##에프
##엠보
##여닫
##연대
##연설
##연어
##연율
##열광
##열선
##열에
##영리
##옆에
##예견
##옌청
##오라
##오마
##오면
##오븐
##오해
##온산
##옷에
##와이
##요동
##용평
##워커
##원년
##원동
##원안
##월별
##웨딩
##웨어
##위배
##유공
##유료
##유의
##유증
##윤리
##으뜸
##응대
##이글
##이세
##이월
##익산
##인큐
##일과
##일류
##일에
##일축
##잃어
##입에
##잇츠
##있나
##있었
##잊을
##자몽
##자제
##작가
##잔여
##잘할
##잡지
##장성
##장외
##재건
##재연
##재임
##재학
##적힌
##전구
##전임
##전해
##절전
##점수
##점자
##접경
##정량
##정반
##정진
##정할
##제가
##제때
##져야
##조미
##족저
##좋을
##줄임
##줘야
##증액
##지어
##지침
##지킨
##지휘
##직렬
##진술
##진영
##진흥
##집어
##집에
##짜고
##차돌
##차명
##차익
##차질
##참고
##참모
##채굴
##채운
##채취
##천일
##천장
##청담
##청라
##청바
##청춘
##초에
##초저
##초회
##최영
##최준
##추론
##추석
##출국
##출렁
##출원
##취재
##치유
##친절
##카라
##카풀
##켈리
##켜고
##코튼
##콕핏
##콘덴
##쿼츠
##퀀텀
##클락
##키움
##키웠
##키친
##키트
##킨텍
##타면
##타임
##타진
##탈락
##탐지
##탐험
##탔다
##태양
##토막
##튀김
##튜브
##특색
##틀을
##팀장
##팁스
##파쇄
##파트
##판에
##팔면
##팬덤
##페루
##펭귄
##편도
##편을
##편중
##평일
##폴라
##표정
##풀무
##피크
##피할
##한몫
##한손
##한참
##합계
##해법
##해주
##해줄
##행위
##행태
##허위
##헤쳐
##현아
##혈액
##형편
##호르
##호평
##화려
##화산
##화석
##확고
##환입
##회동
##회추
##훈제
##휠라
##휴가
##휴넷
##흥국
##힐튼
△19
가드는
가량에
가상각
가스틸
가전을
갈등이
갔다는
강원도
개월로
개월에
건설은
건설이
건조기
검사를
게다가
경쟁사
경제에
계획서
계획에
계획은
고령화
공단에
공정이
관에는
교육원
구성원
국회가
그니아
그래서
그리고
금융의
기간은
기관의
기자재
기한은
끄러운
나투스
났다고
내기도
네이처
노미터
능력이
니스토
당국의
대부터
대상은
대출은
대표를
도어인
동후디
됐으면
두지휘
드게임
들면서
들이고
디보다
디추싱
라또랩
라면은
라이밍
라이즌
러시아
레시피
레이드
렸는데
로서는
률협회
리기도
리랑카
리서치
리어트
리엄스
마루를
매장은
명까지
모델로
무뇨스
무늬만
문에서
문제가
물가가
물량을
물품을
밀라노
바이스
박물관
박영선
반돼지
발전이
배움터
버스에
버홈은
법인은
법인이
벤처스
변속기
병으로
보이는
보장은
복으로
복지관
본부는
봤지만
부문의
부자재
분기엔
분야의
비용은
빨간불
사례를
사실상
사업비
사용자
사원을
사장은
산업과
산업부
산업인
상황을
생건의
생명의
서울대
서울시
선진화
성분을
세계의
세대의
세미나
센터장
셀리턴
소득월
소비재
소재를
속에서
수산물
수익형
순위로
순위를
스라엘
스럽고
스카페
스페인
스피커
시간에
시간여
시간제
시설도
시크릿
식품도
신동빈
신라는
신제품
실리콘
심리가
심하게
십자등
안전의
알코올
어내는
억유로
업무를
에스는
에어컨
에이본
에이치
여기에
여명이
였다는
영운수
오면서
온에서
올랐다
올컷다
올해도
외선을
운반선
워주는
원대로
원부터
월보다
위권에
위스키
위에다
으라는
은행도
의학과
이나마
이동식
이드의
이디야
이렇게
이비드
이사로
이제는
인들의
인애플
일본은
일이다
입찰에
자금도
자로서
자이자
작업을
장들이
장치가
재단에
재직자
적자를
전경련
전분기
정신을
정책의
제과는
제푸드
조건을
조원태
주기로
주도형
주문을
준다고
중고차
중국어
줬다는
지거나
지라는
지수가
지였던
차례에
차이나
초킬러
캠페인
캠프는
커버리
크라이
클래스
킥보드
타이거
타이드
탈리아
택시를
터에서
토트넘
투자와
투자의
투표에
트러플
트로페
트리밍
티몬은
파이는
팔래스
퍼스트
편으로
평가는
폴리스
폴리텍
풀무원
프라도
프린팅
하는데
하는지
하대곡
하시던
하자고
한진칼
해나갈
해봐야
해서는
허가를
헝가리
현황을
협의를
형적인
화되는
확장법
환경부
환경을
회사다
회에는
회의는
효과가
효성은
히어로
(110
(116
(150
..."
10%)
14%)
1992
1996
2011
2500
4%),
4800
70%)
76%)
8752
90%)
9500
CCTV
GBVA
open
reat
~300
~40%
##102
##104
##106
##108
##123
##138
##139
##159
##161
##165
##270
##31%
##320
##336
##345
##47%
##480
##49%
##58%
##63%
##92%
##ATM
##BNK
##CSI
##DNA
##HMR
##HSK
##IEO
##IPO
##ISD
##KBO
##KKR
##LIG
##MOU
##RTD
##SAP
##TCL
##kWh
##“10
##“30
##가공해
##가구로
##가장한
##가정과
##가져야
##가졌다
##가치도
##가치의
##감각을
##감사원
##감소가
##감소를
##감소해
##감염된
##감지해
##강연을
##강했다
##강화가
##갖는다
##갖춰져
##개념이
##개설해
##개인용
##개인이
##개입이
##개척한
##거듭해
##거래는
##거리는
##거세다
##거쳐야
##거치는
##거치면
##거치지
##건장재
##건전한
##검증된
##것에도
##것이고
##것이라
##겨루는
##결정이
##겹치는
##경력이
##경영과
##경쟁사
##경제부
##경제위
##계산할
##계약자
##계절적
##계좌가
##계좌에
##계획은
##계획인
##계획한
##고객인
##고급화
##고밀도
##고사양
##고수익
##고출력
##고충을
##고화질
##곰팡이
##공간도
##공격을
##공방을
##공산이
##공장과
##공직에
##공청회
##과징금
##과천시
##관계에
##관광지
##관리의
##관심과
##관행을
##광저우
##교류와
##교육비
##교체가
##교체할
##구간을
##구매가
##구분해
##구제역
##구조의
##구체적
##구축과
##구축한
##구현한
##국내를
##국무총
##국산화
##국제선
##굵직한
##귀여운
##규정돼
##그러자
##그리는
##그었다
##극복할
##극심한
##근본적
##급기야
##급증할
##기관과
##기능의
##기대도
##기대할
##기부금
##기술도
##기업체
##기여도
##기조로
##기초로
##기획한
##길어질
##김슬아
##김씨는
##김용범
##김정식
##꽃차를
##꾀했다
##끝나면
##끝난다
##나가기
##나눔의
##나뉘어
##나라가
##나라와
##나만의
##나비의
##나빠질
##나쁘지
##나스닥
##나아질
##나타날
##나흘간
##날씨가
##남는다
##남다른
##남영전
##납부할
##내겠다
##내구성
##내국인
##내놓기
##내려다
##냈다고
##냉기를
##냉난방
##넘어가
##노동자
##노력도
##노운하
##노조원
##노화를
##노후에
##논란을
##농가의
##농어촌
##농업인
##농장을
##높인다
##뉴욕의
##느끼고
##늘린다
##늦추는
##다니며
##다음과
##다음해
##다이먼
##다이어
##다하고
##단가를
##단계에
##단계적
##단위의
##단체를
##달성해
##당신이
##당연직
##당연히
##대내외
##대응에
##대응해
##대책에
##대책은
##대출과
##대출도
##대출이
##대출한
##대학과
##댓글이
##더하면
##덮개를
##도수를
##도약을
##도입과
##도입도
##도입이
##도전과
##독일이
##독자적
##돌리는
##돌리면
##돌파할
##돌풍을
##동맹의
##동안의
##동향과
##돼지는
##돼지를
##되기도
##되는데
##되었다
##두각을
##두통약
##둥지를
##뒤이어
##뒷부분
##등급의
##등에는
##디스럽
##따냈다
##따왔다
##떠오른
##라떼는
##라텍스
##랍스터
##레니게
##레이더
##레이싱
##리더의
##리모컨
##마라톤
##마련이
##마리를
##마이크
##마일드
##만디리
##만점에
##많았던
##망인의
##맞대고
##맞섰다
##매각은
##매장의
##머지않
##먼지와
##메뉴도
##메뉴에
##메시지
##메이커
##멜란지
##멤버로
##면적은
##면적이
##명령이
##명소로
##모멘텀
##모습이
##모으고
##모임인
##모집을
##목표도
##몰리는
##못하게
##못하다
##무너지
##무늬가
##무엇을
##문제의
##물가는
##물관리
##물놀이
##물러난
##물류와
##물만두
##물티슈
##미끄러
##미래의
##미역을
##미연탄
##민원이
##밀접한
##밀키트
##밑도는
##바뀌지
##바다를
##바다와
##바라는
##바이레
##박세창
##박정희
##반발을
##반발해
##반포동
##받아온
##발굴한
##발급한
##발벗고
##발병한
##발생을
##발전용
##발주가
##발표가
##발행에
##발행을
##발행이
##방대한
##방문할
##방법도
##방사능
##방식과
##방지를
##방침에
##배가량
##배당이
##배출이
##배타적
##배합해
##밴드를
##버티기
##번으로
##벌어진
##법이다
##법인은
##법인이
##베뉴를
##벽장재
##변수로
##변하지
##변화의
##보내며
##보여줄
##보장해
##본사는
##본사에
##본상을
##봄에는
##봅니까
##봉사단
##부담과
##부당한
##부드러
##부서의
##부자재
##부장이
##부지를
##부친인
##부품인
##북한의
##분류해
##분쟁을
##불거질
##불안한
##불었다
##붙이는
##브랜딩
##브리지
##블러썸
##비결을
##비교할
##비디비
##비리가
##비비고
##비전은
##비주력
##비행기
##빼놓을
##사기를
##사내외
##사업부
##사업인
##사은품
##사장도
##사태를
##사태의
##사포닌
##사회초
##산뜻한
##산업과
##산업인
##산은의
##산정한
##산하에
##살리고
##살아야
##삼성이
##삼해상
##상권에
##상생을
##상속인
##상승과
##상용차
##상품권
##새만금
##색감을
##샐러드
##생기고
##생두를
##생산은
##생필품
##서대문
##서울의
##서울이
##서유럽
##서현진
##석촌호
##선명한
##선물용
##선박은
##선수가
##선택의
##선풍기
##설립을
##성과다
##성과로
##성능은
##성명을
##성장도
##성장세
##성적에
##성향을
##세계로
##세계를
##세계의
##세수를
##세율을
##세제를
##세트를
##센서가
##센서는
##센터가
##소가죽
##소공로
##소나무
##소문이
##소방관
##소속인
##소재가
##소주에
##소진공
##소통과
##소화할
##손태승
##손해율
##수상한
##수요와
##수위를
##수익형
##수입한
##수준과
##수집한
##수출과
##순이자
##순자금
##스와치
##스위치
##스캐너
##스토닉
##스트로
##스파이
##스피드
##습관을
##시급한
##시기는
##시다모
##시상식
##시설이
##시설인
##시세를
##시장형
##시절인
##시점을
##시카고
##식당을
##식물성
##신경을
##신경훈
##신라는
##신라스
##신뢰할
##신설해
##신세돈
##신용을
##신재생
##신차가
##신청이
##신품종
##신한울
##신혜성
##신호등
##실장은
##실패한
##실패할
##실현을
##심리가
##심사에
##심지어
##쏘렌토
##아니고
##아니에
##아닌가
##아무도
##아버지
##아이언
##아침식
##아토피
##악화는
##악화의
##안되는
##안된다
##안전과
##안팎을
##않거나
##않았을
##알아볼
##알파벳
##압수수
##앞당겨
##애널리
##애프터
##애플은
##애호가
##액션핏
##약속을
##양사는
##양성과
##양측이
##어려웠
##어렵기
##얼굴을
##업비트
##업종에
##업체도
##업체만
##없으며
##에이본
##에이스
##엑스트
##엔지니
##엔진은
##여당은
##여러분
##여름에
##여성용
##여정을
##역할과
##역할에
##연결돼
##연결된
##연구에
##연금은
##연봉은
##연사로
##연장해
##열기도
##엽니다
##영역이
##예금의
##예상도
##예상이
##예외가
##예정돼
##예정이
##오가와
##오르내
##올컷다
##와인의
##완화해
##외식업
##요금은
##요금제
##용기가
##용도에
##용역을
##우려로
##운동과
##운항을
##울타리
##움직여
##원두로
##원전의
##원정대
##원칙에
##월계점
##웨스트
##웰링턴
##위기는
##위원을
##위촉식
##위험요
##위협을
##유럽은
##유모차
##유병자
##유산균
##유연한
##육가공
##육성이
##윤종규
##융복합
##응답이
##의견은
##의도다
##의료용
##의류를
##의식해
##의외로
##의원과
##의원이
##이곳을
##이공계
##이내의
##이념을
##이대훈
##이더리
##이동할
##이력을
##이력이
##이비자
##이용을
##이웃을
##이원욱
##이인실
##이하인
##인상폭
##인상한
##인증도
##인체에
##인피니
##인하가
##인하대
##일부는
##일상을
##일요일
##일정이
##일체형
##일해야
##일회용
##임금과
##임기가
##임대료
##입점한
##있나요
##있어서
##있어요
##있을지
##자격을
##자르고
##자리가
##자리한
##자본금
##자본의
##자본이
##자재를
##자체는
##작업은
##잘못된
##잡초를
##장기화
##장남인
##장비가
##장비도
##장사를
##장소에
##장식을
##장점도
##재도약
##재료가
##재료의
##재산을
##재탄생
##저임금
##적다는
##적립식
##적었다
##적외선
##전기료
##전달한
##전력망
##전면과
##전문의
##전사적
##전시장
##전액을
##전쟁을
##전체가
##전통을
##전통의
##전환과
##전환은
##전후로
##절감을
##절차는
##접목할
##정가의
##정기총
##정무경
##정상가
##정용진
##정원은
##정점에
##정점을
##정체된
##정화된
##제각각
##제고를
##제시해
##제조와
##제조해
##제출할
##제한을
##제한이
##조건도
##조건은
##조명래
##조선사
##조선소
##조속히
##조인트
##조절이
##조절해
##조형물
##종가세
##종교인
##종이를
##종전의
##좋다는
##죠리퐁
##주도권
##주도해
##주목해
##주보험
##주상영
##주인을
##준비해
##줄지어
##중간재
##중금속
##중단한
##중단할
##중동과
##중심이
##즐겁다
##증설을
##증시에
##지급할
##지나도
##지멤스
##지분이
##지점을
##직류배
##직면한
##직전에
##진단이
##진동벨
##집중돼
##차례에
##착안한
##참치캔
##창원시
##창출한
##찾아야
##찾아와
##채소를
##채워야
##채택해
##처리해
##처벌을
##처음엔
##처했다
##천호점
##철광석
##철학이
##첫해인
##청년이
##청량한
##청정원
##체결을
##체결한
##초고속
##초래할
##최고치
##최상위
##최적화
##추경에
##추경호
##추세에
##추이를
##추진선
##추천할
##추첨해
##축구장
##축으로
##출력은
##출시로
##출신의
##충전소
##취득을
##취득한
##치사율
##치킨을
##친노동
##침체된
##카바스
##캔버스
##커피는
##코스닥
##코지마
##콜택시
##쿠팡에
##크기는
##크루즈
##크림은
##키워드
##키워야
##타일이
##태세다
##테이크
##텔레칩
##토론토
##토이트
##통계가
##통계는
##통과할
##통제할
##투자금
##트랙터
##특가전
##특이한
##특징은
##특징이
##티몬이
##판단이
##판단한
##판도를
##패션쇼
##패스트
##패턴의
##퍼스널
##펀드는
##페이지
##페이코
##페트병
##펫보험
##평가한
##평가할
##포괄적
##포기한
##포르쉐
##포토존
##폴로티
##표준을
##표현을
##푸드코
##품목에
##품질에
##프렌치
##프로텍
##피하기
##필요에
##필터는
##핑크퐁
##하남점
##하늘을
##하락을
##하루만
##학자금
##한국지
##한마디
##한샘은
##한양대
##한정돼
##해결될
##해결한
##했다가
##했다김
##했다이
##향상은
##허창수
##혁신은
##현실과
##현실은
##현실화
##현안에
##현지에
##현황에
##협약식
##협약에
##협업도
##형태가
##호주와
##호칭을
##호텔에
##호텔은
##호평을
##혼란을
##홍보를
##화윤설
##확고한
##확대가
##확대돼
##황각규
##황사와
##황태를
##회원을
##회의에
##후원금
##휠체어
##휩쓸고
##흐름과
##히트펌
개발공사
개월까지
개월마다
개혁특별
경쟁력을
경제신문
고용노동
고용부는
공익위원
공정무역
광장에서
국가연합
그래비티
그럼에도
그레이더
글라스락
금융권의
금융회사
기술교육
기술표준
기아차와
기업이다
년부터다
닝메카드
대금조정
대회에서
드라이브
디보다운
라이선스
롯데마트
리테일이
마이크로
만원부터
명이었다
바이오는
반도체는
반려동물
발전소를
백화점의
보고서에
부착생산
분기까지
브히어링
빗에쿼티
사업이다
새벽배송
생산절벽
스럽다는
시그니처
시민모임
시설에서
시스템은
신용대출
신한은행
실업률은
아름다운
아메리칸
어린이집
억원대의
에너지가
에너지를
연구원의
연합회는
오토에버
와이드는
우주산업
위원회로
유프리즘
으면서도
은행에서
이라고도
이마트는
이어트는
이었다고
이코노미
일까지다
일로부터
임시매장
자동차와
자로부터
자산관리
전문기업
전통시장
조원대로
주겠다는
중앙은행
지난해엔
탈레이트
탈취필터
테크노돔
텔레콤과
텔레콤은
통계청이
팜투베이
페스티벌
포럼에서
포인트나
포인트의
푸드빌의
프로필렌
하겠지만
하나금융
하느냐에
하이파는
한경연은
해주기로
했는데도
했음에도
현대차의
협의회를
협회에서
홈쇼핑의
(37%)
(55%)
POINT
SOVAC
~3000
##101%
##114%
##118%
##128%
##161%
##175%
##1958
##1975
##1986
##1~10
##2080
##2400
##2529
##3200
##3250
##3400
##50%,
##5500
##8500
##9~10
##GBCI
##Keys
##‘100
##가격보다
##가구업체
##가능하고
##가동률은
##가로수길
##가리키는
##가맹점이
##가맹점주
##가입자를
##가정에서
##가져갔다
##각도에서
##간단하다
##감가상각
##감당하기
##강남점을
##강화된다
##개국에서
##개별인증
##개선되지
##개선하고
##개선하기
##개설했다
##개정안에
##개정으로
##개최하는
##거래실적
##거래하는
##거부하고
##거부했다
##거주하는
##건강하게
##건설업이
##건조기를
##걸러내는
##걸림돌이
##것만으로
##결과였다
##결정되는
##결정한다
##겹치면서
##경기부양
##경기전망
##경영실태
##경영진을
##경영학과
##경우에도
##경인주물
##경쟁력도
##경제계에
##경제주체
##계열사에
##고객납입
##고객들을
##고객층을
##고려하지
##고민하고
##고압가스
##고용하는
##골드만삭
##공개하지
##공급량을
##공기업의
##공기업인
##공동대표
##공략하는
##공시지가
##공유했다
##공청회를
##과거에는
##과세표준
##관람객의
##관세청은
##관심사다
##교보문고
##교육하는
##교통안전
##구석구석
##구성하고
##구성하는
##구성한다
##구축사업
##국가들의
##국제표준
##균일하게
##그만두고
##극대화한
##근로기준
##근무하고
##근무했다
##금융그룹
##금융비용
##급변하는
##기가스틸
##기관투자
##기능이다
##기다리는
##기대만큼
##기대하는
##기득권을
##기록하며
##기부하고
##기부하는
##기술금융
##기업경영
##기업공개
##기업들과
##기자와의
##기재부의
##기존에는
##기축통화
##긴급경영
##김포공항
##까다롭다
##깨끗하게
##나빠졌다
##나섰다는
##나타내는
##납부하는
##납세자의
##낮아지면
##내놓기도
##내려놓고
##내부에서
##내부에선
##내세우며
##냉동보관
##네거티브
##네덜란드
##네이버의
##노동개혁
##노동계는
##노동계의
##노력하는
##노력했다
##높이면서
##뉴트리션
##늘려가고
##다각화를
##다이아몬
##단계별로
##담당한다
##대기업도
##대기업을
##대외경제
##대응하고
##대주주가
##대중교통
##대체재로
##대타협을
##대학들은
##대학생을
##대화하고
##데이비드
##도와주는
##도입하고
##돌려주는
##돌출하는
##동일인은
##되겠다는
##되물었다
##둔화하고
##들어섰다
##들어줬다
##디디추싱
##디지털을
##딜로이트
##따져봐야
##뛰어넘는
##락앤락이
##로켓페이
##롯데리츠
##롯데멤버
##롯데지알
##리스크가
##리스크를
##리프트는
##마무리할
##막아주는
##많아진다
##매뉴얼을
##매니저는
##매력적인
##매장이다
##매트릭스
##머물렀다
##먹거리로
##메시지는
##면담하고
##면세점에
##명분으로
##명시했다
##모두투어
##모색하고
##못했다는
##무궁무진
##무산됐다
##무역보험
##문제였다
##미국에선
##미래성장
##미지급분
##밀폐용기
##바뀌면서
##바나나는
##바이어와
##반도체다
##반영하고
##받는다고
##받으려면
##발굴하기
##발생하자
##발표하고
##방문객이
##방향성을
##배경으로
##배출되는
##배출하는
##배출했다
##배터리가
##버금가는
##번째부터
##벌어졌다
##법인세를
##법제화를
##벤처펀드
##변화하고
##보따리상
##보여주기
##보이면서
##보장하기
##보험개발
##보험료는
##보험상품
##복합문화
##봉사활동
##부각되고
##부과하면
##부과했다
##부담으로
##부동산에
##부문으로
##부분에는
##부상하고
##부진했던
##부품사는
##분명하다
##분야에선
##분위기는
##분할한다
##불꽃쇼가
##브라렛은
##브레이크
##비공개로
##비롯됐다
##비수도권
##비슷하게
##비자카드
##비전선포
##빈패스트
##빙그레는
##빨라지고
##사람들과
##사랑받고
##사랑받아
##사업자는
##사업장의
##사외이사
##사전금융
##산안법은
##산업계의
##산업부는
##산업시설
##산업에서
##산정하는
##살펴보고
##삼성그룹
##상담회를
##상당수가
##상당수는
##상생발전
##상승률은
##상승률을
##상승세가
##생겨났다
##생성하는
##생트로페
##서울사무
##선도해온
##선보였고
##선사하는
##선점하기
##선호한다
##설계됐다
##설정금액
##섬유유연
##성균관대
##성장잠재
##성장하기
##성적표를
##세계경제
##세이프티
##세탁기에
##소득분배
##소비자로
##소비하는
##소식지를
##손익분기
##수익성도
##수입되는
##수출됐다
##수출에서
##숙명여대
##순손실을
##순환변동
##스리랑카
##스마트홈
##스위티오
##스타일로
##스탠더드
##스토리를
##스트리밍
##스페이스
##슬라이딩
##승부수를
##시가총액
##시너지가
##시상식을
##시행된다
##시험차는
##식당에서
##식문화에
##신상품을
##신설하고
##신청하고
##신청했다
##실손보험
##실정이다
##쏟아부어
##아이커는
##안건으로
##안내문을
##안정성을
##안정성이
##안팎에서
##알레르기
##알려준다
##애경그룹
##애슬레저
##양도소득
##어디까지
##어려웠다
##어린이를
##어시스트
##어우러져
##업종으로
##여겨지는
##역량지수
##연구원이
##연기연금
##연유커피
##예방하는
##예산정책
##예정됐던
##오라관광
##오버랜드
##오피니언
##옴니스토
##완구업체
##완료되면
##완료했다
##요거트를
##요구안을
##우려되고
##우수기업
##운수권이
##운영되고
##운영된다
##운항증명
##웅진그룹
##원격제어
##원양어선
##원인이다
##원적외선
##원칙으로
##위로했다
##위메프가
##위원들은
##위원장을
##위원장이
##위원회는
##유리아쥬
##유리하다
##유용하다
##유지하기
##유지하면
##유치하는
##은행권에
##응급환자
##응답자는
##응답했다
##이날까지
##이날부터
##이노비즈
##이메일을
##이물질이
##이번에도
##이색적인
##이스라엘
##이어진다
##이용한다
##이전까지
##이해하기
##이해하지
##이행하지
##인사말을
##인수가격
##인수전이
##인수하면
##인식되고
##인식하고
##인식하면
##인위적인
##인적자원
##인프라와
##인하했다
##일러스트
##일으키고
##일찍부터
##일컫는다
##임시정부
##임직원은
##있겠느냐
##있다삼성
##있다이날
##있다이번
##있다특히
##있다현대
##있었다고
##자구안이
##자동이체
##자동차의
##자산으로
##자유적금
##자회사를
##자회사의
##작동한다
##잠재력을
##잡아주는
##장악하고
##장애인의
##저장하고
##적용되면
##적용하기
##적용하면
##전개하고
##전기차는
##전기차와
##전기화물
##전년대비
##전달보다
##전문가다
##전문가로
##전문가의
##전문경영
##전문성과
##전문점을
##전문회사
##전성기를
##전시하고
##전시회는
##점에서다
##접목하는
##정규직을
##정상회담
##정식으로
##정책기획
##제시하는
##제안서를
##제작한다
##제조업은
##제조했다
##제출하지
##제품개발
##제한하는
##제한했다
##조달교육
##조달청장
##조선사를
##조선사의
##조선소를
##조정됐다
##조정하고
##족저근막
##종합식품
##주고받는
##주도했다
##주목했다
##주유소의
##주의해야
##주택금융
##줄어들면
##줄여주는
##중단됐다
##중단하고
##중단하는
##중이라고
##증가세를
##증여세를
##지급보증
##지급액이
##지급여력
##지난달엔
##지난해에
##지목했다
##지방은행
##지배하는
##지분율을
##지속하고
##지원으로
##지자체의
##지켜봐야
##직원으로
##직장인을
##직후부터
##진두지휘
##진지하게
##진출하고
##집중했다
##차단하고
##차단하는
##차량이다
##차입금은
##참여하지
##창업자가
##창업진흥
##찾아보기
##책임자는
##청년상인
##청년장병
##체험하고
##초코파이
##최고기술
##최고운영
##최근까지
##최저치를
##출범식을
##충전하는
##충족하면
##취득했다
##취업자가
##측정대행
##치러진다
##카고팬츠
##카드사가
##카페라떼
##커피업계
##코스맥스
##콘셉트는
##콘테스트
##쿠팡보다
##크로스백
##클린가드
##키워드는
##탄자니아
##탑승률이
##테크노돔
##통계청의
##통신장비
##통큰치킨
##투명성을
##투자기관
##투자유치
##투자처를
##파악하기
##파업으로
##판결했다
##판매하며
##팹리스가
##펀더멘털
##편성했다
##편의성과
##평가받고
##폐지하고
##포기하지
##포함되지
##표현하는
##푸드케어
##푸본현대
##품목에서
##풍부하고
##프로세스
##플라이강
##하우스쿡
##하이마트
##하이얼이
##학생들이
##한가운데
##한국산업
##한국인이
##한국허벌
##함께했다
##합의안을
##해명했다
##해석했다
##해소하는
##해외영업
##행정지도
##향상으로
##혁신금융
##혁신제품
##현대적인
##현대카드
##현행법상
##협력사로
##협약으로
##홈플러스
##확대되는
##확보하게
##확정치가
##환경보호
##환경부가
##환율조작
##회복했다
##회생절차
##회원사의
##효성티앤
##휘발유와
##휴대폰을
##흡수율을
가스공사는
갈라파고스
경사노위는
관리시스템
괄도네넴띤
국내에서는
국토교통부
금융당국은
금융중심지
기업으로서
노우라인은
동남아시아
드래곤시티
리코스메틱
만달러였다
메탈리너스
무인항공기
배움카드를
복합터미널
브로드밴드
삼성전자의
삼성화재는
상공회의소
상생포럼은
서프라이즈
석유화학은
소비자들이
손해보험은
신의성실의
신한카드는
아직까지는
억달러에서
억달러였다
억원가량을
억원어치가
억원어치의
업종별로는
연구위원은
원으로부터
일각에서는
정위원회와
제일제당의
중견기업에
지난해에는
크라이슬러
투자증권은
트레이더스
푸드케어는
프로그램을
하나금융은
한국은행은
현대모비스
홈앤쇼핑은
(-17%)
(230%)
(3,715
##15~20
##2000~
##24~26
##40~50
##가스공사의
##가이드라인
##간편이유식
##경제정책에
##경제활력을
##계열사들도
##계열사들의
##계열사별로
##계열사와의
##공공기관에
##공기조화기
##구조조정과
##구체적으로
##국무조정실
##군사정부는
##규제자유특
##극대화하는
##근로자들의
##금융교육을
##금융연구원
##금호산업은
##기대합니다
##기본금리가
##기업가치를
##기업이지만
##기업인들이
##끌어올리고
##나서겠다는
##남양유업은
##남양유업의
##네이버페이
##노동조합은
##노력해왔다
##농협중앙회
##높아졌다는
##높이겠다는
##늘어나면서
##닥터자르트
##단체협약을
##대구은행은
##대한항공이
##덕분이었다
##동원그룹은
##동원산업은
##두려워하지
##둥펑위에다
##드래곤시티
##디자인했다
##때문이다이
##뛰어올랐다
##롯데카드를
##롯데홈쇼핑
##르노삼성에
##리스크관리
##마니아층이
##마무리했다
##만들어졌다
##말했다올해
##말했다이날
##말했다한국
##말했습니다
##맘스터치는
##매트리스는
##멀티미디어
##명실상부한
##명예교수는
##명예회장의
##모바일에서
##목표입니다
##무역대표부
##무역수지는
##무역협상이
##무역확장법
##문제점으로
##미국에서는
##민주노총은
##바리스타를
##바리스타의
##바이낸스가
##박사학위를
##발굴하기로
##배송해주는
##배스킨라빈
##뱅앤올룹슨
##버터플라이
##베오플레이
##베트남으로
##벤처기업의
##보도자료를
##보여준다는
##복합쇼핑몰
##본아이에프
##부문에서는
##부문에서도
##부족하다는
##부채비율은
##브랜드라는
##브랜드로서
##블랙타이거
##사업모델을
##사업자들이
##사업회사인
##사회공헌을
##사후서비스
##산업혁명을
##삼성중공업
##상품기획자
##상품으로는
##샌드박스로
##생산능력을
##서울디지털
##선착순으로
##소득대체율
##소매판매가
##소외계층에
##쇼핑몰에서
##수소충전소
##수준이었다
##수출계약을
##수출입은행
##순이자마진
##스마트폰과
##스타트업과
##스타트업은
##스토리월은
##스트라이프
##시가총액은
##시급하다고
##시상식에서
##시작하면서
##시작했다는
##시장에서의
##신성장동력
##신용등급이
##신용카드로
##신용평가사
##신한은행과
##실리콘밸리
##심해지면서
##안전브랜드
##안정자금은
##알고리즘을
##양도소득세
##어린이날을
##어린이들의
##어린이들이
##엔제리너스
##연결해주는
##영업점에서
##영향이라는
##오래전부터
##올해부터는
##우려된다는
##우리나라의
##우리은행의
##우선순위를
##우한분공사
##웅진씽크빅
##원스톱으로
##이끌어내는
##이끌어냈다
##이디야커피
##이용자들의
##이자보상배
##이자소득이
##인증기관인
##인터넷뱅킹
##임금체계를
##임직원에게
##있다정부는
##자본주의의
##자영업자가
##재정경제부
##전달했다고
##전자레인지
##전체회의를
##정년퇴직자
##정부로부터
##정상적으로
##정책자금을
##제네시스의
##제조업체다
##조달시장이
##주주총회를
##중고차금융
##중소기업계
##중요하지만
##중요해지고
##증가했지만
##지금이라도
##지난달에는
##지원사업을
##직원들과의
##진행했다고
##참석자들과
##참석자들이
##채용박람회
##청년일자리
##체감실업률
##초코파이는
##최소자본금
##최소화하고
##최저임금과
##추진해왔다
##출범시켰다
##측면에서는
##콘퍼런스콜
##큐그레이더
##키우겠다는
##킨텍스에서
##테이크아웃
##토론회에서
##투자자들은
##특징이다이
##파이프라인
##패러다임이
##포모사본드
##폴리에틸렌
##프로그램이
##프로모션을
##플라워박스
##플랫폼이다
##하이세이버
##한국은행에
##한국은행은
##한부모가족
##한화그룹이
##할인해주는
##합작법인인
##해저케이블
##핵심협약은
##핵심협약을
##행사에서는
##현대캐피탈
##협력사들이
##홈앤쇼핑은
##확보한다는
##활성화하고
##효도잔치를
##휘발유값은
##휴대폰으로
##흘러나온다
노동소득분배
미래기술육성
상표부착생산
스노우라인은
어드바이저가
오토모티브는
중기중앙회는
파리바게뜨는
한국경영자총
(231%),
##30~35%
##강소기업으로
##강조했다이날
##구조조정으로
##국회예산정책
##금융위원장은
##기술보증기금
##기아자동차가
##기업구조조정
##기업으로부터
##기획재정부는
##기획재정부와
##끌어올린다는
##넥센타이어는
##농협금융그룹
##당기순손실을
##당기순이익의
##두산인프라코
##디스플레이를
##라이트하이저
##마련했습니다
##말했다정부는
##미연탄화수소
##바나나맛우유
##바디프랜드의
##받아들여지지
##부가서비스를
##비즈니스모델
##사업보고회를
##사회안전망을
##설명했다국내
##세계철강협회
##세미나에서는
##소득대체율을
##소비자로부터
##스타키스트를
##시장점유율은
##시장조사기관
##신용보증기금
##아모레퍼시픽
##아시아태평양
##아이스크림을
##어린이들에게
##영업이익률이
##우선협상대상
##우수제품으로
##위해서입니다
##유로모니터에
##인천국제공항
##인터컨티넨탈
##일렉트로마트
##임직원들에게
##장기적으로는
##재무구조개선
##정부세종청사
##제너럴모터스
##주주총회에서
##중소기업으로
##지역난방공사
##초미세먼지를
##추진하겠다는
##카카오뱅크가
##카카오페이는
##컴퓨터공학과
##파리바게뜨가
##팝업스토어는
##패션그룹형지
##폴리프로필렌
##프리미어리그
##하나금융지주
##하반기부터는
##하이브리드카
##하이트진로는
##한국산업단지
##한국타이어는
##한반도선진화
##현대모비스는
##현대미포조선
##현대오토에버
##환경호르몬이
산업통상자원부
아시아나항공을
중소벤처기업부
프라이빗에쿼티
한국소비자포럼
##개별인증번호를
##갤러리아면세점
##건강기능식품을
##공정거래위원장
##롯데하이마트는
##메르세데스벤츠
##미니클러스터는
##브로그앤머로우
##사회공헌활동을
##소비자들로부터
##신한금융그룹이
##아시아개발은행
##에어프라이어를
##임시주주총회를
##자산유동화증권
##전경련회관에서
##중소기업인들은
##중소벤처기업이
##최고운영책임자
##컨벤션센터에서
##크라우드펀딩을
##투썸플레이스의
##한국가스공사가
##한국경제연구원
##한국브랜드경영
##한국장애인고용
##한국허벌라이프
##현대렌탈케어는
##현대렌탈케어의
##환경노동위원회
청년창업사관학교
##공정거래위원회에
##국민경제자문회의
##국민연금개혁특별
##두산인프라코어는
##라스베이거스에서
##로보어드바이저가
##산업통상자원부가
##산업통상자원부에
##삼성디스플레이가
##소상공인연합회가
##신세계인터내셔날
##아프리카돼지열병
##있다현대중공업은
##전국경제인연합회
##피아트크라이슬러
##한국경제연구원은
##한국소비자포럼과
##한국전기안전공사
##한국항공우주산업
##현금자동입출금기
##현대중공업그룹의
테크니컬센터코리아
##과학기술정보통신부
##서울지방국세청에서
##한국테크놀로지그룹
##한국자동차산업협회에
##중소벤처기업진흥공단이
##한국타이어앤테크놀로지
##한국타이어월드와이드는
)”
,1
3·
5’
6,
7’
95
AD
AG
Al
BJ
BX
CP
GU
HE
HO
Hi
IA
In
JB
JC
ME
ND
NT
St
US
VP
dr
el
if
im
ma
nm
ob
qu
·1
·5
ᄋᄌ
“‘
”▶
→3
→6
##&
##j
##v
##故
##깬
##껍
##널
##닷
##롭
##룩
##묘
##뱃
##벙
##쇄
##숯
##썬
##앰
##앳
##잣
##죄
##줍
##즙
##짠
##쿡
##탱
##템
##틔
##팍
##푹
가든
가발
가짜
간섭
간에
간을
감자
감치
값도
강생
강의
개는
개척
갱신
건도
검진
게는
결의
경동
경유
계산
계인
고리
고마
고압
공격
공대
공모
공무
공연
공행
공화
광을
교류
교보
구리
구와
구의
구이
국방
국산
국수
국채
국회
군에
권역
그때
그로
그룸
근무
급이
급적
기니
기법
기쁨
기상
기성
기엔
기적
기초
기회
깍악
꼬치
꿈이
나스
나절
낚시
난과
날드
남은
남자
났을
내며
내야
냉방
냐고
넓게
년께
노딜
노마
노트
노피
논현
농어
누진
누출
능한
니가
닝을
다들
다산
닥을
답게
당사
당해
당히
대도
더기
데크
델링
도마
도만
도입
돋움
돌이
동감
동맹
돼도
되길
두면
둔화
둥중
듀얼
드형
득을
든다
등장
등포
디가
디스
딤돌
라돈
래그
량에
러닝
러멜
러버
런치
레고
레몬
레쉬
레프
렉터
력의
렸고
령이
로얄
로코
록달
론과
론도
론의
롤러
룩은
룬다
류의
륜차
르푸
리대
리던
리빙
리커
리큘
리힐
립식
립이
릿한
마롬
마야
마침
막걸
막을
만우
말고
망고
매년
매직
매칭
먹기
먹을
먹자
메모
멘토
명도
명박
모노
모닝
모던
모를
모빌
모아
목은
몰이
무선
무실
무즈
미니
미로
미술
미식
미트
민은
민의
민정
밋빛
바타
반떼
반월
발명
발생
발성
밥콕
방의
방이
방한
배우
배추
백설
백한
백혈
밸류
밸리
번이
범위
범일
베라
베터
변을
변호
변환
병소
병중
보리
보맵
보의
본점
봐라
부글
부당
부드
부실
북미
분도
분류
분자
분한
분해
불가
불이
붙을
블라
블랑
블럼
비크
비행
빨리
사드
사우
사전
사퇴
산수
산전
살균
삼광
삼화
상대
상법
상상
상저
생님
생이
서류
서준
석사
석탄
선정
설화
성욱
성한
성화
성환
세기
세라
세무
세부
세엠
세일
센스
셨다
셨던
소영
소호
솔루
순혈
스당
스런
스만
스킷
스핀
슬림
슬립
습기
승의
승해
시고
시께
시엔
시화
신선
신주
실증
실천
실패
실한
심과
쌀빨
썼다
아뉴
아들
아리
아무
아산
안도
압기
았고
액만
액에
액화
앤가
야당
야키
약한
양은
어려
어리
억의
억제
언을
언츠
언컷
었나
에르
에쓰
엔젤
엠트
여자
역점
연기
연세
연횡
열이
였기
영석
영역
영은
영주
영호
예비
오뚜
오래
오브
완성
외형
요소
요원
우트
운이
운전
움과
워진
워츠
원생
원순
원안
원칙
원큐
월로
웰컴
위와
유는
유황
육아
율에
음파
의결
의적
이든
이론
이병
인문
인분
인상
인승
인한
일론
일류
자수
작물
작품
잔의
잔틴
잡을
장난
장우
장학
재도
재벌
재의
저기
저녁
저한
전도
전송
절대
절염
점의
정동
정유
졌을
조가
조리
조언
조용
조웅
조치
족의
존을
종도
종사
주문
주세
주유
주현
준공
준모
준연
중간
중동
중형
즈모
증류
지암
지오
지정
지책
지프
지현
진도
진료
진에
진출
질소
질식
질지
집진
차도
차와
참여
참치
창조
창현
책에
처인
천섭
천에
청의
청호
체감
초청
촉각
추구
출범
충당
충동
충북
취임
츄어
측정
치만
카가
카세
카콜
카트
카풀
캠코
컬러
컵은
쿠폰
키아
태신
터운
텔링
토넛
토록
톡은
톤은
통행
트래
트윈
틈새
팀과
파괴
팔마
평생
포먼
포상
포크
포털
폰에
플랫
픔을
핀크
하드
하러
하진
학력
학파
한석
한수
한전
합격
해사
해소
해오
행안
행태
헤파
헨리
혁명
현안
호황
화담
화도
화돼
화합
확대
환산
황사
회생
후가
후드
후생
후의
흡기
희대
(37
(38
(4)
(46
(79
0%,
171
20)
267
299
2~4
365
419
470
AOC
API
APR
BIS
CIO
CRO
Caf
ELS
IMO
IND
IRP
ITC
MIT
MRO
MWC
MWh
NGT
NIE
NPD
OEM
ROE
RPA
TCK
TOE
UGU
WTI
any
ath
bal
dex
ech
enc
ent
fur
ice
ile
inf
itt
ive
kWh
ons
~22
~90
·11
·25
’(3
##'5
##74
##Be
##CE
##DH
##EY
##GN
##OO
##SM
##SP
##Sh
##So
##WB
##li
##가꾸
##가량
##가변
##가할
##각인
##감귤
##감세
##감촉
##감칠
##강좌
##갖는
##갖다
##갖지
##개다
##개청
##개폐
##거둘
##거둬
##거북
##거제
##거짓
##건당
##걸레
##겉은
##겨우
##견딜
##견해
##결로
##겸임
##경각
##경과
##경보
##계량
##계류
##고율
##고추
##고층
##고통
##고향
##곤두
##골머
##공군
##공백
##공채
##공표
##교두
##구독
##구로
##구멍
##구역
##구한
##국격
##굳혀
##권역
##궐련
##그건
##그랩
##그루
##그쳐
##글렌
##글씨
##글자
##금강
##금과
##금산
##급선
##기공
##기를
##기밀
##기법
##기약
##기촉
##기하
##기한
##긴팔
##길로
##김대
##김민
##김을
##김장
##김진
##깊게
##깊숙
##깨닫
##꺾인
##꼽고
##꽃신
##꽃향
##꿀벌
##끈끈
##끌기
##끌자
##나름
##나베
##나열
##나흘
##남해
##낮고
##낮기
##내던
##내밀
##내연
##내진
##냉혹
##넓게
##넓다
##넘겼
##넘지
##넣지
##네트
##네파
##넥타
##노광
##노니
##노르
##노아
##녹산
##녹여
##논설
##농부
##누나
##눈부
##눌러
##뉴로
##뉴스
##느려
##늘지
##늦은
##늦지
##다룰
##다윈
##다져
##다중
##다지
##다툼
##다행
##단골
##단자
##단점
##단조
##닫게
##달릴
##답은
##답을
##닷새
##당밀
##당선
##대관
##대란
##대륙
##대성
##대수
##대유
##대피
##더할
##덮개
##데만
##도구
##도는
##도래
##도맡
##도산
##도수
##도장
##독소
##독주
##돈의
##돌고
##돌풍
##동부
##동북
##동시
##동요
##되겠
##되자
##될까
##두세
##둘레
##뒤따
##뒤엎
##뒷줄
##듣기
##들은
##들일
##디봇
##디올
##따지
##딱딱
##땀을
##똑똑
##뛰며
##뜨거
##뜻도
##라테
##랜드
##러닝
##레비
##렌즈
##렌지
##렌탈
##롤러
##리드
##리프
##린넨
##마장
##마주
##마침
##막내
##막상
##막판
##만화
##말라
##맛도
##맛있
##맞다
##매너
##매도
##매사
##먹다
##먹던
##먹은
##멈춘
##메울
##멧돼
##명소
##모건
##모를
##모서
##목돈
##목포
##몫이
##몰고
##몸과
##무려
##무시
##무언
##무이
##무척
##묵묵
##묵살
##문언
##문장
##물린
##물어
##뭐가
##미련
##미뤘
##미역
##미중
##미치
##민법
##밑돈
##밑에
##박병
##박용
##박철
##반성
##반신
##반해
##발대
##발로
##발매
##발사
##발수
##발열
##발판
##방해
##배가
##배나
##밸브
##버킷
##버틸
##번만
##법과
##벗겨
##벗어
##베스
##베타
##벽을
##변함
##변환
##보낼
##보냈
##보며
##보쌈
##보편
##복권
##복수
##볶음
##본뜬
##본앤
##봄의
##봤을
##부도
##부엌
##부유
##부탄
##부패
##북경
##북부
##분해
##불린
##불명
##불식
##붐을
##붙인
##뷰를
##블리
##빌릴
##빛의
##빛이
##빠뜨
##빨래
##뽑을
##사교
##사면
##사직
##사첼
##산악
##산재
##산지
##살고
##살릴
##살림
##삼표
##상가
##상근
##상소
##상응
##새겨
##샐러
##생소
##서산
##서정
##석좌
##석학
##섞여
##선구
##선방
##선이
##설화
##섰다
##세공
##세미
##세입
##소각
##소설
##소자
##소장
##소지
##속이
##손사
##손상
##솔직
##송도
##송유
##수만
##수매
##수업
##수월
##수중
##수증
##숙소
##숙원
##숙주
##순면
##숫자
##숱한
##쉬는
##스윙
##스키
##스펙
##승용
##시련
##시위
##시총
##시추
##시화
##식별
##식용
##신갈
##신기
##신일
##실수
##실외
##실직
##싫어
##쌀의
##쌓는
##써야
##쏠림
##쓰다
##쓰여
##씨의
##아키
##안양
##안의
##안쪽
##않자
##알맞
##알츠
##앓는
##앱인
##약관
##약품
##양보
##양분
##양육
##양이
##양쪽
##어떠
##어떻
##언뜻
##언컷
##얻게
##에버
##엔씨
##엔터
##역내
##역세
##역점
##연임
##연회
##열매
##염려
##영위
##영토
##예단
##예쁜
##오답
##오류
##오운
##오정
##오지
##오티
##오휘
##옥계
##온난
##온다
##옮긴
##와디
##와펜
##완충
##완판
##외관
##외신
##용역
##용지
##우량
##우울
##웃고
##웅장
##워치
##월트
##웰빙
##위드
##위상
##유류
##유정
##유커
##은평
##음파
##의약
##의욕
##의지
##의향
##이것
##이게
##이엠
##이영
##이지
##이진
##이현
##인견
##인물
##인민
##인성
##인솔
##일가
##일각
##일교
##일궈
##일로
##일우
##일절
##일찌
##일체
##일치
##일터
##읽는
##잃고
##잃을
##임상
##임신
##입지
##입혀
##입힌
##잇는
##자긍
##자른
##자를
##자세
##자질
##잔량
##잔에
##잔의
##잠을
##잠잠
##잡혀
##장동
##장병
##장에
##장이
##재차
##재활
##저희
##적혀
##전경
##전념
##전라
##전향
##젊고
##점거
##점프
##정글
##정답
##정동
##정석
##제보
##제인
##제지
##조력
##조수
##조카
##존치
##존폐
##좁아
##죠즈
##주범
##줄자
##중장
##증빙
##지게
##지경
##지아
##진은
##진작
##진전
##진짜
##질의
##질적
##집합
##짧게
##찌꺼
##찍을
##찍힘
##차의
##차콜
##착각
##착오
##참사
##창설
##챗봇
##처지
##청와
##초당
##초보
##초창
##총회
##추계
##춘계
##출현
##충칭
##취지
##층과
##치명
##치중
##칭찬
##캐슬
##캠리
##캠코
##코니
##콜라
##콩순
##쾌속
##쿠키
##쿨링
##퀴즈
##크래
##큰딸
##타격
##타당
##타파
##타피
##탈환
##태어
##택한
##터진
##테니
##토목
##톤의
##통로
##통밀
##투썸
##트랜
##특혜
##티쏘
##팀원
##파생
##파푸
##팔을
##팝콘
##팩트
##펫방
##펴는
##편찬
##펼치
##평년
##평준
##폐암
##폐차
##포근
##포도
##포카
##폭염
##표본
##푸시
##풀려
##풍선
##피트
##필기
##하라
##하순
##학술
##학파
##한방
##한신
##할까
##할증
##합심
##합종
##합한
##항해
##해남
##해약
##핸디
##행장
##헤이
##현수
##혈통
##혐의
##협동
##형인
##호남
##호명
##호찌
##호환
##화분
##환호
##활짝
##황당
##황무
##황반
##황산
##회고
##회로
##회상
##회색
##획일
##후를
##후발
##후지
##휩싸
##휴직
가구를
가능한
가량인
가면서
가방을
가입자
가족이
가지다
갔지만
강유역
개사에
개인과
개인의
개혁과
갤럭시
거리가
거리로
거리를
건설의
걸음을
게이트
겠는가
결과를
결제를
경받는
계약이
계층의
계획의
고객의
고용부
곰팡이
공간을
공간이
공단의
공사막
과감한
과거엔
관계망
관광형
관람객
관리가
관리자
광화문
국기구
국내에
국이다
국장은
권에서
귀포시
규모가
금융과
금융에
급격한
기계를
기구다
기념일
기면서
기사든
기술은
기술이
기술인
기재부
기지에
김대중
꿈이룸
나가던
나노급
나수지
나오고
나중에
납니다
넥스포
년에도
농산물
누구를
뉴트로
느냐가
다고용
다문화
다오는
닥안경
단가는
단계별
단계에
단체가
단체를
단체에
닷컴은
당국과
대책반
더라고
도까지
도널드
도로용
동남아
동일인
동제약
됐다이
됐으나
되므로
두산이
드린다
등급을
등장액
디즈니
따뜻한
따이궁
라가모
라고도
라면이
라비카
레이크
렌털은
룸에서
르시스
르푸릴
릅니다
리버리
리스크
리전트
리큘럼
린다는
링크샵
마이딘
마켓을
만원권
만원어
만위안
만유로
말이다
맨온더
머니가
머니를
먹거리
메이드
면허를
모델명
모델은
몬스터
문했다
물관리
미수박
미스라
민노총
바람이
바에서
바이어
밥솥을
방충망
버리는
벌리힐
법원에
법인세
베어링
베이어
병원에
보고서
보기도
보기로
보내는
보라고
보면서
보복설
보좌관
보증을
본드는
본부가
부산항
북캉스
분기와
분이면
브레인
브루노
비금융
비빔면
비은행
비타민
산업계
산업단
삼성은
상생형
색으로
색했다
생건은
생명과
선제적
설비가
세부터
세트로
센서가
센서를
소득은
소리로
소상공
소송을
손으로
수영선
수입차
수지가
순환이
스미스
스위치
스탠리
스터디
슬란드
슬래브
시간과
시설에
시설의
시설인
시카우
시켜야
시켰고
시트를
신고가
신성장
신재생
실적은
실제로
심했다
아스콘
아이커
아직도
아카데
어가고
얼라이
었는지
에디션
여개의
연계형
연구회
연료비
연비는
연수를
오리온
오피스
옵션을
왔지만
요거트
요금이
요즘은
용부는
용품을
우려는
우리도
운동에
워시는
워지고
워커힐
원가량
원리금
원의원
원짜리
웨이가
위권인
유플러
으려는
으므로
은행에
이다문
이들의
이익률
이즈먼
인다는
인력이
인증을
인지도
인지를
인치대
임직원
잉여금
자리가
자였다
자와의
자원을
자조금
자책임
자회사
장치와
장치인
재단을
재단이
재산권
적금은
적립식
전기는
전문점
전에도
전자를
절차를
점유율
정보가
정신이
정의선
제도가
제도는
제도의
제조원
조달러
조사와
주력자
중국과
증권사
지노선
지능형
지덴셜
지분율
지역과
질하고
질하는
집니다
째깍악
쪽으로
차라리
차량은
차량을
차산업
창업을
처리를
철저한
청에서
체티노
초격차
최종구
추세츠
추억의
치거나
칭다오
카르타
카바스
캐스트
캐주얼
커피를
컴퓨터
코노믹
콘서트
쿠팡은
크아임
타임스
탈원전
테리아
테크랩
테크의
토이트
토탈은
투어링
투자에
튜디오
트레인
트코인
티브로
티스틱
팀으로
파이브
팰리스
폐기물
포용적
포지엄
푸르밀
프리모
플로어
플로우
피아는
피크제
하이머
하이얼
하지는
학회와
한전은
해놓고
해보고
해석을
해졌고
해줘야
했더니
행위에
향미식
혁신과
협상은
협의체
호점은
호텔과
호텔의
환경이
환으로
휘발유
(168
(218
(44)
(500
(83,
,700
11%)
1200
1600
1800
1988
1990
2007
25%)
2700
3500
4300
5%),
5500
6%),
8300
8610
8800
9900
PHEV
PTPP
SCAA
VRDS
ater
cial
hina
ings
ship
tech
~15%
~400
’(27
##-24
##1+1
##105
##113
##121
##124
##128
##129
##132
##166
##174
##183
##1~5
##207
##210
##213
##215
##216
##232
##238
##252
##256
##261
##282
##287
##292
##2·3
##306
##307
##370
##377
##3·4
##420
##430
##475
##538
##543
##650
##670
##695
##6~7
##6~8
##75%
##765
##82%
##87%
##93%
##97%
##ABL
##ADB
##AHC
##AWD
##BSI
##BTS
##CDR
##ESC
##FSC
##GLC
##NBA
##NXP
##PCS
##POS
##Pro
##SFC
##SRI
##UHD
##VIP
##WMF
##‘0’
##‘10
##가공기
##가공한
##가구와
##가늠할
##가닥을
##가동에
##가동할
##가로등
##가방이
##가볍다
##가슴이
##가업승
##가전과
##가져온
##가족과
##가지가
##가치와
##가파른
##각별히
##각지에
##갈아타
##감당할
##감성과
##감세와
##감지할
##감축을
##값비싼
##값이다
##강은구
##강의와
##강자로
##강점인
##강화된
##강화로
##갖추기
##갖추는
##개인형
##개정된
##개정에
##개정은
##개최된
##개최한
##개편과
##개편안
##객실을
##갤러리
##거꾸로
##거듭나
##거라고
##거래량
##거래액
##거리를
##거세질
##거실에
##거액의
##거친다
##거푸집
##건물로
##건물을
##건설업
##건수도
##걷잡을
##걸그룹
##검출된
##검토를
##검토해
##것에는
##것인지
##것일까
##것임을
##격차는
##결과도
##결단을
##결론이
##결실을
##경고한
##경로는
##경우에
##경제수
##경조사
##경주차
##경차는
##경품을
##경험도
##경희대
##계산한
##계약은
##계정은
##계좌를
##고객도
##고객들
##고공행
##고기의
##고도화
##고르면
##고용의
##곤지암
##골목상
##공감과
##공급은
##공략이
##공론화
##공모를
##공법을
##공조기
##과거의
##과로사
##과자를
##과정과
##과제에
##관계인
##관광을
##관리도
##관보에
##관세율
##관절염
##광개별
##광원을
##교류가
##교수를
##구간설
##구단의
##구분이
##구입한
##구조와
##구체화
##구호를
##국가를
##국고채
##국회를
##굳건한
##굳히고
##권기홍
##권오갑
##권태신
##규정도
##규정에
##규정한
##균열이
##그것도
##그러다
##그룹에
##그룹은
##그룹이
##그리기
##그치고
##그치는
##극복을
##극성을
##극세사
##근간이
##근거를
##근무할
##금리도
##금상을
##금요일
##금융계
##금융과
##금융을
##금융의
##금지를
##금지와
##급등에
##급박한
##급부상
##기간과
##기간도
##기계가
##기대다
##기반인
##기분이
##기업당
##기자의
##기자재
##기준치
##기프트
##기회는
##기획전
##긴밀히
##김광두
##김교현
##김덕수
##김범석
##김병원
##김성주
##김정일
##김정태
##김치찌
##꽃을담
##꾸려진
##끊이지
##끌면서
##끝났다
##나가지
##나노중
##나누는
##나눠서
##나라에
##나서서
##나서지
##나섰기
##낙관적
##낙후된
##낚시용
##날렵한
##날에는
##남겼다
##납입할
##낮아질
##낮추기
##내기로
##내려가
##내리막
##내몰고
##내세울
##내실을
##내장돼
##냄새가
##냉동밥
##넓히는
##넘어갈
##넘었고
##넘었던
##넘으면
##노동이
##노렸다
##노선권
##노영민
##노조와
##논리적
##논의한
##논쟁이
##놀라운
##놀이기
##농가를
##농가와
##농심이
##높지만
##놓치기
##누르고
##누리는
##눈치를
##느꼈다
##느끼지
##다니엘
##다른데
##다용도
##단번에
##단체다
##단체와
##단협을
##달라붙
##달하던
##닭강정
##당국은
##당도와
##대가를
##대박을
##대상도
##대상자
##대수를
##대안을
##대에서
##대중국
##대처할
##대체로
##대체할
##대출로
##대타협
##대표주
##대학의
##대화할
##더하는
##도서관
##도수에
##도시로
##도시화
##도출해
##독일은
##독일의
##돌송이
##돌아갈
##돌아올
##돌아와
##동결된
##동국대
##동기와
##동력을
##동호회
##됐지만
##두꺼운
##두툼한
##둔화가
##둔화될
##듀제로
##들고나
##들여온
##들여와
##등까지
##디딤돌
##디렉터
##디즈니
##따르는
##떠난다
##떠리몰
##라디에
##라운지
##라이벌
##라이언
##라인업
##라지브
##라피아
##램프를
##럭스틸
##레그룸
##레벨이
##레인지
##로버트
##롯데시
##리더가
##리비아
##리스트
##릴레이
##마땅치
##마음에
##마이카
##마인은
##마진이
##마카롱
##마크를
##막았다
##만들면
##만만찮
##만만치
##만족도
##만족할
##많다고
##많아진
##말대로
##말씀을
##맛으로
##맞도록
##맞먹는
##맞서고
##맞이해
##맡겨도
##맡겨야
##맡기고
##매각과
##매개로
##매긴다
##매물을
##매입한
##매장과
##매장인
##맥주를
##맥주만
##머물고
##먹어도
##먼지가
##먼지잼
##멈추고
##멈추지
##메뉴와
##메디칼
##메이킨
##멜라트
##면에서
##면적에
##명단에
##명성을
##명소가
##명시적
##명이다
##명품을
##모금을
##모델에
##모두를
##모임에
##모토로
##목돈을
##목록을
##목표가
##무게는
##무기한
##무너져
##무의미
##무주택
##문구는
##문앞에
##문턱을
##문화와
##물건은
##물질인
##뮤지션
##미국식
##미국인
##미디엄
##미만이
##미쉐린
##미스라
##미얀마
##밀라노
##밀집한
##밀집해
##바닐라
##바다로
##바닷가
##바람과
##바지와
##박명재
##박정원
##박종규
##밖에서
##반기문
##반대를
##반발로
##반영구
##반영될
##받기로
##받아볼
##받았기
##발굴할
##발길이
##발돋움
##발생이
##발전사
##발전의
##발전할
##발판을
##발판이
##발표된
##발표될
##발행해
##밝히는
##밥그릇
##방글라
##방사선
##방점을
##방향의
##배려한
##배리어
##배우고
##배조웅
##버려야
##버전을
##버튼을
##번꼴로
##번번이
##벌금을
##벌리는
##범정부
##법안을
##법원에
##법인에
##베어링
##베이컨
##벼르고
##벽지와
##변경된
##변동이
##변속기
##변화다
##변화로
##보상을
##보아야
##보야지
##보완해
##보이콧
##보폭을
##본죽은
##본질을
##본체를
##부과한
##부문이
##부산과
##부서를
##부스에
##부스터
##부적절
##부지에
##부진과
##부채를
##부품과
##부활한
##분량의
##분명한
##분석에
##분야도
##분야와
##분할해
##불거진
##불꽃이
##불렸다
##불만도
##불신을
##불어나
##불황을
##브라운
##브러시
##블로그
##비스킷
##비어만
##비와이
##비용만
##비준과
##비파괴
##빈소에
##빌리는
##뽑으면
##뿜어져
##사건의
##사업비
##사업주
##사업체
##사옥에
##사용된
##사용량
##사우디
##사우스
##사이언
##사첼백
##사회가
##산업군
##산은을
##산학연
##살펴본
##살펴야
##삼성은
##상권이
##상금은
##상생형
##상세히
##상승분
##상승을
##상승할
##상암동
##상업적
##상이다
##상체를
##상큼한
##상표권
##상품만
##상환이
##새겨진
##새우를
##색상과
##색으로
##생각은
##생동감
##생전에
##서둘러
##서별관
##서서히
##서소문
##서울을
##서점을
##석영을
##선까지
##선도적
##선도해
##선두주
##선박이
##선별해
##선생님
##선이다
##선임된
##선출된
##선택과
##선택을
##선포식
##설거지
##설득해
##설립할
##설비가
##설비는
##설비와
##설정한
##성격이
##성공의
##성분의
##성향의
##세법을
##세제는
##세척이
##소득세
##소리가
##소수의
##소시지
##소외된
##소용이
##소음도
##소장의
##소정의
##소주와
##소주의
##소지가
##소통에
##소통이
##손님을
##손실은
##송금할
##쇳물을
##쇼핑이
##수급자
##수년째
##수립한
##수분에
##수술을
##수업을
##수익은
##수준은
##수혜를
##순위를
##순이다
##술값이
##숫자가
##슈워츠
##스며들
##스커트
##스콜라
##스팽글
##스피릿
##습기가
##습기에
##승인이
##시각적
##시간도
##시계는
##시계의
##시기도
##시기와
##시뇨라
##시대의
##시도할
##시동을
##시설로
##시설의
##시신을
##시에는
##시에도
##시장성
##시절의
##시진핑
##시청각
##시행을
##시황에
##식감은
##식당과
##식당에
##식당이
##식사로
##식생활
##식탁에
##식품을
##신고할
##신뢰의
##신분증
##신생아
##신설된
##신소재
##신용경
##신의칙
##신청은
##신체적
##신축성
##실명을
##실수를
##실업률
##실적과
##심리를
##심사와
##심장병
##심화할
##싶다고
##싶다는
##싼값에
##쌓았다
##쓰거나
##쓰였다
##아꼈다
##아들이
##아래에
##아레나
##아바나
##아반떼
##아카페
##안경테
##안으로
##안쪽에
##안착한
##안타까
##안팎에
##않았기
##알디와
##알록달
##암보험
##압박에
##압박이
##앞섰다
##앞장설
##앞좌석
##애착과
##양국은
##양국이
##양극화
##양성한
##어기면
##언급된
##얼굴에
##업계가
##업무와
##업황이
##없는데
##없어도
##없어야
##없어요
##없어진
##에뛰드
##에탄올
##에탄을
##엑시트
##엔트리
##엠보싱
##여기고
##여기는
##여당과
##여성을
##여유가
##여지가
##여파가
##역부족
##역사적
##역할은
##연계된
##연계할
##연구원
##연구자
##연구해
##연기가
##연동돼
##연락처
##연령에
##연령을
##연말로
##연봉을
##연장이
##열기로
##열기를
##열리고
##열리지
##열풍에
##영등포
##영입해
##영토를
##영향력
##옆에서
##예금에
##예금을
##예방을
##예산과
##예상은
##예상해
##예약할
##예외국
##예타를
##오가닉
##오더로
##오로라
##오르기
##오유니
##오이를
##오즈모
##오픈을
##옥죄는
##온스당
##올라온
##올라와
##올려도
##올려야
##올리기
##올해엔
##옮기는
##와이어
##완성된
##완제품
##완화한
##외국어
##외국에
##외에는
##요가복
##요구가
##요금이
##요인을
##요청에
##용량에
##용량은
##용량을
##용인시
##우려는
##우려해
##우리도
##우유와
##우유통
##우체국
##우호적
##운동에
##운동화
##운영돼
##운영이
##운용을
##운임은
##웃으며
##원두가
##원자핵
##원전은
##위반을
##위원이
##위주인
##위축된
##위축에
##위험한
##유능한
##유니슨
##유럽산
##유망한
##유발할
##유소년
##유언을
##유용한
##유용할
##유족을
##유증의
##유지한
##유진은
##유치를
##유튜버
##육성과
##윤석금
##윤석헌
##윤증현
##융합한
##은행법
##은행장
##음료의
##음식에
##음식이
##응답자
##의뢰해
##의류가
##의무를
##의무화
##의문을
##의장은
##이건희
##이규성
##이내로
##이동을
##이르지
##이명희
##이베이
##이보다
##이사는
##이상에
##이석희
##이세탄
##이슈를
##이어온
##이었고
##이웃과
##이전을
##이헌재
##이호승
##인간의
##인구는
##인근의
##인도분
##인도에
##인상된
##인상될
##인스파
##인식은
##인용해
##인정할
##인출할
##인텔이
##인하에
##일단락
##일반석
##일본을
##일상화
##일어난
##일했다
##임원이
##임종을
##입국장
##입으로
##입점할
##입주를
##입주할
##입지가
##입찰을
##입출금
##입혔다
##잇따른
##있거나
##있다또
##있다박
##있다안
##있었고
##자녀의
##자산인
##자세로
##자신을
##자연산
##자연을
##자연의
##자체의
##작년과
##작동할
##작업의
##작지만
##잘하고
##잠수함
##잠실점
##잠재적
##장거리
##장단기
##장려상
##장면이
##장비로
##장비와
##장사가
##장소로
##장소를
##장으로
##장하성
##재가동
##재개될
##재개를
##재능을
##재단이
##재무적
##재미와
##재반박
##재배치
##재직한
##재질의
##재협상
##저리로
##적극적
##적립해
##적발된
##적시에
##적용될
##적잖은
##적정한
##전공자
##전구는
##전국을
##전기가
##전락할
##전량을
##전력이
##전망과
##전문지
##전방위
##전세계
##전쟁이
##전체식
##전한다
##절박한
##점검을
##점검한
##점포가
##점포당
##접근할
##접수를
##정도는
##정도만
##정리한
##정책도
##정책은
##정책인
##정하지
##정한다
##제고에
##제공을
##제기된
##제도에
##제도와
##제시할
##제안을
##제작된
##제조를
##제조할
##제티오
##제품만
##제휴해
##젬엘이
##조건에
##조남호
##조달을
##조달이
##조달할
##조문을
##조부모
##조사와
##조성과
##조용한
##조의를
##조작한
##조절을
##조정을
##조정해
##조치에
##존중을
##종류가
##종류에
##종목이
##좋다고
##좋아진
##좋아질
##좋아할
##좋으면
##좋지만
##좌우할
##주가도
##주관사
##주문할
##주변에
##주소를
##주식은
##주인이
##주장한
##주주다
##주체가
##주춤한
##준공한
##줄었기
##중국발
##중문은
##중식당
##중심에
##중심인
##중이며
##중한석
##즐기기
##증가가
##증상을
##증진과
##지갑을
##지시를
##지역과
##지장우
##지점장
##지정될
##지정한
##지정할
##지출을
##지켜온
##지표로
##직매입
##직면해
##직영점
##직원과
##직원도
##진입장
##진출과
##질환을
##집닥은
##집회를
##징벌적
##차례나
##차익을
##차질을
##착공이
##착공한
##참가를
##참가할
##찻잎을
##창호는
##채권에
##채권의
##채널인
##채비를
##채용은
##채용할
##책임은
##책정해
##처분을
##처지가
##천정부
##천천히
##철강과
##철강코
##철수를
##철학과
##첨가한
##청년층
##청바지
##청약통
##청정을
##체지방
##체험을
##초기엔
##촉촉한
##촘촘히
##총매출
##총유기
##최병오
##최선의
##최철홍
##추경은
##추세가
##출국장
##출시될
##출연한
##출연해
##출입문
##출자한
##출하될
##충격이
##충전기
##취급을
##취업이
##측면도
##침구류
##침대를
##침체를
##카니발
##캐노피
##캐러멜
##캐세이
##캐스팅
##커버를
##커지면
##컨설턴
##컨시더
##컬러를
##컬러의
##컵라면
##코나의
##코마롬
##코스를
##코스피
##콘퍼런
##퀄컴에
##퀄컴은
##큐플랫
##크기다
##크기와
##크레인
##클락슨
##타이신
##타입의
##탈부착
##탑재한
##택시를
##터키는
##테라조
##토대가
##토스가
##토지에
##통과해
##통보한
##통합한
##통해서
##투자성
##투쟁만
##툭하면
##트레킹
##특가에
##특성과
##특징인
##특허권
##특화형
##팀워크
##파괴적
##파악한
##파킹통
##판매될
##판매점
##팬아웃
##퍼플독
##펀드나
##페이퍼
##편익은
##편익이
##평범한
##평소에
##평택시
##평평한
##폐자재
##폐지를
##폐질환
##포기할
##포럼에
##포럼은
##폭넓게
##표면이
##풀어야
##풍성한
##퓨처스
##프린팅
##플렉스
##피부과
##피크닉
##피해로
##피해자
##핀란드
##필립스
##필요도
##하나둘
##하이라
##학과를
##학위를
##한계에
##한국당
##한국도
##한국식
##한도가
##한라산
##한성대
##한수원
##한승희
##한은의
##한진이
##한화는
##할인한
##함유해
##합격생
##합류한
##합산해
##합의는
##합의로
##해결사
##해석을
##해석한
##해소해
##해제를
##했으나
##행동을
##행보를
##행복한
##행사의
##향하는
##허브티
##혁명의
##현금성
##현대힘
##현실이
##현안이
##현재는
##협력할
##형상과
##형성된
##형성될
##형편이
##호재로
##호텔과
##혼란에
##혼란이
##홈씨씨
##홈케어
##홈택스
##홍보대
##홍보와
##홍삼은
##화두로
##화물을
##화사한
##화성시
##화장실
##화재에
##화제를
##화질을
##화폐의
##확고히
##확인해
##확장과
##확장이
##확장한
##확장할
##확정치
##확정한
##확정해
##확충에
##환경과
##환경도
##환노위
##환자가
##환자의
##활동한
##활력이
##회원과
##회원이
##회의는
##회의실
##효율이
##효율화
##후둥중
##후레쉬
##후보를
##후유증
##휴게소
##휴비스
##흡입한
##흩어져
##희망열
##희망이
가스안전
가에서는
개점휴업
고용센터
공감경영
공기업의
공항점은
과정에서
관적으로
괴메카드
귀뚜라미
그런데도
극한가격
글라스는
글로벌은
금융감독
금융규제
금호고속
금호산업
기술역량
기업시민
년대까지
년대에는
농협은행
달러까지
닭볶음면
대법원은
대형마트
덩이처럼
데이터를
동반성장
되었다고
드립니다
디자인월
락앤락은
력발전소
론자들은
롯데하이
리서치에
마켓에서
만원가량
만원권을
만원권의
만원대인
만으로도
메시지를
반도체와
발전소가
백조세탁
백화점을
뱅크샐러
보건기구
보겠다고
보고서는
보유특별
보험증권
본격적인
봉사단은
부회장은
뷰티산업
브란스병
브랜드로
블루보틀
비상경영
사업부를
사업센터
산강유역
삼성페이
삼진제약
상저하고
새우초밥
서부발전
서비스업
설비투자
소비지출
수익률이
순혈주의
스미스는
스타필드
스탠바이
스포티지
시스템에
시장조사
시킨다는
신용등급
신용보증
신용정보
신한카드
아뉴기니
아이디어
아일랜드
언젠가는
에너팜은
에어포트
에프앤비
엠트론은
연합회가
와디즈는
왔습니다
용기만을
월까지는
위원장이
유리아쥬
이었다는
인력개발
인증기관
일까지는
일렉트릭
자금으로
자동차는
자동차의
자영업자
자이언츠
장수기업
적이지만
전달체계
전문인력
정책심의
정책으로
제일기획
제일주의
제조업의
제철소는
제한집단
조세심판
종합자금
지속적인
지역사회
직무급제
직접투자
짠맛말고
채움신고
칼텍스는
코백스의
코인워시
턴바스는
투자은행
투자펀드
파운드리
파이낸싱
파크에서
평가에서
평형대의
포인트씩
퓨리케어
프로젝트
프리필터
플랫폼을
피트니스
피트짜리
하느냐가
하면서다
하십니까
한진그룹
해사기구
해서라도
행복나눔
현대리바
협력기금
협의회는
홀딩스는
환경청은
(2000
(40%)
(50%)
(63%)
KOTRA
NYMEX
lobal
retro
~2000
~2015
‘2019
##005%
##065%
##104%
##1150
##1160
##1180
##1260
##1320
##136%
##144%
##145%
##15-1
##153%
##164%
##167%
##168%
##177%
##178%
##1930
##1945
##1967
##1968
##1971
##1973
##1978
##200%
##2028
##2029
##2035
##223%
##2265
##2300
##258%
##268%
##26~2
##275%
##280%
##2800
##285%
##30%,
##32%(
##382%
##445%
##5300
##5400
##6400
##643%
##8100
##999%
##CNBC
##LPGA
##“100
##“199
##가겠다는
##가격대가
##가격대는
##가격대를
##가능성과
##가능하게
##가능했다
##가세했다
##가스누출
##가시적인
##가입자의
##가전로봇
##가족들이
##가족에게
##각광받고
##간단하게
##간편송금
##간편하다
##감소세를
##감소하는
##감안했다
##감지되고
##강마루는
##강해졌다
##강화에도
##개념이다
##개발에도
##개발하게
##개발한다
##개선해야
##개성적인
##개척하기
##개척하는
##거느리게
##거뒀다고
##거듭했다
##거래액은
##거론하며
##거치면서
##건강검진
##건강관리
##건강보험
##건강하고
##건강함을
##건보료를
##건설업과
##건전성을
##검증하고
##게보린이
##게시판에
##겨냥하고
##견인했다
##결성했다
##경기도는
##경상수지
##경신했다
##경업금지
##경영계는
##경영계와
##경영권과
##경영난에
##경영대학
##경영수업
##경영수지
##경영진도
##경쟁력의
##경쟁률을
##경쟁하는
##경제관료
##경제적인
##경제활동
##경제활력
##경진대회
##계기였다
##계열사로
##고객으로
##고민하던
##고민했다
##고용부가
##고용부의
##고위관계
##고육지책
##고정거래
##고조되고
##고품질의
##골머리를
##곰팡이가
##곰팡이와
##공간이다
##공감대가
##공공건축
##공과대학
##공기업에
##공기정화
##공기질을
##공모전인
##공무원과
##공무원을
##공부방을
##공유가치
##공정하게
##공통점이
##관계자가
##관리자는
##교체하고
##국가경제
##국가대표
##국가에서
##국내보다
##국물안주
##궁금증이
##규제특례
##그대로의
##그룹들이
##극대화할
##극복했다
##극자외선
##근로감독
##근로자와
##금감원의
##금속노조
##금융사와
##금융위가
##금융위에
##금융정보
##급격하게
##급등하는
##기념식을
##기념행사
##기다려야
##기법으로
##기본으로
##기본이다
##기본적인
##기술력은
##기억하는
##기업결합
##기업인의
##기여도가
##기자회견
##기재부가
##기재부와
##긴밀하게
##깊어지고
##까다롭고
##깔끔하고
##끌어들이
##끌어올리
##나눠주고
##나눠주는
##나름대로
##나머지는
##나서면서
##나선다고
##낮아진다
##낮추기로
##내구성을
##내려받아
##내려오는
##내렸다고
##내보냈다
##내연기관
##냉동만두
##냉장고를
##넉넉하다
##넓어졌다
##네트워킹
##넥타이를
##노동계가
##노동계를
##노동자의
##노력해야
##노르웨이
##놀이터를
##높인다는
##뉴에이본
##뉴욕상업
##느껴지는
##느낍니다
##늘어나게
##다르지만
##다름없다
##다운로드
##다음달로
##다이내믹
##다이렉트
##다짐했다
##다채로운
##단기간에
##단축으로
##단축했다
##달하지만
##담당자는
##대구창업
##대기업은
##대림산업
##대만에서
##대변하는
##대비하고
##대비하기
##대상자는
##대진코스
##대출금을
##대출채권
##대표에게
##대학에서
##대한통운
##대화하는
##더플라자
##도금업체
##도달했다
##도약하는
##도출하지
##독거노인
##독일에서
##독창성을
##돌입했다
##동대문의
##동참하고
##동참하기
##동행지수
##되살리는
##두드리는
##둘러보고
##둘러봤다
##드라이빙
##드림가발
##들어가면
##들어서면
##들어오면
##들여왔다
##등록하는
##등록하면
##등장하기
##등지에서
##디자인도
##디자인돼
##디자인상
##디자인은
##디테일을
##때문이란
##떨어졌고
##떨어지지
##뛰어넘은
##뛰어들어
##로열티를
##로이즈에
##롯데슈퍼
##리더들은
##리더십을
##리사이클
##리얼코튼
##리챔먹자
##마곡동에
##마케팅과
##마트에서
##막아준다
##만들겠다
##만족도에
##많습니다
##많아지고
##많았다는
##말하기도
##말했다홍
##매출액이
##먹거리가
##메모리와
##멘토링을
##면세점과
##면에서도
##면제하는
##모니터를
##모던하고
##모뎀칩을
##모바일과
##모티브로
##모회사인
##목소리는
##목표가격
##몰입감을
##못하면서
##못했지만
##무관하게
##무브먼트
##무언가를
##무이자로
##문제라고
##물가지수
##미달하는
##미래대학
##미지수다
##미쳤다는
##바꾸기로
##바다에서
##바람막이
##바코드를
##박람회에
##반대했다
##반등했다
##반영하는
##반영하지
##반월도금
##반응한다
##받아들일
##받아왔다
##받았으며
##받았지만
##발빠르게
##발전하고
##발표에서
##발표자로
##발표하며
##발행했다
##발휘한다
##밝혔다이
##밝혔지만
##방문하지
##방문한다
##방문했을
##방송으로
##방안까지
##방안으로
##방안이다
##방위사업
##배분하지
##배상책임
##배출된다
##배출량을
##배출부과
##배출하고
##배치했다
##버려지는
##벌써부터
##벌여왔다
##벌이기도
##범위에서
##법적으로
##벗어나야
##베트남을
##벤처투자
##병행하고
##보금자리
##보내주는
##보수학계
##보유하는
##보입니다
##보조식품
##보험사의
##보험업계
##보호무역
##보호하고
##복잡하고
##복합단지
##본격화할
##부당하게
##부문별로
##부산시설
##부산에서
##부양책이
##부여하는
##부작용도
##부족하면
##분기마다
##분위기와
##불안감이
##불어넣고
##브리핑을
##블루오션
##비밀번호
##비용까지
##뿌리까지
##사각지대
##사라진다
##사랑하는
##사례처럼
##사명에서
##사양관리
##사업권을
##사업비를
##사업설명
##사업주의
##사업화할
##사용권을
##사용자는
##사용했고
##사이즈로
##사전점검
##사첼백을
##살아나지
##살아남을
##삼성생명
##삼진제약
##상무부는
##상용차를
##상응하는
##상임위원
##상장사의
##상하이에
##상호작용
##생각하면
##생산설비
##생산해야
##생존간식
##생태계의
##생활패턴
##생활하는
##서류작업
##서울시는
##석유수출
##석유제품
##석촌호수
##선도사업
##선도적인
##선명하게
##선보이기
##선사한다
##선정된다
##선제적인
##선진국과
##선진국이
##선출됐다
##선택권을
##선택하고
##선택했다
##선호도가
##선호도는
##설계하는
##설득력이
##설득했다
##설립하는
##설립한다
##설치한다
##성수동에
##성장세는
##세대교체
##세라믹타
##세미나는
##세분화한
##세종대로
##세종시는
##센터에서
##셀리턴의
##소개된다
##소득으로
##소비층이
##소요되는
##속출하고
##손꼽히는
##손꼽힌다
##손사래를
##수도권의
##수상자인
##수상하며
##수소경제
##수수료는
##수여했다
##수입금지
##수질분석
##수출량은
##수출시장
##수출전략
##수프리모
##수행해야
##숙성시켜
##순서대로
##순위에서
##슈퍼마켓
##슈피겔은
##스니커즈
##스마트한
##스모키한
##스타일링
##스타킹은
##스탬프를
##스토리월
##스포츠를
##스포티한
##승인했다
##승차공유
##시간대에
##시도하는
##시리즈를
##시작된다
##시작하자
##시장까지
##시행한다
##식재료에
##식품업계
##식품전문
##신경쓰고
##신기술로
##신라면건
##신뢰도가
##신세계톰
##신제품이
##신중하게
##신청하는
##실력으로
##실시하고
##실시한다
##실업률을
##실업자로
##실태조사
##실행하는
##실현하기
##심각하게
##심사위원
##쏟아지고
##쓴소리를
##아니어서
##아닙니다
##아동수당
##아라비카
##아마존의
##아시아와
##아이오닉
##아이템을
##아파트를
##악수하고
##악화하고
##안간힘을
##안내하는
##안전성과
##않았다고
##알아봤다
##압도적인
##압박하고
##앞세웠다
##액티비티
##양극화가
##양도하는
##양식장을
##어디에도
##어린이와
##어린이의
##얼어붙은
##업무보고
##업무에서
##업종별로
##업종에서
##업체에서
##없어지는
##없었다면
##없었지만
##에어컨은
##엑스트라
##엔드게임
##여기에서
##여기저기
##여름철에
##여성들의
##여성들이
##여성용품
##여성패션
##연구성과
##연구소는
##연구소의
##연구팀은
##연도대상
##연령대별
##연방정부
##연안에서
##영구채를
##영업적자
##영업점이
##영업하는
##영입했다
##예다함은
##예산으로
##예전부터
##예정대로
##오르기도
##오름세를
##오리지널
##오마카세
##오일쇼크
##오토매틱
##온돌난방
##온라인을
##올라서기
##올라왔다
##올랐다고
##올해에는
##와디즈를
##완료하고
##완벽하게
##완성된다
##완화하는
##요구하며
##요구해온
##요금제를
##요기요와
##요청하고
##요청하면
##우승자가
##우시에서
##운수권을
##운영하기
##운용사인
##운항하고
##울산시가
##움직임은
##원고들의
##원산지의
##원재료로
##위기감이
##위메프와
##위반으로
##위스키와
##위원장도
##위해서도
##위험성을
##윌리엄스
##유기적인
##유니폼을
##유독가스
##유력하게
##유지되는
##유치하기
##유통업체
##유통채널
##유틸리티
##육박한다
##육아휴직
##은은하게
##은행권의
##음식점을
##응답자의
##의견수렴
##의원들이
##의존도를
##이내에만
##이내에서
##이더리움
##이동하는
##이름에서
##이미지와
##이사장과
##이사회는
##이사회에
##이어간다
##이어지자
##이에이트
##이용하고
##이자소득
##이자이익
##이전에는
##이탈하면
##이화여대
##인건비가
##인건비와
##인상한다
##인수하며
##인재경영
##인천공항
##인프라도
##인프라인
##인피니티
##일반인도
##일반인용
##일본처럼
##일시적인
##일우재단
##일이었다
##일찌감치
##일축했다
##일하면서
##일회용품
##임금격차
##임대료를
##임원들과
##임원들은
##임원으로
##임차인의
##임플란트
##입력하는
##입력하면
##입장문을
##입주기업
##잇츠라떼
##자금난을
##자금으로
##자동변속
##자동차를
##자문회의
##자본으로
##자신들이
##자신했다
##자원개발
##자유여행
##자진신고
##자카르타
##작년까지
##잠식하고
##장난감을
##장소에서
##장착했다
##재단법인
##재무상태
##재해석한
##적립된다
##적발되면
##적용했고
##적자폭이
##전국금속
##전국적인
##전국한우
##전기차가
##전기차에
##전기차의
##전기화재
##전까지만
##전달됐다
##전문가와
##전문가형
##전문기관
##전문으로
##전산장애
##전선소재
##전자레인
##전주보다
##전형적인
##전환된다
##전환으로
##절반에도
##정교하게
##정리했다
##정산하는
##정책으로
##정치권의
##제거하고
##제기하고
##제기하는
##제소했다
##제조업을
##제조업이
##제조한다
##제조혁신
##제주에서
##제출하는
##제품부터
##제품안전
##제품에는
##제품이나
##제한속도
##조달기관
##조달하는
##조선사인
##조성됐다
##조언한다
##조정대상
##조짐이다
##조화롭게
##존재감을
##존재감이
##좁혀졌다
##종합검사
##좌우하는
##주력으로
##주력하는
##주문량이
##주민들을
##주민에게
##주방가구
##주식시장
##주식회사
##주어진다
##주재하는
##주행거리
##준공했다
##준수사항
##중기부가
##중기중앙
##중단했고
##중순부터
##중심에서
##중에서는
##중요성도
##중요하게
##중장거리
##즉석에서
##즐기려는
##증가하며
##증권거래
##증명했다
##지속되는
##지역아동
##지원금은
##지원기관
##지원대상
##지원센터
##지원책을
##지원책이
##지원해야
##지점에서
##지정하는
##직영으로
##직원들도
##직장인은
##진출한다
##진행하며
##집무실을
##집중순환
##차별화한
##착안했다
##찬바람과
##참가율은
##참가하는
##창구에서
##채권이다
##책임준공
##책임지고
##처음부터
##천일금형
##철저하게
##철학으로
##첨가물을
##첨단기술
##청년구직
##청년실업
##청소년과
##초기부터
##초기에는
##초반부터
##촉구하는
##촉진하고
##최상으로
##최소화해
##추가적인
##추가하는
##추정했다
##추진됐다
##추진하기
##추진했던
##추천하고
##추천했다
##추출물이
##출범시켜
##출시되는
##출연했다
##출자기관
##출자전환
##출자회사
##출전했다
##충당금을
##충족하는
##취업박람
##치사율이
##치열하게
##카드사와
##카메라와
##카카오의
##캐릭터와
##캠브리지
##커리큘럼
##컨버터를
##컨설팅과
##컨퍼런스
##코나보다
##콘셉트와
##콘텐츠로
##쾌적하게
##크라우드
##클래식한
##키워나갈
##키워드다
##키워드로
##타더라도
##타이어를
##탈질설비
##탑재됐다
##테이블에
##텔루라이
##토론하고
##토출구를
##통과해야
##통신칩을
##통증억제
##통합했다
##투입된다
##투입해야
##투자금이
##투자액은
##투자에서
##투자해야
##트럼프가
##트렌드다
##트위터를
##특별재난
##특허받은
##튼튼하게
##티셔츠는
##파국으로
##파이낸셜
##파이팅을
##파트너가
##파트너로
##판단하기
##판매하기
##패키지로
##패턴으로
##페라가모
##펩타이드
##편리함을
##편의점에
##편입된다
##편집매장
##편하다는
##평가한다
##평균보다
##폐쇄회로
##포스코와
##포함되는
##표기하는
##품목으로
##품질에서
##프랑스는
##프랑스풍
##플랫폼에
##플랫폼의
##피드백을
##피보험자
##피트니스
##필요하고
##필요한지
##하나하나
##하락세로
##하이얼은
##학생들의
##한국방송
##한국성장
##한도초과
##한미재계
##한솔제지
##한진칼은
##한진칼의
##한진해운
##한창이던
##할리스는
##할부금융
##할아버지
##할인율은
##할인하는
##함께한다
##함유량을
##함유량이
##합동으로
##합성어다
##합의안에
##합의하지
##합종연횡
##항공교통
##항공사로
##항공사를
##항공업계
##해결되지
##해결하고
##해결해야
##해상풍력
##해석하고
##해외결제
##핵심으로
##핸드백을
##행사장을
##향상됐다
##향상에도
##헤드램프
##현금결제
##현물출자
##현실화할
##현장으로
##호르무즈
##호텔롯데
##화상회의
##화석연료
##화웨이가
##화장품과
##화장품에
##화폐개혁
##확대하며
##확대하면
##확산되는
##확산하기
##확신했다
##확실하게
##확인하기
##확인했다
##확장되고
##확정되면
##활동하며
##활동했다
##활성화해
##활용되고
##활용되는
##회사들의
##회사채를
##회원으로
##후쿠오카
##휴테크는
##흑자전환
##흥미로운
결제시스템
공항공사가
금융권에선
금융위원회
금융지주가
나눔위원회
농협은행은
데크플레이
롯데그룹은
마켓컬리는
만원대까지
만원부터다
바리스타룰
보증기금은
부문에서는
불닭볶음면
블랙스톤은
블랙야크는
산업재해가
삼성전자가
서울팔래스
세븐일레븐
수영선수권
시크릿쥬쥬
시키겠다는
신라호텔은
아메카지룩
앤드푸어스
얼라이언스
연세유업은
원자력안전
월스트리트
유로시스템
인텔리전트
일회계법인
임금피크제
자녀장려금
자문위원회
자원공사는
자조금관리
정책연구원
제일제당이
주거래우대
중소기업의
중소기업이
칠성음료는
캘리포니아
텍사스원유
파트너스가
파트너스와
포인트가량
프로액티브
하티스트는
한솔홈데코
한진그룹은
현대백화점
협동조합이
홈쇼핑에서
(113%)
##'2019
##-03%)
##2018’
##20~40
##3347%
##HACCP
##Index
##Start
##jopen
##‘2017
##‘2020
##“2000
##“2016
##가맹본부와
##가맹본사가
##가맹사업의
##가맹점에서
##가산금리를
##가상화폐가
##가스보일러
##가운데서도
##감소하면서
##강조해왔다
##강화하겠다
##개별적으로
##개인적으로
##건설회사인
##결과물이다
##경기침체와
##경제연구소
##경제정책이
##경제지표가
##경찰공무원
##계획이었다
##고급스럽게
##고정관념을
##공기업들이
##공무원들이
##공무원연금
##공익위원은
##공통적으로
##구직급여를
##구축했다고
##국내에서만
##국무총리실
##국민연금을
##국민연금의
##국적항공사
##국제대학원
##그린알로에
##그중에서도
##근본적으로
##글로벌경영
##금호리조트
##급증하면서
##기능성침대
##기본금리는
##기업인들은
##기조연설을
##길어질수록
##나타났다고
##낙관적으로
##내놓겠다는
##내부적으로
##냉동보관밥
##네트워크도
##네트워크로
##네트워크와
##노동정책은
##노력하겠다
##노루페인트
##노후자금을
##논의했지만
##농협금융이
##높아졌지만
##늘리겠다는
##다각적으로
##다문화가족
##다보스포럼
##다우케미칼
##다음달까지
##다이아몬드
##다이어트를
##달성하려면
##당혹스러워
##대유위니아
##대출해주는
##데이터베이
##델라웨어주
##도입한다고
##동국제강은
##두산퓨얼셀
##들어가면서
##들었습니다
##디스커버리
##디자인이다
##디플레이션
##딜로이트안
##때문이었다
##떠오르면서
##떨어졌다는
##뛰어넘었다
##라디에이터
##라이선스를
##라이프스타
##렌털시장의
##롯데닷컴은
##롯데마트가
##롯데월드몰
##르노삼성의
##마사지하는
##만들었다는
##만족시키며
##많아지면서
##말했다국내
##맘스터치의
##맞아떨어진
##매사추세츠
##매일유업은
##매장에서는
##멜버른시내
##모건스탠리
##모터스포츠
##무선청소기
##무역전쟁을
##뮤직비디오
##미드스트림
##미세먼지에
##민주노총의
##반도체공동
##받아들이지
##발달장애인
##발암물질인
##발전시키며
##발전하면서
##방글라데시
##방진방충망
##뱅크샐러드
##베이징에서
##베이커리를
##벤처기업이
##벤치마킹한
##보복관세를
##보험계약에
##보험사들은
##보험상품을
##복합적이다
##부가가치가
##부가가치를
##부분파업을
##부산은행은
##부족하다고
##분명합니다
##불가능하기
##불공정거래
##불확실성에
##브랜드들은
##브랜드보다
##브랜드키가
##브레이크를
##블랙스톤은
##비전선포식
##비축기지에
##빅데이터로
##빅데이터와
##사업보고회
##사이에서는
##산업경쟁력
##산업은행에
##삼성카드는
##삼성화재가
##삼표시멘트
##상반기보다
##상하이에서
##새마을금고
##새집증후군
##생산기지를
##생산능력은
##생산능력이
##석탄발전소
##선정됐다고
##선정한다종
##성과급으로
##성장동력이
##소상공인과
##소상공인이
##소셜미디어
##수상했다고
##수성페인트
##수소연료전
##수작업으로
##수제맥주를
##수출대금을
##수출상담회
##수탁자책임
##스마트시티
##스마트폰을
##스마트폰의
##스타벅스의
##스타트업의
##스튜디오는
##스트레스를
##시각장애인
##시나리오를
##시스템통합
##시중은행에
##시중은행의
##시행한다고
##식기세척기
##신라스테이
##신한금융이
##신한카드가
##실패했다는
##심각하다는
##아모제푸드
##아시아나가
##악화되면서
##악화시키고
##안마의자가
##안전관리를
##안티에이징
##알츠하이머
##암모니아가
##암모니아를
##애널리스트
##야외수영장
##어려워지고
##어렵습니다
##에쓰오일은
##에이치케이
##연구개발에
##연구소에서
##연구자에게
##연수원에서
##영풍문고는
##예상되지만
##오로라월드
##오른쪽부터
##오유니통닭
##오피스빌딩
##온실가스를
##외주업체를
##외환위기가
##용평리조트
##우선적으로
##우정선행상
##운영하면서
##원유운반선
##원천기술을
##월트디즈니
##위메프에서
##위해서라는
##유니버시티
##유니온스틸
##유진그룹은
##은행연합회
##의사결정을
##이미지센서
##이어진다는
##이원화하는
##인수하기로
##인스파이어
##인증받았다
##인천터미널
##인큐베이터
##인테리어는
##일각에서는
##임직원들과
##입장에서는
##잇따르면서
##있다소비자
##자동차금융
##자동차산업
##자동차정비
##자랑스러운
##자율적으로
##작용했다는
##장례식장에
##장수돌소파
##장애인들이
##재무구조가
##재무구조를
##저축성예금
##저축은행의
##저축은행이
##적극적이다
##적용하기로
##전국적으로
##전기레인지
##전기화물차
##전략이었다
##전문가들을
##전문점이다
##전방산업의
##전시장에서
##전주페이퍼
##전체적으로
##전통시장과
##절반가량이
##정례회의를
##제공하고자
##제주항공을
##제품으로는
##조인트벤처
##조직문화를
##조직위원회
##족저근막염
##주기적으로
##주보험에서
##주유소에서
##주인공으로
##줄이겠다는
##중국에서도
##중국인들의
##중단하기로
##중앙아시아
##중앙연구소
##중앙은행의
##중요합니다
##증권사들은
##지역별로는
##지우쯔다오
##지원센터를
##직접적으로
##집단에너지
##차별화했다
##차원에서도
##참여하면서
##창업기업의
##천정부지로
##청와대에서
##체감경기가
##최소화했다
##최저임금에
##추진하면서
##출시했다고
##취업규칙을
##취임하면서
##친환경적인
##카바스백은
##카바스백을
##캠페인이다
##캠핑용품을
##컨소시엄을
##케이뱅크는
##코오롱그룹
##코오롱사회
##타계하면서
##태광그룹은
##터닝메카드
##토론해보자
##통화정책의
##트래버스의
##파고들었다
##파리크라상
##파운드리를
##파워트레인
##판단해서다
##판매가격은
##패션부문의
##패션연구소
##페스티벌은
##폐지하기로
##품질관리를
##프리미엄급
##하티스트는
##한국경제인
##한빛테크랩
##한시적으로
##할아버지는
##할아버지의
##합동대책반
##합리적으로
##해외시장에
##허드슨야드
##혁신성장과
##혁신성장의
##현대리바트
##현대상선은
##협력사들은
##협력업체를
##협력업체와
##홈쇼핑에서
##화장품으로
##확대한다고
##환경에서도
##회복하기에
##효성중공업
##후발주자인
##휴게소에서
##희망브리지
##힘들어졌다
강남호텔에서
경제사회노동
기후환경회의
내일배움카드
니꼬동제련은
대우조선해양
두산중공업은
롯데면세점은
롯데케미칼이
률협회컨설팅
르푸릴알코올
뱅크샐러드는
보험증권번호
사랑나눔재단
식품안전관리
심의위원회를
아트센터에서
엔지니어링은
엔터테인먼트
오렌지라이프
올컷다이어트
웅진코웨이는
인터내셔널의
카카오뱅크는
크아임파이브
현대미포조선
현대자동차의
(100%),
(83,600
##-245%)
##10~15%
##15~20%
##2019)’
##30~40%
##40%(10
##40~50%
##50~60%
##80~90%
##강화하겠다는
##검토하겠다는
##결정위원회로
##경영정상화가
##경제학자들은
##고용노동부에
##공기청정기에
##공익위원안을
##공정거래법상
##국가기술표준
##국민연금공단
##국토교통부에
##국토교통부와
##궁극적으로는
##금융감독원의
##금융라이선스
##금융위원회에
##금융위원회와
##금호타이어는
##긍정적입니다
##기록했습니다
##나노중공사막
##넥센타이어가
##노동생산성은
##노사관계제도
##달성하겠다는
##당기순이익이
##대신금융그룹
##두산중공업의
##뛰어들었지만
##롯데면세점이
##롯데손해보험
##롯데케미칼이
##롯데호텔에서
##롯데홈쇼핑이
##마감했습니다
##마시멜로처럼
##맞아떨어졌기
##명문장수기업
##바디프랜드는
##바리스타들이
##변동금리보다
##보험계약자는
##불가피하다는
##블룸버그통신
##사이언스파크
##사이언티스트
##산업연구원이
##서비스업생산
##서울역점에서
##설명했다롯데
##설명했다이번
##성과연봉제를
##세계보건기구
##세이프티롤러
##소프트웨어를
##수소연료전지
##스마트공장을
##스마트팩토리
##시장조사업체
##신세계그룹이
##애프터서비스
##업무추진비를
##역부족이었다
##연결재무제표
##완성차업체와
##외환시장에서
##우리금융그룹
##우수조달물품
##운영위원회는
##웅진코웨이의
##원자핵공학과
##웨이브히어링
##유리용기만을
##유지하면서도
##유치위원장을
##유통업체들은
##이세탄백화점
##임금피크제를
##자구계획서를
##자구계획안을
##장기보유특별
##장수돌소파는
##재무건전성이
##전세자금대출
##정기상여금을
##제공하겠다는
##제공함으로써
##조세심판원을
##종합부동산세
##중견기업으로
##중소기업과의
##중소기업들의
##중소기업인의
##증권업계에선
##집행위원으로
##청년추가고용
##청호나이스는
##초미세먼지가
##출자제한집단
##카카오뱅크는
##카카오뱅크의
##컨트롤타워인
##태양광발전소
##티웨이항공이
##파트너스퀘어
##파푸아뉴기니
##팰리세이드를
##팰리세이드와
##푸본금융그룹
##프랜차이즈의
##플라워티스틱
##한국가스안전
##한국동서발전
##한국씨티은행
##한솔홈데코의
##한진정보통신
##한화갤러리아
##할리스커피는
##해지환급금을
동남아국가연합
산업안전보건법
소득주도성장은
소득주도성장을
아시아나항공이
인베스트먼트는
인터넷전문은행
전기안전공사는
정보문화재단은
중소벤처기업이
투썸플레이스는
한국테크놀로지
현대렌탈케어는
현대삼호중공업
화학물질관리법
novation
##가스안전공사는
##국제전기자동차
##금융통화위원회
##기업경영컨설팅
##나이스신용평가
##뉴욕상업거래소
##더불어민주당은
##동반성장위원회
##동화자연마루는
##동화자연마루의
##레이크찰스에서
##석유수출국기구
##소득주도성장과
##아시아나세이버
##아시아나항공과
##업그레이드했다
##에어프레미아는
##에이지투웨니스
##여신금융협회장
##여신전문금융업
##오렌지라이프의
##올컷다이어트는
##일상생활에서도
##일자리안정자금
##있다스타벅스는
##자산운용본부를
##전기안전공사는
##중간지주회사인
##중소기업기본법
##중소기업인들이
##중소벤처기업에
##측정대행업체와
##코오롱스포츠는
##콘퍼런스콜에서
##크라우드펀딩에
##크레디트스위스
##한국경제신문과
##한국무역협회는
##한국조선해양과
##한국조선해양이
##한우자조금관리
##현대그린푸드가
##현대종합상사는
##홈씨씨인테리어
##화학물질관리법
바리스타챔피언십
산강유역환경청은
스페셜티커피협회
중소벤처기업부와
청년내일채움공제
한국소비자포럼이
##고용보험기금에서
##공정거래위원회가
##공정거래위원회의
##구간설정위원회와
##국가기후환경회의
##긴급경영안정자금
##롯데월드타워에서
##르노삼성자동차는
##리디노미네이션은
##리디노미네이션의
##말했다신한은행은
##밀레니엄포럼에서
##삼성미래기술육성
##쉐라톤서울팔래스
##스페셜티커피협회
##식품전문기업으로
##신촌세브란스병원
##아시아나에어포트
##유기발광다이오드
##전국금속노동조합
##정부조달우수제품
##중기중앙회관에서
##중소기업중앙회가
##최저임금위원회를
##추가경정예산안을
##현대자동차그룹은
금호아시아나그룹은
##2015~2017
##대한상공회의소에서
##스탠더드앤드푸어스
##주문자상표부착생산
##중소기업중앙회에서
##한국장애인고용공단
중소벤처기업진흥공단
##국제전기자동차엑스포
##글로벌혁신성장센터를
##애플리케이션프로세서
##앵커에쿼티파트너스는
##소상공인시장진흥공단은
##중소벤처기업진흥공단의
##한국테크놀로지그룹으로
##수상했다한국소비자포럼이
##쉐라톤서울팔래스강남호텔에서
##한국레미콘공업협동조합연합회
)→
,8
05
3(
3)
66
9’
?)
BP
Bq
CF
CV
DA
EQ
ET
FE
GA
GI
HP
IK
KC
LD
LV
MB
MH
MI
PI
PN
PW
QI
QP
Sv
TB
TE
Tb
To
UC
UI
UX
WS
ea
iC
iz
pe
sj
ud
um
ww
·7
”,
”‘
”“
”■
→2
##▶
##無
##깜
##껌
##꿋
##는
##닥
##덴
##득
##뜬
##멍
##빽
##십
##씀
##씽
##을
##짝
##첸
##턴
##텍
##톨
##틱
##틴
##펄
##헐
價稅
酒稅
가슴
갈동
감소
감에
갑질
값인
갔던
강경
개나
개방
개장
개호
거름
거시
검증
검출
겁게
겨도
겨운
결은
겼기
경준
경총
고래
고메
고씽
고에
곡동
곡선
FT
ON
##샷
각이
곳은
공과
공운
공이
공직
공포
공해
과자
관념
괄적
광수
광장
교원
굣길
구도
구두
구려
구슬
구요
국립
국물
국책
굿앤
권인
권한
규격
규연
그의
극을
근이
급분
급속
기밀
기저
기천
기투
기현
길과
김상
김은
김을
김정
김현
깅스
꼼수
꽃을
꽉찬
끄럽
나간
나머
나미
나쁜
낙훈
남북
납고
납품
내달
내용
내지
너의
너진
널티
네셔
넥센
넥트
년근
노경
노교
노랑
녹스
논의
농장
농촌
놔야
누가
뉴엘
니셔
닉을
님이
닛산
다방
다층
닥뜨
닥은
단인
닫이
담화
당을
대기
대다
대별
대세
대엔
대여
대외
대조
2·
Gb
##펌
계측
꿈을
년치
달에
대피
더가
더라
더슨
덕우
덩이
도구
도사
도산
도스
독점
돌을
동춘
두는
두대
둘기
둘째
둥이
듀오
들리
듬술
듯한
등과
등은
등할
딸기
땅콩
뚜껑
뜨릴
라라
라지
라크
라테
라한
락에
란계
란에
랐던
랜타
램은
량주
량진
런티
레기
레트
레핀
렉시
련의
렸을
령에
로아
로템
록업
론에
론티
롭고
루브
루비
룰루
룸을
르며
르스
르자
름을
리딩
리란
리맨
리본
리사
리시
리안
리자
리치
리코
리프
린토
릴라
립앤
립의
마찰
마티
만개
만든
만명
만카
말도
말이
맘마
망은
맥스
맥을
머쥐
머징
강소
결과
남이
낮은
돈까
렉서
먹고
메달
멘소
멘스
면이
명세
명주
명히
모듈
모로
모밀
모션
모집
목에
목조
몬스
몰에
무기
무니
무료
무엇
무한
문도
문의
물은
물자
물컵
미의
미카
미토
밀크
바구
바마
반값
반격
발달
밥맛
밥상
방법
배럴
배수
배인
백년
백채
버라
버린
버시
버킷
번스
법률
법원
베뉴
베리
베쿡
벤더
벨트
벼락
벽지
별도
별이
보송
보이
보전
보존
보치
보행
복의
본사
볼을
봉산
봉을
봉환
부도
부스
부천
부키
북부
분께
분사
분히
불꽃
불법
불안
불을
브르
브스
브에
블룸
비데
비비
빅딜
빌로
빙산
사과
ff
곡절
기여
등이
명예
모픽
사내
사명
사발
사실
사유
사카
산철
살이
삼겹
상여
상자
상호
새롬
색에
생물
생존
샤또
샤벳
샤오
샵은
서강
서기
서니
서동
서와
서현
석과
석에
석영
석의
선거
선대
선미
선용
선호
설탕
성체
성형
세단
세제
셀프
소녀
소확
손돕
손해
수근
수량
수백
수술
수질
수풀
수행
수협
숨에
숨을
숭아
쉬운
쉽다
슈어
슈즈
슈켄
스비
스틴
스한
슬란
승구
승연
시드
시백
시상
시와
신과
신속
신입
신호
실의
실현
심기
심도
심화
쌌다
썸머
쏘울
쑤성
아날
아냥
아드
아예
악한
알을
알의
알짜
알테
애로
액과
액인
앵글
야간
약과
약관
약국
양국
양성
양지
양회
어깨
어느
어인
억동
언제
얼마
업법
업일
엇이
었는
에그
에셋
엔씨
엘엘
여객
여건
여는
여러
여명
여전
역대
역사
연방
열식
엽을
영농
영사
영세
영숙
영의
영준
영채
영풍
영합
영화
예가
예스
오도
오랜
오면
오전
오지
오휘
옥동
온리
와야
와트
왔던
외부
요의
용접
우가
우다
우려
우면
우미
운을
운틴
움은
웅열
워서
원시
원조
원지
원청
월호
위도
위드
위크
위탁
유급
유명
유발
유엔
유한
윤종
융자
은성
은정
음과
음도
음의
읍에
응이
의사
이냐
이주
이츠
익대
인덱
인비
인환
일렛
일시
일요
일피
임자
입문
입법
입찢
입해
있을
자고
자사
자신
작을
잔을
장례
장외
재팬
재활
저감
저런
저로
저압
저울
적극
적은
적정
적지
적한
전날
전산
전장
전적
전형
절단
절로
절미
점가
점차
접수
접착
정말
정제
제공
제네
제별
제안
져도
조성
존스
졸업
종가
좋음
좌우
죄를
주거
주말
주목
줄을
중과
중대
중을
줬던
즈호
지갑
지개
지곤
지근
지배
지시
지혜
직불
직속
직의
직장
직화
진과
진기
진한
진회
질서
짐을
집밥
집은
집의
짓기
짧은
차기
차입
차저
착오
참가
창과
창립
창완
창재
채꽃
처와
천성
천식
철이
철호
첫째
청산
청약
청을
청주
체질
첸은
초고
초점
초코
촌을
총괄
총액
최신
최악
추면
축구
축산
축은
출고
출발
출혈
충제
츠러
치도
침이
카슈
카앤
카야
커머
커스
커튼
컬리
케터
켓을
코너
코디
콘덴
콩그
쾌한
크선
크티
크푸
클로
클링
키가
키친
킹을
타지
탁구
탄한
탈의
탔다
태그
터블
테마
텍과
토탈
통한
투갈
투시
투썸
투아
투입
트랙
트레
특수
틀이
티몰
티크
틱스
팀목
팅크
파리
파티
판과
팝업
팟을
패드
패딩
패피
팬톤
퍼는
펌의
페퍼
펙스
펙트
펜스
편에
편은
평로
평법
평화
폐수
폭력
폴로
푸른
풀림
풀무
품목
풍과
프랑
플랜
피부
피싱
피플
픽업
하강
하곤
하남
하냐
하듯
하반
하에
학습
학철
한규
한때
한번
한영
한지
할부
합을
해선
해줘
핵화
핸디
했는
행은
헤드
혈을
협과
협조
혜자
혜택
호의
홀과
화공
화성
환원
활을
황이
회다
회씩
회차
회할
후방
훈장
휴가
휴게
흑자
희영
히게
히자
히트
히티
(-6
(00
(08
(31
(33
(42
(5)
(57
(64
(69
(70
(74
(75
(78
(80
(88
(90
/05
012
114
13%
133
159
185
188
189
19%
190
198
1·2
20’
24%
253
256
264
287
336
363
380
397
4%(
422
430
48%
490
5’,
646
653
671
733
767
808
894
95%
98%
ADT
AGE
All
BIZ
BLM
BNK
CAC
CDR
CPO
CSP
CSR
CTO
Cal
DSR
EPS
EVE
GPU
GRS
HDC
HDI
IOC
ISH
KCC
LEI
LLE
MAX
MBA
MMR
NGA
NGO
NOx
ODC
OMC
OOK
PCE
PCS
PER
PET
PMI
ROA
SCM
SCO
SCR
SEM
SJD
SME
SPC
TOC
TSK
The
UHC
UST
VDC
WHO
act
age
alk
ant
ask
ast
ate
ays
ctr
fin
her
ken
lee
low
lut
mSv
omp
ood
ook
ool
ree
row
www
yst
~14
~2%
~31
~34
~4%
~80
“10
”14
##4,
##5·
##9%
##AT
##BP
##DC
##FR
##FS
##GW
##HS
##JC
##JX
##Lo
##NY
##PN
##‘0
##가기
##가드
##가려
##가릴
##가소
##가압
##가축
##가해
##간장
##간호
##갈라
##갈지
##갈치
##감산
##감압
##감액
##감전
##값은
##값이
##강진
##갚는
##갚지
##개국
##개는
##개만
##개악
##거울
##건네
##건넨
##건넬
##건더
##건도
##건지
##걷고
##걷는
##걷힐
##검수
##검은
##검정
##게이
##게재
##격상
##결실
##겸영
##경감
##경복
##경연
##경정
##경향
##계동
##계측
##고마
##고맙
##고생
##고흐
##곡물
##골몰
##골이
##곳만
##곳씩
##공중
##공터
##과다
##과반
##과실
##과육
##과테
##관객
##관중
##관통
##광구
##광진
##광학
##교실
##교차
##교착
##교훈
##구리
##구부
##구스
##구심
##구주
##구찌
##구형
##구획
##국군
##국면
##국비
##국빈
##국화
##군더
##군복
##굴욕
##권오
##권익
##귀결
##귀속
##그랑
##그를
##그릭
##글루
##금의
##금통
##기쁘
##기상
##기적
##기피
##길어
##김모
##김봉
##김상
##김신
##김에
##김연
##김윤
##김해
##깃발
##깔고
##깔아
##꼬일
##꼽는
##꼽힌
##꿈은
##꿋꿋
##끈적
##끌며
##끓여
##끝을
##끼어
##나고
##나기
##나돌
##나주
##낙수
##낙인
##날린
##날인
##남다
##남편
##낯선
##낯설
##낳는
##내국
##내도
##내며
##내역
##내열
##냈던
##넷째
##넷플
##노년
##노주
##녹용
##논리
##농무
##농민
##놓칠
##누르
##누리
##누비
##눈과
##눈은
##눈의
##뉴딜
##느는
##느린
##느슨
##늘기
##능가
##닐슨
##다도
##다뤄
##다를
##다방
##다싱
##다자
##다진
##단면
##단어
##단언
##단종
##단협
##닫아
##닫힘
##달과
##달도
##달래
##달만
##담가
##담그
##담길
##담을
##담지
##당정
##당한
##당황
##대다
##대단
##대두
##대모
##대손
##대안
##대졸
##대차
##대항
##대호
##더디
##던져
##덮친
##데서
##데일
##돌릴
##동상
##동종
##되나
##두게
##두둑
##둘이
##뒤척
##드리
##들게
##들썩
##등락
##등심
##디너
##디레
##디아
##디피
##딘이
##따낸
##따를
##딸이
##땀과
##땅을
##때를
##떠맡
##떡볶
##떴다
##또봇
##뚝심
##뚫린
##뜻에
##띠고
##라라
##랜섬
##런정
##로에
##로엠
##롭스
##루소
##류허
##리그
##리세
##리어
##리치
##립밤
##링둥
##마다
##마비
##마신
##마찰
##마쳤
##막론
##막막
##만료
##만찬
##말끔
##말만
##맛은
##맛의
##망가
##망원
##맞닿
##맞붙
##맞을
##맞췄
##매길
##매몰
##매운
##매화
##머신
##먹먹
##먹여
##멀다
##멈출
##멋진
##메타
##메트
##면책
##면치
##명과
##모디
##모순
##모의
##모친
##몰락
##몸담
##몸의
##무거
##무력
##무방
##무색
##무형
##문은
##묻은
##묻혀
##물결
##물도
##뭔지
##미러
##미룬
##미룰
##미비
##미쓰
##미혼
##믿지
##밀어
##바가
##바둑
##바빈
##바빠
##바셋
##바자
##바텍
##박물
##박재
##박종
##반년
##반전
##받던
##발명
##발왕
##발이
##발코
##밤을
##밥을
##방열
##방염
##방충
##방화
##배는
##배다
##배어
##배열
##배추
##버린
##버블
##버전
##버클
##버핏
##번식
##범일
##법리
##법한
##벙커
##베게
##변색
##변액
##변한
##변해
##별명
##병역
##병을
##보답
##보러
##보리
##보맵
##보송
##보온
##보좌
##보틀
##보헤
##복무
##복안
##본능
##본래
##본상
##본청
##부메
##부생
##부은
##부자
##분담
##분분
##분주
##불분
##불사
##붙을
##붙일
##브래
##브레
##비닐
##비약
##빈소
##빚고
##빚어
##빠르
##빠짐
##빼곡
##뼈를
##뽑는
##뽑은
##사서
##사익
##사천
##산다
##살게
##살며
##살피
##삶에
##삼청
##샀다
##상실
##상추
##생생
##생선
##생체
##샤워
##서구
##서너
##서는
##서던
##서면
##서종
##선뜻
##섬세
##성경
##성별
##성숙
##성찰
##세아
##세정
##센텀
##셈이
##소관
##소녀
##소동
##소리
##소수
##소집
##속을
##속한
##속해
##손경
##손오
##손짓
##손편
##손흥
##쇠락
##쇼룸
##수락
##수력
##수명
##수습
##수식
##수장
##수퍼
##수학
##수확
##순식
##술렁
##술에
##숨겨
##슈트
##스쿠
##스판
##스페
##습기
##시럽
##시무
##시발
##시선
##시인
##시초
##시켜
##시크
##식빵
##신도
##신라
##신성
##신약
##신춘
##실크
##심야
##쌀값
##쌀밥
##쌍문
##쌓을
##써달
##쓰게
##쓰인
##씀씀
##씨앗
##씻을
##씽큐
##아낄
##아삭
##악성
##안개
##안면
##안보
##안승
##안은
##안치
##알바
##앞뒤
##앞질
##애견
##애국
##애드
##애바
##애틀
##액체
##앤드
##앱의
##앱이
##앳홈
##야간
##야채
##양반
##양자
##양치
##어드
##어색
##어선
##어제
##얻기
##얼룩
##업데
##업력
##업주
##업태
##에비
##여권
##역행
##연고
##연소
##연탄
##열띤
##열은
##열이
##열흘
##염증
##엿볼
##영속
##예가
##예년
##예능
##예물
##예선
##옌지
##오존
##오직
##오찬
##오카
##오케
##오크
##옥수
##온열
##올이
##옴니
##옵션
##옷이
##왓슨
##왕복
##외의
##외투
##외할
##요람
##요령
##요르
##요약
##요일
##욕조
##용돈
##우애
##우여
##우회
##울진
##워런
##원로
##원피
##웹툰
##위태
##윌셔
##유광
##유권
##유대
##유보
##유부
##유한
##육수
##육체
##은상
##음향
##의인
##이갑
##이걸
##이광
##이근
##이길
##이너
##이누
##이득
##이룰
##이리
##이불
##이수
##이양
##이오
##이철
##익혀
##인공
##인명
##인삼
##인선
##인스
##인접
##인포
##일간
##일루
##잃지
##임블
##임산
##있죠
##잊어
##자라
##자랄
##자생
##자아
##자정
##자조
##자존
##자취
##자평
##작게
##작지
##잔디
##잘게
##잠깐
##잠들
##장갑
##장담
##장미
##장사
##장석
##장씩
##장의
##장인
##장중
##재가
##재벌
##재출
##재치
##재하
##쟁탈
##저리
##저온
##저해
##적도
##적응
##전엔
##절단
##절도
##점과
##접고
##정립
##정면
##정욱
##정을
##정쟁
##정주
##정태
##정품
##정휘
##제반
##제법
##조셉
##조이
##존스
##존엄
##졸속
##좁게
##종각
##종을
##좋기
##좌담
##좌지
##좌파
##주를
##주면
##주원
##주자
##주창
##주체
##주파
##줄의
##중식
##중재
##중징
##중화
##중후
##증식
##증자
##증폭
##지각
##지날
##지론
##지리
##지명
##지칭
##지킬
##진압
##질주
##집결
##집밥
##집업
##징후
##짜는
##쪽에
##찍는
##찍힌
##차린
##차림
##차액
##차장
##착한
##참관
##참숯
##창을
##창진
##찾게
##책의
##천식
##천체
##첨부
##체형
##쳤다
##초순
##촉매
##총액
##최민
##최성
##추려
##추상
##축이
##출석
##출제
##충주
##취직
##취하
##취해
##층에
##층의
##치는
##치밀
##칠곡
##칩의
##카네
##카멜
##카모
##카본
##카스
##카운
##캐논
##캐치
##캘러
##캡틴
##커플
##컨셉
##컬쳐
##컸던
##케임
##코미
##코아
##코어
##코픽
##콜손
##크라
##크롬
##클러
##타다
##타사
##타원
##탄소
##탄원
##탐구
##탐사
##탐색
##탓도
##탕감
##태그
##태백
##태영
##터널
##턱밑
##테슬
##토양
##토플
##통영
##통찰
##통치
##퇴출
##투기
##투매
##투병
##튀겨
##트렌
##트롬
##트인
##틀이
##티백
##티칭
##티켓
##틴트
##팀에
##파급
##파동
##파르
##파스
##파주
##파킹
##팍팍
##판독
##팔라
##팔릴
##패싱
##팬티
##팽배
##팽팽
##페르
##페퍼
##펜스
##편에
##편지
##평안
##평을
##폐사
##포용
##포지
##포집
##포천
##폭력
##폭은
##표한
##푸는
##푸짐
##푼다
##품귀
##품을
##풍토
##프랙
##플랩
##피곤
##피는
##피를
##피플
##픽스
##픽업
##필드
##하니
##하단
##하림
##하수
##하얀
##하청
##학업
##학원
##학자
##한결
##한목
##한복
##한종
##합법
##합세
##해가
##해답
##해리
##해마
##해방
##해수
##해안
##해에
##해이
##해인
##해임
##해적
##해촉
##해태
##햇무
##햇빛
##행시
##행안
##향수
##향에
##허탈
##혁파
##현민
##현시
##호박
##호세
##혼다
##혼수
##홈앤
##홍수
##환수
##환승
##환전
##회항
##횟수
##후기
##후디
##후방
##후인
##후임
##후폭
##후한
##휴식
##흔치
##흘려
##흘린
##흡착
##흥행
##희박
##흰색
##히터
##히팅
##힘쓸
##힘은
從價稅
가격도
가격의
가량은
가맹금
가스는
가에선
가와트
가지로
가지의
가치가
감동을
감으로
개가량
개국과
개꼴로
개발과
개발도
개사다
개선에
개월은
개정안
객에게
거래를
거름이
거리고
거푸집
건수는
건이다
경고등
경영진
계획이
고객에
고객이
고용을
골든듀
공모전
공업은
공유제
공정증
공제는
공제를
공학을
공화국
과도한
과장은
과정은
관계가
관리기
관리비
관리와
광고도
광공업
교수가
교수는
교육세
교육은
교환기
구원투
국가가
굿앤굿
권오갑
궤도에
규모의
그나마
그네틱
그래픽
그루를
그림자
그만큼
글래드
금속의
금속이
급기야
급식체
급여력
기간에
기계는
기계와
기보다
기부터
기술원
기투합
기프트
기획을
김광수
김승현
김없이
까지도
까지의
꽉찬속
나만의
나머지
나무가
남영전
났다는
내년에
내셔널
내용을
낸다는
네모닉
네이쳐
넥스원
년대에
년여에
년이며
년이면
년째를
노무현
노조법
노트를
농어업
누에어
누진제
느냐는
느냐에
는다고
니까요
니스톱
니스트
닛산은
다녔다
다르는
다이노
다이런
다이빙
다이야
단위를
단지는
당국에
당분간
대규모
대금의
대내외
대들이
대리점
대문로
대병원
대에게
대책을
대포장
대회에
대회인
더군요
더하기
데시벨
데이는
도날드
도로를
도서관
도스시
도호텔
독일의
독했다
동에서
되려면
되었다
두산과
들만의
들에겐
듭니다
등록을
등하게
떠먹는
라면에
라운지
라이는
라이온
라인은
라필드
래스를
러브미
러브참
러브콜
레디는
레스의
레스트
레이디
렉시블
렸지만
령에서
로나민
로서의
로스트
륜구동
르트를
리다가
리더스
리아이
리에는
리저브
리카락
마다앙
마이드
마이징
마이터
마켓은
막걸리
만원과
만원만
만원인
만큼을
말라야
망하는
매장을
매장이
매트는
먹었다
먼트를
메뉴를
메리츠
메이커
멘트는
멤버십
명꼴로
명시적
명이던
모간체
모든것
모에헤
목으로
목재를
목조목
무너진
무협에
문고는
문제의
물가는
미과즙
미국판
미스터
미역국
미토모
민정음
밀리오
밀키트
바이낸
바이저
박보검
받도록
밥콕은
방보험
방송을
방식도
방지턱
배에서
배전반
백종원
밸런스
버스가
번째로
베쿡은
변호사
별배송
보육원
보장성
보장형
보험과
보험이
복구를
본드를
부문은
부작용
부정적
북한의
분기는
분부터
분야를
분자주
불평등
뷰티의
브라질
비결은
비대면
비타의
사계절
사고로
사무용
사양도
사업단
사이즈
사진과
사처럼
사항에
사회를
산은은
삼성봇
상담을
상반기
상생과
상선은
상속법
상이다
상품권
상품의
상품인
상화를
상화한
새만금
새우의
생명에
생산량
서강대
서부터
서울코
선다는
설계를
설계사
성능이
성명을
성장과
세계로
세대가
세대는
세들은
세들이
세상을
세율이
세이던
세트를
세포라
센서와
셀로나
셰어링
소비가
소자로
소주와
소진공
소호방
소확행
속보치
손정의
수산부
수요가
수출이
숲으로
슈켄트
스리그
스마일
스크로
스타샷
스트리
스펜션
습관성
승급분
승무원
승용차
승인을
시간대
시뇨라
시면서
시설물
시장도
시장인
시트로
시험을
식물을
식품은
신격차
신도시
신라면
신뢰도
실장과
실적이
실하게
심기준
싹쓸이
쏘렌토
쓰레기
쓴소리
아동을
아무리
아버지
아오츠
아왔다
아울러
아이도
아이를
아이템
아이티
아침에
아토피
아티아
안에는
안전문
앉았다
알리오
약자의
얀트리
양에서
어냈다
언이다
엄마가
업종은
업체험
었다는
에게서
에프앤
엔비티
엔진이
엠그린
다
이
는
을
에
기
지
가
로
고
하
한
의
0
은
를
대
1
사
인
자
해
업
도
장
서
시
수
원
2
전
정
스
제
있
,
했
부
리
국
으
상
공
어
(
)
과
일
만
성
‘
’
아
비
라
보
주
년
계
소
회
조
금
중
적
등
위
경
3
나
들
산
5
동
화
개
세
용
면
트
신
드
유
“
”
내
구
선
문
관
게
품
4
출
진
체
차
미
연
와
그
%
할
매
영
것
분
터
행
발
9
6
모
7
재
간
난
달
통
생
여
마
명
안
니
8
점
최
우
오
반
표
력
단
설
월
치
현
무
입
요
운
방
실
·
직
데
식
억
노
된
며
올
거
작
프
크
물
까
려
었
급
준
강
바
브
역
건
S
당
야
투
포
러
양
임
협
청
C
증
말
호
디
타
판
합
감
각
결
후
처
속
배
때
피
추
예
융
카
본
심
외
규
되
열
능
두
더
종
확
르
약
랜
받
레
저
L
량
파
환
격
않
권
학
G
형
근
교
항
술
험
없
질
활
법
따
민
석
불
됐
평
I
래
초
록
온
울
음
책
창
율
D
커
티
함
코
룹
히
았
E
린
료
T
특
높
담
늘
른
획
토
A
번
총
목
삼
K
향
남
박
많
익
편
P
및
별
집
련
롯
김
벌
줄
플
복
B
O
태
던
축
채
객
너
~
습
버
였
키
페
테
맞
새
메
필
글
날
망
션
같
M
참
겠
졌
란
워
루
쟁
승
광
변
립
존
액
혁
육
베
엔
황
알
취
류
벤
케
순
절
접
께
천
네
손
패
든
론
e
효
률
렌
R
득
송
템
충
즈
곳
택
백
돼
블
V
m
농
돌
또
될
뒤
넘
측
센
F
애
n
a
람
털
략
U
N
령
독
못
팅
앞
족
밝
o
놓
검
럼
완
혔
친
런
침
균
핑
극
왔
례
움
응
잡
쇼
언
낮
뉴
퍼
△
먼
탈
좋
병
락
철
램
허
름
츠
텔
악
-
큰
폐
느
렸
징
.
t
착
탄
빠
폭
밀
범
견
찾
콘
살
길
갈
몰
갖
누
림
져
층
홍
걸
&
럽
막
째
핵
델
k
i
컨
클
g
쓰
끌
북
랑
r
캐
팔
펀
홈
엄
맛
쿠
휴
논
큼
색
머
씨
웨
겨
탁
H
돈
얼
잘
꾸
긴
맹
났
쪽
풍
떨
널
맥
c
릴
'
앙
냈
뿐
첫
J
뛰
쳐
힘
s
붙
폰
섰
캠
퇴
먹
낸
눈
링
춰
볼
봉
푸
W
/
h
쉽
납
군
념
d
꼽
팀
앤
u
꽃
희
놨
짜
쳤
딩
냐
빌
컴
y
답
십
골
척
폼
혜
얘
l
컬
뤄
싱
뱅
킨
핀
굴
넣
둔
맡
풀
닥
앱
닉
빈
솔
욱
칼
잠
턴
슈
끝
뜻
압
슬
춘
숙
첨
덕
밥
염
암
탕
랐
찰
▷
랫
흥
얻
웃
헌
끼
팡
갔
냉
셔
윤
렉
잔
씩
폴
놀
맺
욕
촉
틀
잇
찬
콜
좌
혼
힌
롭
벽
엘
값
렇
셀
셜
틱
즐
킹
뢰
훈
깨
넷
녀
켜
떠
봤
랙
밖
춤
켓
p
싸
웠
넓
빅
텍
릭
젝
슷
왼
빨
젊
칭
둘
혀
낙
봇
뷰
엑
죽
=
쇄
칙
틸
닌
렵
큐
귀
갑
뜨
겪
"
돕
싶
쌓
+
텐
님
췄
톤
Q
X
겼
즘
?
칠
렴
싼
옷
벅
퓨
떤
멘
럴
몇
봄
덧
흐
흡
w
떻
팬
꺼
낼
럭
셉
탑
쏟
휘
옥
몬
펼
흑
깊
졸
@
b
꿈
뿌
젤
겸
쌀
촌
곡
뀌
멀
빙
낌
섭
탓
써
엇
줬
롱
캔
홀
냥
찍
흔
듯
릿
녹
봐
섬
킷
픽
괄
긍
떼
왕
즉
콤
헤
뚜
튼
곧
눔
롤
룸
벨
웅
끗
쓸
칩
팹
넥
몸
빛
웰
벗
튜
팎
팩
헬
곤
섯
쉬
슨
썸
톡
겁
맨
덜
눠
멤
컵
펴
■
걱
빼
짐
퀄
늦
닫
켰
f
꼬
끈
밑
혈
훨
멜
샌
꿔
셈
씬
엠
짓
촬
컸
듣
삶
샘
즌
흘
븐
셰
뮤
쏘
쓴
갤
뒷
짝
팝
Y
끄
닭
랩
킬
힐
→
꿨
옮
왜
죠
콩
톱
깔
꼼
펜
혹
궁
듭
묻
밸
샵
듀
딜
믿
덴
렛
뽑
챔
닛
닝
:
겹
맘
줘
픈
깃
꿀
낄
셨
괴
뒀
듈
롬
샤
옛
잉
좀
빚
캡
겐
굳
끊
쪼
듬
렀
숍
햇
닐
둥
멈
밤
솥
썼
v
닷
쏠
좁
넉
밍
벼
볶
빔
잃
젠
냄
룩
찌
칸
쿼
탐
늬
똑
삭
윈
쾌
쿨
텀
땅
랄
몽
믹
읽
틴
꼭
낚
덮
묵
숨
캄
걷
렬
맵
벚
솜
앉
얇
웍
쥬
딸
밭
솟
故
랭
셋
톨
틈
팰
펫
띄
밴
빗
쉐
즙
챙
첼
휠
脫
녁
룬
묶
쁜
짧
쩍
턱
튀
핸
j
깎
봅
슐
탠
뀐
땀
숫
엽
깝
끔
딱
륙
붐
빵
쿄
퀴
팽
퐁
혐
Z
갚
곰
굿
뇨
닿
덩
륨
므
샐
옆
!
▶
깜
멕
죄
쯤
《
》
낳
뇌
늄
떡
렁
룰
>
곱
꾼
넨
딘
뚫
뤘
밟
붕
셧
쇠
쌍
웹
찮
컷
펙
훌
훼
x
○
껑
꼴
뀔
돋
섞
앵
첸
횡
<
낀
땐
뜩
랍
릉
쁘
씀
옵
캘
쿡
퉈
핏
對
겉
눌
둬
멸
뭐
볍
삐
슴
싹
씽
앨
켄
탱
햄
∼
껌
낭
뉜
뚝
렷
멋
몫
뮬
잎
핫
헨
괜
껴
꾀
놔
잊
펑
‧
녔
덤
뎀
뭔
숲
앗
얹
옌
옴
웬
챗
첩
촘
깐
꺾
낡
돔
됩
룡
륜
릇
뷔
앓
얀
얏
윗
짠
콕
큘
탔
튬
흰
國
껏
됨
믈
숭
잦
팁
팜
펠
딧
랬
숯
썹
찢
팻
펌
퓰
휩
兆
家
發
굵
긁
꼈
꽂
꽤
끓
넬
녕
댓
뜯
뜰
멍
몄
뼈
엉
윌
쥐
짤
칫
캉
퀀
퀘
툼
푼
횟
中
稅
親
非
곁
귤
긋
꽉
낫
눴
닦
덱
딪
딴
띤
맑
묘
벳
뺀
뿜
쁨
샴
섹
싣
젖
쯔
츄
켈
켤
팟
μ
ᄋ
報
車
輸
걀
굽
궤
낯
늠
덟
딥
뛸
뜬
띠
륭
밋
붓
샷
싫
쌈
씹
잖
짚
챌
촨
톰
툭
팍
펄
펭
q
▲
勞
美
送
갓
겔
굉
깍
낵
넛
둑
떴
뛴
랏
뭘
뱃
붉
삽
샀
쉴
쏙
씻
앳
얄
엣
윙
읍
젬
찜
찻
컫
콧
탬
펩
픔
홉
흠
흩
無
社
行
韓
곽
궐
꿋
낱
넴
뜸
띈
렐
멧
벙
쇳
썬
쑤
쓱
엎
왈
잣
킥
탭
툰
헐
흙
z
×
州
强
從
新
業
茶
逆
갇
갱
궈
귄
껍
꿰
낍
놈
뉘
닙
댄
딤
랴
릅
맙
뭉
빽
숱
쌌
썩
쑥
쓩
앰
엌
엿
옐
왓
잼
줍
짙
쭉
킴
틔
푹
헝
#
α
ᄌ
ᄏ
ᄒ
♣
不
價
同
春
水
産
進
酒
갯
굣
깅
깡
깬
냠
